#version: 0.2
a r
e r
a n
i n
t h
t i
e n
o s
th e</w>
a p
a l
a n</w>
r e
i l
o n
i n</w>
d e
ap os
& apos
o r
i s
a s
t e
m e
ı n
l a
u n
l e
o t
o n</w>
u r
o l
&apos ;</w>
q u
m a
qu ot
quot ;</w>
& quot;</w>
b i
v e</w>
d a</w>
r o
o r</w>
l i
t o</w>
o f</w>
d i
a k
in g</w>
d e</w>
an d</w>
a t
u l
s e
e r</w>
i t
s t
o v
l ar
s a
ı n</w>
g e
l er
r a
c e
a l</w>
k e
r i
h a
b e
s i
d a
n e
c o
o p
i s</w>
a t</w>
bi r</w>
a ti
ı r
b a
y e
c e</w>
en t</w>
a c
ı l
u s
a y
e n</w>
@ -
@- @</w>
e s</w>
ü n
e d</w>
l e</w>
f or</w>
p ro
i c
a k</w>
is t
u m
d i</w>
y a</w>
m e</w>
o u
e t
k i</w>
ın da</w>
p ar
y or</w>
m i
a s</w>
&apos ;
e s
a b
e k
c on
d ı
a m
d u
t er
ba ş
g ö
&apos; s</w>
d an</w>
in i</w>
a r</w>
s u
in e</w>
k ar
i m
c i
l an
ın ı</w>
ti on</w>
m as
th at</w>
r u
la r</w>
te d</w>
a d
a v
ü r
ü z
l y</w>
t s</w>
h i
v er
& #
&# 9
i ş
s er
ü l
th e
t ur
k os
re s
de n</w>
i r
u n</w>
i y
m an
m ent</w>
i ç
w h
e l
f or
c h
m in
a z
kos ov
e ur
s i</w>
b u</w>
l ı
p e
l a</w>
i a</w>
te r</w>
a g
a f
l o
w it
n o
s ır
co m
i t</w>
in in</w>
wit h</w>
k on
v i
ler i</w>
on s</w>
d o
t i</w>
me s</w>
b ul
in de</w>
u t
ati on</w>
i d</w>
y ap
ğ ı</w>
m a</w>
l u
i ti
b y</w>
ğ i</w>
t ar
ın a</w>
l i</w>
ö n
iç in</w>
g er
er e</w>
b u
lar ı</w>
t r
b il
ist an</w>
ak i</w>
g i
2 0
le r</w>
s ö
p ol
t ı
k an
b e</w>
w il
sa id</w>
i ̇
bi r
ın ın</w>
g ü
t e</w>
t a
wil l</w>
p or
co un
ü k
d er
a ç
d ı</w>
il e</w>
gö r
e v
s o
e x
b ak
it y</w>
ti mes</w>
d aki</w>
ar e</w>
g ra
m il
la ş
l en
da y</w>
s t</w>
as t</w>
b er
t h</w>
eur op
g ün
k o
s on
m o
n i
al ar
h e
h o
m en
ın dan</w>
- -</w>
y e</w>
b an
m on
il er
f f
h e</w>
d on
mas ı</w>
t o
du ğ
ha s</w>
ı ş
ser bi
20 0
at e</w>
g en
i r</w>
e l</w>
1 ;</w>
&#9 1;</w>
3 ;</w>
&#9 3;</w>
de v
p ri
as ı</w>
y ar
ı k
t y</w>
p re
ro m</w>
i c</w>
ti r
g h
ı s
ha ve</w>
f rom</w>
e an</w>
n in</w>
ul d</w>
d ing</w>
d en
ö ne
m ar
on al</w>
de ki</w>
e k</w>
t ri
m is
b o
y ıl
c a
b ü
a b</w>
europ ean</w>
w e
be l
u ş
y as
e u</w>
er s</w>
t a</w>
t ür
b er</w>
de r</w>
ar ak</w>
w as</w>
g ar
k ur
sö y
ğ ini</w>
ov er
d ur
un u</w>
n ın</w>
no t</w>
li k</w>
d s</w>
kosov o</w>
ı m
s te
p er
c ak</w>
ü ş
ol duğ
l ı</w>
a da
h al
a ş
ru p
k il
k en
as ında</w>
i an</w>
it s</w>
y en
d il
in ter
bak an
v e
baş kan
y an
ül ke
ti ons</w>
th er</w>
t u
ı y
g u
ç o
ma k</w>
gün ü</w>
p os
ğ ını</w>
sır b
i ç</w>
kosov a</w>
ö l
sırb istan</w>
th is</w>
s o</w>
s ti
n ati
h a</w>
t op
b os
w or
m u
t ü
c um
me si</w>
e c
s or
lar ın</w>
i k
b r
ge ç
t ra
ol arak</w>
li k
söy le
s ou
y ı
in c
n a
p r
ö r
k at
un da</w>
t en
is ter</w>
kar ş
ü k</w>
i m</w>
f o
c h</w>
k al
min ister</w>
le ş
f a
in a</w>
ı k</w>
c u
serbi a</w>
ye t
bul gar
bel gra
e m
ol an</w>
ı yor</w>
d u</w>
g over
ou t</w>
u y
e ce
tr y</w>
par ti
gover n
ö z
da ha</w>
de d</w>
ü re
ro man
f i
ük ü
g e</w>
e t</w>
d is
me s
c al</w>
p u
te m
b as
c or
b al
1 9
s an
iy e</w>
w o
de ğ
y er
k ay
ma k
ce s
me m
sou the
a m</w>
t al
g re
p o
av rup
ar y</w>
m ü
southe ast</w>
pol iti
bul un
p res
ler in</w>
h ükü
f in
t ı</w>
o s</w>
y on
nati onal</w>
t ak
sa v
v en
o ff
u z
al ı</w>
bü y
coun try</w>
lı k</w>
de di</w>
bos n
hükü me
la y
b öl
al so</w>
be li
c ro
ge s</w>
govern ment</w>
ic h</w>
k s</w>
w e</w>
0 0</w>
ü ye
i z
e le
y o
başkan ı</w>
avrup a</w>
b un
h er
wh ich</w>
c a</w>
ne w</w>
ag re
se times</w>
on e</w>
yen i</w>
1 0</w>
t an
söyle di</w>
g il
k a</w>
h ır
g r
al l</w>
tar af
d üz
a ğ
sa y
ce s</w>
ma ke
bu t</w>
y i</w>
the ir</w>
y un
y ak
me k</w>
ın daki</w>
o mi
y le</w>
i g
ke y</w>
i yor</w>
hır v
me n</w>
c ri
op er
ı z
d ent</w>
ar n
u s</w>
ma ce
in den</w>
si on</w>
an laş
se ç
h is</w>
di ği</w>
tür k
p lan
f ir
mace don
son r
h ur
ı ş</w>
g o
ı m</w>
y on</w>
ma y
an a</w>
sa ğ
an s
h ar
cro ati
do ğ
na to</w>
m i</w>
por t</w>
de mo
t ing</w>
kon us
u p</w>
te s</w>
v is
se c
the y</w>
a y</w>
ye ar</w>
pre si
st er
f e
al ban
j o
te n</w>
b or
hi p</w>
ic i
wo uld</w>
a u
cum hur
ma ya</w>
türk iye</w>
1 1</w>
bakan ı</w>
s p
m or
i h
en ce</w>
m s</w>
ler ini</w>
ol d</w>
st an
arn av
ç ek
dı ğı</w>
ç al
u m</w>
lar ını</w>
ke n</w>
y or
re for
ger ek
ço k</w>
e y
com m
a d</w>
k ov
s on</w>
beli r
o la
t w
is i</w>
gör e</w>
m al
di ğ
com p
is e</w>
i ki</w>
g h</w>
kat ıl
m alar
be en</w>
y ol
ou r</w>
y er</w>
di r
gh t</w>
olduğ unu</w>
pe c
sır p</w>
s in
o ther</w>
s üre
b ar
s ho
c en
ter s</w>
si yas
li ği</w>
un i
çal ış
i l</w>
y aş
l ü
ıy la</w>
tur key</w>
h ak
m an</w>
e dil
ge l
lu k</w>
aç ık
e con
v o
19 9
ac ak</w>
ek on
tw o</w>
m er
g an
ar ası</w>
le d</w>
ab il
pro j
is h</w>
f u
an s</w>
be t
w ere</w>
mor e</w>
ba ğ
inter national</w>
s ür
a ma
bi h</w>
c o</w>
ul us
m üz
y üz
al ly</w>
is t</w>
al s</w>
d ar
c ar
ler inin</w>
ge le
ha ber
on g</w>
make don
l u</w>
os t</w>
c tion</w>
ati ons</w>
s e</w>
p az
h er</w>
tri es</w>
ic a</w>
su ç
ar asında</w>
ha z
is ti
taraf ından</w>
t ır
coun tries</w>
tı ğı</w>
p en
düz en
ulus lar
büy ük</w>
pu b
gö re
öne m
se k</w>
se d</w>
i ce</w>
uluslar arası</w>
te si</w>
y öne
s ki</w>
f er
ti n</w>
makedon ya</w>
y at
dı ş
il gil
wh o</w>
af ter</w>
yı l</w>
i ma
er e
ig n</w>
presi dent</w>
an ce</w>
st a
b i</w>
me di
es ti
r en
ci al</w>
de f
b h</w>
p la
1 2</w>
w ar
k ada
li ğ
ou s</w>
ler ine</w>
w n</w>
iti es</w>
de ste
gö ster
in g
dev am</w>
pri me</w>
si g
ı z</w>
yar dı
c y</w>
e f
lar ının</w>
k ul
g ro
böl ge
re gi
et ti</w>
al an
su p
k t
gü ven
h el
v ar
serbi an</w>
or gan
gör üş
st an</w>
t ut
tur e</w>
ilgil i</w>
al t
us t</w>
or t
yet kil
ler e</w>
arnav ut
k ap
kada r</w>
la dı</w>
ş ek
lar a</w>
s il
f il
ce d</w>
fo re
be k
e di
w s</w>
macedon ia</w>
il er</w>
d üş
ov er</w>
c an</w>
hırv ati
hırvati stan</w>
us e</w>
ul u
st ate</w>
d ır
ac cor
sö z
yap ıl
c an
politi cal</w>
me k
belgra de</w>
s ur
p lo
se l</w>
ce k</w>
min ist
c l
k o</w>
ne d</w>
ti c</w>
k ra
os e</w>
an cak</w>
c ı</w>
üz er
a h
re c
iler i</w>
ay r
me r</w>
is te
diğ er</w>
s ar
con t
k u
i k</w>
siyas i</w>
e y</w>
re s</w>
k e</w>
e ş
ı la
z am
ab le</w>
se l
ma h
li c</w>
ger çek
belgra d</w>
ov iç</w>
mer ke
ma da</w>
ön ün
d ün
ge t
th ere</w>
pe op
bosn a</w>
ay a</w>
es t</w>
ab out</w>
k ı
s un
ar s</w>
ye n</w>
w i
k r
s ol
par ty</w>
or s</w>
croati a</w>
yap tığı</w>
kon uş
ü n</w>
ge li
men ts</w>
li am
c r
off ici
dı ğını</w>
re e</w>
me ye</w>
fore ign</w>
peop le</w>
dev le
i v
wh ile</w>
mem ber
e ce</w>
inc lu
c u</w>
k ab
s ch
0 9</w>
ov ic</w>
fir st</w>
f az
ten e
accor ding</w>
konus unda</w>
tur k
t old</w>
g a
arnavut luk</w>
mon tene
ima ges</w>
montene gr
c k</w>
k an</w>
es ki</w>
get ty</w>
c ul
üz ere</w>
w el
f r
s en
ac a
kar ar
l ast</w>
ge d</w>
kar ada
i d
m y</w>
0 5</w>
ele c
0 7</w>
eur os</w>
is su
j u
un d</w>
0 6</w>
en er
d ür
turk ish</w>
i z</w>
açık la
ken in</w>
th an</w>
un a</w>
s hip</w>
me d</w>
s day</w>
dur ing</w>
ül kenin</w>
par liam
bak an</w>
re u
e ment</w>
am p
leş tir
reu ters</w>
gen er
0 4</w>
un un</w>
0 8</w>
0 3</w>
mas ına</w>
i on</w>
s pe
ü s
m ış</w>
econ omi
te s
mas ını</w>
t ti</w>
is ed</w>
mah ke
iy le</w>
ag a
ab d</w>
olduğ u</w>
y ük
av r
iş leri</w>
re d</w>
af p</w>
k or
ge tir
sti tu
ece k</w>
an istan</w>
k ing</w>
lı ğı</w>
in deki</w>
kur ul
lar ına</w>
ol o
im p
an y</w>
j an
karada ğ</w>
c re
g i</w>
u l</w>
oper ation</w>
bulgar istan</w>
ıs ı</w>
as e</w>
ye ars</w>
on ly</w>
we en</w>
bet ween</w>
cumhur başkanı</w>
önem li</w>
ler de</w>
c ra
mil yon</w>
mi ş</w>
pres en
v es</w>
u yor</w>
le g
i tion</w>
pro gra
dur um
n e</w>
il iş
en s</w>
ch an
ag e</w>
da v
paz ar
uş tur
te le
karş ı</w>
k a
s y
2 0</w>
pub lic</w>
g az
economi c</w>
sec ur
ces s</w>
sonr a</w>
i es</w>
c al
a p</w>
k az
ç ık
c i</w>
0 00</w>
sa l</w>
m ost</w>
t ly</w>
iş bir
i f</w>
s at
ç ı
yun anistan</w>
s al
baş la
il k</w>
roman ya</w>
dı r</w>
c er
b m</w>
n o</w>
z e
yak laş
gi bi</w>
ev er</w>
p on
so me</w>
st at
p er</w>
iy i</w>
ti me</w>
li der
par t</w>
kul lan
r y</w>
d ra
in v
ç ağ
co ur
k iş
alban ia</w>
z or
müz ak
k as
sho uld</w>
st ra
ma y</w>
i mi
st ru
no w</w>
bulgar ia</w>
faz la</w>
r us
ekon omi
a ş</w>
k ü
may ı</w>
hak k
an t</w>
g y</w>
montenegr o</w>
bal kan
man y</w>
değ iş
t or</w>
for mer</w>
ha d</w>
wor l
ch ar
du c
o b
de c
ex pec
progra m
re ce
lik te</w>
y al
haber i</w>
lo w
seç im
ha f
r ap
comm un
in es
gen el</w>
la v</w>
son u
merke z
ye t</w>
o d</w>
pol ice</w>
tal ks</w>
me t</w>
mis sion</w>
len en</w>
in st</w>
aga inst</w>
yon u</w>
at ing</w>
in de
ro u
y ay
v ed</w>
b le</w>
b us
f t</w>
a j
f ak
ı r</w>
yüz de</w>
k er
agre ement</w>
ö yle</w>
p l
ti es</w>
f esti
un der</w>
worl d</w>
s a</w>
a ted</w>
en d</w>
u z</w>
yıl ında</w>
f ac
lı ğ
ver diği</w>
roman ia</w>
ov ina</w>
festi v
l ü</w>
s ın
ke d</w>
secur ity</w>
h an
ler inde</w>
ül ke</w>
le me</w>
demo cra
it e</w>
kaz an
ni k</w>
top lan
kab ul</w>
e st
n or
b ur
ver il
y u
co me</w>
ekonomi k</w>
c ur
gre ece</w>
ba z
ti k</w>
n un</w>
o y
şek il
yardı m
n ov
z iy
d ne
y önün
ho w
how ever</w>
a da</w>
ü yor</w>
göre v
, 000</w>
w ar</w>
b lo
d in
ti ğini</w>
g ru
le t
di k
du y
ko m
ş im
1 5</w>
ti ve</w>
wi th
co uld</w>
is h
e ğ
in di
bal kan</w>
wor k</w>
i ş</w>
şekil de</w>
d o</w>
gener al</w>
c y
devle t</w>
say s</w>
yat ır
bir likte</w>
ke t</w>
c t</w>
au th
gü ç
m la
europ e</w>
ol mak</w>
ziy ar
ar t
j i</w>
th ree</w>
m it
lar ında</w>
de ce
ç öz
st o
proj ec
re la
ol ma
wel l</w>
g os
ön ce</w>
re presen
pro te
me et
de me
as h
u k</w>
dev el
pr os
n ak
tar ih
çı kar
m p
iliş k
r an
s l
b en
tür k</w>
re por
w ay</w>
s h
s s</w>
k ıs
dış işleri</w>
d an
b a</w>
di ğini</w>
parliam ent</w>
k ö
baş bakan</w>
b le
so ci
h as
k ol
l ing</w>
ca de
sup port</w>
e vi
ıl ı
or ities</w>
be ca
ş ir
le ad
müzak ere
ü ç</w>
3 0</w>
me v
ha t</w>
gu la
d ü
cont in
ar ş
t on</w>
b in</w>
g or
sin ce</w>
sa hip</w>
di ç</w>
in to</w>
sav aş</w>
u t</w>
ko mis
d on</w>
iç inde</w>
len dir
ro l</w>
di r</w>
ün ü</w>
wh en</w>
da ş
a der</w>
in te
al ın
o k</w>
sor un
j a</w>
im z
p et
n ing</w>
re n</w>
da y
ti c
di c</w>
sonr asında</w>
st r
yük sek</w>
res s</w>
or an
ist s</w>
güven lik</w>
tü n</w>
yaklaş ık</w>
g an</w>
i̇ n
t un
lar da</w>
ke t
iler in</w>
so f
t ati
men t
contin u
pro cess</w>
regi on</w>
te k
bağ ım
n um
ıy or
c ent</w>
se s</w>
mon day</w>
v ing</w>
p s</w>
su ch</w>
croati an</w>
yu gos
is m</w>
edi yor</w>
ekon o
ing s</w>
devel op
bus ines
ne ws</w>
den ce</w>
pazar tesi</w>
ar ly</w>
zam an
k ları</w>
geç en</w>
la w</w>
tar y</w>
offici als</w>
the m</w>
yapıl an</w>
ve ya</w>
inde pen
üzer inde</w>
mes ine</w>
ver y</w>
tr ans
uy g
deste k
gre ek</w>
j e</w>
5 0</w>
sağ la
um lu</w>
o v</w>
k am
i p</w>
o c
c us
l in
sav un
i p
alban ian</w>
ı t
ar tı
ş öyle</w>
stan dar
im por
gerçek leş
refor m
bosn ia</w>
ol du</w>
lan an</w>
pro ble
ci p
th er
her sek</w>
di plo
p op
gele n</w>
sl ov
hüküme t</w>
ag en
inc i</w>
n a</w>
f ol
k re
is ation</w>
kı br
at an
i ra
sta tes</w>
bağım s
mes ini</w>
mü cade
e ff
ço ğ
değ il</w>
f ul
pos ition</w>
meet ing</w>
z e</w>
s inin</w>
re port</w>
p as
hırv at</w>
f ar
top l
haf ta</w>
ve st
sö z</w>
açıkla mada</w>
p h
or y</w>
malar ı</w>
bun un</w>
z agre
2 5</w>
kay de
t ine</w>
in vest
c ap
k ül
ay ında</w>
yo l</w>
gaz e
en ti
di rec
stra te
mi r</w>
e v</w>
ma in
haz ır
her ze
ma j
par la
l l</w>
v an
ayr ı
1 7</w>
ı s</w>
herze g
il y</w>
i ous</w>
pol is</w>
e u
herzeg ovina</w>
beca use</w>
bü tün</w>
in s
n ı</w>
a th
y ı</w>
d ön
büy ü
0 2</w>
mem ber</w>
ul ar
or ity</w>
tem sil
ban k</w>
as ker
t as
ge t</w>
kar a</w>
ç te</w>
b ot
baş bakanı</w>
ama ç
mi ş
dil er</w>
an al
k aç
c ı
ü m
ta ma
inc re
b s</w>
a z</w>
fak at</w>
inclu ding</w>
a dı
tr e</w>
re ad
et k
c le
kıbr ıs</w>
he ad</w>
refor m</w>
gü n</w>
ou gh</w>
h ol
a de
ci l</w>
imi z</w>
c hi
v en</w>
mil it
ti ği</w>
rap or
baş ar
we dne
al i
ç arş
member s</w>
macedon ian</w>
wedne sday</w>
i den</w>
geli ş
0 1</w>
1 3</w>
th ose</w>
v ot
r ul
gü ne
elec tions</w>
ist ina</w>
çarş am
ma in</w>
st ar
l s</w>
çarşam ba</w>
t an</w>
b at
r e</w>
e den</w>
kay nak
ti ğ
w hat</w>
ler inden</w>
th es
v ar</w>
st ri
for e</w>
ayrı ca</w>
vi e
o f
la v
öz el</w>
lo cal</w>
bu il
par t
dec is
ıla cak</w>
ta ş
kur um
r ol
d al
ih ti
c ha
belir tti</w>
su z
cri mes</w>
auth orities</w>
man ın</w>
represen tati
coun cil</w>
as ındaki</w>
fin an
in stitu
ar e
th rou
pro f
li on</w>
aca ğını</w>
yer el</w>
mas ının</w>
m ust</w>
gu e</w>
hal k
ç ab
avr o</w>
democra tic</w>
u k
ti z
t re
le s</w>
expec ted</w>
res pon
impor tan
lı k
alar ı</w>
üye lik</w>
es i</w>
bir i</w>
ti onal</w>
pe a
karş ı
bek len
s he</w>
demo kra
an d
topl um
işbir liği</w>
econ o
di ff
mon th</w>
ne t</w>
tu es
ay nı</w>
tues day</w>
ac h</w>
in t</w>
re qu
an no
pr istina</w>
ru s</w>
ger i</w>
eş it
ör gü
ma de</w>
hi gh</w>
am ong</w>
r os
dün ya</w>
ir an</w>
me yi</w>
anno un
go ti
tü r</w>
200 4</w>
ge or
s alı</w>
yer ek</w>
düzen lenen</w>
s um
m ov
ön ce
ö ğ
ci tiz
we ek</w>
ne goti
v atan
s k
x t</w>
pri ş
eur o</w>
gel di</w>
ulu sal</w>
k ri
h u
sa hi
an kara</w>
t ü</w>
gro up</w>
1 6</w>
yöne lik</w>
m ber</w>
f un
v et
toplan tı
tak e</w>
ni kol
h at
u tion</w>
po w
hi m</w>
ef for
e f</w>
f e</w>
1 4</w>
le v
sır a</w>
gi ri
in ed</w>
bu l</w>
de s</w>
baz ı</w>
yay ın
v ur
al ıyor</w>
d ör
ş u</w>
ap pro
si ble</w>
u st
yer ine</w>
le n</w>
sa y</w>
bot h</w>
y ür
te d
gra tion</w>
bil ir</w>
imp le
im f</w>
f ri
do wn</w>
thes e</w>
yöne ti
cour t</w>
priş tine</w>
ç i</w>
yor lar</w>
k uz
görüş me
süre c
zagre b</w>
diplo ma
il i
deme çte</w>
lar dan</w>
be fore</w>
v er</w>
ne den
j un
in ş
al ık</w>
busines s</w>
minist ry</w>
kon se
ser b</w>
ay ı</w>
lü ğ
ön er
he def
k ad
c ısı</w>
milit ary</w>
hakk ında</w>
te ki</w>
kt ör
d y</w>
st s</w>
member ship</w>
la m
ver di</w>
l ish
g ress</w>
ç ev
id di
pro vi
ti car
n is
uy gula
t ro
ıl ması</w>
y az
le di</w>
sy ste
comm it
ce p
ye ti</w>
issu e</w>
te ş
lo w</w>
1 8</w>
li s</w>
te k</w>
yol suz
yen iden</w>
konus u</w>
ra d
yönün de</w>
projec t</w>
ç eşit
parti si</w>
ban k
ıl an</w>
fu ture</w>
d ate</w>
num ber</w>
yan a</w>
pe k</w>
p ut
fil m</w>
ce z
e th
bü t
p at
ces sion</w>
la tion</w>
b ri
c as
yan ı</w>
am a</w>
kar ar</w>
yardı m</w>
2 7</w>
gh ts</w>
d j
rus si
ar asındaki</w>
öz el
ma yı
sti ll</w>
medi a</w>
wh ere</w>
res ul
ler den</w>
yar g
üye si</w>
dı lar</w>
dis cus
in san
ter r
be ing</w>
kar ad
b ro
iş le
paz ar</w>
cor rup
al an</w>
p ap
vatan daş
gerek tiğini</w>
bos ni
değ er
war ds</w>
u laş
z i</w>
bil dir
ne xt</w>
ort ak</w>
f ic
parti es</w>
i̇ s
ece ğini</w>
mar ch</w>
develop ment</w>
cu t</w>
slov en
temsil c
fol low
en ts</w>
read y</w>
ener ji</w>
g o</w>
vis it</w>
m os
eğ iti
uz un</w>
si z</w>
ol uştur
al i</w>
bulgar ian</w>
gör ül
throu gh</w>
al dı</w>
pl an</w>
op en
mar t</w>
com mission</w>
hüküme ti</w>
t ac
g ar</w>
ur ces</w>
st u
men in</w>
200 7</w>
d ü</w>
arnav ut</w>
to ur
konuş an</w>
jun e</w>
ex per
p a
h op
un der
s os
citiz ens</w>
st abil
ş em
ün ün</w>
pro gress</w>
oc to
n u
mi k</w>
octo ber</w>
lar ından</w>
gele ce
ener gy</w>
ola cak</w>
ul an
tri bun
sa de
ou t
c ity</w>
ke s
d p</w>
ev o</w>
düş ün
inte gration</w>
uni on</w>
sade ce</w>
s ı
th ur
mayı s</w>
lu ğ
ek im</w>
har e
te h
gö z
li yor</w>
con cer
lead ers</w>
me d
c ü</w>
thur sday</w>
s it
pla ce</w>
ıl ık</w>
lu k
haz iran</w>
be st</w>
2 1</w>
p ot
başla t
dece mber</w>
decis ion</w>
z an
ken t
sig ned</w>
per şem
d r
corrup tion</w>
perşem be</w>
çeşit li</w>
sa m
se ver
di ye</w>
hüküme t
cen tre</w>
ov a</w>
lik le</w>
ur e</w>
sonu ç
200 8</w>
cumhur i
çağ r
tü m</w>
tut uk
yo u</w>
2 4</w>
ar alık</w>
sür dür
h um
. .</w>
c ol
parti cip
lay an</w>
comp any</w>
hi gh
su b
stat us</w>
mon th
i fa
im pro
kov iç</w>
pri v
es cu</w>
u ary</w>
jan uary</w>
i ans</w>
ye ce
est ab
u res</w>
pros ec
ş e
par ti</w>
b at</w>
o cak</w>
lar ge
b ra
hel d</w>
ha v
&apos; t</w>
hüküme tin</w>
amaç lı</w>
ım ı</w>
di yen</w>
on ay
con stitu
prof es
balkan s</w>
dı ğ
duğ u</w>
h ap
s ka</w>
söy lü
ic ty</w>
refor ms</w>
se e</w>
ul y</w>
ot o
ver s
far k
kov ski</w>
r ak
an ay
g er</w>
agen cy</w>
bağıms ız
chi ef</w>
make don</w>
ıs ından</w>
z ar
ma l</w>
announ ced</w>
importan t</w>
si z
anlaş ma</w>
roman ian</w>
ri l</w>
doğ u</w>
as yon
festiv al</w>
ac cession</w>
ar tır
2 2</w>
re fer
d de
me si
rela tions</w>
. ..</w>
tı r</w>
mu z</w>
bulun du</w>
ar aya</w>
l ong</w>
n olo
m ış
deste k</w>
comp le
an ts</w>
r is
kap sam
con stru
bas ed</w>
la m</w>
ş u
tar tı
e de
pol ic
s ing</w>
in an
dör t</w>
yaş an
indi c
tartı ş
mücade le</w>
ler le</w>
1 9</w>
kü p</w>
200 6</w>
s inde</w>
pow er</w>
il e
sa yı
say ing</w>
yetkil iler</w>
sk op
le ader</w>
econo my</w>
em ber</w>
ol du
ma z
j us
yugos lav
institu tions</w>
lar la</w>
nov ember</w>
me as
se ktör
2 3</w>
w on</w>
j uly</w>
vie w</w>
2 8</w>
syste m</w>
anay as
mak e</w>
skop je</w>
l ine</w>
ger e
ta m</w>
as s
th ough</w>
v il
he m</w>
por ts</w>
zam an</w>
y ing</w>
uyg ulan
bu d
ni c</w>
sit u
f on
h n</w>
tem muz</w>
k ü</w>
ad ded</w>
200 5</w>
o lay
indepen dence</w>
se con
sta te
th ing</w>
ac h
tur al</w>
kas ım</w>
sar aj
l and</w>
f li
et nik</w>
in ing</w>
kov ic</w>
hi z
b ru
res ol
tiğ imiz</w>
aca ğı</w>
op position</w>
ıl ık
karş ın</w>
ap ril</w>
v ic
f ur
th en</w>
cle ar</w>
commun ity</w>
ti ce</w>
month s</w>
in iti
sar ay
li m</w>
da i
le ss</w>
saraj evo</w>
eth nic</w>
as t
kra r</w>
il di</w>
2 6</w>
mi r
fu l</w>
e ve</w>
düzen le
u p
cal led</w>
ev en</w>
uni ted</w>
se p
regi onal</w>
f our</w>
aç ısından</w>
nis an</w>
üs küp</w>
n er</w>
ıl ı</w>
ac t</w>
bar ış</w>
dü ğ
bakan lığı</w>
geç ir
ser bs</w>
ra ğ
il mesi</w>
tribun al</w>
w a
n s</w>
f re
cr is
pro pos
ov an
sec re
ço cu
em plo
yun an</w>
polic y</w>
y al</w>
ri ghts</w>
gö n
sın ır
in ce</w>
can di
presi den
et kil
sur e</w>
d öne
ü m</w>
ç a</w>
to wards</w>
yür ü
e p</w>
l ük</w>
p k
effor ts</w>
p ra
bulun uyor</w>
ne e
geç tiğimiz</w>
la ma</w>
issu es</w>
mil os
200 9</w>
u yar
te c
sun day</w>
1 0
un mik</w>
se s
v ek
organ ised</w>
re main
me y
er ek</w>
mak la</w>
e ar
g ir
savun ma</w>
ab an
hel p</w>
finan cial</w>
ic al</w>
li ke
be le
hi l</w>
ces s
sep tem
saray bosna</w>
mu hal
an da</w>
septem ber</w>
var ious</w>
bil e</w>
değiş ik
li ğini</w>
ov ski</w>
ac ti
da hil</w>
su c
ri ght</w>
mev cut</w>
balkan lar</w>
it al</w>
il en</w>
kül tür</w>
h ız
rağ men</w>
lü l</w>
ey lül</w>
def ence</w>
güne y
con si
sır p
off ice</w>
cri min
mi t</w>
k ın
ama c
bul gar</w>
ke l
j ec
r s</w>
ıl dı</w>
bor is</w>
z ir
de al</w>
con di
t or
situ ation</w>
sa me</w>
al dığı</w>
k ır
ati ve</w>
as ed</w>
so urces</w>
pos sible</w>
be g
ziyar et</w>
duy ur
ziyar et
v al
ol uk</w>
au g
yardım cısı</w>
fe bru
mes inin</w>
di yor</w>
febru ary</w>
or tak
cy p
kam u</w>
cyp rus</w>
offici al</w>
komis yonu</w>
ad op
d p
cris is</w>
ne ed</w>
as yon</w>
s is
ar o
vot e</w>
res mi</w>
ol uş
bosni an</w>
te ly</w>
me t
en in</w>
b in
ac ak
der s</w>
şu bat</w>
pres s</w>
n ü
kos tun
fa ali
e p
ath ens</w>
g ge
d ol
kostun ica</w>
ken di</w>
in for
sor umlu</w>
secon d</w>
o l</w>
seç im</w>
kurul uş
mo ve</w>
kosov alı</w>
se t</w>
mal ar</w>
h en
y ar</w>
com ing</w>
ola ca
si ons</w>
da r</w>
9 2</w>
ic i</w>
c in
20 10</w>
an other</w>
yatır ım</w>
yal n
in f
k im
leg al</w>
aro und</w>
4 0</w>
ort aya</w>
k i
le m
b b
sof ia</w>
comp an
beklen iyor</w>
ün e</w>
ar ı</w>
t on
n at
bor der</w>
mas ında</w>
etk in
an ın</w>
asker i</w>
vek il
mar ket</w>
m un
sever al</w>
continu e</w>
fer ence</w>
chan ge</w>
bil lion</w>
ol ması</w>
gerek iyor</w>
o yun
at ina</w>
konse yi</w>
cri me</w>
r i</w>
ta in</w>
iler le
ti on
prosec ut
cul tural</w>
e c</w>
imz al
am er
2 9</w>
ız ca</w>
üs ü</w>
ar res
program me</w>
iy at
şek l
hal e</w>
ser vi
pea ce</w>
per for
ar d
negoti ations</w>
ta h
te ch
so cial</w>
g ing</w>
sır asında</w>
baş ka</w>
as soci
ele k
d di</w>
an si
hi ç
c lu
ele ction</w>
tra de</w>
fa il
po in
et mek</w>
cumhur başkan
s us
t ors</w>
ma tion</w>
ti r</w>
yaln ızca</w>
de s
ıs ında</w>
with out</w>
yap ılacak</w>
ece ği</w>
war d</w>
öğ ren
meas ures</w>
kr as
vi l</w>
ü st
jus tice</w>
follow ing</w>
ik inci</w>
m ı</w>
ar i</w>
nü f
destek le
yar at
anlaş ması</w>
alt ında</w>
1 .
al is
çağ ır
k amp
we ster
par a</w>
te st</w>
sal dır
ke si
den ts</w>
b 92</w>
yatır ım
ı da</w>
ta diç</w>
li ber
ş art
ch il
mil yar</w>
re hn</w>
maj or</w>
il ere</w>
gro w
ekono mi</w>
s ı</w>
ş ey</w>
di yerek</w>
as i
ç e</w>
estab lish
e i
mil let
se le
merkez i</w>
i f
c la
k for</w>
al ity</w>
be come</w>
at s</w>
sis tem
der ek</w>
ü ye</w>
con ference</w>
fe der
gön der
eğiti m</w>
constru ction</w>
con fli
se y
day s</w>
re co
r at
ö r</w>
rus ya</w>
yıl lık</w>
with in</w>
le d
en gel
os u</w>
dı ş</w>
k no
s ci
rec ent</w>
f am
ad al
spe cial</w>
ken dis
i or</w>
res i</w>
ç e
to p</w>
vis i
it er
e duc
m r
ev ski</w>
p an
ılı ğ
kiş i</w>
wester n</w>
göre v</w>
cul ture</w>
ver si
ti sa
1 ,
ü müz
me leri</w>
w ash
o t</w>
go od</w>
ther n</w>
199 5</w>
o us
ma t
tra l</w>
f ree</w>
ek ledi</w>
organ iz
katıl ım</w>
it al
fi ve</w>
de l</w>
ing ton</w>
in s</w>
at ten
t u</w>
aç ı
cy pri
cl os
d ana</w>
sel s</w>
avr oluk</w>
u sed</w>
p ast</w>
ü st</w>
söylü yor</w>
cum a</w>
uy la</w>
state ment</w>
el de</w>
bas ın</w>
yak ın</w>
op en</w>
millet vekil
ev ent</w>
wash ington</w>
proble m</w>
le ft</w>
cumhuri yeti</w>
aş tır
ti l</w>
diff er
secre tary</w>
il ik</w>
ni te
min in</w>
gerçek leştir
aug ust</w>
proble ms</w>
la un
bosn alı</w>
b re
al tı</w>
un til</w>
fri day</w>
200 3</w>
v la
s r
neden iyle</w>
g as</w>
inv ol
uz man
re tur
kü ç
ra di
me an
evi c</w>
bulun an</w>
ak p</w>
a i
muhal ef
ha yat
parla men
lı yor</w>
ta dic</w>
ar aştır
compan ies</w>
hum an</w>
ün den</w>
reco g
du e</w>
fur ther</w>
b unu</w>
c s</w>
v ir
sayı da</w>
cur ren
belir ti
lik e</w>
ust os</w>
mu ch</w>
m b
lay acak</w>
a c</w>
b an</w>
ağ ustos</w>
ho w</w>
f i</w>
ad minist
te me
inv esti
le x</w>
be ş</w>
o w
do cum
direc tor</w>
br us
ge ti
c ase</w>
b la
pos iti
pk k</w>
ins an</w>
gör ü
f ik
a ir
tama m
ı p</w>
r ent</w>
g ür
ad ı</w>
zor an</w>
sch o
te am</w>
ol as
g it
proj e
put y</w>
de puty</w>
brus sels</w>
amac ıyla</w>
şir ket
b ır
eu lex</w>
hiç bir</w>
bank ası</w>
ye d</w>
t aki</w>
anal y
ş id
şid de
p ay
lı ğını</w>
bölge sel</w>
de b
ç ün
un daki</w>
lan ması</w>
for ces</w>
bb c</w>
se n</w>
m us
edil en</w>
us u</w>
invest ment</w>
p ed</w>
br ük
rul ing</w>
mal i</w>
m in</w>
ah tisa
requ i
fre e
bil ity</w>
ahtisa ari</w>
minist ers</w>
ün i
terr or
si on
si de</w>
karad z
5 th</w>
me cl
m ic
th in
h un
ş ar
ti m</w>
re dde
1 00</w>
k larını</w>
bo y
ol an
ci ddi</w>
i̇n gil
ac ağ
t le</w>
si ve</w>
brük sel</w>
nikol a</w>
mo der
ilişk in</w>
büyü kel
y an</w>
aç ık</w>
sahi p
h ist
ün de</w>
pop u
kaynak lar</w>
d önem
co al
ist an
giri şim
cur rent</w>
yor uz</w>
fr ans
ihti y
cen tral</w>
stabil ity</w>
sec tor</w>
gu ar
d ile</w>
me c
1 st</w>
lan dır
jo in</w>
ko alis
en tary</w>
coun ter
al li
o y</w>
l as
jo ur
doğ an</w>
ap pe
mit ro
elek tri
di t</w>
bır ak
tir ana</w>
mas ından</w>
de ci
kıs a</w>
miş ti</w>
administ ra
di d</w>
al ready</w>
c amp
stru c
doğ ru
ler iyle</w>
gere ken</w>
baş ladı</w>
son a</w>
mek le</w>
d ro
ticar et</w>
kapsam ında</w>
p li
çoğ un
j is
sor um
ko ş
s c</w>
russi a</w>
ha ber</w>
v u
representati ves</w>
ci ç</w>
yönün deki</w>
ti s
se vi
ard ından</w>
e le</w>
agre ed</w>
o d
lev el</w>
ik ti
ön ümüz
t ay
ne i
sın ır</w>
of f</w>
iler leme</w>
ba ck</w>
sor uştur
s ü
hu ku
du m</w>
bel ge
bo ur
wo men</w>
ti ler</w>
s ine</w>
kal dır
investi g
ha gue</w>
plan s</w>
inş a</w>
coal ition</w>
o ted</w>
for ce</w>
do es</w>
parla ment
or d
alar ında</w>
j ust</w>
fo cu
ac hi
h os
bir liği</w>
bat ı</w>
mahke mesi</w>
ful l</w>
se t
me et</w>
bek le
at tac
0 m</w>
th re
ca ted</w>
t ör
l on
su ç</w>
199 9</w>
tur iz
to ok</w>
sos yal</w>
per son
isti kr
ch r
y aban
rece iv
w in
h is
imz alan
ü p
mean while</w>
tir an</w>
representati ve</w>
böl ge</w>
lar ıyla</w>
der ece</w>
he y</w>
sevi ye
mak am
bud get</w>
ac cep
ğ ra
pre par
lu m</w>
önümüz deki</w>
la hey</w>
yor um</w>
mey dana</w>
et y</w>
5 00</w>
ç isi</w>
pro mis
t ot
kuz ey</w>
fi ed</w>
gün kü</w>
durum da</w>
ı l</w>
ro ad</w>
şekl inde</w>
en di
6 0</w>
ye ter
güç lü</w>
ted bir
chil d
y ip</w>
o ğ
s re
ju di
jour n
pr is
laş tır
la te</w>
fin al</w>
um a</w>
v ince</w>
il eş
ö d
mış tı</w>
güney doğu</w>
evi ç</w>
yıl ın</w>
s po
rol e</w>
g lo
er ed</w>
mec lis</w>
7 th</w>
se ar
bas escu</w>
pe ti
or ta
star t</w>
liğ inin</w>
go ing</w>
educ ation</w>
alar ını</w>
demokra t</w>
şir ke
da ğ
parliam entary</w>
mü dür
me den</w>
char est</w>
or din
karar ı</w>
f at
ad lı</w>
bu charest</w>
gele cek</w>
ac tion</w>
ans ı</w>
are as</w>
si x</w>
j ovan
pro du
n as
dp a</w>
sorum l
ru m</w>
f ar</w>
ba y
as ına</w>
child ren</w>
it ing</w>
eff ec
da ily</w>
jo int</w>
yar ış
katıl ım
ek s</w>
standar t
kal kın
at lan
at er
s lo
i̇ stan
suç ları</w>
istan bul</w>
e arly</w>
tar i
camp a
1 2
san ader</w>
söz lerine</w>
demokra tik</w>
0 ,000</w>
e as
re ş</w>
sa h
i̇stan bul</w>
ti al</w>
ar my</w>
yo k
al man
8 th</w>
standar ds</w>
ad di
i̇ tal
di k</w>
sel f</w>
or du</w>
mi c</w>
re li
kom ut
or der</w>
b ük
3 1</w>
sof ya</w>
may an</w>
dec lar
ga z</w>
yugos lav</w>
pro duc
ülke de</w>
ü z</w>
ol y
bet ter</w>
yap tı
o p</w>
incre ase</w>
b ut
ş üp
th ir
lan ıyor</w>
elektri k</w>
öd ül
te e</w>
al ist</w>
ay an</w>
he al
consi der
associ ation</w>
top lam</w>
er doğan</w>
li er</w>
br an
ifa de</w>
condi tions</w>
mek te</w>
confli ct</w>
6 th</w>
mla diç</w>
e dece
sav aş
olo g
fark lı</w>
ç ek</w>
open ed</w>
to ge
mla dic</w>
dur um</w>
bük reş</w>
çoğ u</w>
toge ther</w>
az ın
st re
kon fer
dış ı</w>
k er</w>
e qu
an lam
ır ken</w>
qu oted</w>
infor mation</w>
w ant</w>
ıyor lar</w>
düş ük</w>
politi ci
com peti
çöz üm</w>
ba c
thin k</w>
n i</w>
n er
or ta</w>
li b
leş me</w>
iy ileş
ob ser
in du
ear lier</w>
n ation</w>
do gan</w>
ad d
me yece
en ge
tra ff
sol ution</w>
f ra
alman ya</w>
sür e</w>
d or</w>
lan dı</w>
küç ük</w>
ıl an
luk la</w>
gaze tec
e ach</w>
demo kras
c ted</w>
al o
me sele
fo und</w>
kt an</w>
4 th</w>
en ica</w>
resul ts</w>
k ür
de m
c ing</w>
al le
ı t</w>
mon ey</w>
y ine</w>
haz ır</w>
en d
cri tic
yaşan an</w>
k ut
un dan</w>
han gi</w>
d ist
as yonu</w>
oly mp
görül üyor</w>
re pub
grow th</w>
p al
pec ts</w>
ni fic
indepen dent</w>
artı k</w>
vers ity</w>
kamp an
as ını</w>
l ük
tan ın
liğ ine</w>
vis ion</w>
tas ar
iler ini</w>
o h
l j
üzer ine</w>
ste p</w>
pro vince</w>
la w
si c</w>
re ach
gerek li</w>
free do
and re
y ön
con tri
vi z
ar a</w>
yarg ı</w>
al ar</w>
öz gür
av ro
vi ol
ti k
es inde</w>
da yan
bi ri
a day</w>
wor king</w>
pu t</w>
mun ici
tra di
remain s</w>
ma dan</w>
liğ e</w>
adal et</w>
ılı ğı</w>
ülke leri</w>
sig nific
yaban cı</w>
on un</w>
ben z
rece p</w>
nor thern</w>
e ver
değer lendir
yol unda</w>
maj ority</w>
li fe</w>
i̇ ş
m ül
e leştir
düz ey</w>
im i</w>
ey al
er dogan</w>
tay yip</w>
inter est</w>
200 2</w>
f ır
en g
an ti</w>
zan lı
gru evski</w>
et i</w>
ve ly</w>
e li
cas es</w>
alar ın</w>
ca me</w>
c ak
re g
h in
nei gh
p e</w>
o wn</w>
la t
ım ız
sağ lık</w>
f iyat
n ot
al though</w>
su gge
oluş an</w>
g ot
curren tly</w>
are a</w>
k m</w>
fi ght</w>
exper ts</w>
yo k</w>
n an</w>
k ı</w>
to wn</w>
perfor man
lider i</w>
er i</w>
ne t
en ter
organ is
yaş ındaki</w>
a f</w>
se k
candi date</w>
ko y
a il
tak en</w>
organiz e</w>
dai resi</w>
ch ed</w>
an ı</w>
ler ce</w>
gör ün
m ot
th ers</w>
k ers</w>
örgü t
wh e
g is
ch al
n de</w>
ğ ine</w>
j ik</w>
ag o</w>
ov an</w>
crimin al</w>
b al</w>
ım ız</w>
sre br
ex pres
buil ding</w>
al ists</w>
cu sto
ass ist
as se
ülke sinin</w>
mitro v
ede cek</w>
y ment</w>
uni versity</w>
sup por
ad ri
kaç ak
r u</w>
duğ unu</w>
ul t</w>
200 1</w>
tour ism</w>
dön üş
ay s</w>
s iste
min de</w>
bun a</w>
pon te</w>
de y
uz laş
olma dığını</w>
sor un</w>
re gar
g s</w>
tes lim</w>
ka ç</w>
ik a</w>
yo un
sil ah
s ız</w>
chal len
sum mit</w>
res pec
ı ları</w>
hal inde</w>
katıl dı</w>
ce le
p ur
ülke deki</w>
et tiği</w>
bi z
gün lük</w>
bil im</w>
sp ite</w>
cypri ot</w>
u la
s hi
et me</w>
an nu
ı cı</w>
yıl ı</w>
g al
se kre
m ul
can not</w>
20 11</w>
ç er
iddi a</w>
sı ra
sa f
organ isation</w>
gi ven</w>
campa ign</w>
8 0</w>
bur ada</w>
zor unda</w>
nati on
ge len
administra tion</w>
p i
iş ar
en vir
sat ın</w>
re le
provi de</w>
presiden cy</w>
aç ıl
ol umlu</w>
chan ges</w>
t av
envir on
repor ted</w>
er ken</w>
ör ne
ar d</w>
yan ın</w>
kre di</w>
n ers</w>
com mis
ol imp
n d</w>
ira k</w>
i de
alt ına</w>
politici ans</w>
per i
en ces</w>
cap ital</w>
ger many</w>
a ç</w>
mak ta</w>
suç la
an u</w>
projec ts</w>
geliş tir
spe ak
yugoslav ya</w>
ter m</w>
h â
as ının</w>
re main</w>
m alı</w>
g rup
aş ır
ye cek</w>
st af
rat ko</w>
w ed</w>
son unda</w>
res sed</w>
op s</w>
n ak</w>
baş ta</w>
bağ lı</w>
o g
ment ation</w>
kayde dil
20 0</w>
zaman da</w>
sa tion</w>
faali yet
enti al</w>
sho w</w>
özel leştir
ur ged</w>
i̇ ki</w>
alban ians</w>
w ays</w>
spe ci
li der</w>
top lum</w>
ne w
konuş mada</w>
t v</w>
col le
bele diye</w>
ul u</w>
j e
diff ic
uy or
tek nolo
imple mentation</w>
e very</w>
yak ın
ortak lık</w>
differ ent</w>
bo yun
beli eve</w>
whe ther</w>
like ly</w>
kent inde</w>
hak ları</w>
priv ati
inclu de</w>
counter part</w>
toplantı s
st ren
i̇ ç
des cri
freedo m</w>
yas a</w>
thir d</w>
receiv ed</w>
po d
o m
merke z</w>
de spite</w>
ater al</w>
liğ in</w>
la ter</w>
kil er</w>
de ter
str ong</w>
fa ce</w>
7 0</w>
i dar
hop e</w>
slo bo
si bility</w>
re du
a head</w>
özel likle</w>
cu lar</w>
stren g
leg is
di re
vi ç</w>
srebr enica</w>
k ler</w>
boyun ca</w>
bir kaç</w>
turiz m</w>
ol li</w>
glo bal</w>
so me
ot s</w>
jis lav</w>
f ec
düzen len
bo z
vo jislav</w>
la h</w>
da ir</w>
pro ce
anlaş maz
tı ğını</w>
pro per
sh or
ru n</w>
hi bi
değişik lik
commis sion
alli ance</w>
su z</w>
1 3
in ten
bağıms ız</w>
s ini</w>
cı lar</w>
uyg un</w>
re fu
or i
a ğı</w>
çık an</w>
tot al</w>
m ur
ş im</w>
l is
k üre
he ad
s ul
kon u
d ri
s ık
p ak
mes inden</w>
lüğ ü</w>
k it
gen işle
tech nolo
mesi yle</w>
nee ds</w>
kazan dı</w>
s ports</w>
pos t</w>
la dığı</w>
fac il
u ps</w>
ülke lerin</w>
iler inin</w>
en te
at or</w>
s ak
positi ve</w>
got ovina</w>
ge ment</w>
i ve</w>
si l</w>
kon ular
her hangi</w>
ar ada</w>
so on</w>
j a
co mes</w>
c am
v an</w>
p ing</w>
mu ş</w>
ku v
k u</w>
m ut
fin ance</w>
e mek
bil gi</w>
abil ir</w>
kö tü</w>
heal th</w>
ar t</w>
sear ch</w>
bi d</w>
na me</w>
n da</w>
k li</w>
lar ge</w>
w r
hâ l
d ul
yöne t
ihti la
cont rol</w>
teme l</w>
re as
constitu tional</w>
açık ladı</w>
et e</w>
199 2</w>
por tun
op portun
bas sa
am bassa
sloven ya</w>
merkez li</w>
anayas a</w>
par ç
müdür ü</w>
yüz ünden</w>
tak dir
i u</w>
mev ki
hâl â</w>
p iy
m k
c os
al ong</w>
üni versi
politi k
üye liği</w>
ti f
si vil</w>
o z
re si
en a</w>
ra c
le ast</w>
o un
o u</w>
an ton
yan dan</w>
t ory</w>
dış ında</w>
çalış malar
yap tı</w>
olaca ğını</w>
getir di</w>
di alo
aç tı</w>
söz c
be d</w>
pod gor
nor th</w>
ne cess
k at</w>
iv an
tan ı
tra v
gro ups</w>
yetkil i</w>
po int</w>
m ol
bölge de</w>
ser best</w>
hal a</w>
düğ ü</w>
slobo dan</w>
di yal
bil eceğini</w>
yolsuz luk</w>
viol ence</w>
adı m</w>
p lay
kri z
is inin</w>
dialo gue</w>
ci ally</w>
yugoslav ia</w>
tür ü</w>
sol ana</w>
sat ur
o il</w>
n is</w>
te l
peri od</w>
mak ing</w>
ğ in</w>
sr p
re public</w>
kalkın ma</w>
tri al</w>
s m
mil lion</w>
kon ulu</w>
in ci
ada y
ıl mış</w>
ri yor</w>
en large
m ing</w>
ken d
hen üz</w>
h old</w>
u r</w>
pres ent</w>
ho me</w>
tr ol
con duc
av o
ön e</w>
çağır dı</w>
ke sin
enlarge ment</w>
democra cy</w>
ash down</w>
tarih i</w>
geor ge</w>
öl dür
sekre ter
frans a</w>
satur day</w>
rapor da</w>
muhalef et</w>
ir e</w>
d at
ç at
taş ı
re view</w>
n ic
ir s</w>
ro men</w>
mücade le
mü mk
bağımsız lık</w>
ülke ler</w>
spo kes
takdir de</w>
hakk ındaki</w>
ente gr
youn g</w>
prosecut or</w>
lığ ının</w>
i̇ sti
i de</w>
hal k</w>
c over
sig n</w>
neigh bour
it a
et me
mevki daş
focu s</w>
elec tri
commission er</w>
p ac
a de</w>
mas ıyla</w>
fun ds</w>
cum ar
t ation</w>
i o</w>
ha y
ful ly</w>
değiş tir
w ing</w>
sahi bi</w>
iy or
cumar tesi</w>
bun ların</w>
man a
dün y
ati sti
la y</w>
gelece k
ülke lerinin</w>
vis a</w>
mu ha
tör en
hükümet inin</w>
ira q</w>
imple men
festiv ali</w>
d z
k ça</w>
yan lı
m ine</w>
la ck</w>
ansi ye
necess ary</w>
h an</w>
for m</w>
ekono mis
ter n</w>
mi z
fr an
c ts</w>
lik a</w>
kaçak ç
pot ansiye
c tions</w>
ser ious</w>
emplo yment</w>
achi ev
russi an</w>
ne ar</w>
ı dır</w>
h r
sa a</w>
mümk ün</w>
süre ci</w>
k av
pet rol</w>
nas ıl</w>
montenegr in</w>
karş ıla
com man
nati ons</w>
l ist</w>
adı m
tak ing</w>
mem n
large st</w>
oper asyon
constitu tion</w>
2 ,
podgor ica</w>
komis yon</w>
200 0</w>
yardım cı</w>
kuz ey
fe w</w>
yap an</w>
mü ş</w>
resul t</w>
prote ction</w>
kil i</w>
recog n
fam ily</w>
ü çün
yolsuz lukla</w>
ne arly</w>
an i</w>
festiv al
o thers</w>
göster iyor</w>
el i</w>
br ing</w>
be n</w>
arres t</w>
lu ka</w>
ulu ğ
inter ior</w>
doğ ru</w>
t ol
t able</w>
mon it
kuv vet
bir leş
bağ lan
ted ly</w>
ju d
j ana</w>
vi c</w>
la ws</w>
kayde tti</w>
yayın lanan</w>
ro ma</w>
ş ey
tek li
soci ety</w>
gru bu</w>
sti c</w>
reli gi
reach ed</w>
di u</w>
üm ü</w>
ter ör
sti tut
pap andre
küre sel</w>
bölge deki</w>
blo c</w>
as a</w>
y ur
az alt
3 r
z or</w>
pot ential</w>
n ere
cr os
bu gün
3r d</w>
g ı
ex hibi
es pe
bal l</w>
au stri
tür lü</w>
on u</w>
nüf us
d re
ben ef
alar ının</w>
retur n</w>
im s</w>
böl ün
u e</w>
p ay</w>
lar ındaki</w>
ke s</w>
istikr ar
ic s</w>
gerçekleş ti</w>
cumhurbaşkan lığı</w>
luğ u</w>
baş lı
ab ri
traff ic
sou th</w>
y az</w>
ru c
ger çek</w>
deci ded</w>
ul os</w>
lığ ına</w>
iz in</w>
il iyor</w>
gi ve</w>
ma z</w>
hare ke
şim di</w>
ul an</w>
iz le
1 5
u es</w>
baş larında</w>
qu es
açı dan</w>
çocu k
mahke me</w>
hal f</w>
dı kları</w>
sp a
sm all</w>
repub lika</w>
off ic
iler ine</w>
espe cially</w>
st or
doğru dan</w>
n al</w>
ta in
son una</w>
d os
yaş ayan</w>
olduğ una</w>
il an</w>
cen tly</w>
gaze tes
con ne
re j
re cently</w>
p t</w>
mil li
baş kan</w>
ta x</w>
stitut e</w>
san at
bo l</w>
yor k</w>
impro ve</w>
dis h</w>
sci ence</w>
n on</w>
con fi
tem sil</w>
s ız
lib ya</w>
vi ties</w>
no kt
ist ler</w>
ad ding</w>
çalış ma</w>
servi ce</w>
dı k</w>
parlamen to</w>
kam u
hal ine</w>
2 nd</w>
con fir
a ir</w>
us ing</w>
ur al</w>
day ton</w>
suç u</w>
popu lation</w>
kurul u</w>
gre at</w>
go al</w>
af fa
nee ded</w>
fin d</w>
ver gi</w>
karşı ya</w>
ban ja</w>
incre as
f le
lin es</w>
yıl dır</w>
srp ska</w>
mü s
kor uma</w>
fr ance</w>
yetkil ileri</w>
ous ly</w>
ital y</w>
demokras i</w>
r ate</w>
kap at
appro ved</w>
i̇n ter
p led
al acak</w>
süre n</w>
sloven ia</w>
politi ka</w>
pea ce
j an</w>
a ut
he p
af fec
terr it
al ma</w>
tr al
sp or</w>
parlament osu</w>
commit tee</w>
mi d</w>
et tiğini</w>
ust ur
st and</w>
s ite</w>
privati sation</w>
j os
inter net</w>
est s</w>
buil d</w>
beli ev
ai med</w>
veril en</w>
signific ant</w>
me z</w>
lo o
e ments</w>
to day</w>
sch e
u cu</w>
sağ lan
re ka
i̇ t
ce l
ülke den</w>
initi ative</w>
repor ts</w>
mevkidaş ı</w>
discus s</w>
servi ces</w>
geor gi
der ne
ö de
s ü</w>
resol ution</w>
qu ar
müs lü
ko v</w>
a tely</w>
önce ki</w>
u ç
edil mesi</w>
ber i</w>
assist ance</w>
üçün cü</w>
tele viz
r an</w>
pr in
diploma tic</w>
be gan</w>
ver en</w>
se ven</w>
scho ol</w>
o kul
milos evic</w>
cl ose</w>
ar alarında</w>
2 .
ıl ıyor</w>
radi o</w>
rad ovan</w>
ger man</w>
sekreter i</w>
priv ate</w>
nite lendir
mon y</w>
ma s</w>
karadz ic</w>
i̇ l
f el
başlı ca</w>
ak tar
t at
bo ost</w>
c ar</w>
v al</w>
l iste
do me
üye leri</w>
tu res</w>
proj e</w>
me ler</w>
l ju
i̇tal ya</w>
do dik</w>
av ustur
ar ri
commun ic
ex pla
tro ops</w>
sözc üsü</w>
ni ha
düz ey
baş vur
ambassa dor</w>
acti vities</w>
öğ re
yar ak</w>
suc cess
s har
koş ul
open ing</w>
ihtila f
ç ı</w>
pre vi
hun gar
an nan</w>
os ce</w>
establish ed</w>
ag i̇
sonu c
ikti dar
geli yor</w>
arres ted</w>
ac ı</w>
tı lar</w>
mi yor</w>
a di
plan t</w>
vur gu
v a</w>
no ted</w>
i ri
de leg
ö türü</w>
ti cal</w>
fac t</w>
bo ş
vi ze</w>
kes in</w>
3 5</w>
ön ces
strate gy</w>
ei ght</w>
sp an
mek te
ac coun
ab dul
te l</w>
se v
say ıs
kno wn</w>
co m</w>
ma te</w>
ilişk ileri</w>
gen ç
duyur du</w>
annu al</w>
ste ps</w>
i̇nter net</w>
in fr
et mesi</w>
agi̇ t</w>
am oun
ter e</w>
te p
medi ğini</w>
gru p</w>
gr ap
gerçekleş en</w>
di ye
yöneti m</w>
ven kovski</w>
laun ched</w>
kay bet
iv o</w>
is ini</w>
dönem de</w>
ol u</w>
i̇ ş</w>
um u</w>
to mis
su ff
ob li
g le</w>
rul e</w>
custo ms</w>
me sa
le ad</w>
l ish</w>
dün yanın</w>
aga in</w>
19 8
gi c</w>
öl ç
vil la
proper ty</w>
el ine</w>
c ab
ve t</w>
et meye</w>
er ing</w>
ch o
bil ateral</w>
si des</w>
refer en
ey lem
öğren c
tomis lav</w>
oy n
güne y</w>
fo un
com men
vo y</w>
har d</w>
dome stic</w>
ho use</w>
cha ir
alar ına</w>
tu r</w>
memn uni
dne v
çat ış
to o</w>
de mon
affa irs</w>
wor kers</w>
oran ında</w>
i̇ngil tere</w>
gen ç</w>
re search</w>
o m</w>
l os
9 th</w>
şirke ti</w>
me de</w>
an ted</w>
ifa de
se en</w>
incre ased</w>
c ere
mol d
cez a</w>
c ation</w>
ol masına</w>
li ving</w>
candi da
büt ün
alt yap
wh ose</w>
war ned</w>
min ority</w>
infr ast
infrast ruc
ev en
v ol
la test</w>
kayde t
ne den</w>
con clu
produ ction</w>
adop ted</w>
3 0
abdul lah</w>
yas al</w>
ke z</w>
on es</w>
con tra
hav a</w>
başar ılı</w>
en ded</w>
ö v
re jec
fi el
mekte dir</w>
3 00</w>
traffic king</w>
pos ed</w>
malar ın</w>
k in
d ou
ac cu
y thing</w>
w ants</w>
regi me</w>
or a</w>
bil ecek</w>
ur s</w>
s d</w>
f a</w>
e tin</w>
si k
ko m</w>
hiz met
f er</w>
dün yas
oldu kça</w>
bun dan</w>
işar et</w>
infrastruc ture</w>
dik leri</w>
sağ lay
du lar</w>
z a</w>
st ry</w>
lead ing</w>
expres sed</w>
artı ş</w>
ğ un</w>
re al</w>
ol ur
in stitute</w>
diffic ult</w>
char ges</w>
ü cre
dra gan</w>
s an</w>
repor ters</w>
iy at</w>
inf lu
hare ket</w>
gen in</w>
en sure</w>
büt çe</w>
st ressed</w>
karşı laş
d le</w>
ap pli
wor ks</w>
v ade
tek nik</w>
te es</w>
sırp lar</w>
stu dents</w>
rou ght</w>
mi k
ment al</w>
iyileş tir
hi ç</w>
f is
eff er</w>
bor is
baş ına</w>
199 0</w>
ner ship</w>
kom ün
sch effer</w>
mitrov ica</w>
h ere</w>
den e
comm on</w>
ap poin
ro und</w>
mi z</w>
in e
er ke
don e</w>
dist ri
comman der</w>
vo a</w>
t al</w>
li t
gü mr
ön de</w>
çer çev
ste f
bugün e</w>
şidde t</w>
on ya</w>
me di</w>
toplantıs ında</w>
pres sure</w>
le mek</w>
ho op</w>
analy sts</w>
u ğra
deb t</w>
t ar</w>
s inden</w>
geç miş
durum u</w>
aj ansı</w>
ş amp
vo i
s u</w>
iti bar
sağ layacak</w>
n ine</w>
kiş inin</w>
f l
em er
üzer indeki</w>
yet le</w>
propos al</w>
ex ten
c ılık</w>
bu gün</w>
ber is
şamp iy
siz lik</w>
edil iyor</w>
high er</w>
as ıyla</w>
ı lar</w>
kor un
en voy</w>
benz er</w>
av i
ti l
sor unu</w>
ot ur
ne ss</w>
i th
i den
güç lendir
expec t</w>
at ı</w>
teh like
p ip
de st
c li
a it</w>
ulu k</w>
ta j
referen dum</w>
bo ok</w>
halk ın</w>
e derek</w>
mov ement</w>
m uş
la k</w>
k leri</w>
di mit
ac qu
ma dal
gen el
den iz</w>
ülke ye</w>
um ut
technolo gy</w>
söz ü</w>
sum mer</w>
at tem
propos ed</w>
hist ory</w>
gen iş</w>
z af
q i</w>
konuş tu</w>
di mir</w>
çağr ısında</w>
per s
es inin</w>
döne m</w>
at tra
v a
sonr aki</w>
mar ke
ma dığını</w>
ç iz
v ak
legis lation</w>
es ted</w>
bele diye
yük sel
yol u</w>
so k
me ans</w>
kat kı
invol ved</w>
p ly</w>
t ment</w>
parç ası</w>
fat mir</w>
ük le
med ya</w>
kad ın</w>
de li
yıl ından</w>
yeter li</w>
ye di</w>
sahip liği</w>
hız landır
önün de</w>
seçim leri</w>
mak tan</w>
h on
di es</w>
sos yal
re gula
kar am
in tro
edil di</w>
b öyle</w>
anlam ına</w>
mis yon
hist or
de part
cap ac
com par
örgü tü</w>
w at
on ce</w>
kad ın
commit ted</w>
tis h</w>
al low
pub lish
bo m
anlaş manın</w>
a j</w>
gü c
ü le
at ör
üniversi tesi</w>
yaş am
tre at
th o
kuruluş u</w>
ba h
vot ers</w>
sek iz</w>
konus undaki</w>
y u</w>
ro un
beris ha</w>
söz lerinde</w>
ma dı</w>
kon t
vi du
ser gil
re l</w>
may acağını</w>
ih rac
pri ces</w>
kap asi
pra c
kal an</w>
ig or</w>
devle t
d ings</w>
kri z</w>
indu stry</w>
fic ation</w>
c ting</w>
1 8
we eks</w>
t in
si mil
indi vidu
en sti
discus sed</w>
an ti
ak e</w>
3 .
gerek tiği</w>
ılık la</w>
vla dimir</w>
lan da</w>
he de
chr ist
te krar</w>
b our</w>
tele kom</w>
sa at
mal iye</w>
kont rol</w>
f ic</w>
mes inde</w>
iliş kiler</w>
bri tish</w>
bor u</w>
at ors</w>
star ted</w>
lider leri</w>
iş let
iç er
dığ ında</w>
c ru
ba ş</w>
vurgu ladı</w>
ko mi
as ked</w>
ta dır</w>
sen ten
mi d
terror ism</w>
say ısı</w>
sal i</w>
sa d</w>
fa ir</w>
sur ve
s ent</w>
kur dish</w>
i ons</w>
yıl da</w>
tan ım
piy as
bir inci</w>
b rought</w>
yıl ki</w>
reform ları</w>
rece ive</w>
liber al</w>
k ıy
in et</w>
g dp</w>
edil e
i kili</w>
etkil e
yas a
sağla mak</w>
is ing</w>
il a</w>
c ost</w>
al most</w>
şir ket</w>
tr ansi
ter ms</w>
exper i
effor t</w>
contri bu
müzakere lerin</w>
al ter
a ward</w>
pri ce</w>
dat a</w>
ülke yi</w>
ra ther</w>
for um</w>
van ov</w>
teh dit</w>
t ab
olymp ic</w>
ol s</w>
jo b</w>
fr on
cer tain</w>
9 0</w>
yetkil ilerin</w>
religi ous</w>
bel li</w>
al low</w>
wa ter</w>
ol mayan</w>
issu ed</w>
d k</w>
yürü tü
cab inet</w>
z er
su s</w>
reg ist
organis ations</w>
g in
ban ka</w>
şüp hel
iler le</w>
3 ,
20 12</w>
yüz den</w>
res t</w>
la s</w>
kar ış
docum ent</w>
competi tion</w>
b ol
al mak</w>
investig ation</w>
gor an</w>
g sy
be t</w>
baş lan
199 1</w>
tama men</w>
stan ding</w>
pla y</w>
oğ lu</w>
isti yor</w>
gümr ük</w>
di zi</w>
av er
y ükü
ter ör</w>
ov ska</w>
dey se</w>
de pen
an lar</w>
si yle</w>
rela ted</w>
ist ing</w>
f ren
di ri
bi ç
um ut</w>
kil led</w>
fin ans
stat ü</w>
ru men</w>
la yı
kon u</w>
i̇sti krar</w>
hop es</w>
öne m</w>
süre kli</w>
si ç</w>
gi derek</w>
v uk</w>
tü sü</w>
ti vely</w>
ha m
ec h</w>
beg in</w>
al man</w>
r fe</w>
prin cip
ir ken</w>
ç ap
stat üsü</w>
iş a</w>
esti ma
ve ment</w>
r as
gü l</w>
fail ed</w>
ci es</w>
1 4
ıyor um</w>
r o</w>
mem ur
l o</w>
a h</w>
y la</w>
ke ep
da tion</w>
re ach</w>
re cor
kor u
halk ı</w>
cere mony</w>
ber işa</w>
ac i</w>
r l</w>
mar k</w>
et tiler</w>
d in</w>
bo dy</w>
yürü t
yükü m
i e</w>
el s</w>
dan ış
d ru
hap p
ma ğ
journ alists</w>
i̇ h</w>
fi gh
der ece
def ic
bur g</w>
an lis</w>
ülke si</w>
vi ola
karam anlis</w>
i̇ k
de ta
teş kil
gsy i̇h</w>
direc t</w>
dığ ına</w>
deleg ation</w>
a ve</w>
munici p
ci var
bil eceği</w>
ag ri
pro mot
invest ments</w>
il legal</w>
ber g</w>
tutuk lan
pla ced</w>
i̇ç işleri</w>
hiz met</w>
bulun duğu</w>
st atisti
sol di
san ay
n den</w>
le t</w>
k now</w>
his se
ade t</w>
yet k
v as
s for</w>
ros s</w>
ili ği</w>
gaze te
en try</w>
en ds</w>
düğ ünü</w>
araştır ma</w>
ak u</w>
si s</w>
l in</w>
i i</w>
ex amp
prosecut ors</w>
poin ts</w>
niha i</w>
mak tadır</w>
işbir liğini</w>
endi ş
cre dit</w>
199 8</w>
çalış an</w>
ol maya</w>
o me
5 m</w>
yapıl ması</w>
ul du</w>
requi re
j ere
gi z
p le
len mesi</w>
da ma
commun ities</w>
büyükel ç
teş vi
nere deyse</w>
f abri
a tes</w>
th aci</w>
ler indeki</w>
ch ur
üre ti
repor tedly</w>
li t</w>
jovan ovic</w>
fren ch</w>
ö n</w>
voi ced</w>
vic ti
gu l</w>
electri city</w>
de k</w>
yıl ına</w>
s vet
ol e</w>
müzak ere</w>
çağr ıda</w>
u kra
malar ını</w>
kay nak</w>
af ri
ac ross</w>
obli g
ko lay
halk ının</w>
du led</w>
bil ece
aşır ı</w>
y alı</w>
lin da</w>
eas tern</w>
bay ra
bak ış</w>
avrup alı</w>
ar ab
ıyor uz</w>
ölç ü
say g
inş a
ye sinde</w>
uzlaş ma</w>
sistem i</w>
isti h
al ek
is la
en ough</w>
dis put
ci vil</w>
r ot
for ward</w>
deter min
sen ior</w>
bun lar</w>
the at
sche duled</w>
respon sibility</w>
f as
e ge
depart ment</w>
de man
azın lık</w>
ra z</w>
plan ned</w>
pip eline</w>
op in
n ükle
mak ers</w>
kov a</w>
judi cial</w>
avro ya</w>
ati onal</w>
asse mb
ac cess</w>
abil ity</w>
tar af</w>
se par
fo ot
em p
dik kat</w>
yar ar
simil ar</w>
or ad</w>
nükle er</w>
inclu ded</w>
geli r
f und</w>
doğ al</w>
yol uyla</w>
yap ı
w in</w>
san dal
ne l</w>
kür t</w>
ken ti</w>
victi ms</w>
or tal
k lerini</w>
gün de
consider ed</w>
yasa dışı</w>
mil orad</w>
gü cü</w>
gre a
gge st</w>
bi ggest</w>
seç men
la j
kr iter
kno w
en ding</w>
d ly</w>
ca u
sür dü</w>
ros o</w>
ob jec
nu clear</w>
milos eviç</w>
m ini</w>
invest ors</w>
h il
ce ment</w>
bar roso</w>
ser ve</w>
environ ment</w>
e ast</w>
zir v
th ous
le y
inclu des</w>
alt ın</w>
t ru
soruştur ma</w>
seçim ler</w>
pos e</w>
parti cul
p au
net work</w>
karadz iç</w>
is land</w>
is inde</w>
disput e</w>
cha mp
büyükel çisi</w>
r un
lığ a</w>
en cour
diğ ine</w>
belir t
tra ining</w>
oper ate</w>
is ine</w>
hin d</w>
gelen ek
be hind</w>
tra ian</w>
particul arly</w>
do w
str on
s or</w>
mi ght</w>
ma aş
f ut
atlan tic</w>
artı ş
se ek
presiden tial</w>
önces inde</w>
tar ım</w>
en cy</w>
descri bed</w>
off er</w>
komut anı</w>
ti fak
l ül
emek li</w>
doğ al
baş ında</w>
attac ks</w>
ı f
rele ased</w>
m üş
ge n</w>
g a</w>
f ile</w>
aver age</w>
know led
j ap
1 1
memnuni yetle</w>
k tir</w>
ca ğını</w>
al ex
shor t</w>
se a</w>
liğ indeki</w>
be ta</w>
ış ı</w>
büyü me</w>
ada yı</w>
silah lı</w>
ex ec
alter nati
z a
veril di</w>
man u
baş bakan
agre ements</w>
he men</w>
düşün ü
im medi
su n</w>
p av
ort am
ma ması</w>
judi ci
guar an
toplum un</w>
ris k</w>
pau l</w>
chair man</w>
atlan tik</w>
add ress</w>
s y</w>
kas ab
in ste
ulu yor</w>
temsilc isi</w>
söyle diler</w>
part nership</w>
enti ty</w>
atten ded</w>
ah met</w>
addi tion</w>
siyas et
politi cs</w>
ad aki</w>
strate gic</w>
ol um
nat ural</w>
ro man</w>
respon sible</w>
ol sa</w>
pet ro
ol ası</w>
d z</w>
sıra da</w>
ish ed</w>
do lay
ce anu</w>
an ket
0 .
y our</w>
ch es</w>
büt ç
ti yle</w>
sürec inin</w>
program ı</w>
intro du
capac ity</w>
rad y
moder n</w>
en ing</w>
ola cak
me li
gi den</w>
geor gi</w>
d ini</w>
cre ate</w>
bus h</w>
bo ard</w>
sp lit</w>
olma dığı</w>
obser ver</w>
n dan</w>
uy uştur
sa ge</w>
presen ted</w>
le m</w>
lan gu
judici ary</w>
h and</w>
0 s</w>
w ent</w>
teh di
inste ad</w>
ba r</w>
ak lan
ğ ına</w>
ül mesi</w>
ölçü de</w>
tal ep</w>
plan ı</w>
lo an</w>
fe at
offic ers</w>
mu se
milli yet
me work</w>
ıl masını</w>
yur t
par ts</w>
h y
ensti tüsü</w>
düzenle diği</w>
da m</w>
si m
re al
provi ded</w>
ne ver</w>
concer n</w>
alar a</w>
re cek</w>
koalis yon</w>
huku k</w>
follow ed</w>
dimit ri
d s
avi er</w>
te gor
tama mla
kan ıt
biz im</w>
oper ations</w>
cal ls</w>
c all</w>
bran ko</w>
blo c
p us
ke ep</w>
h dz</w>
bil in
stabil isation</w>
jovan oviç</w>
confi dence</w>
acak tır</w>
r a</w>
es ine</w>
at h</w>
anton io</w>
ılı ğını</w>
y ou
so y
previ ous</w>
mal i
kon um
is in</w>
hede f</w>
exhibi tion</w>
baş sav
re commen
p ic
ord usu</w>
ola bilir</w>
lüğ e</w>
i on
görev i</w>
fır sat
br d</w>
ber t</w>
beca me</w>
ar gu
yür ür
oran ı</w>
n n</w>
mold ova</w>
lar dır</w>
kur tar
declar ation</w>
bin lerce</w>
a id</w>
ö y
yon e</w>
oy u</w>
lider ler</w>
bi g</w>
anlaş maya</w>
ti yat
pay laş
güven ce</w>
fra mework</w>
deste ği</w>
ü ş</w>
dev r
alan ında</w>
ç if
yor um
theat re</w>
tari ceanu</w>
strate jik</w>
ow ned</w>
ma dığı</w>
govern ments</w>
comple te</w>
ac tions</w>
4 .
ri d</w>
mü da
examp le</w>
çün kü</w>
çalış ıyor</w>
ma car
in ning</w>
assemb ly</w>
terror ist</w>
t as</w>
mana gement</w>
inter ests</w>
amer ik
teşvi k</w>
stu dy</w>
soldi ers</w>
regar ding</w>
o ds</w>
isti krar</w>
bas kı</w>
ar ti
uzman lar</w>
tal e
per son</w>
il miş</w>
g un
e brd</w>
candida tes</w>
publish ed</w>
pro tes
po or</w>
ici ent</w>
tr on
opportun ity</w>
j ur
ö te</w>
zir a</w>
y av
tut um
trav el</w>
sorun ları</w>
ne s
is ra
es s</w>
malar ına</w>
a ile
ğ e</w>
particip ants</w>
enge l</w>
defic it</w>
cr iter
4 00</w>
şe hi
şampiy on
j ko</w>
f on</w>
visi ted</w>
potansiye l</w>
milletvekil i</w>
may acak</w>
bu c
suc cess</w>
refu ge
man date</w>
karş ılan
art an</w>
agen da</w>
par vanov</w>
tü ke
ta x
sin gle</w>
p ek
out side</w>
mit ted</w>
lar ca</w>
karad aku</w>
i̇s ra
def a</w>
ur a</w>
ov o</w>
o g</w>
lu s</w>
li ve</w>
importan ce</w>
çık tı</w>
yüküm lül
ticar i</w>
sci enti
o k
ikti dar</w>
t y
part inin</w>
marke ts</w>
is im</w>
di vi
avustur ya</w>
sür üyor</w>
g ol
biç im
tr ying</w>
s por
imp act</w>
feder ation</w>
ek sik
ra r</w>
pre v
parti sinin</w>
müslü man</w>
lo ok</w>
laj cak</w>
konfer ans
kendis ini</w>
enge n</w>
ol ma</w>
dr a</w>
yaş am</w>
ut e</w>
sonu ç</w>
se qu
me h
k ız
inte l
böl genin</w>
beg inning</w>
a way</w>
zar ar</w>
ol up</w>
iden ti
göster en</w>
ar med</w>
mil an</w>
j es
g isi</w>
f ay
f al
confir med</w>
orta dan</w>
meyece ğini</w>
lar daki</w>
iş leme</w>
f la
ev ents</w>
edi yorlar</w>
de ad
z u
yen il
low er</w>
geç iş</w>
engel le
d ak
ler deki</w>
i̇ span
değ il
ci c</w>
car ri
başar ıs
agre e</w>
trans port</w>
sch engen</w>
pa id</w>
ür ün
teknolo ji</w>
ma dde
ga mes</w>
de l
accu sed</w>
sugge s
mis t</w>
ger ek</w>
an ds</w>
6 .
tur n</w>
thous ands</w>
requi red</w>
ques tion</w>
pris on</w>
ne g
li ght</w>
olum suz</w>
me z
k ir
jo bs</w>
ha ving</w>
en tly</w>
wh y</w>
sus pec
dol ar
do ku
çev re</w>
sırp ların</w>
kö y
c ot
özelleştir me</w>
we ap
ex tre
cin a
ban ks</w>
me diği</w>
ko lay</w>
fo od</w>
li ç</w>
len iyor</w>
l ost</w>
cen tur
1 50</w>
vi ce</w>
staf f</w>
rej im
pri ority</w>
mus lim</w>
i ja</w>
hız lı</w>
der ken</w>
c are</w>
spokes man</w>
sp on
p ped</w>
mo bile</w>
me kan
mar ks</w>
lığ ın</w>
ko z
ex change</w>
deb ate</w>
dav a</w>
criter ia</w>
çocu k</w>
yapıl an
stat üs
o ulos</w>
bir bir
ada m
12 th</w>
u al</w>
tü rel</w>
prote st
oy la
kom ş
kesi mi</w>
georgi ev</w>
em in</w>
dra ft</w>
conduc ted</w>
civar ında</w>
addi tional</w>
4 4</w>
ıyor du</w>
tak ım
plan lıyor</w>
kül türel</w>
inv est</w>
yap ıyor</w>
tu ally</w>
tu al</w>
sürec ini</w>
sti pe</w>
promis e</w>
kıs m
c k
böl üm
al d</w>
4 5</w>
sa t</w>
qu e</w>
kaç ak</w>
düş ür
diğ er
challen ges</w>
av u
s alar
en ter</w>
cı ların</w>
res sing</w>
kon trol
k il</w>
j avier</w>
, 5</w>
pled ged</w>
g g
comple ted</w>
c tive</w>
ad van
ayr ı</w>
w anted</w>
uygula ma</w>
profes sor</w>
or ig
imple ment</w>
görü len</w>
tech n
qu ic
high est</w>
continu ed</w>
austri a</w>
success ful</w>
mik tar
la mak</w>
g in</w>
bir lik</w>
alle ged</w>
yak ında</w>
ses sion</w>
olimp iyat</w>
it self</w>
el çisi</w>
temsilc iler</w>
tav si
r ö
parlamen to
nov i</w>
it ation</w>
üye liğine</w>
pol isi</w>
g iti
alek san
t ılı</w>
rak am
pet er
insan ların</w>
al ış
mul ti
lik leri</w>
is im
il ecek</w>
eu observer</w>
dav ran
bölge si</w>
mo un
jo ining</w>
d ju
set t
over all</w>
madal ya</w>
h ou
ıs rar</w>
öv gü
wh ole</w>
al ması</w>
un employment</w>
r um
opin ion</w>
kal dı</w>
jo ined</w>
hat tı</w>
commit ment</w>
ab road</w>
ver s</w>
inter view</w>
hazır lan
gün lerde</w>
buc kovski</w>
ın ca</w>
ç iler</w>
söyle yerek</w>
respec t</w>
muse um</w>
la bour</w>
indic tees</w>
il i</w>
exec u
visi ons</w>
uyor lar</w>
temsil ci</w>
sil ah</w>
sel ves</w>
mu t</w>
j el
fu giti
as ses
yap mak</w>
yap acak</w>
uyuştur ucu</w>
lık lar</w>
geç ici</w>
gazetec ilere</w>
diplo mas
ul ması</w>
tep ki</w>
söylü yorlar</w>
mar tti</w>
geç er
cl in
bek liyor</w>
villa ge</w>
tour ists</w>
teş kil</w>
tak ım</w>
s p</w>
refer and
proj enin</w>
pat h</w>
i̇ngil iz</w>
derne ği</w>
ce v
belirti l
us unda</w>
techn ical</w>
sig ning</w>
onay ladı</w>
macar istan</w>
implemen ting</w>
diploma t</w>
toplan tı</w>
ide a</w>
yanlı sı</w>
vo tes</w>
prev ent</w>
par is</w>
wi de</w>
i ed</w>
doku z</w>
do min
comm er
a ded</w>
se r</w>
i̇ v
gro und</w>
şe yi</w>
ıy an</w>
ula cak</w>
top rak
parti ler</w>
müzakere leri</w>
g j
danış man
ac il</w>
abil eceğini</w>
tal at</w>
ru g
pal ities</w>
munici palities</w>
ma yor</w>
görüş me</w>
cover ed</w>
ci ties</w>
yak alan
ti s</w>
sosyal ist</w>
ser t</w>
laun ch</w>
iste yen</w>
g os</w>
figh ting</w>
b on
ver im
stan ce</w>
sorun lar</w>
res o
re ven
la bor
hos p
faali yet</w>
belir le
acağ ına</w>
yıl dan</w>
yürür lüğe</w>
man ag
keep ing</w>
equ ip
elec ted</w>
do ing</w>
char ged</w>
ar ing</w>
an an</w>
çalış an
ver diler</w>
thre at</w>
s we
protes to</w>
kıs ıt
gö ç
gö z</w>
concer ns</w>
tamam lan
p lus</w>
baz ıları</w>
ıl masına</w>
yöneti mi</w>
sol da</w>
i̇t tifak
il s</w>
görüşme de</w>
yaptı kları</w>
vade li</w>
ou ght</w>
olimp iyat
5 .
uyar dı</w>
th ings</w>
fin ans</w>
du r</w>
başlan gı
estab lish</w>
amoun t</w>
ver me</w>
si mp
rap or</w>
olas ılıkla</w>
miş tir</w>
karş ılık
alın an</w>
y ık
wel co
welco med</w>
ser v
jud ges</w>
ad vis
10 th</w>
1 5th</w>
ser ies</w>
mi ç</w>
attac k</w>
üzer inden</w>
aç ıldı</w>
se li
ra tes</w>
koalis yon
k un
indu stri
göre n</w>
anlaş mayı</w>
produc ts</w>
i̇ ran</w>
ge z
ever ything</w>
compar ed</w>
mesi ç</w>
lo c
kur al
yaş a
tra j
fiel d</w>
ay lık</w>
yer li</w>
toplantı da</w>
lider liğindeki</w>
göster di</w>
fir m</w>
estima ted</w>
vic tory</w>
seek ing</w>
plan lanan</w>
hare ket
fail ure</w>
bil gis
bek lenen</w>
ç ö
komi tesi</w>
işbir liğinin</w>
gen ce</w>
foot ball</w>
da ş</w>
tir e</w>
oh rid</w>
mid dle</w>
chur ch</w>
weap ons</w>
st al
sh are</w>
sa tis
respon se</w>
has tan
göz lem
ge ts</w>
expla ined</w>
em bas
e z
contri but
amer ic
pri mar
of ten</w>
mek ten</w>
katıl an</w>
hi t</w>
fac ing</w>
dur dur
bakan ları</w>
lit tle</w>
liber al
i̇n san</w>
in dj
h im
gelece ği</w>
7 5</w>
w arn
star ting</w>
some thing</w>
ra z
mr o</w>
konu da</w>
g ın</w>
doğal gaz</w>
clos ed</w>
cin ciç</w>
un it</w>
i v</w>
hol ds</w>
fon u</w>
dı klarını</w>
dju kan
ap o
su sta
rapor unda</w>
plan la
has ani</w>
cl as
b on</w>
ğ ü</w>
sonuc unda</w>
peter sen</w>
cal ling</w>
belir len
as ker</w>
abil ecek</w>
redde t
bro ad
u c
prote st</w>
me mesi</w>
kur ban
kil is
fa ces</w>
etkil i</w>
er iş
pac k
d ük
5 5</w>
z ay
y di</w>
saldır ı
reka bet</w>
m ers</w>
dr as
at lar</w>
al ed</w>
a me
y um
sus pects</w>
san tral
kom şu</w>
ge ci
g ri
f av
bildir ildi</w>
hungar y</w>
buil t</w>
bas is</w>
bakan lar</w>
anal istler</w>
çab a</w>
yürütü len</w>
v mro</w>
jes sen</w>
i al</w>
tarih li</w>
streng th
oldu klarını</w>
kurul ması</w>
il ed</w>
critic ised</w>
continu es</w>
rug ova</w>
p sd</w>
malar a</w>
ihtiy aç</w>
cypri ots</w>
kil ome
hum an
ev a</w>
edece ğini</w>
chr isti
ayr ın
sonuç lar</w>
pol ls</w>
cus u</w>
bor ders</w>
bil diri
bi z</w>
adı lar</w>
ş ah
pat ri
particip ation</w>
ov ac</w>
muş tu</w>
le ave</w>
gelecek te</w>
docum ents</w>
ıs ını</w>
vi de
ti ş
sin deki</w>
redu ce</w>
pre ven
pas sed</w>
mi ros
karar ını</w>
indj ic</w>
da vet</w>
b lic</w>
we ek
stre et</w>
soci alist</w>
plan ning</w>
ori al</w>
evi dence</w>
dj indjic</w>
ce viç</w>
abil ece
scho ols</w>
k l
f oto
de v</w>
dav ut
ci r
ğ a</w>
ti v
tarih leri</w>
s w
pros pects</w>
hol landa</w>
ad in
önün e</w>
reform u</w>
i̇sra il</w>
iler let
ek i
d ge</w>
bilgis ay
accep t</w>
üst len
strate j
speak ing</w>
ru les</w>
lo t</w>
görüşme ler</w>
gör üyor</w>
geli r</w>
düşün üyor</w>
auth ority</w>
çerçev esinde</w>
so mut</w>
rö por
og lu</w>
nor mal</w>
me ti</w>
k op
ho urs</w>
ch e
an ni
öldür ül
uygulan ması</w>
seçim lerin</w>
pol ici
polici es</w>
particip ate</w>
papandre ou</w>
mesi c</w>
merke l</w>
me yen</w>
il ies</w>
dik al</w>
ğ iz</w>
s dp</w>
ra dikal</w>
on going</w>
miros lav</w>
mecl isi</w>
ber lin</w>
t az
pr o</w>
law makers</w>
katkı da</w>
et s</w>
devle tin</w>
bir leştir
taş ıyor</w>
sonu cu</w>
r ing</w>
olog ical</w>
frans ız</w>
effec t</w>
sey a
san at</w>
langu age</w>
ku l</w>
al ı
7 .
1 7th</w>
tah min</w>
se m
pres ence</w>
ol makla</w>
mış tır</w>
en jo
cı ları</w>
ay ın</w>
acti v
a ims</w>
siyas et</w>
mu staf
fron t</w>
b ly</w>
arş iv</w>
yer ini</w>
muhalef et
me miş</w>
kendis ine</w>
e ye</w>
d istan</w>
arri ved</w>
alın dı</w>
soy kır
require ments</w>
re stor
gü ç</w>
emplo ye
commun ist</w>
aca de
z i
wo man</w>
rejec ted</w>
popu lar</w>
indic ted</w>
göz den</w>
foto ğra
en tire</w>
karar l
ist e</w>
de ath</w>
throu gh
no k
h i</w>
ü ç
yap maya</w>
sy ri
re mov
profes yon
me li</w>
len di
comp li
communic ations</w>
cade s</w>
bor ç
sto p</w>
s co
ph one</w>
k iç</w>
i ade</w>
gru b
de cl
wor th</w>
w al
n an
i̇l k</w>
grea ter</w>
achi eve</w>
1 6
vers ary</w>
reso urces</w>
qu ality</w>
p ad
mes sage</w>
haber lerinde</w>
gerçek ten</w>
20 th</w>
yor du</w>
seya hat</w>
s over
karşılık lı</w>
isla mic</w>
do x</w>
di an</w>
boris ov</w>
açık ça</w>
2 1st</w>
you th</w>
st able</w>
sover e
ni ght</w>
kay ıt
hayat a</w>
hakk ı</w>
es ini</w>
be coming</w>
övgü de</w>
yan i</w>
ser ved</w>
recog ni
pack age</w>
mil yon
m ne</w>
jos ip
getir il
dur uş
st ac
min orities</w>
giz li</w>
dp mne</w>
car la</w>
çöz üm
tekli f</w>
tedbir ler</w>
off ered</w>
ten der</w>
st k</w>
speak er</w>
r ise</w>
lan ds</w>
gen o
ful fil
d ss</w>
y in
ver iyor</w>
ti f</w>
through out</w>
the m
oran da</w>
nüf us</w>
mes le
ex er
diplomas i</w>
demon stra
consi der</w>
ch ance</w>
bil g
be l</w>
başkan lık</w>
an ge
alar da</w>
y s</w>
surve y</w>
reas on</w>
influ ence</w>
geci k
fin al
ex pen
er a</w>
cre ated</w>
şirke tin</w>
yak al
se ats</w>
ra f
pro m</w>
mos tar</w>
ma ter
iş sizlik</w>
feder asyonu</w>
cre te</w>
cr venkovski</w>
ayr ıl
anni versary</w>
alın ması</w>
ıy ı</w>
yarg ı
territ ory</w>
lon ger</w>
la ura</w>
ita in</w>
görüşme lerde</w>
ge o
diyal og</w>
d ö
br itain</w>
ati c</w>
ac ts</w>
yükümlül ük
v el
tarih te</w>
t ations</w>
m ıyor</w>
kil it</w>
fam ilies</w>
c nn</w>
çalış maları</w>
yan ıt</w>
streng then</w>
recogn ise</w>
oblig ations</w>
mur der</w>
iler den</w>
ik a
g y
ex pl
durum un</w>
dow n
s ık</w>
nitelendir di</w>
ne s</w>
kurul an</w>
hap is</w>
fut bol</w>
ex ports</w>
en ed</w>
de plo
de fin
cu p</w>
bek li
altyap ı</w>
sugges ted</w>
struc tures</w>
performan ce</w>
mal ıdır</w>
mahke mesiyle</w>
mahke me
kesin likle</w>
d us
clos er</w>
champ ion
ğ inin</w>
diploma tik</w>
cour se</w>
trans par
sayg ı</w>
g old</w>
e ly</w>
bu s</w>
anlaş masının</w>
ver ecek</w>
shi ps</w>
pros e
müzakere lerinin</w>
ma m
lo cated</w>
kaydedil en</w>
ital ian</w>
go ods</w>
eu for</w>
ch ap
believ es</w>
örgü t</w>
un sur
tır ma</w>
ro ad
oluştur uyor</w>
n ab
mu sic</w>
ex pan
cru cial</w>
condi tion</w>
ch ing</w>
al ways</w>
al maya</w>
seçim lerde</w>
reform ların</w>
ra k</w>
fun c
alan da</w>
ac knowled
ö dü
ro r</w>
geno ci
ücre t
zor un
ver mek</w>
ri es</w>
gen işleme</w>
d ina</w>
yayın ladığı</w>
w est</w>
th us</w>
ol masını</w>
ob stac
nat asa</w>
grow ing</w>
f y</w>
değişik lik</w>
b ler
uygula maya</w>
re fle
h al</w>
sürec inde</w>
resol ved</w>
remain ing</w>
promot e</w>
iv an</w>
ger s</w>
do lar</w>
al ey
19 7
sat ış
pr oto
mek tu
gaz prom</w>
busines ses</w>
bil mesi</w>
ağ ır</w>
americ an</w>
199 0s</w>
11 th</w>
ş eff
ser ge
se z
se j
se e
konuş masında</w>
kampan y
iktidar daki</w>
han d
chan ged</w>
bla ck</w>
ar ed</w>
recogn ised</w>
proj esi</w>
görev l
do kt
centur y</w>
bil gil
ar ac
toplum sal</w>
them selves</w>
suppor ted</w>
stef an</w>
or ing</w>
iş i</w>
f all</w>
divi ded</w>
ac tive</w>
19 th</w>
şüp he
yıl dön
speci fic</w>
pad dy</w>
ortal ama</w>
olma dan</w>
müzakere ler</w>
malar ının</w>
j ose</w>
i̇ z
inf lation</w>
gelenek sel</w>
fun ding</w>
yıl ındaki</w>
v in
p ul
on ları</w>
lik ler</w>
insan lar</w>
ger gin
genoci de</w>
dik lerini</w>
cont ro
başlat tı</w>
bağımsız lığını</w>
an a
air port</w>
yön de</w>
röpor taj
oz one</w>
oy na
medi apo
ku p
i̇tal yan</w>
ihtiy acı</w>
cele bra
aley h
slov ak
olan ak</w>
declar ed</w>
v az
ti ves</w>
komis yon
increas ing</w>
hol ding</w>
har cam
eğ il
dem and</w>
con s
ar ke
ç ar
imi zi</w>
genişle meden</w>
blo om
b inden</w>
zagre p</w>
t age</w>
si onal</w>
se ek</w>
meh met</w>
i̇ li
göre ve</w>
eur ozone</w>
bloom berg</w>
tr an
or tho
olacak tır</w>
kö pr
kin d</w>
cre di
öy le
z one</w>
yas anın</w>
suç la</w>
sto jan
sho ws</w>
sa ğ</w>
pas ok</w>
min deki</w>
ma tic</w>
la l</w>
dnev nik</w>
ash i</w>
çöz ü
we b</w>
tele vision</w>
te mas
ni k
mil o</w>
ja ap</w>
g üz
equip ment</w>
6 00</w>
reform lar</w>
pur ch
papandre u</w>
offici ally</w>
mos co
isti fa</w>
fis cal</w>
fil m
der ed</w>
ba ba
b and</w>
6 5</w>
ödül ü</w>
veril ecek</w>
to do
t ının</w>
s man</w>
ortho dox</w>
kay be
ce ku</w>
ş ans
temsilc ileri</w>
sey diu</w>
s mo
op ti
ola y</w>
mosco w</w>
mic ha
komün ist</w>
k un</w>
fi gu
örne ğin</w>
yo ğ
tasar ru
sou thern</w>
prote ct</w>
neighbour ing</w>
lead er
kal i
k ic</w>
invol vement</w>
di ed</w>
al dığını</w>
adım lar</w>
acak lar</w>
5 0
seç en
hap pen
g or</w>
endi şe
e ch
ci vil
belirti yor</w>
achiev ed</w>
z el
sektör ü</w>
s qu
or todo
kur ma</w>
inan ıyor</w>
experi ence</w>
endiş e</w>
edil miş</w>
am end
v es
ol uyor</w>
m c
kos or</w>
indic tment</w>
imi z
ilgil en
eyal etin</w>
etkin lik</w>
embas sy</w>
doğ rul
cla ims</w>
bil l</w>
yıl lardır</w>
su per
re k
o co
il ke
girişim i</w>
fir e</w>
den ey
bir liğe</w>
b g</w>
analy st</w>
af gh
ziyaret te</w>
ziyaret i</w>
v ia</w>
um uz</w>
recogni tion</w>
p ira
it ors</w>
ga ther
deci de</w>
c iting</w>
arnavut lar</w>
ak ade
ön lem
öl üm
yarg ılan
sa s</w>
pop ü
makam ları</w>
imzalan an</w>
eş it</w>
a w
çab alarını</w>
un la</w>
mi gr
me se
mat ter</w>
lı kları</w>
l ilik</w>
kapsam lı</w>
immedi ately</w>
gen cy</w>
er ini</w>
en fl
decis ions</w>
belirtil di</w>
ar kada
olymp ics</w>
i̇s lam</w>
hat ta</w>
for ced</w>
1 20</w>
sloven ian</w>
s n
redde tti</w>
pla t
olaca ğı</w>
mediapo ol</w>
k s
dou b
başkan lığını</w>
b öyle
4 ,
val en
söyle yen</w>
str al
os ki</w>
leader ship</w>
le h
implemen ted</w>
i hal
dünyas ında</w>
challen ge</w>
belir ten</w>
an te</w>
ı tı
üre tic
ç in</w>
yıl a</w>
y iz</w>
söz leri</w>
siste minin</w>
ei ther</w>
acağ ız</w>
2 8th</w>
ü yle</w>
sus pen
su ik
s cen
re stri
oper ating</w>
li gh
figu res</w>
eyal et
con crete</w>
bir isi</w>
appro val</w>
an oviç</w>
abil eceği</w>
sp ap
sej diu</w>
prepar ed</w>
onay la
new spap
mar ina</w>
kampan ya</w>
d üre
con trol
allow ed</w>
z en</w>
no thing</w>
nab uc
lev els</w>
i me</w>
ex isting</w>
e bilir</w>
dire ktör
ce vic</w>
vatandaş ların</w>
ti ç</w>
ter ci
s par
mus li
iç indeki</w>
is es</w>
g ur
emp has
effec tive</w>
den et
cli mate</w>
attem p
accep table</w>
u da</w>
tak es</w>
soruml uluğ
dan i
ce ğini</w>
ar ran
ı f</w>
televiz yon</w>
tari h</w>
ortodo ks</w>
nabuc co</w>
micha el</w>
ko ordin
görev deki</w>
execu tive</w>
ex tradi
baş a</w>
b asında</w>
ımız ı</w>
sa at</w>
municip ality</w>
imzal adı</w>
establish ment</w>
cul ar
ci oco
ch p</w>
un es
milletvekil leri</w>
lj aj
f lo
cor e</w>
benef it</w>
bak o
yin ele
vo dina</w>
st age</w>
me ş
li ves</w>
kurum ları</w>
idar i</w>
ga ve</w>
cioco iu</w>
bre ak
bi raz</w>
appro ach</w>
13 th</w>
ğ ın
zaman dır</w>
ti tu
politik ası</w>
iz i</w>
imzal adılar</w>
haber lerde</w>
for med</w>
com pu
av an
8 00</w>
uyar ınca</w>
thre at
ro m
mo del</w>
ma ş
i̇span ya</w>
iste di</w>
finan cing</w>
cour ts</w>
con sum
boş nak</w>
amerik an</w>
tu ğ
sor unun</w>
parti cular</w>
leş ti
iyor lar</w>
inşa at</w>
d n</w>
şar t</w>
yok sul
tanın mış</w>
opportun ities</w>
la ted</w>
ith al
impro ved</w>
djukan ovic</w>
com promise</w>
ati k</w>
arkada ş
öğre tim</w>
çab aları</w>
yap ma</w>
sürec ine</w>
pers ons</w>
kazan an</w>
k â
her it
giri ş
edil ecek</w>
do laş
d ance</w>
br on
tur n
ta ining</w>
ren e
mekan iz
hayat ını</w>
hav a
har adin
employe es</w>
cos ts</w>
1 4th</w>
üst ün
unes co</w>
sub mitted</w>
sa yesinde</w>
rele ase</w>
prote sts</w>
promis ed</w>
part ners</w>
on ed</w>
mu h
impro ving</w>
he yeti</w>
f p</w>
durum unda</w>
dene ti
be ş
an la
treat y</w>
politi kas
parti lerin</w>
lju b
karar ın</w>
isti c</w>
h ita
dev re
bi t
profes sional</w>
milliyet çi</w>
kar maş
ilişk ilerin</w>
hita ben</w>
concer ning</w>
al ing</w>
z eng
ro w</w>
regist ered</w>
ra ma</w>
le ment</w>
kesi m
i j
fik ir</w>
cri tical</w>
ast ase</w>
anal ist</w>
adi l</w>
ve ç</w>
secur e</w>
prose dür
positi ons</w>
le s
ey lem</w>
exer c
char ge</w>
bil im
ber s</w>
accoun t</w>
z r
n astase</w>
mos kova</w>
mar ked</w>
et meyi</w>
a war
v i</w>
tü m
teşkil at
sho wed</w>
ra cak</w>
p i</w>
oldu kları</w>
manu el</w>
mahke menin</w>
hareke ti</w>
h ri</w>
dru g</w>
c ally</w>
bako yan
agri culture</w>
1 7
tra fi
si tes</w>
savaş ı</w>
may la</w>
kay na
dest ro
bir liğin</w>
bar ış
av ail
an ovic</w>
çev re
z am</w>
tal ep
program mes</w>
parti leri</w>
p tion</w>
na med</w>
meet ings</w>
e d
bi ze</w>
ar re
1 6th</w>
pla ces</w>
pa ce</w>
li gence</w>
inter nal</w>
il gi</w>
hi c</w>
herit age</w>
et tik
dz ic</w>
bor ç</w>
bler ta</w>
çif t
yıl larda</w>
un dp</w>
ter k</w>
ru h
ph il
değ er</w>
tur ned</w>
part ner</w>
mücadele de</w>
lık lı</w>
dı ktan</w>
dolar lık</w>
dağ ıt
bölge sinde</w>
alar ak</w>
mos tly</w>
kat ıla
her kes</w>
he yet
haber lere</w>
gü r</w>
erke k</w>
c at
ath le
acti v</w>
a mid</w>
te miz
pos sibility</w>
müzakere lerini</w>
monit oring</w>
k ent</w>
iste diğini</w>
fa x</w>
belge de</w>
3 2</w>
tele com</w>
si gar
nor mal
no min
mat ch</w>
iler de</w>
do c
bo j
be cer
sürec in</w>
st ay</w>
re ti
pra ised</w>
lık ların</w>
kat ı</w>
guar dian</w>
ex port</w>
con sequ
30 th</w>
2 5th</w>
öz er
uz ak
söz leş
st ing</w>
men sup
ga in</w>
focu sed</w>
ev i</w>
eur activ</w>
du i</w>
de mir
benef its</w>
ayr ım
af gan
ş un
u d
sur iye</w>
pop escu</w>
olo gy</w>
getir mek</w>
expec ts</w>
değişiklik ler</w>
devel op</w>
yay ın</w>
recor d</w>
n am
liğ inde</w>
happ en</w>
asses s
amp ;</w>
& amp;</w>
zir ve
vis itors</w>
sağla ma</w>
sal e</w>
provi ding</w>
kıs mı</w>
baba can</w>
ar cha
ar a
ş ika
nikol ovski</w>
men i</w>
karada ğ
gazete ci</w>
etkil en
bi t</w>
believ ed</w>
taraf lı</w>
ser ma
sal on
ph ase</w>
p fp</w>
k um
imzalan dı</w>
elec tor
cha mber</w>
baş layan</w>
afgan istan</w>
2 3rd</w>
şehi r</w>
ıs ının</w>
ıs ına</w>
üst ü</w>
tutuk la
tif ak</w>
ri ver</w>
re construction</w>
progra m</w>
pos t
lar ak</w>
geti ren</w>
gel diler</w>
dimitri s</w>
cros s</w>
contra ct</w>
c z
alış ver
öz gür</w>
ödü l</w>
toplantı sı</w>
sağ da</w>
huku kun</w>
biçim de</w>
a ile</w>
ön görülüyor</w>
y ers</w>
sah ne
ot e</w>
me chan
head s</w>
ass as
a teş
20 13</w>
çoğun luğ
z iv
yap acağı</w>
var dı</w>
tion ing</w>
resol ve</w>
pol l</w>
mov ie</w>
ma ç
lar dı</w>
in dir
giri şim</w>
comp la
ca ğı</w>
assas sin
archa e
appoin ted</w>
a im</w>
5 ,
2 2nd</w>
çar p
p il
mak fax</w>
ih lal</w>
ex clu
en de
bun ları</w>
ba har
yoğ un
t te
spa in</w>
r ating</w>
nikol iç</w>
mustaf a</w>
is ted</w>
ines s</w>
hun dre
git ti</w>
f avo
establish ing</w>
bra him</w>
an ların</w>
6 ,
tour ist</w>
tiğ ine</w>
l dk</w>
kı ya</w>
i̇ gor</w>
hundre ds</w>
c iler</w>
b ür
adri atic</w>
3 4</w>
1 8th</w>
y i
sür düre
sp iri
sho wn</w>
re iter
kı yas
di m</w>
cont act</w>
c av
bildiri de</w>
ar men
up coming</w>
u d</w>
p over
it ate</w>
feder al</w>
ba j
au di
atör ü</w>
tes is
sh ort
ser gi</w>
p un
neg ative</w>
katıl mak</w>
kat liam
is ion</w>
intel ligence</w>
institu tion</w>
gel diğini</w>
fi f
belirti liyor</w>
an ke
t ch</w>
orig in
make s</w>
foun dation</w>
eur o
es er
e din
düny ası</w>
bas ic</w>
adri y
ulaş tırma</w>
opti mis
lığ ından</w>
he aded</w>
et ki</w>
afgh anistan</w>
adriy atik</w>
2 50</w>
. bg</w>
ğ inden</w>
yar alan
yan ında</w>
tur ing</w>
sun du</w>
sayıs ının</w>
refuge es</w>
pover ty</w>
os man
onay lan
mas sa
kamu oyu</w>
iy im
environ mental</w>
avail able</w>
top rak</w>
pre ad</w>
ir i</w>
gerçekleş ecek</w>
c over</w>
bütün leşme</w>
bi re
avo id</w>
zaman ı</w>
yas ak
sür ü
quar ters</w>
pos es</w>
on a</w>
negoti ating</w>
iç işleri</w>
it ar
it a</w>
in ce
hedef i</w>
güven li</w>
görüş mek</w>
er te
discus sions</w>
da vi
tradi tional</w>
kriz in</w>
ko fi</w>
iv ica</w>
h ost</w>
g ly</w>
bir inin</w>
bil ir
bağlan tı
3 6</w>
ıl dığı</w>
tr a</w>
main ly</w>
kurtar ma</w>
inte gr
de ler</w>
continu ing</w>
2 7th</w>
ülke lerine</w>
zr venkovski</w>
sup pli
strength ening</w>
soruml usu</w>
on lara</w>
kon j
ex cep
ay olu</w>
alle ge
5 ,000</w>
şart ları</w>
üre tim</w>
ver diğini</w>
mi a</w>
ha k</w>
grub un</w>
es sen
dra g</w>
dağ ıtı
be st
allege dly</w>
üye lerinin</w>
terör le</w>
ro bert</w>
pri orities</w>
ma d
karar lı</w>
hu ge</w>
he av
grap h
bildir di</w>
bi l</w>
bağ ış
çoğun luğu</w>
uz ak</w>
sou ght</w>
röportaj da</w>
referand um
pu an</w>
nüfus un</w>
mil li</w>
ler ek</w>
hr ist
en na</w>
agen cies</w>
z ko</w>
yıl dı
sp ending</w>
ing ing</w>
görün üyor</w>
gazetes inin</w>
fo ur
eur ov
di g
cz ech</w>
con sul
con dem
1 ,000</w>
ülke lere</w>
w er</w>
sen d</w>
kan ın</w>
f ena</w>
c ast</w>
bir çok</w>
baş lay
ac ılık</w>
ı ma</w>
veril mesi</w>
trans fer</w>
tol er
son u</w>
person al</w>
per man
kal ma</w>
du res</w>
da fi</w>
bri dge</w>
bo o
aleksan dar</w>
ı ya</w>
vi enna</w>
uygulan an</w>
us u
tri ed</w>
prote sto
loo king</w>
le av
kiş ilerin</w>
kaç ın
fin ally</w>
eurov ision</w>
d al</w>
cor por
comm and</w>
cen tral
ama cı</w>
alan ı</w>
199 6</w>
ılığ ında</w>
with dra
vot ing</w>
sub stan
sol u
me an</w>
may acağı</w>
go als</w>
bun unla</w>
bakan lık</w>
b ing</w>
at i</w>
v iy
tas k</w>
sup ply</w>
sett lement</w>
sa w</w>
mo ment</w>
mesa j
li man
k la</w>
ing ly</w>
geti riyor</w>
facil ities</w>
en ler</w>
du p</w>
day alı</w>
cr e</w>
cen sus</w>
bor n</w>
ye ş
ulu ş</w>
tiyat ro</w>
tic s</w>
th an
sonuç ları</w>
proce dures</w>
pro mo
olur sa</w>
mis yonu</w>
li c
la zar
ho ş
histor ic</w>
dü r</w>
durum daki</w>
199 3</w>
öğren ci</w>
viy ana</w>
transi tion</w>
pr e</w>
mil ovan
let ter</w>
kal ar</w>
ifade si</w>
gre eks</w>
gazetes ine</w>
ever yone</w>
economi es</w>
dav or</w>
başkan lığı</w>
ar ken</w>
ün deki</w>
önce den</w>
yönet men</w>
yaz ar</w>
ter min
tak ımı</w>
olas ılığı</w>
oh ri</w>
mis sions</w>
en i</w>
ün lü</w>
yan s
v iç
ur ging</w>
mo on</w>
emer gency</w>
ca de</w>
affec ted</w>
8 .
2 6th</w>
yap ıla
uyar ıda</w>
th ere
teknolo j
stu dies</w>
s can
müz ik</w>
le f
kaçakç ılığı</w>
isra el</w>
h es
gu lar</w>
de ut
cer tain
bas k
an der</w>
traff ic</w>
serge y</w>
milos oski</w>
karmaş ık</w>
kan al
h ina</w>
en for
ci ted</w>
ca used</w>
bel ge</w>
baş layacak</w>
açıkla ma</w>
austri an</w>
assess ment</w>
sub jec
moder ni
koalis yonu</w>
i̇s viç
görüş ün
ex p
e derken</w>
dik kat
dani el</w>
cr ats</w>
confli cts</w>
bölün müş</w>
bi ti
az al
um ents</w>
requ est</w>
ni yet</w>
liğ iyle</w>
ken tin</w>
entegr asyon</w>
dış ındaki</w>
clin ton</w>
ar chi
öğre t
ö deme
uz at
t z</w>
sürdür üle
sch e</w>
sandal ye
pu tin</w>
prosec ution</w>
nikol ic</w>
mem nun</w>
lık la</w>
liberal isation</w>
kö tü
k ly</w>
jere miç</w>
istikr arı</w>
hel ping</w>
geli şim
diğ inde</w>
9 .
zor lu</w>
te cek</w>
süre dir</w>
s ds
roun dup</w>
reas ons</w>
rapor u</w>
pla yed</w>
lo ans</w>
lan d
k uş
i med</w>
haber ine</w>
görev den</w>
fik ir
ay ır
yakın larındaki</w>
vo j
uz man</w>
suspec ted</w>
pri ze</w>
mb ol
len di</w>
iler inden</w>
ha şim</w>
güven liği</w>
et mekle</w>
ech o</w>
düşünü yorum</w>
develop ments</w>
dai re
contribut e</w>
con c
aut on
ar tic
sergil e
sar koz
medi cal</w>
individu al</w>
düzey de</w>
dus an</w>
direktör ü</w>
de fe
birleş ik</w>
anlaş masını</w>
st a</w>
spa ce</w>
sarkoz y</w>
kur t
kolay laştır
k af
inter ested</w>
i ye
hosp ital</w>
curren cy</w>
cla imed</w>
alex ander</w>
ad ına</w>
tion ed</w>
tes ine</w>
sds m</w>
le y</w>
iş e</w>
im um</w>
dör dün
demon str
atten d</w>
ab o
a ges</w>
çoğun luk</w>
tur nu
te sp
tah min
s ov
resi dents</w>
ra ise</w>
princip les</w>
ne boj
l ap
hat ır
ha yal</w>
geçer li</w>
crimin als</w>
com b
champion ship</w>
bu la
blo ğun</w>
4 3</w>
tra ck</w>
top lu</w>
süre ç</w>
süre ce</w>
st am
sin e
ri ce</w>
ra ised</w>
pol onya</w>
n gos</w>
ma j</w>
ik na</w>
hol i
fir ması</w>
duy duğu</w>
dur res</w>
conclu ded</w>
con vic
ar aç
şim di
yap tır
si yon
re sig
on ların</w>
on e
off ers</w>
ko s</w>
ile ti
ig n
hal l</w>
görü ş</w>
derece de</w>
bilgisay ar</w>
attem pt</w>
al ism</w>
territ orial</w>
sı ğın
ri yet</w>
ol sun</w>
kurum sal</w>
in zko</w>
has him</w>
haber leşme</w>
g ure</w>
al e</w>
ak is</w>
3 3</w>
şar kı
tem por
susta in
stan is
sp ent</w>
seçim lerinde</w>
in cele
g ıda</w>
br inging</w>
bour g</w>
affec t</w>
rela tion
o my</w>
gü ven</w>
edi tion</w>
bil mek</w>
0 ,
özgür lüğü</w>
yan lar</w>
sanay i</w>
ola ğ
neboj sa</w>
me tre
me lerini</w>
k ot
ju g</w>
individu als</w>
ha r</w>
gerek se</w>
döne minde</w>
dis crimin
demo crats</w>
con ven
clu b</w>
atten tion</w>
tasarru f</w>
ste in
sigar a</w>
ser best
quic kly</w>
mi ha
lo ck</w>
demo kr
boy cot
alt ındaki</w>
özgür lüğ
ver ici</w>
ukra y
thre ats</w>
standar d</w>
repub li
re conc
pri z
person nel</w>
merkez inde</w>
kut la
kup ası</w>
hos ted</w>
fil mi</w>
el inde</w>
bo g
b inin</w>
an ad
am s</w>
alt ını</w>
yap mayı</w>
we b
radi cal</w>
itibar en</w>
il mesini</w>
il ling</w>
ihrac at
fol low</w>
faz las
ılığ ıyla</w>
ğ ın</w>
ver meye</w>
olo ji</w>
not ing</w>
li mi
head quarters</w>
fi gure</w>
cro ats</w>
bar at</w>
as ından</w>
as kıya</w>
7 00</w>
yo ğun</w>
yece ğini</w>
u said</w>
tr ust</w>
ta ined</w>
sur vi
state ments</w>
st ake</w>
sch war
peace keeping</w>
lo ws</w>
l y
dest in
de cades</w>
başsav cısı</w>
yay gın</w>
ur ce</w>
ular ı</w>
tekli f
ta ins</w>
süre cek</w>
pas s</w>
no el</w>
mo bil
me ta</w>
korun ması</w>
kon uyla</w>
inv itation</w>
il ik
hüküme te</w>
fi l</w>
deut sche</w>
de le
critic ism</w>
ch ina</w>
carri ed</w>
c ks</w>
bar ri
amend ments</w>
3 7</w>
ıs ıyla</w>
çek ti</w>
vo ted</w>
refer an
p ati
o ft</w>
i o
hazır la
bro v
blo ck</w>
bil iyor</w>
başar ı</w>
bac ked</w>
valen tin</w>
referan dum</w>
or t</w>
muhalefet teki</w>
kan oviç</w>
görüşün deler</w>
christi an</w>
bildir iliyor</w>
ar z
vis its</w>
provi des</w>
musli ms</w>
mic ros
kullan ım
iy ordu</w>
inci dent</w>
dol u</w>
co de</w>
başla ması</w>
2 9th</w>
tele fon</w>
tedbir leri</w>
syste ms</w>
ques tions</w>
par k</w>
ma c
len miş</w>
kaç ır
görev li</w>
eğ len
as la</w>
anad olu</w>
adop tion</w>
turn out</w>
tax es</w>
t our</w>
re present</w>
journ alist</w>
er tele
böl ümü</w>
bre ak</w>
önce si</w>
trans por
se em
sağ layan</w>
sav c
res men</w>
mü tte
kon ser
ge si</w>
four th</w>
facil ity</w>
fac tory</w>
artır mak</w>
ın tı
yüz lerce</w>
yor go</w>
trans fer
top i</w>
tel ls</w>
tehlike ye</w>
taş ıyan</w>
tat bi
tan jug</w>
spe ed</w>
spe ech</w>
sonr ası</w>
sig n
pu an
pr en
plan ts</w>
jere mic</w>
isti f
hazır lanan</w>
g res
fay d
elector al</w>
e mi
dik ten</w>
d or
co p
ce e
ati ves</w>
zaf er</w>
up i</w>
rol ü</w>
ra ti
num er
moder n
kim se</w>
industri al</w>
güç lük
g ent</w>
fri end
b is
ülke lerde</w>
vet er
son larında</w>
siyas iler</w>
mp s</w>
i̇t tifak</w>
imzal a
etkin lik
duc ing</w>
yun an
yetkil ilerle</w>
ten sions</w>
tartış ma</w>
t k</w>
st ar</w>
saf ety</w>
s pr
road s</w>
pro mp
pet ar</w>
nokt ası</w>
massa cre</w>
mahke meye</w>
li cen
h or
de cade</w>
comp et
ch er</w>
b h
aç ılan</w>
artır ma</w>
2 4th</w>
şim diye</w>
ş i
ön lemek</w>
ver di
toplum u</w>
süre ç
pro ces
min ent</w>
me tre</w>
lon don</w>
kap say
is el</w>
i ces</w>
fa ce
düzenlen di</w>
as ya</w>
a dan</w>
za ten</w>
tic ally</w>
te şek
tar get</w>
statisti cs</w>
ma mış</w>
kor k
istikrar lı</w>
ist en
he v</w>
d y
cro at</w>
ce p</w>
an tly</w>
ğ iyle</w>
x ed</w>
ulaş tı</w>
tur ist</w>
peace ful</w>
neighbour s</w>
micros oft</w>
ka tegor
jo hn</w>
du brov
determin ed</w>
çağr ısı</w>
yolsuz luğ
yardım ı</w>
tehdi t
sır al
seçim lere</w>
el a</w>
concer ned</w>
büy ük
al dılar</w>
ag ing</w>
4 8</w>
4 6</w>
yetkil isi</w>
w as
transpar ency</w>
tes inin</w>
struc ture</w>
profesyon el</w>
p act</w>
malar da</w>
impor ts</w>
ik isi</w>
gelecek teki</w>
fe el</w>
f os
entegr asyon
düzen ledi</w>
develop ed</w>
conne ction</w>
cal in</w>
buil dings</w>
5 1</w>
önce lik
sorun ların</w>
separ ate</w>
sec tors</w>
re fa
r ü
perman ent</w>
muha met</w>
kras ni
initi al</w>
gör mek</w>
geç ti</w>
der hal</w>
çöz ül
çağ daş</w>
treat ment</w>
t led</w>
suppor ters</w>
pr len
prlen da</w>
limi ted</w>
l ası</w>
kö ken
k y
h ü
gerçekleştir ilen</w>
du kları</w>
da tions</w>
cel l
şidde t
ıl dığını</w>
ö den
vie ws</w>
ver mesi</w>
val ues</w>
tesp it</w>
ser ves</w>
s mal
reven ues</w>
qu esti
pre di
migr ants</w>
meli dir</w>
il mesine</w>
hareke te</w>
haf t
ba ma</w>
b ün
ye te</w>
yav aş</w>
v ili
p dk</w>
out come</w>
oh r</w>
ma r</w>
hou ses</w>
ho od</w>
ho mes</w>
han ds</w>
gg ling</w>
fil ms</w>
ekono mil
diyal oğ
de pre
bosni ak</w>
arti sts</w>
x ima
ther lands</w>
seviye de</w>
s kan
ol ar
o bama</w>
numer ous</w>
li ter
g ın
de central
commer cial</w>
al leg
şun ları</w>
şeff af
wor st</w>
ven ess</w>
tu z
stan ds</w>
proce dur
pre hen
particip ated</w>
n or</w>
monit or</w>
me yecek</w>
kiş isel</w>
fark l
el en
distri bu
ch ec
bakan lığının</w>
administra tive</w>
accep ted</w>
a e
tain ment</w>
particip ating</w>
op oulos</w>
ne therlands</w>
mu ame
liğ inden</w>
kiş iler</w>
indi cated</w>
gaze tesi</w>
end or
e be
dai res
con sen
appro xima
wa iting</w>
un its</w>
tribun e</w>
suff icient</w>
sel l</w>
se as
med y
mas s</w>
lu x
legis la
fir ms</w>
civil ian</w>
4 1</w>
ülke lerden</w>
çalış maya</w>
yap ması</w>
warn ing</w>
to v</w>
sup ports</w>
nan o</w>
n j
k ış
ju b</w>
işbir liğine</w>
go t</w>
fe ar</w>
düş üş</w>
di z
cre ating</w>
aç tığı</w>
yas ayı</w>
yanlı ş</w>
sur ren
st ations</w>
pol isin</w>
lı lar</w>
essen tial</w>
dubrov nik</w>
communic ation</w>
bel gi
ıs ındaki</w>
ç i
yayın la
vla do</w>
sağ lanması</w>
s old</w>
pr ise</w>
pas ap
j ean</w>
gra du
gere ke
f ans</w>
exper t</w>
even tually</w>
doğru ladı</w>
cumhuri yet
bulun dular</w>
ak tif</w>
4 7</w>
stre am</w>
rak am</w>
pak et
mül te
mo is
mahke mesinin</w>
kendis i</w>
gather ed</w>
dönüş tür
dis mis
ci vili
as l
. com</w>
tes ini</w>
te xt</w>
sektör ünde</w>
ra ce</w>
pri or</w>
müzakere lerine</w>
müzakere lere</w>
m ist
i̇li ş
hu a</w>
guar d</w>
gi der
enti ties</w>
con stan
char d</w>
bu y</w>
bekle yen</w>
arab ulu
vide o</w>
terci h</w>
tati l</w>
ran ge</w>
ra diç</w>
pris es</w>
popü ler</w>
par al
oper asyon</w>
mois iu</w>
k ic
isti yoruz</w>
in come</w>
gra d</w>
ge ce
civili ans</w>
bas ket
as su
w ri
vu kov
v ac
sık ı</w>
st ation</w>
kuvvet leri</w>
görev ini</w>
di vision</w>
di mitrov
al one</w>
abo ve</w>
199 7</w>
ıy dı</w>
çev ir
yan ıt
ur ken</w>
ter ran
s ha
ler ken</w>
lan dığı</w>
fik r
face book</w>
ex it</w>
en e</w>
dik k
b y
allow ing</w>
4 2</w>
örne k</w>
yeş il</w>
te mas</w>
si bil
s mu
pu la
play ers</w>
kıyas la</w>
i̇ç in</w>
her ald</w>
görüşme lerin</w>
ak deniz</w>
ade qu
üni vers
ünivers ite</w>
yı z</w>
ter ek</w>
sub si
se min
ra ma
o kul</w>
me ly</w>
ke ş
in sur
iler iyle</w>
il ir</w>
har is</w>
gö tür
gi ving</w>
fugiti ve</w>
favo ur
f ta</w>
enter tainment</w>
econo mic
e de</w>
dama ge</w>
bel ç
an tik</w>
zel jko</w>
yas ası</w>
vukov ar</w>
ti li
terran ean</w>
suppor ting</w>
simp ly</w>
si ze</w>
mül tec
mir ko</w>
inci dents</w>
ihrac at</w>
gi di
ege men
dj an</w>
diffic ul
c er</w>
bo os
2 m</w>
ön le
x in
vol un
sür ül
söy len
ris k
pat la
me lerin</w>
kiş ilik</w>
kend ilerini</w>
katıl ma</w>
ik u
i di
gel diği</w>
g 17</w>
düzenlen ecek</w>
do or</w>
cre ation</w>
consen sus</w>
ba d</w>
air lines</w>
yap ım
there fore</w>
olan ağı</w>
nation alist</w>
müda hal
medi terranean</w>
kül tür
i̇sviç re</w>
i̇n san
i red</w>
fil ip</w>
fav our</w>
düzen leme</w>
contro versi
ban king</w>
ba y</w>
açıkla masında</w>
asse ts</w>
assassin ation</w>
an ci
ag ue</w>
a u</w>
ı larak</w>
vis iting</w>
tı ğ
tı yor</w>
televiz yon
sü resi</w>
suç lu</w>
re ve
re ally</w>
ra dic</w>
new ly</w>
ne hri</w>
mana ged</w>
institu tional</w>
im kan
ili ation</w>
hal ka</w>
h ic
dikk ate</w>
cı lara</w>
ver g
sol ve</w>
sibil ities</w>
sağla m</w>
sanat çı
read iness</w>
pro ba
mese le</w>
konj iku
karşı tı</w>
karadağ lı</w>
iz e</w>
fır sat</w>
enfl asyon</w>
ch ev</w>
appe ared</w>
alar ından</w>
alan larda</w>
wr it
vo y
tartış malı</w>
stojan ovska</w>
pe ter</w>
oper ational</w>
on line</w>
mo bil</w>
kri zi</w>
kapasi te
hak im
getir ilmesi</w>
dead line</w>
de cre
cez a
ca tegor
bra j
be yon
ve to</w>
t d</w>
salar ies</w>
sa fe</w>
ph ot
jan ovic</w>
ima ge</w>
has tal
eff ici
e deme
du tch</w>
3 8</w>
ş ef
yıl ının</w>
w .</w>
tr end</w>
te ach
tavsi ye
t ap
squ are</w>
sa k</w>
ma il</w>
ihtiy aç
fe la
edi p</w>
dev am
deman ds</w>
decentral isation</w>
ben im</w>
anci ent</w>
sü res
sun uz</w>
main tain</w>
ma aş</w>
kt ör</w>
karşı ladı</w>
kamu oyun
get ting</w>
en iz</w>
comple x</w>
appli cation</w>
accor d</w>
yöne tic
tal k</w>
stri ke</w>
sok ak
program ına</w>
i̇v o</w>
christ mas</w>
car ry</w>
bo mb
bi zi</w>
xin hua</w>
sun duğu</w>
standart larına</w>
sağ ladı</w>
newspap er</w>
lon dra</w>
ish ing</w>
for mation</w>
dan ger
at mos
amer ika</w>
çap lı</w>
yıl ları</w>
ve hic
suç lanan</w>
s lav
resol ving</w>
ot to
müz esi</w>
mov ing</w>
kür t
kul ü
ih l
he y
f et
ear th
car e
be s
uy u</w>
tur ks</w>
söz de</w>
suç l
slov en</w>
se fer
qu ali
pol and</w>
ord us
n ar
l ov
i di</w>
hi v</w>
gir di</w>
encour age</w>
cro w
bölge ye</w>
approxima tely</w>
üye liğinin</w>
ü mü
w all</w>
produ ce</w>
over come</w>
ni yet
mi gration</w>
ma den
kısıt la
kır ık
katıl ıyor</w>
ivan ov</w>
genel kur
controversi al</w>
consequ ences</w>
boo ks</w>
beyon d</w>
ag im</w>
ız ı</w>
vatandaş ları</w>
ukray na</w>
seçmen lerin</w>
s core</w>
mülte ci</w>
me lerine</w>
kal acak</w>
i̇k ti
inter ven
f ted</w>
di ary</w>
da m
ay ındaki</w>
at ılmış</w>
anke te</w>
ör ü</w>
ç ilerin</w>
vi ze
relation ship</w>
ra il
od aklan
mahke mesine</w>
large ly</w>
kor uy
i̇ yi</w>
itar ian</w>
ist ence</w>
gi es</w>
f ru
dis covered</w>
contribu tion</w>
con tr
broad cas
ama dı</w>
yas aları</w>
yarar lan
wa it</w>
vie wed</w>
vaz geç
tion ally</w>
tes inde</w>
sağ lıyor</w>
reconc iliation</w>
oc cu
n os
karş ılığında</w>
karad eniz</w>
i dar</w>
he yet</w>
haber lerine</w>
ekono minin</w>
do kun
deli ver
ces ar
akade mis
wit nes
tut ar
taraf ı</w>
sa mar
op ol
n go</w>
ma x
ma tik</w>
k g</w>
geo ana</w>
eli min
eff icient</w>
discus sion</w>
commit ments</w>
belir gin</w>
anayas al</w>
add ressing</w>
ön gören</w>
soruml uluk</w>
secre t</w>
run ning</w>
quar ter</w>
kurum lar</w>
kos tas</w>
kav uş
ist lerin</w>
inter nation
de lay</w>
bu re
açıl ış
3 m</w>
week end</w>
w ise</w>
sch illing</w>
savun uyor</w>
redu ction</w>
mali yet
macedon ians</w>
le c
iddi ana
bas e</w>
annu ally</w>
7 ,
şart lar</w>
çer ç
yapıl dı</w>
w ish</w>
tac k
t rou
söz lerini</w>
st ory</w>
sovere ign
seç men</w>
s la
pap er</w>
offic er</w>
oc cur
m ün
m mer
kor um
kit ab
kilome tre</w>
kaydet tiği</w>
i qi</w>
ha fi
gö ç</w>
f bih</w>
ekonomis i</w>
devle ti</w>
comple tely</w>
c lar
boz idar</w>
acade my</w>
ıl masının</w>
ü çte</w>
özer k
çab alarına</w>
stu dent</w>
sovereign ty</w>
so urce</w>
pus h</w>
procedur e</w>
primar y</w>
play er</w>
olduğ undan</w>
met z</w>
med al</w>
len e</w>
j az
i̇ş birliği</w>
ist atisti
fri ends</w>
faz lası</w>
ex ter
cam p</w>
bo jana</w>
alan larında</w>
çerç eve</w>
yer leş
y ağ
sustain able</w>
s wit
retur ned</w>
mesa j</w>
kurum larının</w>
koru mak</w>
j ad
him self</w>
he m
gazetec iler</w>
eğlen ce</w>
di ya</w>
but ov</w>
bul mak</w>
bar butov</w>
auton omy</w>
arre sts</w>
appoin tment</w>
6 2</w>
şey in</w>
üre t
öner ilen</w>
çözü me</w>
vatandaş lar</w>
tempor ary</w>
tarih inde</w>
ser ving</w>
reiter ated</w>
p le</w>
p ic</w>
ni co
n av
müda hale</w>
in ti
high ly</w>
g as
fun da
et miş</w>
ek ip
dördün cü</w>
dos t
con su
bi c</w>
baz ı
aw are</w>
ac ce
şekl indeki</w>
ü len</w>
yaz ar
tif y</w>
ti veness</w>
sır asıyla</w>
seç il
neden i</w>
man ı</w>
kayna ğı</w>
it h</w>
hes ap
deta ils</w>
cle arly</w>
an ything</w>
acak larını</w>
çek il
trav el
te pk
ri chard</w>
reach ing</w>
obser vers</w>
mar ko</w>
leav ing</w>
kar ac
introdu ced</w>
in vi
güç leri</w>
ga tes</w>
dro pped</w>
don an
distri ct</w>
co e</w>
car ds</w>
bir ini</w>
baz da</w>
bac k
al t</w>
5 3</w>
özgür lük</w>
çalış ması</w>
ur ing</w>
under standing</w>
rady osu</w>
olog ists</w>
n ün</w>
mesle k
düz el
develop ing</w>
chil d</w>
bekle diğini</w>
az er
alleg ations</w>
yenil en
wi de
u ğ
te sti
taraf ın</w>
syri a</w>
ran ka</w>
min den</w>
m leri</w>
la bus</w>
insan ları</w>
in iz</w>
high way</w>
ge ç</w>
etkin likte</w>
döne mi</w>
dis as
baş ı</w>
ay ak
ac ting</w>
önün ü</w>
win ning</w>
uy ru
um e</w>
soykır ım</w>
re ality</w>
off ices</w>
mmer tz</w>
ma cı</w>
li dir</w>
l ili
kat kı</w>
i̇s lam
it i</w>
i ce
hizmet leri</w>
gör düğü</w>
fon iqi</w>
d di
cla im</w>
car s</w>
bra mmertz</w>
alternati ve</w>
&apos; m</w>
wr ote</w>
v ul
thes salon
teme l
temas larda</w>
respec tively</w>
ra hat
pa in
ou red</w>
num bers</w>
municip al</w>
ma p</w>
lar ken</w>
kesin ti
kent indeki</w>
jud ge</w>
fa ced</w>
expl os
es e</w>
char ac
be lene</w>
bağ l
artır ılması</w>
artic le</w>
vis ed</w>
ste el</w>
roman ians</w>
pro minent</w>
plan ını</w>
ort asında</w>
kre d
içer en</w>
increas ingly</w>
h ası</w>
görüş mesi</w>
fin ding</w>
exter nal</w>
dra g
bom bal
açık lan
adri an</w>
tı p</w>
t ini</w>
seas on</w>
se lan
resig nation</w>
requi res</w>
represen ting</w>
mis sing</w>
ma car</w>
kar de
is ola
id are</w>
en ga
e yi</w>
diploma ts</w>
dan u
con test</w>
başlangı ç
al mayı</w>
activ ity</w>
ödül ünü</w>
wor ked</w>
wel le</w>
tamam lanması</w>
stre ets</w>
requ ire</w>
pap adop
p a</w>
nüfus unun</w>
minist ries</w>
kullan ılacak</w>
j ak
histor ical</w>
hel ped</w>
fin ished</w>
boy ko</w>
as k</w>
8 5</w>
örgü tün</w>
val ue</w>
uğra ş
thessalon iki</w>
si vil
sandal ye</w>
re uni
re gular</w>
prac tice</w>
pow ers</w>
par ents</w>
orta da</w>
mov ed</w>
mi yle</w>
lar ımız
kri tik</w>
kap ı
kal ab
har ek
gu il
geliştir me</w>
func tioning</w>
et mesini</w>
duy ulan</w>
diploma t
biri mi</w>
ü r</w>
çap ında</w>
zay ıf</w>
suç ladı</w>
si cal</w>
restri ctions</w>
rapor a</w>
ni metz</w>
ma g
ljub lj
kur mak</w>
kr ar
hak larını</w>
getir me</w>
g al</w>
dimitrov a</w>
afri ka</w>
adop t</w>
add ressed</w>
6 3</w>
önün deki</w>
yetkil ilere</w>
yaşa dığı</w>
yaş ıyor</w>
y as</w>
wide ly</w>
va at
selan ik</w>
se at</w>
ris ing</w>
ola bileceğini</w>
ne z
me lere</w>
genel inde</w>
for d</w>
direc tly</w>
danu be</w>
ce a</w>
c ü
büyükelç iliği</w>
bul ma</w>
ar ms</w>
acak ları</w>
9 ,
0 0m</w>
vur gula
un il
tra y
ti p</w>
t una</w>
sto ck</w>
ow ners</w>
olo jik</w>
mut ual</w>
kit ap</w>
es n</w>
ener j
do esn</w>
def en
de e
dal ar</w>
bulun duğunu</w>
açıl ış</w>
aç an</w>
ayrın tılı</w>
6 7</w>
şirket ler</w>
ıy ız</w>
tü ğü</w>
tele fonu</w>
ser i
mensup larına</w>
me te</w>
il an
hungar ian</w>
gi ble</w>
ex press</w>
differ ences</w>
christ o
bank acılık</w>
ş ansı</w>
ılığ ının</w>
yol undaki</w>
y um</w>
ukra ine</w>
so ğ
serma ye</w>
s cal
promis es</w>
parlament onun</w>
j ac
ira qi</w>
et mesine</w>
e min
e i</w>
düzen li</w>
dre w</w>
ban a</w>
b lu
ap art
şüphel i</w>
veril ere</w>
v l
um ent</w>
u di</w>
teşkil atı</w>
se cu
proba bly</w>
n deki</w>
n az
mar ija</w>
kab ine</w>
er di</w>
equ al</w>
doğrul t
bilin en</w>
çocuk lar</w>
ven dos
ta da</w>
sur ing</w>
stron gly</w>
s cre
remain ed</w>
op posed</w>
lo s</w>
katıl dığı</w>
j ev
ip tal</w>
impro vement</w>
etk in</w>
eas y</w>
bh f</w>
beklen ti
başkan lığ
bat ılı</w>
ar aç</w>
alın dığında</w>
aj ans
ad ını</w>
a wards</w>
ç a
zeng in</w>
we i
uyor uz</w>
toplantı ya</w>
tan ık</w>
seem s</w>
pre s</w>
olan ak
inte gra
düş üş
davi d</w>
con serv
ca use</w>
bağ ış</w>
ay larda</w>
un less</w>
te ams</w>
sugge st</w>
regula tions</w>
redu ced</w>
proce e
ow ner</w>
n ur
meas ure</w>
huku ki</w>
hop ing</w>
h uz
değil dir</w>
de jan</w>
col labor
ab ly</w>
1 m</w>
ır k
turnu v
spr ing</w>
seç ildi</w>
p ping</w>
op ens</w>
olağ an
off ering</w>
meyece ği</w>
makam larının</w>
internation ally</w>
emplo yed</w>
e leşti
duyur uda</w>
dro p</w>
dou ble</w>
davut oğlu</w>
bloc ked</w>
aut o
ac y</w>
y se</w>
win ter</w>
süre yle</w>
substan tial</w>
inde x</w>
in es</w>
im ing</w>
gr anted</w>
fotoğra f
fi as</w>
ex plo
ek liyor</w>
alternati f</w>
a ged</w>
0 km</w>
ülke lerinde</w>
ö tesi</w>
verdi ct</w>
ver e
tri p</w>
th ought</w>
si ght</w>
senten ce</w>
sen se</w>
scienti sts</w>
refu sed</w>
pow er
ph y
ol ur</w>
ol mayı</w>
mo de
kısm ını</w>
ko t</w>
fil ed</w>
er y</w>
en dir
dolay ısıyla</w>
conduc t</w>
compu ter</w>
ce ma
büt çe
athle tes</w>
asl ında</w>
as y
as tern</w>
3 1st</w>
reti red</w>
or e</w>
on lar</w>
len in</w>
i̇s veç</w>
insur ance</w>
inan ıyorum</w>
hedef ine</w>
happ y</w>
exerc ise</w>
enter prises</w>
edile mez</w>
dı m</w>
descri bing</w>
can landır
an lat
ış ık</w>
s hel
rady o</w>
pec tive</w>
otto man</w>
ol mas
mar uz</w>
kar ak
kap an
k um</w>
j as
i̇ van
göster diği</w>
enfor cement</w>
de di
dav anın</w>
ange la</w>
ç ileri</w>
w ol
sayıs ını</w>
san tr
pe l</w>
m its</w>
lin ked</w>
lin ed</w>
le yen</w>
ke mal</w>
katıl ımı</w>
istih dam</w>
hi dro
etk isi</w>
et mişti</w>
appe ar</w>
ada mı</w>
abil mek</w>
üye liğini</w>
yıldı z
vo ice</w>
tüke ti
so ren</w>
siste m</w>
scienti fic</w>
rot ating</w>
re t
ran ked</w>
oper a</w>
kaydedil di</w>
inten ded</w>
f loo
difficul ties</w>
ce fta</w>
ay han</w>
alın acak</w>
alli es</w>
2 5
&apos; re</w>
çık ıyor</w>
yans ıt
ton nes</w>
taraf tar
saldır ı</w>
me ant</w>
kuzey deki</w>
kur uluş</w>
kov a
kas ının</w>
kadın lar</w>
jad ranka</w>
im erini</w>
ihtiy ac
farkl ılık
et raf
el çi</w>
dev ri
cu kanoviç</w>
cez ası</w>
belç ika</w>
bat tle</w>
attra ct</w>
2 ,000</w>
198 9</w>
ziyaret inde</w>
z ul
yön tem
yet ki</w>
u cu
tuz la</w>
stanis hev</w>
sah ne</w>
re f
priz ren</w>
plan larını</w>
p han
osman lı</w>
kıy ı</w>
in aug
hrist of
fin lan
faaliyet leri</w>
düny ada</w>
dnev nik
de signed</w>
de gre
d ora</w>
co up
christo fias</w>
an yone</w>
acce ler
ü ste
yinele di</w>
y at</w>
win ner</w>
un ds</w>
su pre
stan ces</w>
se eks</w>
regi ons</w>
r ose</w>
pre ce
müslü man
may ın</w>
mam ız</w>
lık larını</w>
leg ally</w>
karar ının</w>
j evic</w>
g u</w>
doğrult usunda</w>
cos tas</w>
chap ters</w>
bulun arak</w>
at ory</w>
ap ply</w>
şampiyon ası</w>
ular ın</w>
tol a</w>
subjec t</w>
senten ced</w>
no bel</w>
komis eri</w>
iş lenen</w>
invol ving</w>
ileti şim</w>
go es</w>
for um
ar ts</w>
önce lik</w>
yer leştir
ye s</w>
y td</w>
tru e</w>
solu tions</w>
schwar z</w>
res cu</w>
re st
ra m
parlament os
lider lerinin</w>
konuş ma</w>
i̇k inci</w>
inş ası</w>
imiz in</w>
ih ra
ger b</w>
genelkur may</w>
gen elde</w>
for mal</w>
elec tron
e di</w>
ar ay
ac ted</w>
wil ling</w>
wh ite</w>
un ut
sr bi
represen ted</w>
re ly</w>
p am
oper ator</w>
lider lerin</w>
ler s</w>
lan mış</w>
katıl ması</w>
güc ünün</w>
göster diğini</w>
gön ül
gener al
for tun
f f</w>
edil mesini</w>
du ties</w>
d na</w>
cu ts</w>
concer t</w>
char ter</w>
c il
busines s
avustur yalı</w>
ass ist</w>
aktar ılan</w>
12 44</w>
y ah
up gra
st ressing</w>
shor i</w>
sağla maya</w>
sa tions</w>
rece ğini</w>
ra can</w>
or dered</w>
mla den</w>
im posed</w>
grup lar</w>
gre en</w>
geliş me</w>
d ps</w>
cumhurbaşkan ının</w>
bulun ması</w>
ab use</w>
wel come</w>
so s</w>
salar y</w>
re struc
ran king</w>
r ying</w>
pro ve</w>
op tion</w>
men ler</w>
kur ulacak</w>
kay b
i̇ r
i̇ h
initi ally</w>
h our</w>
guaran tee</w>
fir ma</w>
e m</w>
dokt or
cho ice</w>
be th</w>
asi de</w>
agri cultural</w>
yıl lar</w>
yap ıcı</w>
uy um</w>
transi t</w>
threat ened</w>
supre me</w>
sal es</w>
rec over
re marks</w>
re lev
pros per
propos als</w>
me zar
kullan ma</w>
kat ılacak</w>
kal ıyor</w>
g ia</w>
g da</w>
fr at
foun ded</w>
fak ül
fac tors</w>
etkin liğe</w>
eth nic
destro yed</w>
boy kot</w>
bah se
al u
ad anın</w>
5 4</w>
4 9</w>
çıkar dı</w>
t ou
set ting</w>
sa yıl
or gan</w>
le ague</w>
kos tov</w>
konu lar</w>
josip oviç</w>
istih barat</w>
görüş ünde</w>
fırsat ı</w>
fiel ds</w>
fel l</w>
econo mist</w>
dnevnik .bg</w>
dire ction</w>
der in</w>
cumhuri yet</w>
c ad
ağ ır
and ri
alar ıyla</w>
çık maz
zirv esinde</w>
ye tiş
yav aş
vendos je</w>
ster ity</w>
sp ek
smal ler</w>
ro om</w>
ris ks</w>
ra i
m ous</w>
konse y</w>
konfer ansı</w>
k ış</w>
journ al</w>
invi ted</w>
he u
ge ce</w>
gan g</w>
discrimin ation</w>
den ge
day dı</w>
cen t
başarıs ız
au sterity</w>
ade mi</w>
8 ,
ğ inde</w>
yurt dışında</w>
t ör</w>
standart ları</w>
spon sor
sorun unun</w>
ro ck</w>
müş ter
lu p</w>
layı cı</w>
kab ashi</w>
hon our</w>
gün dem
effici ency</w>
edi yoruz</w>
de ad</w>
contribu ted</w>
alan ındaki</w>
agre es</w>
verim li</w>
un able</w>
tutuk landı</w>
tale b
profes sion
moderni z
kaybet ti</w>
j or
imz a</w>
ihra ç</w>
har can
frat tini</w>
eğil im
eur oluk</w>
d less</w>
cele br
attemp ts</w>
çalışmalar ını</w>
wor ds</w>
w is
v ski</w>
uy umlu</w>
um uz
tu m</w>
te krar
s low</w>
pur su
one ws</w>
ol maları</w>
kıs men</w>
iri z</w>
hazır ladığı</w>
fugiti ves</w>
depen ds</w>
deney im
decl ine</w>
blo g
başlat ma</w>
başlangıç ta</w>
avan taj
ad vo
şef i</w>
ış ı
üç lü</w>
uzman ları</w>
ted bir</w>
seri ously</w>
ro v</w>
prepar e</w>
ordin ary</w>
nei ther</w>
men su
kil ling</w>
iler ek</w>
es k
edil diği</w>
e ase</w>
deta ined</w>
dal g
braj shori</w>
adequ ate</w>
çek iyor</w>
ver heu
verheu gen</w>
v at</w>
t ina</w>
st op
spokes person</w>
sor si
sn sd</w>
pus h
mo ther</w>
kurum ların</w>
kon sorsi
kaldır ılması</w>
hak im</w>
eğiti m
açıkla maya</w>
ad ds</w>
&apos; ve</w>
öğrenc iler</w>
wor k
wit ness</w>
w w
transpor tation</w>
ter z
sorun una</w>
sor ti
san ık
pec t</w>
kur um</w>
kilis esi</w>
heal th
h us
gol den</w>
eleştir di</w>
di l</w>
de aling</w>
b sp</w>
açı ğı</w>
appe al</w>
al g
ad li</w>
şirket leri</w>
yol da</w>
ye tin</w>
vatandaş larının</w>
v it
un ity</w>
u ses</w>
transfer red</w>
te t
stru ction</w>
spe cu
sa bit</w>
re pe
pro vo
previ ously</w>
prepar ations</w>
net works</w>
mem or
lib yan</w>
kos te
k ou
initi atives</w>
he sa
ge st</w>
finans e</w>
eur onews</w>
eriş im</w>
ekonomis inin</w>
docum en
din kiç</w>
dar be</w>
cros sing</w>
boycot t</w>
belir li</w>
ay la</w>
6 6</w>
3 9</w>
çoğun lukla</w>
z il
to w
s rs</w>
ras im</w>
olağan üstü</w>
m u</w>
m p</w>
m o</w>
ks f</w>
ker i</w>
kazan dır
ju red</w>
in jured</w>
don dur
den ied</w>
critic s</w>
ce ed</w>
bil jana</w>
be s</w>
alar la</w>
yükümlülük lerini</w>
web site</w>
say ım
sav cılar</w>
satis fied</w>
represen ts</w>
prepar ing</w>
ne ler</w>
mecl iste</w>
m y
l ose</w>
kullan ılan</w>
kend ilerine</w>
kaynak ları</w>
kal a</w>
integr ity</w>
ic j</w>
govern or</w>
f ting</w>
f red</w>
er gen
e ler</w>
dı ra
da ted</w>
cor respon
con sorti
ch e</w>
5 7</w>
şeffaf lık</w>
yap arak</w>
umut ları</w>
ti ren</w>
tan ıt
strate ji</w>
soci alists</w>
so red</w>
s da</w>
ro han</w>
prof it</w>
olay ları</w>
ob tain</w>
katıl maya</w>
kadın ların</w>
gö l
fu el</w>
ay kır
arran gement</w>
5 6</w>
üretic isi</w>
yapılan ma</w>
under stand</w>
tor ate</w>
tavsi ye</w>
tar gets</w>
ta bi
spon sored</w>
say ısında</w>
san dık</w>
ri ch</w>
ot ing</w>
ordin ation</w>
on ing</w>
meslek taş
m me
har mon
genç ler</w>
gelece ğini</w>
di as
dias por
ay ol
ay da</w>
1, 5</w>
yıldön ümü</w>
tutuk lama</w>
ten nis</w>
te dar
ru led</w>
pu ties</w>
post pon
performan s
pen sions</w>
pen al
olduğ unda</w>
li es</w>
kay ıp</w>
karde ş
identi ty</w>
identi fied</w>
gün leri</w>
finlan diya</w>
fi z
eş i</w>
exten ded</w>
dı k
di c
deter mine</w>
de puties</w>
bayra m</w>
yönet me
sınır ları</w>
signific antly</w>
si m</w>
r üş
ne y</w>
nat ure</w>
ma f
lu yor</w>
lo cation</w>
j ic</w>
iz ni</w>
ins isted</w>
happen ed</w>
göz altına</w>
geçmiş te</w>
gener ally</w>
durum a</w>
değişiklik leri</w>
as ıl</w>
anal ist
ab ol
20 14</w>
şart larını</w>
zaman lar</w>
the less</w>
strate jis
si me
relev ant</w>
promot ing</w>
politi cally</w>
pa hal
oyun cu</w>
kullan ıl
i yet</w>
i ade
heav y</w>
güz el</w>
ever y
em niyet</w>
dokun ul
co ast</w>
bire y
aş a</w>
abil mesi</w>
üniversi te
uzman ı</w>
th u
ten tion</w>
tele communications</w>
tas la
suppli es</w>
sin iz</w>
restruc turing</w>
ran ks</w>
pl as
obstac le</w>
n en
müzakere lerde</w>
med als</w>
mah kum</w>
lendir me</w>
kıbr ıs
kötü ye</w>
iş ten</w>
i dir</w>
ger ile
ga me</w>
col lap
b c</w>
as ia</w>
adam ları</w>
5 2</w>
ın ız</w>
çarp tır
stron ger</w>
sorun lara</w>
se iz
planla dığını</w>
pen sion</w>
kiş iyi</w>
kay gı
kampan yas
jap an</w>
j in
i̇ m
iz len
ho tel</w>
hal en</w>
ge lerek</w>
fail ing</w>
f iyat</w>
değiş im</w>
bog dan
bar ik
at ların</w>
ır sa</w>
w rap
voj vodina</w>
ter y</w>
sürdür üyor</w>
san ctions</w>
primar ily</w>
po z
ol masının</w>
ka th
jaz z</w>
iz leme</w>
in str
ihtilaf ı</w>
gür c
enter ed</w>
destekle mek</w>
davut oglu</w>
dav ası</w>
da hil
be yaz</w>
başarıs ız</w>
asy lum</w>
an im
şimdi den</w>
yapı sal</w>
vo ter</w>
sız lık</w>
sınır lı</w>
slovak ya</w>
s low
power ful</w>
oper asyonu</w>
nov ak</w>
mi zi</w>
mar king</w>
ljublj ana</w>
i re
human itarian</w>
her kesin</w>
gürc istan</w>
et ary</w>
con gress</w>
bas kı
avu kat
anlam da</w>
şirket lerin</w>
çocuk ların</w>
yer i</w>
yapılan dır
y n
vur g
vi z</w>
scal e</w>
pre drag</w>
plan lanıyor</w>
olimpiyat ları</w>
min es</w>
mar koviç</w>
m ists</w>
le dil
kre dis
koy du</w>
j iç</w>
j ek
h r</w>
ger ide</w>
geor gia</w>
dras koviç</w>
de cek</w>
com ments</w>
boos ting</w>
belirt tiler</w>
ac compan
üreti mi</w>
ön leme</w>
yen ler</w>
up on</w>
til mesi</w>
tehlike li</w>
süre de</w>
sime on</w>
o ş
na mes</w>
konse r</w>
konfer ans</w>
kab ines
k d
iti raz
it sa</w>
is lam</w>
imzal am
getir mesi</w>
fa iz</w>
f requ
diğ imiz</w>
destek leme</w>
c az
baş lıklı</w>
an y
alan dır
wi fe</w>
vak f
um i</w>
tar ge
sürdürüle bilir</w>
struc tural</w>
sp end</w>
sat ış</w>
olduğ unun</w>
konse y
konfer an
isra eli</w>
fra ud</w>
fif th</w>
fac tor</w>
fabri k
ex istence</w>
diğer leri</w>
din kic</w>
cus ing</w>
corpor ation</w>
ce ği</w>
bahar da</w>
al ırken</w>
af ter
ğ ının</w>
zaf er
yöne l
ver ece
us ers</w>
un acceptable</w>
te x
sun ulan</w>
so l</w>
s port</w>
ro ute</w>
regar dless</w>
re x
oz ar</w>
obstac les</w>
manag er</w>
lin ks</w>
la u
l ings</w>
kurul du</w>
kay a</w>
j ag
in ter</w>
h ot
görül dü</w>
guil ty</w>
giri ş</w>
expec tations</w>
ergen ek
ergenek on</w>
determin ation</w>
chan ging</w>
c af
bi ds</w>
avr onun</w>
9 5</w>
6 4</w>
4 m</w>
wat ch</w>
vl ora</w>
ur ges</w>
tut ul
tri s</w>
svet la</w>
stan iş
staniş ev</w>
refuge e</w>
purch ase</w>
olas ılığını</w>
josip ovic</w>
iş im</w>
im pres
g abri
fiyat ları</w>
erke kler</w>
demir yolu</w>
competi tiveness</w>
ce f</w>
au stral
z vet
y aş</w>
we ak
vize siz</w>
uni cef</w>
tı kları</w>
sho wing</w>
seçim lerden</w>
os ia</w>
olma ması</w>
mon etary</w>
mal ıyız</w>
mad de</w>
l ının</w>
kur ds</w>
kd v</w>
kazan dığı</w>
kayıt lı</w>
kay ıt</w>
karac iç</w>
kampany ası</w>
i̇slam cı</w>
huz ur
han ded</w>
haf tal
görüş tü</w>
gel mesi</w>
far k</w>
expan sion</w>
en suring</w>
educ ational</w>
distribu tion</w>
consorti um</w>
bel ki</w>
b dp</w>
appro pri
an ces</w>
6 m</w>
zay ıf
viola tions</w>
vatandaş ı</w>
us ul
tanın an</w>
tabi i</w>
svet ozar</w>
person el</w>
oran ının</w>
leg iti
kö k
kan ıt</w>
ja mes</w>
i̇ ler
ima j
hol keri</w>
chan ces</w>
cent res</w>
bur ns</w>
amaç layan</w>
ak s</w>
zanlı sı</w>
yük se
yayın lan
yakın larında</w>
ve li
um uyor</w>
spo ke</w>
p es</w>
men tal
le ar
law yer</w>
ilişk iler
elek tron
dayan arak</w>
da ire</w>
d ary</w>
cul arı</w>
cover ing</w>
b o</w>
vu janovic</w>
vo ic
uluğ u</w>
tw are</w>
tri g
tamam ladı</w>
suspec t</w>
sof tware</w>
si tesi</w>
pol is
pasap ort
iç ine</w>
ins ists</w>
gr ant</w>
fla g</w>
entegr asyonu</w>
en able</w>
düş tü</w>
dü ler</w>
dö viz</w>
com prehen
cl ash
bo c</w>
aykır ı</w>
ar ama</w>
al fred</w>
ak es</w>
a at</w>
şe be
yaz ıl
uy ordu</w>
uni versi
tı k
sugge sts</w>
s k</w>
res ort</w>
ord unun</w>
oran la</w>
optimis tic</w>
li ye</w>
karar a</w>
i̇ dar
iş ler</w>
en visions</w>
değerlendir me</w>
danışman lık</w>
consum ers</w>
consider ing</w>
clos ely</w>
c lock</w>
c ilik</w>
bir araya</w>
bi tola</w>
bekli yoruz</w>
ash ton</w>
al p
ada m</w>
yol larını</w>
yap ımı</w>
tan ık
spe ak</w>
sey ir
scen e</w>
s cep
repor ting</w>
pub lic
presiden ts</w>
muha faz
mu yor</w>
mo tiv
min imum</w>
mesele si</w>
kıbrıs lı</w>
günde me</w>
görev ine</w>
govern ance</w>
ful fil</w>
ex am
do z
ce c</w>
be low</w>
b ence</w>
ap par
alar dan</w>
yok sa</w>
wri ter</w>
ve te
sur roun
standart larını</w>
receiv ing</w>
princip le</w>
nic osia</w>
mar ia</w>
jel ena</w>
ivan ovic</w>
iste diği</w>
imi yle</w>
gerek çe</w>
f ast</w>
extradi tion</w>
es inden</w>
dön üş</w>
dras kovic</w>
bulun mak</w>
bir inde</w>
bil iyor
bel on
bas ın
appe ars</w>
zer land</w>
yaptı ğını</w>
ver erek</w>
ver eceğini</w>
tour nam
ti ri
swit zerland</w>
smu ggling</w>
rene w
reka bet
r üz
pam uk</w>
oyun ları</w>
oyn ay
onay lanması</w>
mi ra
los ses</w>
komut an
kim lik</w>
k us
jap onya</w>
iti raz</w>
ir se</w>
inv ested</w>
immedi ate</w>
en ess</w>
dru gs</w>
com bat</w>
co l</w>
certain ly</w>
ay aklan
ai ds</w>
afri ca</w>
ac tors</w>
1. 5</w>
öner di</w>
çö k
w ins</w>
ta çi</w>
sınır ı</w>
su r</w>
son g</w>
shar es</w>
republi cs</w>
re ment</w>
pers pective</w>
mp a</w>
mov es</w>
kur u
k in</w>
isti k</w>
ins ka</w>
iddi aları</w>
getir diği</w>
fa ther</w>
dayan an</w>
campa ig
bün yesinde</w>
bur adaki</w>
bi yo
bağımsız lığı</w>
advis er</w>
199 4</w>
ş aşır
yayın ladı</w>
umut larını</w>
sto od</w>
sig nal</w>
prac ti
pas sen
n daki</w>
medi um</w>
lef koş
konular ı</w>
k ar</w>
inaug ur
im mun
görüşme leri</w>
fe asi
ex ist</w>
er lis</w>
ede bi
c ker</w>
bor c
bil işim</w>
artı yor</w>
art ması</w>
önem ini</w>
çoğ unun</w>
worl d
uyor um</w>
um duğunu</w>
tüke tic
sın ıf
suç lanıyor</w>
some one</w>
sil ver</w>
sanat çı</w>
saat lerde</w>
rejim inin</w>
re ducing</w>
plan ının</w>
ph oto
pay ing</w>
parlamento da</w>
p ir
p ah
olay lar</w>
mil en
me l
lan dığını</w>
kor id
ko l</w>
katılım cılar</w>
kasab asında</w>
karş ılık</w>
in o</w>
in ian</w>
gün lüğü</w>
eki bi</w>
e ge</w>
dokunul maz
dis pu
demokr atlar</w>
convic ted</w>
competi tive</w>
auth or
z em
yas aların</w>
x i
wo od</w>
war time</w>
te v</w>
taz min
tac i</w>
sür erek</w>
surren der</w>
southe astern</w>
sektör ünün</w>
ro ber
re zer
prote cted</w>
plat form</w>
o ther
los s</w>
konferan sta</w>
k ah
iş ken
hel len
gerek çe
fu arı</w>
f üz
enjo y</w>
elektron ik</w>
e z</w>
dönem ine</w>
citiz en
c r</w>
at ıl
ar anan</w>
ab ak
&apos; ll</w>
ğ ında</w>
zirve de</w>
yaş ay
yatırım cılar</w>
wh om</w>
ular ını</w>
ul a</w>
top la
t üz
t ent</w>
spar ked</w>
sor u</w>
ser vis
se be
re r</w>
ra m</w>
produ ced</w>
occur red</w>
ma ddi</w>
kath imerini</w>
ithal at
gü müş</w>
gener als</w>
ga p</w>
em lak</w>
e fe
do w</w>
deman ding</w>
comprehen sive</w>
cir cum
cez alandır
bakan lığından</w>
as h</w>
al im
su l</w>
statüs ünü</w>
se es</w>
sak in
pos ing</w>
num ar
mechan ism</w>
kâ r</w>
kay g
iv er</w>
ilişk ilerini</w>
haradin ay</w>
et te</w>
en ced</w>
effec ts</w>
düzey inde</w>
7 m</w>
7 2</w>
uni que</w>
tal ima
st av
se ker
resi dent</w>
plan ları</w>
plan a</w>
pak eti</w>
oy lama</w>
n ica</w>
lendi ren</w>
iş ini</w>
iyim ser</w>
il ing</w>
ic ally</w>
grup ları</w>
getir diler</w>
gerek tiğine</w>
f in</w>
er ec
e state</w>
dünyas ından</w>
dan ger</w>
dama ged</w>
cina yet
cez asına</w>
c vet
belgi um</w>
be comes</w>
ba yı</w>
alt ın
al mış</w>
7 8</w>
ülke lerinden</w>
yol ları</w>
terör ist</w>
tatbi kat
s üz
s hak
r ural</w>
other wise</w>
ortam ı</w>
ley ici</w>
kil ere</w>
j on
hükü m
hi r
hi ding</w>
görevl isi</w>
geliş miş</w>
fotoğra f</w>
eng ine
e gy
constru ctive</w>
ca tes</w>
bar ın
açık lanan</w>
av a</w>
assist ant</w>
ar ab</w>
acknowled ged</w>
a x</w>
ü ğ
çalışmalar ının</w>
yıldön üm
yap mış</w>
wis ner</w>
sub mit</w>
siyas ilerin</w>
sistem ini</w>
sa ba
reuni fication</w>
ra u
r in
po p</w>
ne ver
manu fac
lar ımız</w>
lam da</w>
ke pt</w>
ka ide</w>
iş lev
im possible</w>
i ted</w>
i et</w>
holi day</w>
hiz mete</w>
for ming</w>
ev alu
er en</w>
do le
diyal og
dene tim</w>
de si
d ors</w>
consider able</w>
c ked</w>
bro ad</w>
bağlan tılı</w>
az ından</w>
arnavut ların</w>
announ cement</w>
ü ğü</w>
yas alar</w>
w age</w>
vo wed</w>
veril iyor</w>
u tili
tournam ent</w>
te z
suspen ded</w>
se ktör</w>
sav cı</w>
op ar
olay ı</w>
neden le</w>
muhal efe
mi yorum</w>
ler y</w>
ler di</w>
kon du</w>
j at</w>
insan ın</w>
gerçekleştir di</w>
fran k</w>
for ms</w>
ende k
dra v
di mitro
bron ze</w>
bo dies</w>
aç ıyor</w>
avro dan</w>
8 m</w>
çalış malar</w>
yürü ten</w>
yeter siz</w>
tr en
süre li</w>
never theless</w>
min ing</w>
memur u</w>
işle m
ho me
hep i</w>
de pos
de lay
coun ts</w>
comple tion</w>
colle ction</w>
c ının</w>
c uluk</w>
c king</w>
bulun acak</w>
bal ık
3 ,000</w>
özgür lük
yer de</w>
yaş ında</w>
vatandaş larına</w>
tı k</w>
tri als</w>
titu de</w>
st .</w>
sorun unu</w>
slovak ia</w>
siz liği</w>
seviye sinde</w>
s ap
r ally</w>
proje ler</w>
otur um
on ay</w>
ol muş</w>
ol maktan</w>
muhafaz ak
mi mar
mem oran
meet s</w>
i̇ statisti
inten si
iddi asıyla</w>
he art</w>
for mal
ff e
fa il</w>
enter ing</w>
doc tors</w>
de la
danger ous</w>
da ciç</w>
d jo
citizen ship</w>
belgra d
aç ılması</w>
af fir
achiev ing</w>
10 ,000</w>
şiddet li</w>
zan lı</w>
z o
yok sul</w>
witnes ses</w>
villa ges</w>
soruml ulu
sen di
santr ali</w>
res cu
re a</w>
organis ers</w>
oluş uyor</w>
ol os</w>
ljaj iç</w>
la z
konum unda</w>
kit ap
isti s
ide as</w>
hos ts</w>
dığ ından</w>
da hası</w>
bulgar ians</w>
bakoyan nis</w>
avu stral
appli ed</w>
anket te</w>
ço ktan</w>
zirv esi</w>
uç ak
us unu</w>
tartış malar</w>
seker inska</w>
sa x
remov ed</w>
q ae
qae da</w>
par alle
mü fet
min d</w>
med ve
m ıs
kov uştur
kapsay an</w>
it als</w>
inf ec
göster erek</w>
ettik leri</w>
di dn</w>
destekle yen</w>
car rying</w>
başlat ılan</w>
baş kenti</w>
at ro
asker leri</w>
as sum
alex and
5 8</w>
world wide</w>
wi des
wides pread</w>
toler ance</w>
tarih inin</w>
sez er</w>
ses ini</w>
rex hepi</w>
require ment</w>
proto col</w>
proje leri</w>
pris on
op pon
olur ken</w>
me miz</w>
ma bon</w>
l isi</w>
kos umi</w>
ker mabon</w>
işar et
investig ations</w>
idar esi</w>
hav ayolu</w>
has ar</w>
haradin aj</w>
ha m</w>
güç lerinin</w>
g ad
f res
do s</w>
deste ğini</w>
cor ri
con dole
chan nel</w>
candida cy</w>
bildir ge
b ine</w>
ar ap</w>
anlaşmaz lık</w>
al ised</w>
şey ler</w>
üste sinden</w>
vehic les</w>
ta ş</w>
span ish</w>
sel j</w>
refa h</w>
re sear
p age</w>
or an</w>
objec tive</w>
mil a</w>
kre di
ka deme
inter im</w>
gr and</w>
geti re
gereke cek</w>
dol dur
dimitro v</w>
bakoyan ni</w>
ay ına</w>
argu es</w>
ar ies</w>
and y</w>
aleyh inde</w>
af ax</w>
6 8</w>
öner isini</w>
zar ar
tu red</w>
top ic</w>
ter ror</w>
taş ın
se selj</w>
rece pi</w>
proje ye</w>
perfor med</w>
olaca ğına</w>
multi ethnic</w>
met res</w>
medi afax</w>
mecl isin</w>
komün iz
j ov
gi de</w>
geçir ilmesi</w>
g ical</w>
emek lilik</w>
edi tor</w>
ch os
bel de
barış çı</w>
art tı</w>
çalışmalar ına</w>
yoksul luk</w>
yan oviç</w>
wa ges</w>
unil ateral</w>
tow ns</w>
ticar eti</w>
ti tle</w>
teach ers</w>
sig ns</w>
sergil en
ru pel</w>
re sta
r on</w>
oluştur an</w>
nüf uz
month ly</w>
mir cea</w>
m w</w>
kilome tre
hırv atlar</w>
hazır lık</w>
hat tının</w>
gi ves</w>
f ying</w>
erte len
edi yorum</w>
cina yet</w>
can in</w>
bar aj
bal ance</w>
abil ir
ş ek</w>
yürüt ül
yapıl mış</w>
tas ks</w>
t p</w>
t aban
represen tation</w>
rek or</w>
nov in
mü ke
milletvekil lerinin</w>
man ner</w>
lı ktan</w>
lüğ ünü</w>
kur du</w>
kad dafi</w>
integra ted</w>
insan i</w>
ins pec
in side</w>
hazır lanıyor</w>
grap h</w>
g iy
funda mental</w>
f ati
even tual</w>
eng lish</w>
confi dent</w>
cin e
at or
ag nos
öner i</w>
v las
stein er</w>
sin gs</w>
sho t</w>
sen in</w>
rom pres</w>
re h
paral el</w>
p c</w>
oblig ation</w>
müke mme
men istan</w>
memoran dum</w>
lar ger</w>
komş ular
kaçakç ılık</w>
kal ıcı</w>
is inden</w>
il o</w>
hellen ic</w>
ha bil
göster ic
gar anti</w>
g one</w>
excep t</w>
emi l</w>
effec tively</w>
destin ation</w>
deplo yment</w>
dav eti</w>
da f
ce o</w>
c ül
business men</w>
bul du</w>
awar eness</w>
anlaş mada</w>
ach es</w>
ılığ ın</w>
ür ken</w>
ülke lerle</w>
ç ey
yap ma
vete vendosje</w>
universi ties</w>
stam bol
resta ur
per cen
pan el</w>
o dy</w>
mul ti</w>
lux em
lu c
low est</w>
los ing</w>
li min
l an</w>
kriter leri</w>
karş ısında</w>
iş le</w>
ith al</w>
har c
geliştir ilmesi</w>
g gle</w>
facil itate</w>
fac ul
economic s</w>
du k</w>
di yar
destek liyor</w>
da imi</w>
com mo
cho ose</w>
birbir ine</w>
belir terek</w>
avro yu</w>
at ure</w>
ar m</w>
anlaş malar</w>
ah meti</w>
adal ete</w>
ıla bilir</w>
çev r
to bac
tobac co</w>
sür mekte</w>
shar ed</w>
reg ular
proto kol
mut abak
muame le</w>
mektu p
mar kovic</w>
man as
i̇liş kiler</w>
iş çi</w>
in stal
in li</w>
il ave</w>
hidro elektrik</w>
far mers</w>
direc ted</w>
dela yed</w>
d t</w>
commer ce</w>
bos kovski</w>
bir liğinin</w>
belir siz</w>
azın lıkların</w>
ar az
ap art</w>
ak ş
0 0,000</w>
çocu ğ
yaş adı
yaz arı</w>
yak ıt</w>
van ı</w>
vakf ı</w>
un uz</w>
toplum unun</w>
ti to</w>
stratej isi</w>
siz ce</w>
s hall</w>
recommen dations</w>
re place</w>
pre limin
ol iver</w>
od ası</w>
mus sen</w>
mo tion</w>
miktar da</w>
le j
kil lings</w>
karar ına</w>
kal an
itibar ıyla</w>
im ar
hou se
görüşme lere</w>
feat ures</w>
electron ic</w>
eksik liği</w>
c ate</w>
be li</w>
arac ılığıyla</w>
üstün lüğü</w>
çöz mek</w>
viol ent</w>
ver dikleri</w>
tutum unu</w>
t ress</w>
söz leşme</w>
sy n
s op
retur ns</w>
por tu
orta ğı</w>
me to
lük sem
kurum larına</w>
kan ada</w>
ilerle meyi</w>
hep si</w>
hayat i</w>
har it
h ür
güçlendir me</w>
gün de</w>
ez za</w>
ex por
condole ezza</w>
bul uş
ben im
bac king</w>
ay d
argu ing</w>
a te
şirket inin</w>
çöz me</w>
yar ı</w>
ti re
te dav
t son</w>
suç lan
rober tson</w>
ras mussen</w>
qu ite</w>
performan ces</w>
organ ise</w>
olma dı</w>
luxem bourg</w>
lis ted</w>
köpr ü</w>
kuruluş ları</w>
kan un
i̇ brahim</w>
initi ated</w>
halk ına</w>
extre mely</w>
de t</w>
de ep</w>
ba yanlar</w>
aç acak</w>
ath s</w>
anlaşmaz lığı</w>
çöz ümü</w>
ye si</w>
yas aya</w>
un cu</w>
tiyat ros
short ly</w>
reven ue</w>
real istic</w>
pro ved</w>
pro p
prelimin ary</w>
or tam</w>
mütte fik
mecl ise</w>
knowled ge</w>
kar iy
kal et
i̇ttifak ın</w>
inter pre
ilerlet me</w>
il jana</w>
h u</w>
f est</w>
du ty</w>
destekle diğini</w>
con ver
c ov
bür osu</w>
archi tec
ar gue</w>
ar an
analy sis</w>
6 1</w>
5 0m</w>
şüphel en
çiz di</w>
yen in</w>
yaptır ım
ul ti
te ls</w>
sovere ign</w>
skan dal
sen dik
s car
plan ına</w>
no tes</w>
mo men
miz in</w>
laş a</w>
la ik</w>
küç ül
komut a</w>
isti yor
i brahim</w>
hır isti
hükümet ini</w>
hedef liyor</w>
hak larının</w>
geç mesi</w>
fi k</w>
er meni</w>
en ab
dış ına</w>
cer n
bun lardan</w>
bulun uluyor</w>
be at</w>
bağlan tı</w>
as ing</w>
anlaş maları</w>
advan tage</w>
ad v
accoun ts</w>
zaman ında</w>
zaman larda</w>
yapıl masını</w>
w ers</w>
vu yanoviç</w>
uni ons</w>
top ics</w>
ta j</w>
seçim lerinin</w>
senten ces</w>
quic k</w>
pas sports</w>
nov os
ne n</w>
mül ki
müfet tiş
muhalefe tin</w>
momen tum</w>
mo re
mev zu
mas sive</w>
mak er</w>
kır sal</w>
kap alı</w>
je opar
ir regular
inc isi</w>
grea test</w>
geçir il
fam ous</w>
faali yete</w>
diyar bak
da k</w>
control led</w>
con cep
com memor
bırak tı</w>
büy üye
b bi</w>
appropri ate</w>
9 00</w>
şika yet</w>
ı tı</w>
öde me</w>
yol dan</w>
tav ır</w>
sırp lara</w>
suff ered</w>
success fully</w>
sonuc una</w>
say f
oper atörü</w>
ne c
ljaj ic</w>
la ku</w>
köken li</w>
kt ar</w>
ko le
k im</w>
imi ze</w>
ha c
gj or
getir meye</w>
gerçek çi</w>
genç lik</w>
g ay
exp and</w>
ele ments</w>
edile bilir</w>
e der
de tention</w>
comp en
chan cell
chancell or</w>
care er</w>
c ine</w>
böyle likle</w>
bri ef
bor cu</w>
be dr
baş kent
ba mir</w>
as king</w>
amer ica</w>
6 9</w>
yan sı
voy vodina</w>
ver miş</w>
tak ip</w>
ro s</w>
re action</w>
ra f</w>
pol ice
plan ın</w>
ortak laşa</w>
muha biri</w>
lüksem burg</w>
le ak
lazar ova</w>
kulü b
j ol
j er
it able</w>
ines e</w>
gr an
gi diyor</w>
geti recek</w>
exten d</w>
ei b</w>
edece ği</w>
da cic</w>
circum stances</w>
c ko</w>
bildir il
awar ded</w>
ad ver
10 0m</w>
şar tı</w>
ılığ ına</w>
ücre t</w>
çık ması</w>
toplan tının</w>
tar z
t avr
scan dal</w>
s in</w>
s ds</w>
ri z
po l</w>
par çal
oto mobil</w>
ol mayacak</w>
muş tur</w>
mot or
mek tir</w>
kur distan</w>
kur ban</w>
kullan ımı</w>
koşul ları</w>
kon ut</w>
iş siz</w>
intel lec
hız la</w>
h ek
favour able</w>
expres sion</w>
dolay ı</w>
demonstr ate</w>
deliver ed</w>
can ada</w>
bölge lerde</w>
boy ut
belgrad lı</w>
bas ına</w>
20 ,000</w>
yaklaş ım
voic ing</w>
su tan
ste pped</w>
sin ger</w>
rail way</w>
proces ses</w>
poin ted</w>
pati ents</w>
oy la</w>
ob vi
o tel
mak ro
i̇ ddi
gi re
geti ri
gen işlet
gaz ete</w>
festival de</w>
fay da</w>
et meleri</w>
es a</w>
earth qu
du b
domin ated</w>
der in
ci an</w>
ch inese</w>
bi d
b ta</w>
asker ler</w>
yüksel t
tradi tion</w>
te sis</w>
sax e</w>
respon dents</w>
re move</w>
re ad</w>
profes ör</w>
p is
or ada</w>
mü hen
mutabak at</w>
man n</w>
kon uk</w>
kamuoyun a</w>
ir ish</w>
in ts</w>
geçir me</w>
geliş meler</w>
ga ined</w>
fur ther
doğ us
co burg</w>
c ut
bron z</w>
accompan ied</w>
yol unu</w>
ve ments</w>
vade de</w>
uz un
u ya</w>
terror ists</w>
tale bi</w>
sho p</w>
sco res</w>
rüş vet</w>
produc er</w>
ph ere</w>
pe ten</w>
paralle l</w>
oy ların</w>
ol may
nis peten</w>
mağ dur
mater i
kur ul</w>
impro vements</w>
ilerle menin</w>
endor sed</w>
emin im</w>
edi ci</w>
e asi
danışman ı</w>
da yız</w>
cros sings</w>
co ast
cee ded</w>
büyükel çi</w>
bakan larının</w>
accu sations</w>
örgüt ünün</w>
çıkar ıldı</w>
çöz ülmesi</w>
zor luk
y usu
was te</w>
vatan daş</w>
um u
tur ning</w>
si x
sever e</w>
sah te</w>
resul ted</w>
regar d</w>
recog nis
re ta
ra ising</w>
pro visions</w>
pr ised</w>
play s</w>
p har
o di
mıs ır</w>
mon as
mla djan</w>
lik ten</w>
lead s</w>
kısm ının</w>
kuzey indeki</w>
konular da</w>
indic tee</w>
in nov
immun ity</w>
fli ghts</w>
f ro
em bar
destek len
defin ed</w>
bosni aks</w>
blo ğa</w>
aktar dığına</w>
şika yet
çalış mak</w>
yece ği</w>
ti a</w>
t ough</w>
su it</w>
sol ved</w>
seçim lerine</w>
saba h</w>
rol ünü</w>
prosper ity</w>
percen tage</w>
oyna dığı</w>
müş tü</w>
la cak</w>
kad ar
kab ul
is a</w>
hav alim
hal de</w>
gi ren</w>
gerçekleş mesi</w>
gelece ğe</w>
fi at</w>
f lu</w>
duy g
dis placed</w>
dai anu</w>
chos en</w>
bölge sindeki</w>
bud ap
bo ğ
bas tır
atten ding</w>
ar k
ar ch
an ket</w>
al lows</w>
ak lı</w>
ız a</w>
ti tled</w>
sü b
sp s</w>
siste minde</w>
r ast
pur pose</w>
por tek
oto bü
oluştur ul
oc cas
mor ning</w>
mar k
malar la</w>
l iler</w>
kurul masını</w>
kt u</w>
kim senin</w>
ic g</w>
hareke tin</w>
hafi f</w>
güven liğini</w>
f it
et mekte</w>
estima tes</w>
din k</w>
contra cts</w>
citiz en</w>
chap ter</w>
be y
aş am
anti cip
akademis i</w>
ak si</w>
abil ities</w>
ıl maz</w>
çab alarının</w>
un fortun
tur k</w>
tet ovo</w>
stru ga</w>
sistem ine</w>
se mbol
ren ov
r ken</w>
promp ted</w>
om bud
milovan oviç</w>
luk ta</w>
istikrar ın</w>
irregular ities</w>
in stance</w>
he aring</w>
hap se</w>
h ance</w>
göster i</w>
gh t
fac ts</w>
expen sive</w>
ex tra
en hance</w>
dığ ımız</w>
dan imar
con sol
cap ture</w>
birleştir me</w>
ber ab
b ent</w>
an ne
an n
ak lama</w>
ş e</w>
var lığını</w>
uy gu
ty pe</w>
tre as
taş ıy
stru ggle</w>
stan koviç</w>
sistem in</w>
respon sibilities</w>
redde dil
re placed</w>
pro di</w>
p m</w>
p ici
ordin ator</w>
kay ak</w>
iz liyor</w>
iste k
hüküme tine</w>
high ligh
göster mesi</w>
ga ining</w>
g â
etkin liği</w>
doub t</w>
dir en
destekle meye</w>
car i</w>
can cer</w>
br cko</w>
arke olog
anayas aya</w>
5 9</w>
writ ten</w>
win d</w>
u ad</w>
tutuk lanması</w>
tra in</w>
tel ling</w>
sürdür dü</w>
söy leniyor</w>
swe den</w>
sho oting</w>
sen ar
ri ed</w>
procee dings</w>
peop les</w>
p an</w>
oğ u</w>
origin al</w>
olaca ğ
n one</w>
mükemme l</w>
mu r</w>
lj iljana</w>
kurum u</w>
kri ze</w>
kil ise</w>
iy di</w>
i pl
ha bi
geç miş</w>
fi zi
fe ars</w>
facul ty</w>
europ e
etkinlik lere</w>
ege men</w>
e mek</w>
değişik liği</w>
d um
ca z</w>
bir leşme</w>
be sides</w>
at tı</w>
argu ed</w>
alis ing</w>
ac tor</w>
7 ,000</w>
20 20</w>
20 15</w>
197 4</w>
üye sinin</w>
öl üm</w>
çab uk</w>
yor sunuz</w>
yargı ç
wr ong</w>
ver meyi</w>
um n</w>
tı bbi</w>
toplum a</w>
ti recek</w>
sin yal
serbest leştir
sec ular
se where</w>
se ts</w>
re vol
re habil
rak i
ort ad
of isi</w>
mos que</w>
milovan ovic</w>
mil oş
layı p</w>
ko ha</w>
güc ünü</w>
gü dü
fazlas ını</w>
fat os</w>
el sewhere</w>
edil mesine</w>
e lic</w>
di v
da tes</w>
comb ined</w>
bi a</w>
audi ence</w>
ans a</w>
ama z</w>
al a</w>
ac tually</w>
şar kı</w>
ücret siz</w>
önlem ler</w>
z inci
yatır ımı</w>
vis as</w>
var i
trafi k</w>
tele graph</w>
sağla dığı</w>
sa m</w>
s pread</w>
remov al</w>
rad ovan
ra madan</w>
play ing</w>
mülki yet</w>
miloş eviç</w>
med yas
ma gaz
lüğ üne</w>
lin k</w>
li z
kontrol ü</w>
j um
iç i</w>
ist ent</w>
ihtila f</w>
human ity</w>
hoş gör
her ke
hakk ına</w>
gözlem ciler</w>
grap hic</w>
faaliyet lerini</w>
f are</w>
el den</w>
e den
dra w</w>
dis ipl
dedi cated</w>
de sig
corri dor</w>
at a</w>
an na</w>
aleyh indeki</w>
accor ds</w>
ac tual</w>
10 0,000</w>
özerk lik</w>
z emin</w>
yöneti minin</w>
yum uş
yol un</w>
y üz</w>
wol f
sus pici
stan d
sine ma</w>
recover y</w>
proje yi</w>
performan s</w>
ni er</w>
mis yon</w>
lık lara</w>
ler imiz</w>
legisla tive</w>
lefkoş e</w>
kü tü
kali te
k ör
ins ist</w>
increas es</w>
in cum
im ha</w>
i ği</w>
hiz meti</w>
has sas</w>
h et
gör dü</w>
geç i
ekonomil er
diaspor a</w>
de struction</w>
coun t</w>
clos ure</w>
bölge yi</w>
bildir diğine</w>
accor dance</w>
3 50</w>
1 30</w>
ümü z</w>
yı r</w>
ul dn</w>
tru th</w>
tele fon
sy mbol
suç lar</w>
sonuç lara</w>
si te
sağlay acağını</w>
ri a</w>
rescu e</w>
protest ers</w>
prote cting</w>
per ak
olan lar</w>
müzak erec
milli ons</w>
mey dan
main taining</w>
le cek</w>
komisyon un</w>
im port</w>
ihl al
his sesini</w>
h it
guaran tees</w>
govern ing</w>
gabri el</w>
friend ly</w>
formal ly</w>
der s
beş inci</w>
ar dı</w>
al acağı</w>
ak sine</w>
ag ues</w>
adv ance</w>
0 th</w>
ılığ a</w>
örgüt leri</w>
çe ken</w>
yüksel di</w>
week ly</w>
tro ika</w>
ti fied</w>
sen ding</w>
seiz ed</w>
s ının</w>
program ın</w>
pro visi
p n
oy un</w>
ortad oğu</w>
more over</w>
mi rol
malar ında</w>
malar dan</w>
kullan ı
k las
im migrants</w>
ihti yat
i hale</w>
hür riyet</w>
ha yır</w>
görev lendir
festival in</w>
f ts</w>
eyal et</w>
en lerin</w>
en ko</w>
düşün ül
dra wn</w>
dil ik</w>
degre e</w>
can lı</w>
ay ından</w>
armen ian</w>
araştır malar</w>
ar g
ar di</w>
an ne</w>
ülke lerini</w>
ü cü</w>
öğren im</w>
ziv koviç</w>
yusu f</w>
yol o
ye viç</w>
yap acağını</w>
ti le</w>
sürdür me</w>
sy m
sutan ovac</w>
sonuç lan
si mi
ra tion</w>
pula j</w>
par am
me tho
lav rov</w>
kar t
kar ayolu</w>
introdu ction</w>
imzal ay
gr os
gor dana</w>
fizi bil
expla ins</w>
en han
elec t</w>
decl ined</w>
categor y</w>
car d</w>
bedr ana</w>
ba b
aşır ılık</w>
ap pre
ad nan</w>
a ce</w>
1 000</w>
şebe ke
zan lının</w>
ye bilir</w>
yatırım lar</w>
wh ere
var ılan</w>
taraf lar</w>
sub sequ
st ad
seç ilen</w>
sav ings</w>
rej imi</w>
rece ği</w>
ra id</w>
pla cing</w>
oyn anan</w>
muh teme
mil os</w>
mal ze
kullan arak</w>
kon sol
katılım cı</w>
karşılan dı</w>
i̇ş çi</w>
işken ce</w>
indi ri
incum bent</w>
im a</w>
hi ka
göster mek</w>
gerek ir</w>
el d</w>
edil diğini</w>
e g
doğ um</w>
de ep
de als</w>
consum ption</w>
con vin
charac ter
bloc king</w>
baş ından</w>
aç ma</w>
assu red</w>
archae ologists</w>
8 3</w>
yaz ı</w>
van ya</w>
usul süz
ur ban</w>
ulaş mak</w>
toplan dı</w>
to m</w>
the od
sık ıntı
sw is
suik ast
shi p
sele cted</w>
se cular</w>
savaş ın</w>
s li
s han
re vi
re pea
repea tedly</w>
prof ile</w>
pres ti
organis ing</w>
novos ti</w>
modern isation</w>
mater ial</w>
lar sa</w>
kur maya</w>
krasni ki</w>
keep ers</w>
ke li</w>
infor mal</w>
in oviç</w>
hur riyet</w>
gelişim i</w>
ga ted</w>
feasi bility</w>
eli gible</w>
easi er</w>
değ in
dayan ıyor</w>
da ğı</w>
convin ced</w>
bran ch</w>
azalt ma</w>
atmos phere</w>
ate ş</w>
asse ss</w>
5 0,000</w>
1 40</w>
ıla cağını</w>
ğ im</w>
ö f
z lat
v uk
v ital</w>
ur gent</w>
tor e</w>
stra tion</w>
sta ted</w>
sanay ii</w>
promis ing</w>
prac tical</w>
pal est
not e</w>
n ish</w>
mü dür</w>
muhteme len</w>
milyon larca</w>
mat ters</w>
l or
kriter lerini</w>
il lu
ic o</w>
i yet
hedef leri</w>
geçir di</w>
getir diğini</w>
ge v
g ü</w>
fu ele</w>
fo under</w>
f em
et beg
eas ily</w>
durum dan</w>
disas ter</w>
conserv ative</w>
clash es</w>
ch em
ceza ev
celebra ted</w>
ben i</w>
başkanlığ ındaki</w>
arab a</w>
anlaş tılar</w>
çıkar ılması</w>
tion ary</w>
t ük
sırp ları</w>
sı cak</w>
süre çte</w>
se aled</w>
restor e</w>
pay ment</w>
or ic</w>
nico las</w>
new s
mi ktar</w>
konular ında</w>
kesi minde</w>
kes h</w>
karşıla mak</w>
ilerle meye</w>
ho using</w>
fri ed</w>
fac tion</w>
emphas ised</w>
durum unu</w>
dra fted</w>
don ors</w>
depen d</w>
bilim sel</w>
bil ls</w>
artış la</w>
ar ena</w>
announ cing</w>
al ev
8 ,000</w>
şim dilik</w>
ürün leri</w>
ziv kovic</w>
yer inde</w>
we al
sürdür meye</w>
söz cü</w>
smo king</w>
sel ling</w>
sav a</w>
s pec
petro v</w>
per pet
o ku
mirol jub</w>
min ute</w>
ma dri
len diri
land alı</w>
la tions</w>
la ke</w>
ku ş</w>
kic ked</w>
in stability</w>
his set
hava alan
genç lerin</w>
f ine</w>
f an
ec b</w>
di j
colle agues</w>
co ach</w>
avustral ya</w>
as gar
amaç lanıyor</w>
1 10</w>
- -
önem lidir</w>
yı p</w>
veril miş</w>
um s</w>
traj kovski</w>
spiri t</w>
ri s</w>
po well</w>
perak en
pe di
pazar lık</w>
ori en
on y
ol i
min u
mi ze</w>
mesele ler</w>
medve dev</w>
mağ lup</w>
mak tır</w>
licen se</w>
li br
la under
jev ac</w>
iyim ser
ins isting</w>
in sight</w>
grup ların</w>
ger ed</w>
gazetes inde</w>
gal lery</w>
further more</w>
edebi yat</w>
dj elic</w>
di s</w>
com ment</w>
ca th
bun lara</w>
bulun dur
bar ışı</w>
ba il
ayrın tı
ayrım cılık</w>
ar i
al bert</w>
ak tör
çab alar</w>
yetkil ilerinin</w>
wor se</w>
van siyon
sun uyor</w>
spokes woman</w>
simi tis</w>
s asa</w>
rapor un</w>
pot enti
politici an</w>
phot o</w>
out look</w>
no body</w>
ne dir</w>
mü yor</w>
mü ste
me den
li e
l iliği</w>
konferans a</w>
ke ts</w>
hop ed</w>
ho tels</w>
hedef leniyor</w>
health care</w>
guaran te
gre v
fakül tesi</w>
el inden</w>
doğus undaki</w>
doz ens</w>
dey işle</w>
deman ded</w>
cvet kovic</w>
correspon dent</w>
comp ete</w>
celebr ate</w>
c le</w>
bure au</w>
bla ir</w>
belge leri</w>
bal tal
alar ındaki</w>
ac comp
şah ıs
yeter ince</w>
withdra w</w>
w ake</w>
vul ner
ver eceği</w>
uygulan masını</w>
sun ul
sig orta</w>
religi on</w>
preven tion</w>
po et
p sy
or han</w>
ol mayacağını</w>
moun tain</w>
met al</w>
lü b
le ban
ke l</w>
haber ler</w>
göç men</w>
gönder di</w>
gro unds</w>
gh ter</w>
g aş
finans man</w>
fark ında</w>
en visi
dj ur
direc torate</w>
değişiklik lerin</w>
deli ver</w>
de vi
dav ada</w>
coup le</w>
bü ro
br ings</w>
başlangı ç</w>
başbakan ın</w>
açılış ını</w>
asgar i</w>
as pects</w>
artı ra
an at
7 6</w>
19 80</w>
ü p</w>
çıkar t
çatış malar</w>
yıl larında</w>
yas asını</w>
uygula mada</w>
tı ra
top lama</w>
tar ak</w>
refer ring</w>
raz van</w>
pas sing</w>
ou li
ortal am
on ar
makro ekonomik</w>
madri d</w>
lo ve</w>
li ved</w>
ler dir</w>
kür distan</w>
i̇ngil iz
iyileştir me</w>
ik iye</w>
ha j
göç men
gru bunun</w>
electri c</w>
e leri</w>
e ing</w>
din a
d are</w>
cla iming</w>
cesar et</w>
bir ine</w>
başlat ılması</w>
başla ma</w>
ans wer</w>
acağ ından</w>
ac ci
10 m</w>
ülke sinde</w>
wa ve</w>
tw ice</w>
tazmin at</w>
taraf sız</w>
söyle ye
syri an</w>
sov iet</w>
son baharda</w>
s kil
s ile</w>
s he
rezer v
requ ested</w>
rat ings</w>
practi ces</w>
pop e</w>
o in</w>
nere de</w>
mü n</w>
merkez inin</w>
mağ az
ma cılık</w>
lendi riyor</w>
la g
kt c</w>
kim in</w>
k ktc</w>
j acqu
i̇statisti k</w>
i̇kti dar
is ms</w>
introdu ce</w>
im en
il diği</w>
i or
hava alanı</w>
has t
ha iled</w>
gis ini</w>
gil i</w>
gi ant</w>
geç ecek</w>
festival e</w>
eğiti mi</w>
en or
dığ ının</w>
do ors</w>
demonstra ted</w>
bro ke</w>
başar dı</w>
açıkla ması</w>
at u
al masına</w>
aktar dığı</w>
a ak</w>
8 1</w>
7 3</w>
şehi r
ış tı</w>
çöz üle
un h
unh cr</w>
u red</w>
tören inde</w>
tro y
sur prise</w>
su bay
sec tion</w>
sağla ması</w>
s cot
preven ting</w>
pis kop
pic ture</w>
li man</w>
l ists</w>
jan in</w>
iti ons</w>
ij ing</w>
he p</w>
gör düğünü</w>
getir ildi</w>
gener ation</w>
finans man
ev et</w>
deme tris</w>
be ijing</w>
ban ned</w>
ark asında</w>
amoun ts</w>
a us
2, 5</w>
çey re
ç ılık</w>
usu ally</w>
tır man
the w</w>
te st
söyle diği</w>
stef an
seçim lerini</w>
rak ip
plat for
pil ot</w>
numar alı</w>
nic ho
mi xed</w>
mar oviç</w>
ma hal
lik lerini</w>
kut ladı</w>
kurt ul
kiş iye</w>
kal ması</w>
iş ç
interven tion</w>
im pose</w>
hi r</w>
gerçekleştir diği</w>
gad dafi</w>
f ou
ek ip</w>
ef ul
e x</w>
dis play</w>
condem ned</w>
ch ers</w>
cap able</w>
belir leme</w>
at ın</w>
an lay
al led</w>
al ak
a mak</w>
8 2</w>
zorun lu</w>
yöneti mindeki</w>
yolsuzluğ a</w>
yaklaş ım</w>
v at
uy du</w>
un ded</w>
u lar</w>
tut uyor</w>
tur u</w>
tor ture</w>
sü ley
suçla maları</w>
sh ops</w>
r ar
proj esinin</w>
pro per</w>
potenti ally</w>
pahal ı</w>
ol muştu</w>
ne ar
mil ler</w>
loo ks</w>
li maj</w>
kr al
ke sil
kar olos</w>
j eviç</w>
i̇ler leme</w>
im in</w>
gal er
fu ar
feat uring</w>
er re</w>
düşün ce
cular ın</w>
col on
at ları</w>
ama z
al acağını</w>
20 m</w>
çık ar</w>
çalışan ları</w>
çalış tı</w>
zir ve</w>
viola tion</w>
ur y</w>
tü ler</w>
tack le</w>
ser gisi</w>
ser g
san ık</w>
sa ve</w>
s ence</w>
par anın</w>
p sik
nicho las</w>
negoti ation</w>
n 1</w>
li mit</w>
launder ing</w>
jacqu es</w>
isti yorlar</w>
is lav</w>
imi r</w>
hedef ini</w>
hat t
göster gesi</w>
graph y</w>
fik ri</w>
fati h</w>
dismis sed</w>
direc tors</w>
clos ing</w>
ce liç</w>
bütün leş
broadcas ting</w>
bir den</w>
bi den</w>
be ha
ban kanın</w>
bal l
ayr ılık
ambassa dors</w>
al dıkları</w>
achiev ements</w>
zem un</w>
y ere</w>
vic tor</w>
ver me
tan ıyan</w>
st yle</w>
st one</w>
sorun larla</w>
seç ti</w>
se fer</w>
sağlan acak</w>
s vil
recommen ded</w>
rama dan
r tk</w>
over ha
orig in</w>
oluştur ulması</w>
nok tada</w>
mektup ta</w>
mar tin</w>
l ut
i̇span yol</w>
iş in</w>
iy se</w>
ir ing</w>
iktidar a</w>
gel miş</w>
freedo ms</w>
fran co</w>
fem ale</w>
equ ality</w>
c ations</w>
büyüye n</w>
bil iriz</w>
be q
baş lıyor</w>
baj ram</w>
b ought</w>
b ini</w>
anat ol
an ian</w>
ad mission</w>
üz ün
çalış tığı</w>
yak ından</w>
uk at</w>
tiğ inde</w>
tedbir lerin</w>
taşı dığı</w>
taraf ların</w>
slo gan
si r
seçmen ler</w>
ra maz
pris ing</w>
pen sion
peace keepers</w>
pah or</w>
oluştur ma</w>
olduğ umuz</w>
mü him
mensu p</w>
man i
lı yorlar</w>
laş ma</w>
kü r</w>
koşul lar</w>
kaynak lanıyor</w>
k lu</w>
jeopar dis
j l
iy as</w>
iv ed</w>
ima l</w>
güz el
g li
fizibil ite</w>
feat ure</w>
exclu sive</w>
en tre
dol ara</w>
do m</w>
de mir</w>
con text</w>
beg un</w>
av ukat</w>
aut umn</w>
atro cities</w>
ak ımı</w>
8 4</w>
2. 5</w>
ımız ın</w>
ülke lerindeki</w>
çı lar</w>
çi ft</w>
zanlı larının</w>
yaşan dı</w>
y o</w>
tören de</w>
traj kov</w>
teşek kür</w>
tas sos</w>
say ımı</w>
sa fe
reka be
reform lara</w>
re signed</w>
profesyon el
op pose</w>
ol masından</w>
o ke</w>
neigh bour</w>
n y</w>
mu az
mis sile</w>
materi als</w>
manag ing</w>
malar ından</w>
ma cro
m de</w>
liste sinde</w>
l us
koordin atörü</w>
kon uyu</w>
kesi m</w>
istikr ara</w>
il aç</w>
hy dro
he ard</w>
ha gen</w>
güven ilir</w>
gönder diği</w>
fin nish</w>
expres sing</w>
el se</w>
di vanı</w>
de st</w>
colle ctive</w>
bölge sine</w>
bilg ileri</w>
başsav cı</w>
başar ı
basket ball</w>
bask ın</w>
ati on
at ör</w>
alışver iş</w>
advan ced</w>
abil iyor</w>
çocu kları</w>
zanlı ları</w>
yetk isi</w>
u li
to m
ten sion</w>
technolo gies</w>
te ll</w>
tan e</w>
stop ped</w>
sektör üne</w>
sektör ündeki</w>
sch ror</w>
saldır ıları</w>
sa yılı</w>
r t
put ting</w>
pen ding</w>
pek u
olog ist</w>
mi tev</w>
medi cine</w>
manas tır
lider lik</w>
la ik
kullan an</w>
konjiku sic</w>
katıl mayı</w>
karar laştır
kamp schror</w>
kal k
ing er</w>
i um</w>
hak ar
gjor ge</w>
fut bol
fayd alan
entre pren
encour aging</w>
e mir</w>
düzenle diler</w>
dokt or</w>
de aths</w>
coun ter</w>
concer ts</w>
cev ski</w>
cath ol
bilgil ere</w>
bilgil er</w>
bac ks</w>
anlaş masına</w>
amerik alı</w>
9 8</w>
7 4</w>
şidde tle</w>
ğ imiz</w>
çıkar ıl
yatırım ları</w>
y l
ves na</w>
tarih ten</w>
sci ences</w>
sal t</w>
sa has
rüz gar</w>
re actions</w>
ramaz an</w>
produc ers</w>
presen ts</w>
pol ling</w>
per spek
oran ları</w>
on ur
on g
olay ların</w>
mühen dis
mu am
mo ody</w>
ma t</w>
kütü phan
kav uştur
jur y</w>
i̇ van</w>
iz ledi</w>
hedef lerine</w>
göster meye</w>
gere ğini</w>
g un</w>
fore ig
for umu</w>
fiz ik
eyalet te</w>
er ial</w>
e ps</w>
du var
dis ci
disci pl
deste ğiyle</w>
dayan ış
counter parts</w>
contribu tions</w>
conne cted</w>
ci ans</w>
böyle ce</w>
bur aya</w>
baş k
a 1</w>
öne mi</w>
çağr ı
yolsuzluğ un</w>
yatırım cı</w>
yan ından</w>
y il
uygulan masına</w>
ucu z</w>
tören ine</w>
ti riyor</w>
sıra yı</w>
standar t</w>
sol idar
solidar ity</w>
sh ap
seçen ek
se ec
seec p</w>
ro me</w>
re ver
re bel
rad man
ra hi
profes örü</w>
perfor m</w>
per cep
pal ace</w>
l ou
katıl dılar</w>
kat ol
karış ık</w>
kal mış</w>
i̇ktidar daki</w>
it ary</w>
inter ethnic</w>
inde ed</w>
ha dzic</w>
gönül lü</w>
g lu</w>
g ali
fi res</w>
düş en</w>
differ ence</w>
dav aları</w>
cra ft</w>
conclu sion</w>
commun ism</w>
büyü menin</w>
belir lenen</w>
b lan
ağ a</w>
archae ological</w>
üye li</w>
çif te</w>
zan nier</w>
z drav
yas al
yardım ıyla</w>
veril mesini</w>
vas il
ti an</w>
th res
tan t</w>
tal king</w>
sür düğü</w>
suc ceed</w>
ste ad
stan kovic</w>
srbi ja</w>
sorun larını</w>
sorumluluğ unu</w>
sav cılık</w>
satis faction</w>
retur ning</w>
pu y</w>
promo tion</w>
p el
ow nership</w>
mesele leri</w>
mat thew</w>
lığ ıyla</w>
kuruluş larının</w>
k ati
insan lara</w>
gro w</w>
fin als</w>
ey le
eur os
et tir
est on
dr in
diploma cy</w>
dig ital</w>
den iz
delay s</w>
da yat
cap e</w>
c amer
boş nak
boy s</w>
appro ve</w>
10 .
wil l
w on
ver gil
utili ty</w>
ti hiç</w>
ti ca</w>
su re
statisti cal</w>
standart ların</w>
sonuç larını</w>
ser gide</w>
saf h
rom puy</w>
ri ots</w>
rela tively</w>
re ş
r on
portek iz</w>
poet ry</w>
piy asa</w>
pek in</w>
muaz zam</w>
mon uments</w>
lan ma</w>
iyileştir ilmesi</w>
il l</w>
hi ri</w>
fil i
fe ith</w>
er mesinden</w>
enor mous</w>
ekonomis t</w>
ef san
ece ğine</w>
değiş en</w>
dak ika</w>
dak ik
bildir i</w>
beha vi
bağım l
ayrım c
attra cting</w>
arti st</w>
al ım</w>
zvet koviç</w>
zor la</w>
zanlı ların</w>
ver gisi</w>
toplum lar</w>
swe dish</w>
surroun ding</w>
sayı daki</w>
sahip leri</w>
reve aled</w>
prop ag
person el
oy unu</w>
optimis m</w>
misyon unun</w>
minu tes</w>
mar ovic</w>
m ızı</w>
m ıyorum</w>
len dire
krasni qi</w>
kendis inin</w>
invest or</w>
insan lık</w>
hol bro
hep imiz</w>
hel sin
ham le
et menin</w>
et mektedir</w>
dra zen</w>
dal ında</w>
conven tion</w>
control s</w>
cont ent</w>
ce n</w>
blo k</w>
as pira
ar acı</w>
ad mitted</w>
üye lerinden</w>
ön cül
çıkar larını</w>
z ast
zast ava</w>
yok tur</w>
wel coming</w>
v is</w>
uygula ması</w>
u yan
to ky
to dor
te or
tanı tı
sekre ter</w>
ra do
par ator
oluştur duğu</w>
o urs</w>
o ur
novin ite</w>
nec det</w>
mechan isms</w>
loc ations</w>
law yers</w>
kriz den</w>
kaynak lanan</w>
işbir liğiyle</w>
iyileş me</w>
iti raf</w>
is on</w>
im ti
holbro oke</w>
haftal ık</w>
güne ş</w>
görev inden</w>
fel low</w>
consi ders</w>
ces sive</w>
bri ga
bakan lığına</w>
bail out</w>
appe ar
an ah
alan ları</w>
ac a</w>
yıl larca</w>
ye mek</w>
wrap ped</w>
unfortun ately</w>
un ve
ular a</w>
toprak larında</w>
top al
tiyatros u</w>
thres hold</w>
th or
tele phone</w>
sığın ma</w>
sıra dan</w>
süres inin</w>
swis s</w>
st ro
soykır ım
respec ted</w>
refle ct</w>
r ts</w>
public ly</w>
nat aşa</w>
mün as
mon opol
men tioned</w>
lığ ında</w>
laun ching</w>
kırık lığına</w>
kor san
konjiku siç</w>
ken di
işle y
iste kli</w>
im ini</w>
i er</w>
hristof iyas</w>
hak lı</w>
gün ler</w>
geç iyor</w>
fun ction</w>
düny adaki</w>
den izi</w>
decre ase</w>
dar ko</w>
dan ts</w>
d ating</w>
concep t</w>
bri ef</w>
birey sel</w>
başkan ları</w>
bak ıl
b ina</w>
azalt mak</w>
auth or</w>
at at
an gel
a ten</w>
üye lerine</w>
ülke sinden</w>
yürü y
yol una</w>
yol a</w>
yarar lı</w>
vers y</w>
ve sel
v o</w>
un employed</w>
taşı macılık</w>
st ak
sok ak</w>
sk y</w>
sen si
see ing</w>
se g
res ume</w>
regula tion</w>
rad mila</w>
pazar ına</w>
parti te</w>
p ayı</w>
mahke mesinde</w>
liter ature</w>
kal dığı</w>
in ovic</w>
hi ja</w>
güven ce
görev de</w>
g ashi</w>
e du
dispu tes</w>
devre dil
contro versy</w>
con vince</w>
compli cated</w>
ci gar
bölge sinin</w>
bir lik
bilece ğine</w>
avo i
al ılar</w>
ırk lı</w>
ımız a</w>
öl çek
ç ısı</w>
yürüt tüğü</w>
volun te
vas sil
tı klarını</w>
turiz mi</w>
ti hic</w>
proper ties</w>
ob rad
müste ş
mu ad
lar y</w>
k lin
i̇ngiliz ce</w>
isti n</w>
helsin ki</w>
he li
hay at</w>
har ca
gir mesi</w>
gere ği</w>
georgi evski</w>
floo ds</w>
far m</w>
der ing</w>
decis ive</w>
dahil inde</w>
d ans</w>
collap se</w>
cle an</w>
baş kentinde</w>
an ma</w>
al masını</w>
al ina</w>
ak ıl
ail esinin</w>
ac k</w>
çağır dılar</w>
yenil ik
yatırım cıların</w>
y ü</w>
uç ak</w>
türk ler</w>
toplantıs ına</w>
th ro
ter esa</w>
tak v
stri kes</w>
sta di
siz in</w>
sil ay
rau fo
rama zan
r it
ouli as</w>
os lav</w>
nüf usu</w>
med yanın</w>
macro economic</w>
liste sinin</w>
katıl anların</w>
k ız</w>
i̇sti h
isti ş
i tely</w>
hap s</w>
görül düğü</w>
gönder il
gy m
gis inin</w>
gidi ş
fos ter</w>
fol kl
fin land</w>
encour aged</w>
en o
deter ior
deplo yed</w>
cov ers</w>
ay dır</w>
ay dan</w>
austral ia</w>
arkeolog lar</w>
amac ının</w>
am bi
alak bar</w>
affir med</w>
achiev ement</w>
7 7</w>
şüp he</w>
ç ilik</w>
z v
z en
yen ile
yargı ç</w>
y umu</w>
y alan
tati l
taraf tan</w>
t ments</w>
suik as
so v</w>
sak lan
re cession</w>
rapor unu</w>
proje de</w>
pre mi
por t
pak tı</w>
out going</w>
ordus unun</w>
oppon ents</w>
on able</w>
ne st
müz is
münas ebe
münasebe tiyle</w>
mu si
miz de</w>
mar i
mali yeti</w>
magaz ine</w>
ma tur
ma ma</w>
ma daki</w>
lüb nan</w>
la ması</w>
l ying</w>
kra gu
kom ple
jan kovic</w>
j ina</w>
investig ative</w>
investig ate</w>
hız lan
hos ting</w>
heyet inin</w>
hey kel
h n
fil min</w>
fak tör
eş lik</w>
er tesi</w>
di tore</w>
değer inde</w>
da ble</w>
croati ans</w>
collabor ation</w>
clas s</w>
c it
bir th</w>
bel genin</w>
be k</w>
b ou
av lj
ac commo
ı p
ülke sine</w>
ödül ünün</w>
çatış ma</w>
wolf gang</w>
ter ö
ten is</w>
tan k</w>
sil aj
sh op
sa d
respon d</w>
res ses</w>
re fin
raki bi</w>
produc t</w>
pro eski</w>
pn l</w>
ord ine</w>
ol malı</w>
nor veç</w>
mi yoruz</w>
mah kum
ma ch
lear n</w>
layı k</w>
kuvvet ler</w>
kova cevic</w>
koalisyon unun</w>
ko ordine</w>
j ovan</w>
i̇l gili</w>
işle yen</w>
izle yen</w>
isla mist</w>
hükümet ler</w>
hükü m</w>
han dle</w>
go og
gi dil
gerekçe siyle</w>
et a</w>
emer ging</w>
derece lendirme</w>
denet leme</w>
con ce
car lo</w>
associ ated</w>
arke oloji</w>
anton ela</w>
an t
çek iş
çalış tığını</w>
çalış acak</w>
yaralan dı</w>
tem per
standart lara</w>
speci fic
soğ uk</w>
s m</w>
r het
provisi onal</w>
plan ladığı</w>
plan da</w>
pet rescu</w>
pay ments</w>
oto yol</w>
op tions</w>
olay ın</w>
nen ad</w>
n ci</w>
misyon un</w>
mahkeme yle</w>
lık larının</w>
la dığını</w>
kış kır
ke y
karar ları</w>
k ta</w>
k lerin</w>
isola tion</w>
indi a</w>
hal t</w>
güçlendir ilmesi</w>
gres sive</w>
gi recek</w>
g ah
fin dings</w>
expen di
es ne
enga gement</w>
en ver</w>
em ri</w>
dol arı</w>
değ in</w>
d tp</w>
cau tioned</w>
artış ı</w>
artır dı</w>
ans ki</w>
an o</w>
ak ra
a maya</w>
a ege
4 ,000</w>
öner isi</w>
öncelik li</w>
çıkar ma</w>
zaman ın</w>
yol cu</w>
yas ak</w>
wor d</w>
under mine</w>
ular ının</w>
u de</w>
tri partite</w>
ter ed</w>
sız ın</w>
sürül dü</w>
sto j
skil ls</w>
simp le</w>
saldır ılar</w>
recor ded</w>
re pa
re min
rapor una</w>
pros pect</w>
proj esine</w>
pro of</w>
portu gal</w>
phy si
parti lerinin</w>
parlamento ya</w>
pap oulias</w>
not unu</w>
mil i
ma tically</w>
le gen
kal ı</w>
gen der</w>
fl or
experi enced</w>
düz gün</w>
dön dü</w>
devle te</w>
defe ated</w>
corrup t</w>
ce l</w>
ca mi
bölge lerinde</w>
başla dığı</w>
bank rup
b or</w>
aç abilir</w>
anayas anın</w>
alan lar</w>
ak ar
ş er
zaman dan</w>
yol lardan</w>
yap ım</w>
tutuk ladı</w>
subsi dies</w>
si bly</w>
sey re
sağ lanan</w>
run s</w>
ruh sat
ro b
pra tik</w>
pos ts</w>
per haps</w>
papadop oulos</w>
oldu lar</w>
okul u</w>
near by</w>
man age</w>
mak sızın</w>
li p
ler imizi</w>
kuzey de</w>
ko la
kend ini</w>
kararl ılığını</w>
jan koviç</w>
i̇v ica</w>
i̇ttifak a</w>
in sufficient</w>
ili escu</w>
hosp itals</w>
highligh ted</w>
eğ it
er hard</w>
ek si
düzen i</w>
demo s</w>
cu s</w>
champ ion</w>
bi g
başlat ıldı</w>
at tri
aege an</w>
adal et
şar ap</w>
şans ını</w>
önem lisi</w>
yoğun laş
wat ers</w>
ve cern
uzlaş maya</w>
tü ğ
ther ine</w>
teşek kül
televiz yonu</w>
sure tiyle</w>
sun an</w>
ser ge</w>
sah ası</w>
regist ration</w>
rec t</w>
por tion</w>
politikas ının</w>
out put</w>
ou ts</w>
ne zar
mo del
mecl is
le um</w>
kom ite</w>
ko dra</w>
kilometre lik</w>
kaldır ma</w>
k ing
i̇van oviç</w>
ist er
haft alarda</w>
goog le</w>
girişim in</w>
gi u</w>
geliştir mek</w>
ge mi</w>
füz e</w>
etk ileri</w>
ebe ve
dör t
dub bed</w>
değ ildi</w>
deb ts</w>
dağıtı m</w>
daires inin</w>
bur gaz</w>
bil di
bağımsız lığının</w>
barri cades</w>
bak ım
ba har</w>
ayak ta</w>
associ ations</w>
alın mış</w>
activ ists</w>
198 4</w>
1. 000</w>
ı ğın</w>
z ve
yok sun</w>
yazıl ım</w>
yarat mak</w>
yan gın
war n</w>
visi ble</w>
un likely</w>
toplantı dan</w>
ti ous</w>
terö riz
tedav i</w>
süley man</w>
sw im
specu lation</w>
some times</w>
slov ak</w>
seçen ek</w>
politikas ını</w>
politik aları</w>
pol isinin</w>
per ce
palest inian</w>
olas ılık
off en
o tel</w>
ligh tly</w>
kur ti</w>
kullan ıla
kalab alık</w>
k ıl
iyileştir mek</w>
ilişk ilerde</w>
hükümet le</w>
hin distan</w>
h 5
h5 n1</w>
gi decek</w>
fail s</w>
en cies</w>
emplo yers</w>
doc tor</w>
con cen
cin si
chur ches</w>
bre zil
belir siz
belediye si</w>
ağ ının</w>
açı ğını</w>
al ıyorlar</w>
ü le</w>
önce likleri</w>
yaz ılı</w>
yay ı</w>
we ak</w>
uyg un
thir ds</w>
th y</w>
te en</w>
st ur
silay ciç</w>
shi ft</w>
pr int</w>
pled ging</w>
mov ies</w>
li qu
la yarak</w>
l un
kır mızı</w>
kullan dı</w>
kademe li</w>
k lerine</w>
ja il</w>
hak larına</w>
geç erek</w>
eyalet teki</w>
ev ska</w>
e ği</w>
düz ine
dri ving</w>
devlet leri</w>
destek li</w>
deste ğin</w>
der ly</w>
cu bic</w>
can cel
bütç esi</w>
bom b</w>
aspira tions</w>
ama da</w>
alın masını</w>
a to</w>
1 .</w>
çözü mün</w>
çek mek</w>
zlat ko</w>
zeng in
yar ısı</w>
yaptı lar</w>
yaklaş an</w>
will ing
willing ness</w>
w ine</w>
u se
u f</w>
ten s</w>
te cr
tartış maya</w>
sor g
silaj dzic</w>
re serves</w>
rati fied</w>
rap id</w>
rakam ın</w>
push ing</w>
profession als</w>
pro be</w>
passen gers</w>
origin ally</w>
objec tives</w>
moun tains</w>
man ship</w>
m ür
leak ey</w>
kurum lara</w>
koordin asyon</w>
ju st
i̇r landa</w>
ithal at</w>
hıristi yan</w>
görev lerini</w>
ger il
gelen i</w>
ge ments</w>
g la
func tional</w>
el ver
düş ü
dri ve</w>
desi re</w>
dav ayı</w>
contr ast</w>
conne ctions</w>
con ten
bulun madığını</w>
benz eri</w>
beg ins</w>
azer bay
at ılan</w>
at ıf
at titude</w>
amaç lıyor</w>
alar ca</w>
acqu ired</w>
acağ ım</w>
ılı p</w>
ç iç
z burg</w>
ye l
wor ry</w>
umuz u</w>
ulti ma
tr o</w>
tr ends</w>
tik leri</w>
te ur</w>
t les</w>
sıral am
sür pri
sun uldu</w>
str as
sa dık</w>
re gre
pop ovski</w>
perpet rat
onay lanan</w>
ola bileceği</w>
nj ak</w>
ni tele
marke ting</w>
m ly</w>
luğ unu</w>
luk iç</w>
la t</w>
kullan ıyor</w>
kon gr
i̇nsan lar</w>
io c</w>
inten tion</w>
imzalan ması</w>
hakk ını</w>
göster ge
görüş lerini</w>
ger çe
fun ded</w>
festival inde</w>
ekonomi yi</w>
düşün ce</w>
down town</w>
don ald</w>
destek lenmesi</w>
declar e</w>
dav aların</w>
colle cted</w>
ci haz
ce ll</w>
broad cast</w>
bro thers</w>
bo un
9 9</w>
8 8</w>
ülke yle</w>
örne ği</w>
yük sek
yönetic isi</w>
yas alara</w>
yar ısında</w>
yar ım</w>
v ad
uğ rat
tı cı</w>
taşı dığını</w>
sym bol</w>
suç ların</w>
sugge sting</w>
stan tin
six th</w>
sektör ünü</w>
say dı</w>
rhet oric</w>
reli ef</w>
re sign</w>
rati fication</w>
ra y
program ının</w>
proce ed</w>
police men</w>
person eli</w>
pas sy</w>
or man</w>
or i</w>
minist erial</w>
li mit
l ul
j ovic</w>
iv ana</w>
iste ki</w>
ir anian</w>
il gisi</w>
güney indeki</w>
gözlem c
friend ship</w>
foreig ners</w>
fikr ini</w>
fi xed</w>
fabrik ası</w>
egy pt</w>
dı racak</w>
dra matic</w>
dr o</w>
doğal gaz
din ar</w>
defen dants</w>
cont acts</w>
con fis
compen sation</w>
bulun duğ
beklen diği</w>
başla masından</w>
bar ack</w>
ban kalar</w>
ba i
ağ ın</w>
av az</w>
ama ması</w>
al ma
acqu it
1 80</w>
şim şek</w>
şeff af</w>
çalış ıyorlar</w>
z an</w>
vatandaş lara</w>
us unun</w>
tü tün</w>
tari he</w>
t ko</w>
sürpri z</w>
su ici
seli maj</w>
sa ges</w>
ro cen</w>
ri jek
rela tives</w>
por tal</w>
pek iş
or ders</w>
milletvekil lerine</w>
men kul</w>
me lerinin</w>
mayı p</w>
max imum</w>
ma vi</w>
lı ların</w>
lo du
lodu y</w>
lan ds
koz loduy</w>
kov ac</w>
karşı layan</w>
i̇s la
isti yorum</w>
isti an</w>
hızlandır ma</w>
hay van
h in</w>
günde minde</w>
gur ur</w>
getir erek</w>
ger eğ
fulfil led</w>
finan ced</w>
fin ish</w>
fe el
ef a</w>
e sad</w>
düş man
düzine lerce</w>
doğ ur
diğ inden</w>
di kt
depre m</w>
danimar ka</w>
custo mers</w>
coast al</w>
ci a</w>
char les</w>
ca therine</w>
c old</w>
be half</w>
bazı larının</w>
azer bai
az alma</w>
atıf ta</w>
asker lerinin</w>
ail esi</w>
ad ap
a mayacağını</w>
9 m</w>
7 1</w>
0. 000</w>
0 0
şarkı cı</w>
şampiy onu</w>
öğrenc ilerin</w>
çıkar larına</w>
vulner able</w>
v ati
tut um</w>
tut tur
tut mak</w>
taraf ının</w>
suç un</w>
sorun la</w>
situ ations</w>
ri val</w>
prepar ation</w>
phil ip</w>
pak istan</w>
p o</w>
monas tery</w>
mla den
mar y</w>
mal ların</w>
ma te
kur ucu</w>
kragu jevac</w>
kay ıp
karar da</w>
kan alı</w>
kal dığını</w>
k pc</w>
iliş ki</w>
he c
ha b
h ı</w>
gazetec ilerin</w>
fon lar</w>
fizik sel</w>
fi red</w>
fela ket
even ing</w>
esk iden</w>
er ecek</w>
e cho
dönem in</w>
consider ation</w>
con gr
bölüm ünü</w>
belirlen miş</w>
be au
arri ve</w>
ar am
announ ce</w>
ama ç</w>
önce likle</w>
çıkar mak</w>
ç li</w>
yas asının</w>
yap ı</w>
var dır</w>
var an</w>
u f
transpar ent</w>
ticar et
ter ing</w>
tehdi di</w>
tartış malara</w>
targe ted</w>
taleb inde</w>
t svet
sol id</w>
s ını</w>
s ter</w>
s ke</w>
rijek a</w>
recor ds</w>
puan la</w>
otur um</w>
op poses</w>
on ur</w>
mas a</w>
m ler</w>
lu lar</w>
liste sine</w>
la k
l ilik
kuru cusu</w>
ken der</w>
katılım ını</w>
kal ıntı
i̇ttifak ı</w>
inten ds</w>
ing ent</w>
inclu sion</w>
har ici</w>
gra can
geliş im</w>
gece si</w>
ge l</w>
fri end</w>
fi re
fat ur
fal ls</w>
es indeki</w>
endişe lerini</w>
el led</w>
dnev ni</w>
da bil
co ğra
bur den</w>
ba s</w>
azerbay can</w>
assum e</w>
as ian</w>
ar asına</w>
anayas ası</w>
am i</w>
al b
a v</w>
şu be
çık acak</w>
çi ğ
çe lik</w>
zer o</w>
yas ada</w>
veter an</w>
ven ture</w>
tur istler</w>
tem s</w>
technolo gical</w>
te sts</w>
suç larıyla</w>
sun ulacak</w>
stras bourg</w>
ste m
sorumluluğ u</w>
sig nat
re tain</w>
re mi
ra fin
pu r</w>
pre serve</w>
pre fer
ot ori
o red</w>
nite lendiren</w>
newspap ers</w>
mücade lenin</w>
mü r</w>
meli yiz</w>
mar ty</w>
laştır ma</w>
lar ımızı</w>
langu ages</w>
kuvvet lerinin</w>
kurum larını</w>
kredis i</w>
ire land</w>
il ic</w>
i tems</w>
govern mental</w>
geçer siz</w>
fres h</w>
enerj isi</w>
dr .</w>
dij ital</w>
dev i</w>
den ted</w>
dabil is</w>
crow d</w>
consu mer</w>
con temporary</w>
co up</w>
cas h</w>
bu z
bu ying</w>
blu e</w>
biri ydi</w>
bilgil endir
berab er
belge yi</w>
baz en</w>
arş iv
arabulu culuk</w>
appear ance</w>
an ony
al ıp</w>
al located</w>
air ways</w>
adver ti
3 0,000</w>
ş i</w>
üye lerini</w>
öğret men
yıldız ı</w>
yardım c
wel fare</w>
w rest
w .
toplan an</w>
titu tion</w>
ti st</w>
ter ler</w>
sür mesi</w>
sor una</w>
sim sek</w>
seek ers</w>
saf ha
respon ded</w>
res ist
program ları</w>
pol ise</w>
pap a</w>
or man
or ies</w>
or du
nak il</w>
mi o
mes s</w>
memur ları</w>
ma kal
lis bon</w>
les cu</w>
la tin</w>
kurul masına</w>
kul laku</w>
ken tine</w>
kab ine
invest ing</w>
inan ıyorlar</w>
he ye
hayat ta</w>
hak lar</w>
gün üne</w>
görül memiş</w>
gre gor
geçir mek</w>
fra g
fil ip
ex ists</w>
es m</w>
eleştir ilere</w>
eful ly</w>
e mir
docum entary</w>
cine ma</w>
bul le
başla dığını</w>
aş ağı</w>
açıkla masına</w>
attra cted</w>
al mıştı</w>
al co
adı yla</w>
9 6</w>
1, 500</w>
ım lı</w>
ür ün</w>
çıkar ılan</w>
çağır an</w>
wel comes</w>
sor s</w>
si ben
siben ik</w>
see m</w>
s ns</w>
ren owned</w>
prof its</w>
pol lu
petro leum</w>
pazar ı</w>
olmas a</w>
objec tions</w>
niha yet</w>
ni kolay</w>
nes ovski</w>
n ap
müz e</w>
lu ko
leh ne</w>
leban on</w>
las ting</w>
kil o</w>
karşı lay
i̇kti dar</w>
holi days</w>
ho x
ha yal
gö ze
fou ere</w>
fiyat ı</w>
ex cell
excell ent</w>
ev al</w>
entrepren eur
enfl asyon
ei de</w>
ece ktir</w>
dik u</w>
def end</w>
cr istian</w>
bombal ı</w>
blo od</w>
bil dt</w>
ben ch
basın ında</w>
ayol ları</w>
at ma</w>
alan daki</w>
adi s</w>
200 m</w>
ı ğı</w>
çıkar dılar</w>
yol unun</w>
warn s</w>
vel chev</w>
val u
uygula mak</w>
un prece
unprece dented</w>
un certain
than ks</w>
si vely</w>
sh kullaku</w>
seviye sine</w>
sektör ün</w>
secon dary</w>
saat lik</w>
s ke
ris ki</w>
postpon ed</w>
plan lama</w>
mil k</w>
meş ru</w>
lar s</w>
kurum un</w>
jur is
j ar
işar eti</w>
iyor uz</w>
it an</w>
i kil
gelir leri</w>
ge mil
fo cusing</w>
fle xi
e bileceğini</w>
dük leri</w>
caz ip</w>
carri er</w>
cal m</w>
cad de
boris lav</w>
big ger</w>
bi ç</w>
bas es</w>
ay ar
an dır
an agnos
anagnos top
air craft</w>
adım ları</w>
şart ların</w>
ışı ğında</w>
çıkmaz a</w>
zanlı larını</w>
yükse len</w>
yer lerinden</w>
yaz ık</w>
un anim
t ose</w>
sh ut</w>
sco red</w>
requ ests</w>
qu es</w>
pe ki</w>
or ke
ola bilecek</w>
negoti ate</w>
mev k
mas ız</w>
man tık
luko il</w>
liz bon</w>
lis tesi</w>
labor atu
konus unu</w>
kon ması</w>
kend ine</w>
kazan ç</w>
jus uf</w>
j av
iş lenmiş</w>
il legally</w>
ig nor
hil lary</w>
güc üne</w>
gre w</w>
g n
fit ch</w>
fel t</w>
etkile yen</w>
emer ged</w>
el ç
dur uldu</w>
custo dy</w>
consul tations</w>
conne ct</w>
compla ints</w>
cha in</w>
cathol ic</w>
c ise</w>
bulun uldu</w>
bir d</w>
bi o
benim se
başkan ının</w>
barın dır
ajans ının</w>
a i</w>
çıkar ları</w>
çoğunluğ unun</w>
zaman la</w>
z ih
z enica</w>
yaşan ıyor</w>
un rest</w>
tut an</w>
th s</w>
tama mı</w>
sürdür ülen</w>
suçla malar</w>
stri c
so und</w>
sensi tive</w>
s cul
rebel s</w>
rak ip</w>
radi kal
müzakere lerinde</w>
mir as
mektu p</w>
li mits</w>
la maya</w>
la ki</w>
kur mayı</w>
konferans ında</w>
k ru
i̇n ş
iden tify</w>
i deal</w>
h ız</w>
ex cav
ex ac
em r
du klarını</w>
distri but
dikkat li</w>
de li</w>
da u
da t</w>
centur ies</w>
bri d
bla me</w>
bir likle</w>
ban kasının</w>
artır maya</w>
anlaş mayla</w>
an ov</w>
1 60</w>
ım ın</w>
ön görüyor</w>
yük seli
vur ul
trans formation</w>
thin ks</w>
stron gest</w>
si t</w>
shar ing</w>
savun du</w>
san tral</w>
ro g
pul a</w>
program ını</w>
pro hibi
pi erre</w>
phot os</w>
organiz asyon</w>
oper atör
obser v
nur ses</w>
mücadele yi</w>
mir ası</w>
lik op
liber ation</w>
li am</w>
l on</w>
karar lar</w>
k al</w>
j ür
i̇ vanov</w>
iş li</w>
imzala dığı</w>
ik e</w>
ihtiyac ımız</w>
hükümet ten</w>
hükümet inden</w>
he likop
harcam aları</w>
har ika</w>
göz lem</w>
göster ildi</w>
göre ce
fiyat lar</w>
fel d</w>
eno men
e es</w>
döne n</w>
cin sel</w>
cau ght</w>
break ing</w>
bir inc
bi yle</w>
basket bol</w>
aç ılacak</w>
ayr ılan</w>
ar if
0 .</w>
çe te
ç uk</w>
zul üm
viz yon
ud f</w>
tı ğına</w>
tur ist
tra ined</w>
ther mal</w>
takım ının</w>
ta ges</w>
sü z</w>
suç a</w>
stabil ise</w>
st e</w>
resear chers</w>
republi can</w>
re t</w>
psy ch
proje lerin</w>
pla v
oyn am
ob tained</w>
nor way</w>
mal ta</w>
lük teki</w>
koste liç</w>
katol ik</w>
jo in
iyor um</w>
isim li</w>
idi s</w>
hon oured</w>
hika ye
hap is
haf taki</w>
güven i</w>
gu ests</w>
gor don</w>
eylem leri</w>
edece ğiz</w>
d ere</w>
cı larının</w>
conduc ting</w>
compli ance</w>
campaig ns</w>
c m</w>
c is
büyü meyi</w>
as ion</w>
appe als</w>
ama dığı</w>
a ba
ş an
ülke lerdeki</w>
önces ine</w>
ö z</w>
çab aların</w>
ye ti
y a
tur da</w>
tr ak
tekli fi</w>
te m</w>
t at</w>
statüs ünün</w>
sonuç landı</w>
sin g
si de
shar p</w>
sav cısı</w>
san dz
sandz ak</w>
s lightly</w>
refle cts</w>
redde diyor</w>
pur poses</w>
protesto lar</w>
ov ica</w>
out standing</w>
on ayı</w>
oldu k
nor the
nomin ated</w>
ne fre
mes sages</w>
luk ic</w>
kıy ısındaki</w>
kurban ların</w>
kole k
kim i</w>
karş ıt
kap ısı</w>
kal fin</w>
jan ovski</w>
i̇m parator
iş lerini</w>
it tifak
infor med</w>
inaugur ated</w>
in jur
im migration</w>
hi on</w>
görü yorlar</w>
gir ls</w>
g he
feat ured</w>
eğ er</w>
enter prise</w>
eksik siz</w>
e der</w>
e ag
duy duğunu</w>
diyaloğ u</w>
destek lenen</w>
de fa
contra c
contr ary</w>
compet ing</w>
chair manship</w>
celebra tions</w>
capac ities</w>
bölüm ünde</w>
bire r</w>
as tron
arn ing</w>
anket ler</w>
ab sor
8 6</w>
6 ,000</w>
şi ir</w>
ıl mıştı</w>
y ves</w>
y iti
v arn
u efa</w>
tra tion</w>
tor ies</w>
ti ful</w>
tab i</w>
ta hiri</w>
t ag
sti l</w>
seçim lerinden</w>
secur itate</w>
rene wed</w>
re y</w>
re infor
ra y</w>
program da</w>
prison ers</w>
pos sibilities</w>
pol ish</w>
parçal an
n ms</w>
merkez iyet</w>
merkez indeki</w>
me yle</w>
legiti mate</w>
lat ter</w>
kural ları</w>
koru maya</w>
kapasi tesini</w>
join tly</w>
j oviç</w>
j et
i̇sla mi</w>
is af</w>
investig ators</w>
inan ılan</w>
has ta</w>
gözlem ci</w>
gracan ica</w>
gir mek</w>
geçir diği</w>
gerçekleştir ildi</w>
finans manı</w>
fin ds</w>
fi ili</w>
every body</w>
documen tation</w>
do zen</w>
discus sing</w>
diplomat lar</w>
değiş im
deneti mi</w>
d v
cumhurbaşkan lığının</w>
cu k</w>
coun ty</w>
compu ters</w>
comp ly</w>
bud va</w>
bran islav</w>
bin ası</w>
bakan lığın</w>
ağ aç</w>
açık landı</w>
at tor
ar ch</w>
an as
şirket lerinin</w>
şidde te</w>
ı cılık</w>
özgürlüğ ünü</w>
yaptı ğ
y ası</w>
ver irken</w>
tuğ unu</w>
te miz</w>
tan e
su res</w>
su lej
su gar</w>
stadi um</w>
sta ged</w>
spor cu</w>
ren a
receiv es</w>
pro cu
priv ile
pol t</w>
ph enomen
oyla mada</w>
orke str
nite lik
müdür lüğü</w>
mücadele ye</w>
mur ders</w>
mold ovan</w>
kulüb ü</w>
kasab ası</w>
kapsam ındaki</w>
iş adamı</w>
investi gated</w>
influ ential</w>
hec tar
haber de</w>
ha c</w>
gün ümüz
git mek</w>
getir ilen</w>
ga ther</w>
facil it
f ish</w>
etraf ında</w>
est onya</w>
envisi oned</w>
en f
düzenle yen</w>
duy uyor</w>
dj or
diğ im</w>
di ja</w>
değer li</w>
deneti m
chan ne
be z
be ar</w>
başla dılar</w>
başbakan lık</w>
bağlantı sı</w>
barri ers</w>
asker lerin</w>
as sad</w>
as sa
arran gements</w>
appre ci
acade mic</w>
a ther</w>
ye ten
yar ı
vla tko</w>
ver sion</w>
uzun luğ
uygulan acak</w>
tören i</w>
teşekkül lü</w>
tecr ü
suç larla</w>
speak s</w>
shar ply</w>
seçim i</w>
santral inin</w>
sanatçı lar</w>
resist ance</w>
oluştur mak</w>
okul a</w>
monopol y</w>
mo il</w>
meto hija</w>
medi eval</w>
me bla
luğ un</w>
lan ce</w>
la cks</w>
kon an</w>
ko ci</w>
kaz ak
kal acağını</w>
k ac
istiş are
inan ıyoruz</w>
in sp
hoşgör ü</w>
ho p</w>
ho l</w>
heli cop
ha te
fon ları</w>
fi fa</w>
fe dil
enga ged</w>
dra wing</w>
doub ts</w>
dil ek
de k
con fron
can i</w>
bul g
bo t</w>
benz in</w>
başkan lığına</w>
bas it</w>
aç tığını</w>
azalt ılması</w>
attac ked</w>
apart ment</w>
alg ılan
al isation</w>
ac him</w>
3. 5</w>
ü s</w>
çık ma</w>
çocuk lara</w>
çek me</w>
çe ke
z im</w>
vurg ulan
ver mişti</w>
terz iç</w>
tan ın</w>
t üş
sı f
sun mak</w>
siz ed</w>
re put
presen ting</w>
perpetrat ors</w>
papadop ulos</w>
opin ions</w>
on to</w>
n u</w>
n in
mesele yi</w>
me g
mar ath
makam ların</w>
lık ta</w>
lüğ ünün</w>
legisla ture</w>
kum an
kullan mak</w>
kategor isinde</w>
k id
j o</w>
işle m</w>
izle y
iri m</w>
industri es</w>
il mesinin</w>
h ed</w>
güven il
güdü m
göz ardı</w>
görü le
guarante ed</w>
fol lows</w>
f led</w>
er t</w>
er al</w>
edece ktir</w>
durum larda</w>
dri vers</w>
de m</w>
dayanış ma</w>
da hi</w>
d den</w>
comp on
boy u</w>
bo x
bla go
b b</w>
aç mayı</w>
am ended</w>
ade s</w>
200 ,000</w>
ıs ın
ı -</w>
öldür ülmesi</w>
yu kar
yolsuz luk
yen lerin</w>
yatırım ın</w>
writ ers</w>
upgra de</w>
u ş</w>
tray kovski</w>
tr ans</w>
ti len</w>
teh like</w>
tedar ik
tan ja</w>
tal eski</w>
sı cak
siyas ete</w>
signific ance</w>
ru d
respec tive</w>
resi m</w>
real ise</w>
questi oned</w>
presen tation</w>
perfor mers</w>
param il
pap a
or g
oper ators</w>
nov a</w>
n it
mültec ilerin</w>
mo l</w>
metre kar
medi k</w>
mas aya</w>
man i</w>
lju bo
kurul unun</w>
jo hn
jo achim</w>
jan kul
ir aklı</w>
inti har</w>
inan ılıyor</w>
h ev
gerçekleştir ilecek</w>
fır t
fro zen</w>
econo mists</w>
earthqu ake</w>
devlet inin</w>
defe at</w>
dam g
bir liğine</w>
ben edi
bağ layan</w>
bağ lamda</w>
bar an</w>
b nn</w>
aş ağ
attra ctive</w>
art masına</w>
ar ıyor</w>
anal iz
al kal
air ports</w>
ad d</w>
12 .
öner iyi</w>
çık tığı</w>
çab alarında</w>
ye de</w>
w hate
whate ver</w>
vu ko
v ran
uç ur
trig gered</w>
tre ated</w>
terz ic</w>
stru ck</w>
sor gu
san cak</w>
sahip ler</w>
roman o</w>
projec ted</w>
princip al</w>
pos sibly</w>
omi r</w>
olay da</w>
o da</w>
nü fu
mit re
me tri
lin king</w>
lider in</w>
libr ary</w>
kov ska</w>
kapsay acak</w>
k lere</w>
j ones</w>
istif asını</w>
ist asyon
is iyle</w>
in no
hastal ık
güç lerin</w>
görü yoruz</w>
fulfil ling</w>
fon iki</w>
fa ir
etkin liğin</w>
er menistan</w>
değil ler</w>
değerlendir mek</w>
değer i</w>
chem ical</w>
cen ter</w>
bölge den</w>
bo ar
ble s</w>
bildiril diğine</w>
başvur u</w>
bas ının</w>
arri val</w>
an lara</w>
akra b
ak a</w>
af ford</w>
9 7</w>
3, 5</w>
ş ans</w>
ıs rar
ön görülen</w>
withdra w
ven iz
veniz el
venizel os</w>
uz anan</w>
ultima tely</w>
tı pk
tıpk ı</w>
tüm ü</w>
thu si
ter sine</w>
taşı mac
tanın ması</w>
sır alan
streng th</w>
sr djan</w>
siyaset çiler</w>
siyas ileri</w>
si tesinde</w>
si bi
scul p
sak in</w>
sa ha
s nez
ro c
reta il</w>
re member</w>
ramadan ovic</w>
r il
pre de
potansiye li</w>
plas tic</w>
pension ers</w>
pat lama</w>
negoti ator</w>
muhafazak â
monit ors</w>
marath on</w>
malar ıyla</w>
lık larına</w>
la id</w>
komş uluk</w>
kitab ı</w>
kim se
kaydet tiğini</w>
kapasi tesi</w>
kap ı</w>
kan ser
kal kan
is n</w>
il da</w>
hay ran
ha ven</w>
güç ler</w>
görev leri</w>
gergin lik</w>
ger iye</w>
f üle</w>
f di</w>
exten sion</w>
exhibi tions</w>
etkil ey
düzel t
devlet ler</w>
destin ations</w>
cumhurbaşkan ları</w>
contribut ing</w>
continu ation</w>
colle ct</w>
cir cu
ch er
cal an</w>
ca using</w>
bra z
bor s
bla ck
bilir ler</w>
behavi our</w>
beau tiful</w>
be si
başla masını</w>
bar s</w>
ay larında</w>
artı racak</w>
ap s</w>
accomp lish
a may
8 7</w>
z ones</w>
yurt dışındaki</w>
yarat tığı</w>
vic tim</w>
tı racak</w>
toplum ların</w>
topl uluğ
tiv ity</w>
tarih lerinde</w>
tah sis</w>
sıf ır</w>
stand by</w>
sağla yı
s feld</w>
rum sfeld</w>
produc ing</w>
proces sing</w>
parti al</w>
par ayı</w>
p tk</w>
out lined</w>
ot o</w>
ombud sman</w>
olma dığına</w>
ne li
m ile</w>
lük s</w>
lik lerin</w>
kâ r
kazan ması</w>
kap as
kaldır mak</w>
jon ilda</w>
ira de
ici al</w>
his se</w>
her man</w>
hedef lerini</w>
hedef inin</w>
har i</w>
görüş tüler</w>
g on
figh ters</w>
fa ith</w>
engine ering</w>
elver işli</w>
ekonomis ini</w>
ef s</w>
dne y</w>
den k</w>
demonstra tions</w>
defin itely</w>
da dır</w>
cü l</w>
comb ating</w>
busines sman</w>
blo g</w>
bla med</w>
biti ous</w>
başlat tığı</w>
başar ıyla</w>
b ık
ayd ın
at öl
as ov</w>
arg uments</w>
araştır maları</w>
an tal
am bitious</w>
acti vely</w>
üye liğe</w>
ölüm cül</w>
zar ko</w>
z al
yöneti min</w>
yah udi</w>
wor ried</w>
w an
usulsüz lük
us ual</w>
um ud
ty pes</w>
tur moil</w>
threat ening</w>
tec av
te ac
suik ast</w>
suff ering</w>
stor e</w>
so lar</w>
seviye si</w>
separ ati
se ven
sav cıları</w>
s h</w>
regula tory</w>
re ci
ramazan oviç</w>
r ant</w>
pro ud</w>
pres sing</w>
pat ten</w>
parlamentos unun</w>
overha ul</w>
olma z</w>
mon ument</w>
moderni ze</w>
mis ko</w>
mio drag</w>
merkez ine</w>
me tro
matur ity</w>
makam lar</w>
m sk</w>
li thu
li ghts</w>
leg acy</w>
katılım ının</w>
kapasi tesine</w>
k ağ
j ansa</w>
i̇ddi ana
investig ating</w>
intro ducing</w>
ifa des
hel ps</w>
har m</w>
gol jub</w>
ger y</w>
geli p</w>
gazetec ilik</w>
ga ins</w>
finan sal</w>
extra ordinary</w>
expan ded</w>
ev lat</w>
en thusi
döne me</w>
durum unun</w>
dur gun
doğrul an
di visions</w>
dağıtı m
credi bility</w>
cap ital
be sa</w>
at ures</w>
at in
ar en
alan larındaki</w>
acceler ate</w>
4. 5</w>
1. 2</w>
ü yorlar</w>
öğrenc isi</w>
örgüt ler</w>
yaz ısında</w>
yatırım cılara</w>
ve les</w>
uzak laştır
uyar ı</w>
un ite</w>
un clear</w>
ulus lu</w>
tur istlerin</w>
temsilc ilerinin</w>
tarih ini</w>
tah mini</w>
suç larından</w>
success or</w>
ste ering</w>
specific ally</w>
si miç</w>
se x
sa diku</w>
ro kas
ri c</w>
restaur ants</w>
reform larını</w>
pop ular
pli va</w>
plan landığı</w>
phar mace
pac k</w>
ol der</w>
müsteş arı</w>
mo ur
milit ants</w>
miha i</w>
me at</w>
main tained</w>
kriz le</w>
kredi yi</w>
konu daki</w>
kolay laş
ko ka
kesi mindeki</w>
kaynak larını</w>
katılım cıların</w>
k ere</w>
jan oviç</w>
j en
is yan
in ven
imkan sız</w>
görüş ü</w>
g ul
fon ların</w>
fla gs</w>
f es
ethnic ally</w>
edu cated</w>
e lerin</w>
düny aya</w>
djor dj
djo kovic</w>
del ta</w>
de ba
davran ış
cra ck
cont ingent</w>
clas si
ca ine</w>
c n
bomb ings</w>
biri m
bekli yorlar</w>
başla masına</w>
bay rak
ati vely</w>
at ması</w>
altın cı</w>
alco hol</w>
5 50</w>
şey den</w>
öde mek</w>
çalış ırken</w>
ç esi</w>
yunan lılar</w>
yenilen ebilir</w>
ye me
yaş lı</w>
y ük</w>
wr ite</w>
wi der</w>
wh el
w an</w>
var lığı</w>
tin y</w>
tas lak</w>
tarih ine</w>
tan esi</w>
sık ış
survi ve</w>
super vised</w>
suici de</w>
st oy
spiri ç</w>
spe e
shan tek</w>
s cor
rü cker</w>
renew able</w>
reform unun</w>
re v
propos e</w>
plan es</w>
pi ece
phy sical</w>
pharmace u
peraken de</w>
p d</w>
os unun</w>
man zar
len g
larımız ın</w>
lar ın
la dılar</w>
kuman ovo</w>
kullan maya</w>
kullan dığı</w>
konferans ına</w>
kom siç</w>
kad are</w>
işlet me</w>
hol ders</w>
ha ciç</w>
gra ve</w>
girişim leri</w>
fe es</w>
extre me</w>
ev ol
est ing</w>
el derly</w>
ebeve yn
e grad</w>
dur an</w>
dolay lı</w>
cover age</w>
boris sov</w>
ber n
az iz</w>
ayr ılmış</w>
at ık</w>
arnavut ça</w>
antal ya</w>
andri ja</w>
al ise</w>
ac u
9 3</w>
8 .</w>
ül dü</w>
öğret men</w>
önce liği</w>
çık mak</w>
çalış ıyoruz</w>
yurt dışına</w>
yas asında</w>
vla h
ver iler</w>
tutar ında</w>
topal li</w>
teac her</w>
te pe
tas ked</w>
t c</w>
suc ceeded</w>
stri ct</w>
stal led</w>
sonuç ların</w>
son undan</w>
sağla mayı</w>
sav cıların</w>
ris to</w>
rec ru
rakam lar</w>
pre condition</w>
piece s</w>
pen al</w>
pat lak</w>
parti tion</w>
nok ia</w>
multi ple</w>
miha jl
men tary</w>
mem orial</w>
mar a</w>
mahke mede</w>
ma cılar</w>
lan a</w>
kuruluş unun</w>
koste lic</w>
koalisyon un</w>
k as</w>
jan dro
ira de</w>
iliş kilere</w>
ihtiyat lı</w>
hol landalı</w>
ho t</w>
göster il
gönder me</w>
glo bal
gerek tir
genel likle</w>
fir maları</w>
fil es</w>
fal ling</w>
ev lerine</w>
et mekten</w>
es cal
enjo yed</w>
economic ally</w>
e yes</w>
düzey indeki</w>
dost luk</w>
den mark</w>
da ir
ch ose</w>
ca ğ
bul maya</w>
bi yolo
belir lenmesi</w>
aç mak</w>
aç acağını</w>
anlaş maların</w>
ada r</w>
9 1</w>
1, 2</w>
yatırım ların</w>
yal ar</w>
y ir
weal th</w>
varn a</w>
un sur</w>
ul tran
ultran ation
ul arly</w>
tuğ u</w>
top ladı</w>
takım ın</w>
sürü yorlar</w>
sürdür mek</w>
sun acak</w>
sto red</w>
stal e
sk i
secu red</w>
scot sman</w>
s mil
reg ister</w>
po o
nüfus a</w>
normal e</w>
nite likte</w>
neighbour hood</w>
n af
mü te
mil ut
m h
lon g
lendire cek</w>
l ist
kor e</w>
kaybe den</w>
karak ter
kal mayıp</w>
i̇ kili</w>
iş len
is lands</w>
imaj ını</w>
il li</w>
ik isinin</w>
hus band</w>
house holds</w>
hat a</w>
has an</w>
güven ini</w>
güney doğ
gh ten
ger isinde</w>
gel mesini</w>
g ül
fol k</w>
fir mly</w>
fir manın</w>
fe wer</w>
fark la</w>
expla in</w>
eng age</w>
emp ire</w>
eki binin</w>
e ş</w>
devam ı</w>
de po
d l</w>
col in</w>
clar k</w>
che ap
champion ships</w>
cen az
bölüm ünün</w>
bur gas</w>
brezil ya</w>
bogdan oviç</w>
ar bi
anatol ian</w>
anal iz</w>
affec ting</w>
ach ing</w>
4 0,000</w>
şim d
şe hr
ülke leriyle</w>
öl dü</w>
çök üş
çe li
zirv esine</w>
yıldı z</w>
yıldönüm ünü</w>
yarat ıyor</w>
yapıl ıyor</w>
yap arken</w>
vari ety</w>
var lık</w>
tören le</w>
tran sa
tartış mak</w>
t os
sürdür ülmesi</w>
sü t</w>
ste ph
stale mate</w>
st ag
sl alo
seli may</w>
sağla dığını</w>
sayıs ız</w>
rafin er
ra in</w>
program ında</w>
penal ties</w>
papa demos</w>
occu p
mira l</w>
medi cs</w>
loc ate</w>
lo g
ler se</w>
kurul muş</w>
kr istina</w>
korid or</w>
kazan mak</w>
kav ram
karış ık
kal maya</w>
kal mak</w>
ka c</w>
jos ip</w>
jin al</w>
il g
hristof yas</w>
h ler</w>
güçlendir mek</w>
f low</w>
ev acu
duy dukları</w>
da ci</w>
consol i
co caine</w>
ch ner</w>
cak tır</w>
blo w</w>
bilgisay ar
bil en</w>
bi tir
başlat mak</w>
başla mak</w>
bar bu</w>
ay lar</w>
attri bu
am bar
al ling</w>
a wa
4 .</w>
1 70</w>
. hr</w>
ş air</w>
ım ını</w>
yer lerde</w>
ww w.
vis egrad</w>
viola ted</w>
ver i</w>
ve çli</w>
v inc
tu als</w>
ti p
tak dir</w>
tah sil
star ts</w>
sl j
saf has
sa mi
s ıyor</w>
procu rement</w>
pro vision</w>
pas sport</w>
par as
p y
oyun cusu</w>
ov ei</w>
o ara</w>
müslüman lar</w>
mus unuz</w>
muame le
medi klerini</w>
may ors</w>
li fting</w>
kullan ılması</w>
koy duğu</w>
kova ceviç</w>
konum unu</w>
konu ya</w>
kon g
klas ik</w>
kesinti leri</w>
katılım ın</w>
iş ver
ivan canin</w>
istatisti k</w>
intellec tuals</w>
in izi</w>
imp as
iktidar da</w>
hand over</w>
göster ilen</w>
görüş lü</w>
gi dece
f led
ex cessive</w>
ep h</w>
enthusi as
ekonomi ye</w>
düzenlen mesi</w>
dis appointment</w>
din le
di carlo</w>
di a</w>
dav et
cut ting</w>
crack down</w>
c uluğ
brid ges</w>
bildi riyor</w>
ba yan</w>
auth ors</w>
aray ış
ar te
alışver iş
alın dığını</w>
al makla</w>
aday ları</w>
aday lar</w>
4 ,5</w>
öz et
öne me</w>
zorun l
ziy ade</w>
zirve ye</w>
zdrav ko</w>
z adar</w>
ye tecek</w>
yay ım
yardı ma</w>
w av
ut en
unve iled</w>
ul ts</w>
tri c</w>
tra ding</w>
tik çe</w>
ti ed</w>
testi mony</w>
sürec indeki</w>
sulej man</w>
statüs üne</w>
sk in</w>
sibi u</w>
sh orta
sağ lığı</w>
savun uyorlar</w>
rej im</w>
pursu e</w>
pun ish
propag anda</w>
os ij
organiz atör
operasyon un</w>
ol malıdır</w>
ol arı</w>
od ak
obvi ous</w>
nation als</w>
montenegr ins</w>
mitre va</w>
mi l</w>
men fa
may ın
maaş ları</w>
lı dır</w>
kurt uluş</w>
kra jina</w>
kom sic</w>
itibar iyle</w>
is mi</w>
inter pol</w>
indic ate</w>
in struc
hükümet lerin</w>
hükümet leri</w>
ho ş</w>
happen s</w>
güç lerini</w>
geliş mekte</w>
fulfil l</w>
free ly</w>
final ised</w>
fi er
fer it</w>
euro ya</w>
et tiğ
et mesinden</w>
e ties</w>
doğ umlu</w>
d r</w>
credi ts</w>
can adi
bure au
bulun uyorlar</w>
bulun ma</w>
bu laş
bro ader</w>
boz ul
bogdan ovic</w>
belge sel</w>
ban kas
b ö
azerbai jan</w>
armen ia</w>
architec ture</w>
appar ent</w>
analist i</w>
alın dığı</w>
al ıyordu</w>
7 9</w>
2 40</w>
şimd ilerde</w>
ız da</w>
çek ildi</w>
ç inli</w>
yürüt me</w>
yaşam ını</w>
yap maları</w>
withdraw al</w>
val ley</w>
uç uş
unsur u</w>
uni tion</w>
u dur</w>
tüketi ci</w>
tat min</w>
tan ce</w>
shorta ges</w>
sen i</w>
sat ışı</w>
sak e</w>
safe guard</w>
ra mi
pra g
pollu tion</w>
performan sı</w>
p in
olay larının</w>
ol dest</w>
obser ved</w>
o x
muad ili</w>
mor al</w>
mar ian</w>
m unition</w>
li yorlar</w>
li y
las ted</w>
kt or</w>
kontrol ünü</w>
karar gâ
j im
hedef leyen</w>
hapis han
güçlük ler</w>
gün ünde</w>
gör me</w>
gerek sin
feder asyon
fas hion</w>
expec ting</w>
expan ding</w>
exhibi t</w>
etk isini</w>
engel lemek</w>
edece ğine</w>
dra gis
devr aldı</w>
depen dence</w>
demonstra tion</w>
demokra tik
deep ly</w>
cr a</w>
clu bs</w>
categor ies</w>
bis hop</w>
ber aat</w>
belge ler</w>
bal lot</w>
bakan ın</w>
associ ate</w>
araştır macı</w>
am nest
akş am
aile leri</w>
ac ı
ac tress</w>
a ce
şek er</w>
ıl masından</w>
özelleştir ilmesi</w>
ölçek li</w>
ö tesinde</w>
çeli ş
çe tin</w>
z at</w>
yüz yıl</w>
yolsuz luğu</w>
yarat ma</w>
war rant</w>
vi rus</w>
ver it
under taken</w>
tüğ ünü</w>
tören e</w>
tut umu</w>
topl ulu
ton y</w>
thin king</w>
terör e</w>
sık ın
süb vansiyon
suspen sion</w>
sti pula
ste m</w>
sorun lu</w>
sorun lardan</w>
sign als</w>
seç ilmiş</w>
repe at</w>
read ing</w>
re m</w>
re luc
ra h
pu p
potansiye l
oyun cular</w>
or al</w>
metri k</w>
metho ds</w>
mat ches</w>
mal ları</w>
li ft</w>
kou chner</w>
kolay ca</w>
ke ti</w>
iş siz
ivan oviç</w>
is ki</w>
injur ies</w>
in se</w>
hizmet ler</w>
hedef le
hectar es</w>
geçmiş i</w>
geç tiğini</w>
gerek tiren</w>
g ate</w>
fin es</w>
f ly</w>
ez ici</w>
ex tent</w>
el ena</w>
duy la</w>
doktor lar</w>
demonstr ators</w>
def alarca</w>
da mir</w>
cro ft</w>
corpor ate</w>
c able</w>
bölge leri</w>
bulun ul
bo ş</w>
bağımsız lığına</w>
ball ots</w>
bak ım</w>
at ını</w>
ar kas
ans ka</w>
an nis</w>
an ia</w>
amnest y</w>
adı mı</w>
adop ting</w>
ğ imizi</w>
zu kor
yen erek</w>
yaş adı</w>
yaz dı</w>
yapıl dığı</w>
we ather</w>
vurgu layan</w>
uncertain ty</w>
ulaş ım</w>
tradi tionally</w>
tr il
ti fi</w>
teşkilat ının</w>
tes ted</w>
teknolo jik</w>
taşıy acak</w>
sın ıf</w>
soruştur manın</w>
si mic</w>
shop ping</w>
scho ok</w>
sağla yarak</w>
savaş tan</w>
recommen d</w>
reci pro
re d
pro ven</w>
p it
oy unda</w>
osij ek</w>
olo g</w>
olma z
nitelendir diği</w>
monit ored</w>
moder ate</w>
miş lerdi</w>
milyon dan</w>
medy ada</w>
mecl isteki</w>
maf ia</w>
lie uten
lider lerle</w>
kur ula
konsol os
kong resi</w>
kat ına</w>
kar an
kan unu</w>
kab in
jos eph</w>
isola ted</w>
is ch
ip a</w>
inan dığını</w>
in habi
ilişkiler inde</w>
ihl ali</w>
gra fi</w>
gi or
geti rece
gather ing</w>
fir maların</w>
fabri ka</w>
eğitim li</w>
expl or
ex tra</w>
etkilen en</w>
equ ally</w>
engel ler</w>
ek le
ec ker</w>
dra ma</w>
don ed</w>
dj el
dimit ar</w>
den in</w>
democra t</w>
de par
coğra fi</w>
confir m</w>
con tain</w>
cinsi yet</w>
ci vic</w>
bul uyor</w>
bu çuk</w>
br un
başlat maya</w>
bank aların</w>
ar hin</w>
anah tar
an ese</w>
al maları</w>
al ama
air line</w>
ad ing</w>
ab solu
a ğını</w>
çek im
ça ğ</w>
ç eğ
zaman ının</w>
war s</w>
uni ver
un earth
trou ble</w>
ti yor</w>
tab lo</w>
siyaset çi</w>
seyir ci</w>
s wi
reput ation</w>
redde den</w>
re aktör
proje lerine</w>
pra gue</w>
pr ot
platfor m
plan e</w>
ordin ated</w>
oran ını</w>
oran ına</w>
occu r</w>
ne ces
mün ferit</w>
motiv ated</w>
mey dan</w>
mahal le
m üre
len ecek</w>
l oviç</w>
korum ası</w>
korid or
kor uyor</w>
ko rea</w>
kazan ma</w>
karış tır
j on</w>
ilişk ilerinin</w>
ilerle mesi</w>
iler inde</w>
hızlandır maya</w>
hi kes</w>
her sek
head scar
halk ını</w>
güvenil ir
gra de</w>
ger çeğ
fo rest</w>
fli ght</w>
f is</w>
exten ding</w>
ev re</w>
euros tat</w>
europ ol</w>
ertele me</w>
eli za
ele kt
ede bilir</w>
ede bil
do ws</w>
dis cover
den is</w>
d les</w>
ci t</w>
cas ts</w>
ca ğına</w>
bo gar</w>
bir liğiyle</w>
bir biri
bin ding</w>
belediye ler</w>
bat ısındaki</w>
b led</w>
armen ians</w>
appli cations</w>
am munition</w>
absolu tely</w>
çıkar ak</w>
çalışan ların</w>
zar ara</w>
yer altı</w>
vie wing</w>
ver mesini</w>
uygulan masında</w>
unearth ed</w>
un resolved</w>
tutuk lanan</w>
te la
ta ah
taah hü
t ren</w>
söyle mek</w>
stem ming</w>
state hood</w>
secur ing</w>
san ız</w>
sahip tir</w>
ru ecker</w>
roun ds</w>
rokas tra</w>
ran ko</w>
preven ted</w>
politi kalar</w>
ple ased</w>
plan ında</w>
parti li</w>
parlamen terler</w>
oyun lar</w>
ol gun
ob taining</w>
nov o</w>
ne djel
n iş
mühim mat</w>
mü fre
muhal if</w>
mesa fe
me tal
mas ıdır</w>
les s
kır ıl
köpr ü
kaybet tiği</w>
katılım ıyla</w>
kat ledil
j ah
instr ument</w>
ik lim</w>
hızlandır mak</w>
head ing</w>
havalim an
gö k
gre v</w>
gel mesine</w>
eyal eti</w>
extre mist</w>
expendi tures</w>
ethnic ity</w>
eser leri</w>
en cla
elekt ro
dra fting</w>
dow ner</w>
dist ance</w>
dis rup
di ck</w>
determin ing</w>
demokras inin</w>
constru cted</w>
conne cting</w>
chec k
cema at
cap abilities</w>
canadi an</w>
ca m</w>
c g</w>
bulun muyor</w>
bro ken</w>
bran ches</w>
bern ard</w>
belir lemek</w>
be del
bar iz</w>
balık çılık</w>
b n
attemp ted</w>
assu med</w>
as ay
an ders</w>
amoun ted</w>
akar yakıt</w>
after wards</w>
af raid</w>
af et
ad just
2, 500</w>
10 ,
1. 6</w>
şüphelen ilen</w>
ış ını</w>
ğ lu</w>
özer k</w>
öz ür</w>
çek ilmesi</w>
zan is</w>
z bogar</w>
yıl maz</w>
yarış ı</w>
vekil i</w>
vatandaş ın</w>
uy um
un like</w>
tur istik</w>
tro p
tra ge
tic ket</w>
tan r
sürdür ül
sez on
sayf alık</w>
repe ated</w>
reli able</w>
re serve</w>
ran ging</w>
rahat sız</w>
pe t</w>
pazar lama</w>
os lo</w>
or ch
orch est
opol iti
op h
olas ılığının</w>
ol un
nomin ation</w>
ne ut
naz i</w>
mil est
mi ran
mh p</w>
medi kleri</w>
medi ator</w>
me mekle</w>
mar in</w>
m r</w>
lul zim</w>
lieuten ant</w>
kazan arak</w>
k lar</w>
juris di
jap on</w>
i̇ş let
iş adam
if las</w>
id ly</w>
hüküme tiyle</w>
hazır lanması</w>
gen eva</w>
ge mis
frequ ently</w>
fran k
finan ces</w>
fas ıl
f ishing</w>
extre mists</w>
ev n</w>
endiş elen
eksi k</w>
düşünü yoruz</w>
djukan oviç</w>
diyaloğ un</w>
dis appointed</w>
cesar et
bölün me</w>
bas ha</w>
açı ğının</w>
at tığı</w>
asker lik</w>
artır mayı</w>
anlaşmaz lıklar</w>
anlam ı</w>
alar m</w>
ak ın</w>
ak tör</w>
15 .
ş a</w>
öner ge
çö ker
ziyaret çi</w>
ziyaret ini</w>
ye v</w>
veter in
ur an
tra b
tol l</w>
ticar etin</w>
temsilc ileriyle</w>
temper atures</w>
te tik
taz ele
sy dney</w>
sur prised</w>
sre ten</w>
spiri c</w>
sp ir
sor t</w>
sig ort
si yon</w>
se vil
se mi
roman lar</w>
renew al</w>
rap ort
qu is
pros per</w>
pra g</w>
popular ity</w>
patri arch</w>
parti ye</w>
parti den</w>
pa ve</w>
over whel
ov i
operasyon ları</w>
olur du</w>
odi hr</w>
o tis</w>
o ec
musi cians</w>
mo mc
mesaj ı</w>
memn un
kaynak larının</w>
kapı larını</w>
ka i</w>
ka baş
k ın</w>
k la
jan ica</w>
i̇mparator luğu</w>
hr ant</w>
hesa p</w>
herke se</w>
görevl ileri</w>
gro wn</w>
gr en
ghe org
geçir ilen</w>
gaş i</w>
ex changes</w>
etme mesi</w>
enjo ys</w>
en dü
dri ven</w>
dimitri j</w>
denet le
dau ghter</w>
cris es</w>
camp s</w>
c in</w>
budap est</w>
bir th
bilim ler</w>
beklen diğini</w>
başla tı
başar ısı</w>
bab ası</w>
b tv</w>
az i</w>
author ised</w>
ak la
ab sence</w>
50 0m</w>
3 0m</w>
2 .</w>
ğ u</w>
ü mit</w>
öl ü</w>
çık ış</w>
çağır ıyor</w>
youn ger</w>
you tu
wat ch
us s</w>
tu dj
tudj man</w>
travel led</w>
tep kiler</w>
te od
taraf ında</w>
ta dan</w>
strength ened</w>
sov yet</w>
slj ivancanin</w>
si es</w>
si ege</w>
sev o</w>
set tle</w>
sen e</w>
seli mi</w>
savun an</w>
s pre
s now</w>
run off</w>
restor ation</w>
res or
real ised</w>
perfor ming</w>
perce ived</w>
ok uy
oec d</w>
nedjel jko</w>
medy aya</w>
me th
me mur</w>
me deki</w>
ma makla</w>
ma mak</w>
lit vanya</w>
lin ing</w>
lan i</w>
kuruluş un</w>
kullan ılıyor</w>
komut an</w>
ket t</w>
kaynak lardan</w>
journ alism</w>
jap anese</w>
in iç</w>
ik asyon</w>
ihtilaf ının</w>
ic c</w>
her şeyi</w>
hel m</w>
hazırlan mış</w>
hatır lat
hastan e</w>
ham per
hakar et</w>
haber inde</w>
gün ün</w>
gu re
gh ly</w>
fon larının</w>
faaliyet lerinin</w>
elimin ate</w>
destek ç
dar be
congr at
congrat ula
con tains</w>
con ces
cen evre</w>
car efully</w>
cal cu
bureau cra
bulun muştu</w>
bon ds</w>
bomb ing</w>
belgi an</w>
başvur usunu</w>
bağ layıcı</w>
bayra ğı</w>
b unda</w>
at ar</w>
at an</w>
ash ed</w>
as i</w>
arre sting</w>
ar alarındaki</w>
ac cusing</w>
a meli
4 0m</w>
ş en
öldürül düğü</w>
çık tığını</w>
ça bayı</w>
ziyaret inin</w>
yeten ek
ye dek</w>
yarış ması</w>
yap makla</w>
yaklaş makta</w>
wi re
val id</w>
tem yiz</w>
tele komün
tek stil</w>
te y
taş ı</w>
t ruc
sıra ya</w>
sürdür düğü</w>
surve il
surveil lance</w>
sup posed</w>
sun um
standart larının</w>
sonuç lanan</w>
semin ar</w>
rejec t</w>
re kor
re isi</w>
pi ece</w>
pi e
photo graph
pen hagen</w>
paramil itary</w>
obli ged</w>
na ted</w>
mut lu</w>
mem le
mas raf
ma cy</w>
lev ski</w>
kın adı</w>
kuzey inde</w>
komisyon unun</w>
karşı laştır
kalab alı
k open
jan ez</w>
j evo</w>
i̇dar i</w>
i̇ cra</w>
isim ler</w>
inan ın</w>
ilgil endi
ilerle mesini</w>
har d
ha g</w>
göster isi</w>
göster ileri</w>
görüşme lerinin</w>
gö tü
geç mesine</w>
gel mek</w>
fi es</w>
deta iled</w>
cor ps</w>
colle ge</w>
co penhagen</w>
cle s</w>
ce v</w>
c ilerin</w>
c ating</w>
büyük lükteki</w>
bu sek</w>
ber to</w>
bek iri</w>
avu katı</w>
as es</w>
anla tıyor</w>
anagnostop oulos</w>
amend ment</w>
am ıyor</w>
a iming</w>
5 .</w>
şidde tin</w>
ş of
üç ü</w>
öv gü</w>
çözüm ler</w>
yöneti mini</w>
yarat tı</w>
yansı tıyor</w>
wor ker</w>
wo unded</w>
w to</w>
vurgula dılar</w>
veter ans</w>
uygula dığı</w>
tut ulan</w>
toprak larının</w>
ti ally</w>
tamamla mak</w>
söy lerken</w>
suç lardan</w>
suff er</w>
sol ving</w>
seç ilmesi</w>
sağ landı</w>
sa mir</w>
reform ing</w>
r are</w>
protest olar
pre domin
pled ges</w>
pira cy</w>
per su
nation alism</w>
mladen ov</w>
mev du
merkez leri</w>
mak ul</w>
lili ğini</w>
lav a</w>
kor kul
kopen hag</w>
kit le
kan ıtı</w>
jel as
i̇z leme</w>
i̇dar esi</w>
it enin</w>
istiyor sa</w>
issu ing</w>
isch inger</w>
inti mi
impas se</w>
iler liyor</w>
ifade sinin</w>
i -</w>
he ating</w>
güc ün</w>
göster ecek</w>
gre en
go l</w>
gelece ğine</w>
ga wat
festival inin</w>
fas ter</w>
fark ın
f ought</w>
eyle mi</w>
ekonomis ine</w>
e e</w>
düşür dü</w>
dönüş ü</w>
dön dür
duy ul
dre am</w>
dol andır
diğ inin</w>
diyarbak ır</w>
dis ab
dey imiyle</w>
descri bes</w>
dav asında</w>
ch ic
can nes</w>
büyükelç ili
bul dular</w>
bro ther</w>
bloc ks</w>
be ğ
bah set
avlj evic</w>
at maya</w>
al a
ak lık</w>
3 01</w>
çıkar ına</w>
çoğunluğ unu</w>
çocu ğun</w>
çalışan larının</w>
zinci r
zaman lı</w>
zam ana</w>
yaşan dığı</w>
yayınla dıkları</w>
yas alarını</w>
yarış ma</w>
yapıl masına</w>
vatandaş lık</w>
ulu stan</w>
topl uluğu</w>
telekomün ikasyon</w>
targe ting</w>
tah liye</w>
sürdür mesi</w>
sonu ca</w>
slow ly</w>
sin dir
sim ge
savun u
re vised</w>
re cip
ra ises</w>
publish ing</w>
proj esini</w>
phil os
per secu
orien ted</w>
oper ated</w>
ol muştur</w>
o ms</w>
not u</w>
nok ta</w>
na m</w>
n ity</w>
muhalef eti</w>
miran da</w>
may be</w>
mar at
makedon lar</w>
liste de</w>
ler imizin</w>
kazan dılar</w>
katıl anlar</w>
katliam ı</w>
kapat ma</w>
kap sıyor</w>
kam er
jankul ovska</w>
innov ation</w>
imp lic
il ko
iddi alı</w>
i dam</w>
he ar</w>
göl ge</w>
guar ds</w>
ger ing</w>
gen c</w>
gar akis</w>
fur t</w>
fla t</w>
explos ion</w>
exerc ises</w>
er up
edil mişti</w>
e lik</w>
durum dalar</w>
do g</w>
dne ss</w>
değiştir mek</w>
değiş iyor</w>
değerlendir di</w>
deste ğine</w>
deleg ations</w>
defic its</w>
de mek</w>
d ün</w>
cons ists</w>
com pos
colon el</w>
c isi</w>
büyü mesi</w>
boy kot
bom ba</w>
biz ler</w>
bekle mek</w>
be bek</w>
başlay acağını</w>
bağ layacak</w>
ayr ıldı</w>
ateş li</w>
at om</w>
ar asından</w>
appe aled</w>
al ay</w>
a waiting</w>
6 50</w>
. net</w>
çoğ unu</w>
çal ın
yürütü yor</w>
yönet meni</w>
yatırım cıları</w>
yapı larına</w>
yap ısı</w>
vesel in</w>
v als</w>
uzman ların</w>
uygula masının</w>
tüz üğü</w>
travel ling</w>
trans mission</w>
tes isi</w>
te min
sın av
söyle mişti</w>
sur gery</w>
su red</w>
spo t</w>
speci alists</w>
serv is</w>
sem t
sa yede</w>
s ın</w>
rü t
ro wing</w>
reti rement</w>
rek lam</w>
qu anti
pri je
po et</w>
plan lan
parti yi</w>
p ru
os una</w>
open ly</w>
op posing</w>
on larca</w>
olay la</w>
nation wide</w>
mu sical</w>
momc ilo</w>
mi yorlar</w>
mar kac</w>
ma ti
m den</w>
len a</w>
l um
ko re
king dom</w>
kariy er
kan al</w>
kal p</w>
jim nas
istikrar sız
imti yaz
i ght</w>
hedef ler</w>
hede fi
gör düğ
geç iş
etkiley ici</w>
eston ia</w>
dı kça</w>
dis bur
destekle diği</w>
derne k</w>
d mit
d als</w>
cri p
conces sions</w>
co koviç</w>
co inci
cle ared</w>
char ging</w>
cev o</w>
cema ati</w>
bot tom</w>
biz zat</w>
ber y</w>
başarısız lıkla</w>
bağlantı ları</w>
bayra mı</w>
bay kal</w>
ağ ına</w>
alp ha</w>
1, 6</w>
şey leri</w>
üye liğin</w>
çiğ ne
ç ilere</w>
ç ak
z ing</w>
yer leri</w>
ye mek
yardım ın</w>
yar d</w>
yan daş
vol ume</w>
vo daf
vodaf one</w>
top u</w>
temsilc ilerin</w>
tah vil
sınır sız</w>
stra zburg</w>
standart lar</w>
slalo m</w>
sh ed</w>
ro i</w>
ri ch
resul ting</w>
rejim ini</w>
reg ularly</w>
referand umu</w>
re vski</w>
rap idly</w>
ra l</w>
ra il</w>
ra c</w>
pres sures</w>
pos ted</w>
politik alarını</w>
politi k</w>
parti sine</w>
p dl</w>
our selves</w>
oluştur duğunu</w>
nico la
neden lerden</w>
muam mer</w>
mo tive</w>
mar shall</w>
maden cilik</w>
mac ovei</w>
le arning</w>
kıs ım
kö y</w>
kot or</w>
kent te</w>
kazan ç
kapasite ye</w>
kap sa
kamu oyunda</w>
k le
ist i</w>
inş asına</w>
ilerlet mek</w>
ic ra</w>
he ar
hakim ler</w>
görün tü
gerek siz</w>
g l
frank furt</w>
fo gh</w>
film leri</w>
faaliyet lerin</w>
experi ences</w>
ex pi
europe ans</w>
er oğlu</w>
el lerinde</w>
döne minden</w>
don or</w>
do mir</w>
disab led</w>
di v</w>
dee pen
dat ab
col um
clu j</w>
chec k</w>
cancel led</w>
bölün müş
br and</w>
bilece kler</w>
başla mış</w>
baş piskop
at ıyor</w>
apart ments</w>
al ıcı</w>
al ities</w>
aday lığı</w>
aday ların</w>
abilece kleri</w>
8 9</w>
ıla cağı</w>
ıl masında</w>
ç ev</w>
zaf eri</w>
youtu be</w>
yir mi</w>
yarar ına</w>
vi ktor</w>
verit aban
vehic le</w>
un certain</w>
tu l</w>
sürdüre ce
stru ggling</w>
sistem leri</w>
roman ların</w>
refin ery</w>
reas onable</w>
rap por
pul l</w>
pu anı</w>
proper ly</w>
predi cted</w>
pas ses</w>
parti lere</w>
ortam da</w>
nokt asına</w>
mis s</w>
milyon luk</w>
milletvekil inin</w>
me lerden</w>
mani pu
ly wood</w>
lithu ania</w>
lis ans
kullan ım</w>
komple k
kim yasal</w>
k ings</w>
j na</w>
i̇stih barat</w>
iti me</w>
instr uments</w>
im pe
ihtiyaç ları</w>
hy dro</w>
her oin</w>
har ri</w>
hand ling</w>
han i</w>
görüş ünü</w>
gis ine</w>
geliş meleri</w>
foun dations</w>
for get</w>
fir malar</w>
f ti</w>
f ate</w>
ettik lerini</w>
esti mate</w>
du al</w>
dri ver</w>
djordj evic</w>
de sign</w>
day ken</w>
d as
cor ner</w>
constan t</w>
conclu de</w>
ci yi</w>
cez alar</w>
bulun masına</w>
bor ut</w>
bin asının</w>
bilg iye</w>
benz er
başvur uda</w>
bal let</w>
at ına</w>
asker î</w>
as signed</w>
ar z</w>
ar gen
aleksan der</w>
af fili
4 00m</w>
ş ok</w>
ıl masıyla</w>
çiç ek</w>
z ek
yüz yıldan</w>
yas ama</w>
yarış masında</w>
yan gın</w>
voi ces</w>
uni fied</w>
under secretary</w>
u daki</w>
to ol</w>
ti ght</w>
tes la</w>
termin al</w>
t zanis</w>
sınır ın</w>
suçla mada</w>
stor m</w>
sto res</w>
steph en</w>
ste in</w>
stat ü
srp ske</w>
srebr en
sonuç larına</w>
shap e</w>
sele ction</w>
sar ayı</w>
sanat ç
ro ots</w>
referandum da</w>
re act</w>
radovan oviç</w>
qu o</w>
purch ased</w>
protest ors</w>
program lar</w>
post p
postp one</w>
parti sinden</w>
milest one</w>
mar itime</w>
manag ers</w>
man ch
makam larını</w>
mahke meler</w>
lju bi
licen ses</w>
lay acağını</w>
l iste</w>
kno ws</w>
kend ileri</w>
kaçın ılmaz</w>
kaybe dil
katıl masını</w>
karşıla ma</w>
kapas ite</w>
kalite li</w>
i̇sra illi</w>
izley ic
in ka</w>
i bar
hiç biri</w>
hersek li</w>
göster iler</w>
gör müş</w>
gr y</w>
git mesi</w>
gh da
gerek iyordu</w>
gerek irse</w>
g ayrı
fun ctions</w>
fela ket</w>
faaliyet ler</w>
en cing</w>
ece kler</w>
düzenlen iyor</w>
dört te</w>
durum la</w>
diğ eri</w>
di men
değer lendiri
destro y</w>
desig nated</w>
den tial</w>
dead lock</w>
dav alar</w>
cons istent</w>
conclu sions</w>
co pe</w>
ch ris</w>
c c</w>
bün ye
braz il</w>
bekli yorum</w>
ban croft</w>
bal ık</w>
bal an
ba ghda
b inanın</w>
açıkla dılar</w>
at le
at am
ari ei</w>
ap prehen
ans wers</w>
ange l</w>
am ariei</w>
ad s</w>
13 .
&apos; clock</w>
ş iş
üye leriyle</w>
üye ler</w>
öğrenc ileri</w>
ölüm üne</w>
çocuğ u</w>
zanlı lar</w>
wei ght</w>
vo kap
var sa</w>
v r
umu duyla</w>
uf ak</w>
terci h
tan ts</w>
t ler</w>
su lar</w>
sta ges</w>
st ars</w>
se ment</w>
sco pe</w>
sche dul
scan dals</w>
san mıyorum</w>
saldır ının</w>
saat ler</w>
sa bah
s le
s inc
rou tes</w>
rejim in</w>
refu sal</w>
ref use</w>
rakam lara</w>
rai ds</w>
ra p</w>
pu ts</w>
produc tive</w>
pos ta</w>
pled ge</w>
person ally</w>
pazar ının</w>
p ers</w>
oto mobil
ortak ları</w>
n ut
mültec iler</w>
mül k</w>
mit ting</w>
metre küp</w>
mese lenin</w>
medi k
me gawat
lik lere</w>
li e</w>
l ılık</w>
l ise</w>
kri vokap
kor ku
konum da</w>
kat ılarak</w>
karşılaş tığı</w>
kam yon
kadın lara</w>
kabines i</w>
kabin enin</w>
j af
iş gal</w>
iv es</w>
istikrar ını</w>
initi ate</w>
indic tments</w>
impor ted</w>
hol lywood</w>
hi ke</w>
hek tar
hedef lere</w>
hazır ladı</w>
haber leri</w>
gü reş
görün üm</w>
geç mek</w>
g ayrı</w>
fotoğraf lar</w>
fiyat larının</w>
feel ing</w>
feder asyon</w>
et ken
er dir
enti rely</w>
endişe ler</w>
edil mesinin</w>
dış ar
cau ses</w>
c ag
bulun ma
birleş miş</w>
bas kın
bakıl dığında</w>
açıl masını</w>
azın lıklar</w>
ar io</w>
appro ves</w>
ange los</w>
an ist</w>
al kol</w>
afri can</w>
acqu is
acqu ire</w>
ışı ğına</w>
öner iler</w>
zu pl
zupl janin</w>
z ey
z eri</w>
yunan lı</w>
yi yecek</w>
yetiş tir
yas ağı</w>
yakalan ması</w>
wri tes</w>
wal k</w>
use ful</w>
under ground</w>
un d
ultranation alist</w>
tüke tim</w>
tisa tion</w>
ti se</w>
sın ız</w>
sürül üyor</w>
stra ted</w>
sti mu
statüs üyle</w>
si mul
ses sions</w>
s na
regre t</w>
recommen dation</w>
punish ment</w>
pro gressive</w>
pra ising</w>
potansiye line</w>
pop ovic</w>
plas tik</w>
pat rol
pac kett</w>
on y</w>
om v</w>
ol a</w>
od ds</w>
ne a</w>
men tion</w>
mecl isinin</w>
makam larına</w>
mahkeme lerin</w>
leş mesi</w>
laboratu var
kt aki</w>
kaynak lara</w>
kan ad
kamuoyun un</w>
kad ının</w>
ka da</w>
jür i</w>
jo ins</w>
je la
j ak</w>
istikrar sızlık</w>
insan ı</w>
imen tul</w>
ihrac atı</w>
iade si</w>
hr t</w>
hak em
güdüm lü</w>
geç e
gel in
fic ations</w>
fazlas ının</w>
faaliyet lerine</w>
even imentul</w>
et meyeceğini</w>
entegrasyon una</w>
engel leri</w>
enab ling</w>
ele me</w>
ear n</w>
ear marked</w>
duruş ma</w>
dolaş ım</w>
do kuz
comple ting</w>
com mit</w>
cle an
cla ude</w>
christi e</w>
channe ls</w>
ce domir</w>
but mir</w>
bulle tin</w>
bon n</w>
bo y</w>
bo und</w>
bir liğini</w>
bench marks</w>
ar ily</w>
an ları</w>
ail ed</w>
ag o
acci dent</w>
15 ,000</w>
14 .
ülke sini</w>
zor lan
ziyaret çiler</w>
z ur
z ile
yap makta</w>
w ah
volunte ers</w>
var lığının</w>
va ad
uygula masına</w>
un known</w>
ulaş ması</w>
u ally</w>
tut tu</w>
tur a</w>
tir ken</w>
televizyon una</w>
te li
te f
tax ation</w>
ta y</w>
t ling</w>
sür tüş
surve yed</w>
super vision</w>
sto ck
sorun uyla</w>
so c
simul tane
side lines</w>
si a</w>
sett led</w>
sendi kalar</w>
sembol ik</w>
sek iz
secular ism</w>
scen ario</w>
sağlay ama
savun masız</w>
rekabet çi</w>
refer red</w>
prosec u
priv re
phenomen on</w>
per is
pas sage</w>
parla k</w>
p ce</w>
oy birliğiyle</w>
ori jinal</w>
o c</w>
nüfu z</w>
ni kola
ne vi</w>
na mic</w>
mor atin
moratin os</w>
misyon una</w>
meydan ı</w>
ma to
lux ury</w>
len mesine</w>
ku kes</w>
kon unun</w>
komüniz m</w>
john son</w>
jan i</w>
inşa atı</w>
integr ate</w>
hırv atların</w>
hem şi
harek â
gran ting</w>
gerçe ği</w>
g sm</w>
g las
frequ ent</w>
fon un</w>
eş i
eylem ler</w>
exac tly</w>
ev de</w>
es cape</w>
eriş imi</w>
ele ment</w>
dür üst</w>
dük kan
duğ unda</w>
do v</w>
diyarbak ir</w>
değerlendir il
devre ye</w>
deney im</w>
da ğ</w>
d öv
d inci</w>
d ans
cour age</w>
cli ents</w>
ci ye</w>
cas tle</w>
cap ita</w>
c na</w>
bulun uyordu</w>
bulun dukları</w>
bilece kleri</w>
bil inc
bi ome
at ly</w>
ali ve</w>
ail enin</w>
şirket lere</w>
üle cek</w>
öner isinde</w>
çık maya</w>
zile i</w>
yüz yılın</w>
yok la
yetkil inin</w>
yay la</w>
yap acakları</w>
y t</w>
with drew</w>
win ners</w>
ver mesine</w>
uz an
ut sas</w>
us una</w>
ur ge</w>
tığ ında</w>
tic kets</w>
than ked</w>
tas arı</w>
taleb ini</w>
tal i
sırp ça</w>
sur roi</w>
st ress</w>
so ktu</w>
snez ana</w>
si mon
sey in</w>
serv ation</w>
ser van
sağla dılar</w>
saf et</w>
rejec tion</w>
rad ul
ra mus
ramus h</w>
r er
progra ma</w>
pro x
pr ere
prere quis
os car</w>
ortam ını</w>
op ulos</w>
o dak</w>
nezar et
neighbour ly</w>
nation alists</w>
mesele lerin</w>
menfa at
ma ja</w>
komüniz min</w>
kiş iden</w>
kaçakç ılıkla</w>
karar larını</w>
kalet oviç</w>
k new</w>
jo z
j uni
izle mek</w>
ish es</w>
is en</w>
indic ators</w>
in je</w>
iddi alarını</w>
hydro power</w>
hil mi</w>
happen ing</w>
ha j</w>
görüş menin</w>
gönder ilen</w>
gö lü</w>
fil istin</w>
fikir de</w>
festival ine</w>
fair ly</w>
eu pm</w>
etkin likler</w>
etk ilerini</w>
etbeg oviç</w>
er iyor</w>
entegr e</w>
en lere</w>
eleşti ren</w>
dönüş üm</w>
dro utsas</w>
değiştir meye</w>
devr alacak</w>
destekle yecek</w>
demonstra tes</w>
con stitute</w>
ce sur</w>
cak lar</w>
c oviç</w>
bütç esinin</w>
bütç esini</w>
bud ge
birbir inden</w>
biliyor uz</w>
bel ong</w>
bekle diği</w>
be lar
be h
aç ması</w>
attribu ted</w>
at ılması</w>
artış a</w>
ar jan
andre as</w>
6 0m</w>
2 5m</w>
üs s
özel liğini</w>
öldürül dü</w>
öldür ülen</w>
çöz meye</w>
çev res
yönet men
yenile me</w>
yaşam ı</w>
yay gın
yap ıyorlar</w>
wr iting</w>
wil liam</w>
tru ck</w>
trans formed</w>
tradi tions</w>
top lamda</w>
th row</w>
ten se</w>
ten is
tanın ıyor</w>
su bur
sonr asındaki</w>
seç mek</w>
seviye ye</w>
sanık ların</w>
sanay i
s hala</w>
ro yal</w>
refle cted</w>
recognis ing</w>
r al
prepar es</w>
pop oviç</w>
petro viç</w>
penal ty</w>
oyn ayan</w>
offen sive</w>
nitelendir erek</w>
n on
mış lardı</w>
mr f</w>
modern ise</w>
min gs</w>
meslektaş ı</w>
mantık lı</w>
m le</w>
lju be</w>
lider lerini</w>
l ment</w>
kül türü</w>
köy ü</w>
kuv vet</w>
kur duğu</w>
kullanım ını</w>
kre diler</w>
konular ın</w>
kon ut
komut ası</w>
kiş ileri</w>
kim liği</w>
kayde den</w>
it fa
iste diklerini</w>
invol ve</w>
ince leme</w>
hab ere</w>
gradu ally</w>
gheorg he</w>
gerek tiğ
fa al</w>
eğiti me</w>
extradi ted</w>
ex ceed</w>
ev asion</w>
ev angelos</w>
et miyor</w>
en tr
electri cal</w>
edil eceğini</w>
dış ından</w>
dük lerini</w>
dy namic</w>
dur uyor</w>
don ated</w>
dis ease</w>
dev ir
charac ter</w>
ceza evi</w>
cez aları</w>
c .</w>
bölge sinden</w>
but ler</w>
bur ied</w>
bekle ye
be yan</w>
başbakan ları</w>
ayr ılması</w>
ay n
at p</w>
as ın
aile ler</w>
abilir ler</w>
1. 3</w>
ımız da</w>
üst e</w>
ü yordu</w>
ön lenmesi</w>
öl ümü</w>
z la
z im
yas alarına</w>
yap ıları</w>
yap masına</w>
ver mekle</w>
ven ues</w>
uyan dır
us ted</w>
türk leri</w>
tu rer</w>
tu g
tri um
tr uly</w>
tan gible</w>
talep lerini</w>
suçl uların</w>
sur plus</w>
subsequ ently</w>
stratejis ini</w>
strate gies</w>
stipula tes</w>
stef anoviç</w>
st ones</w>
sponsor luğ
sol e</w>
si yonu</w>
servan ts</w>
sch i</w>
sayı m</w>
sa mu
s ven</w>
ro polis</w>
refer ence</w>
rapor unun</w>
poin ting</w>
pain ful</w>
p len
olo j
ol manın</w>
ol malarına</w>
no ti
mon t</w>
moderniz asyonu</w>
mo b
mit ing
mis m</w>
milliyet ç
medi u</w>
lü ler</w>
leav es</w>
le ts</w>
kışkır t
kul üp
koşul ların</w>
ke skin</w>
kar iç</w>
kapasi tesinin</w>
kah ra
ka de
jo ble
j en</w>
iş ine</w>
içer iyor</w>
intensi fied</w>
ho ca</w>
hem fikir</w>
hatır la
ha dz
göz altında</w>
gre atly</w>
gr and
gor dan</w>
gi an</w>
free ze</w>
film ler</w>
ff s</w>
festiv als</w>
f an</w>
explor ation</w>
est i</w>
edi tör
doğ r
div ac</w>
devri ye</w>
def ine</w>
ck y</w>
cer ti
by ty
bloc ka
bir n</w>
başkanlığ ında</w>
bankrup t
açıkla malarda</w>
anas tas
an o
agen ts</w>
ad landır
1, 3</w>
öğrenc ilere</w>
ö .</w>
çık masına</w>
çalışmalar ın</w>
çalış anı</w>
z ana</w>
yo ktu</w>
yetkil ilerine</w>
yaş ama</w>
x he
where ab
whereab outs</w>
uğra dı</w>
tran che</w>
to ward</w>
th ra
temiz leme</w>
tasarru f
tasar ıyı</w>
tanım lan
söylen ti
sy mp
sy mb
symb ols</w>
subsequ ent</w>
stor ies</w>
speci es</w>
sonuç larının</w>
semin er
sel ler</w>
se mi</w>
sar anda</w>
samar as</w>
s me
rehabil itation</w>
referandum un</w>
reco m</w>
rec y
rappor teur</w>
quali fied</w>
pres sion</w>
perspek tif
per fec
pekiş tir
paket ini</w>
oper ates</w>
on dan</w>
o le
news .
n ad
mul a</w>
muhafazakâ r</w>
min or</w>
miktar ı</w>
mean ing</w>
mar in
mal e</w>
m med</w>
li fe
lay acağı</w>
kı dem
kon uk
karş ılıyor</w>
kapat ılması</w>
kal masını</w>
ka dek</w>
j i
i̇z mir</w>
in ic</w>
in adequate</w>
implic ations</w>
ilerle yen</w>
ihtiyaç larını</w>
i fication</w>
hur dle</w>
hungar ians</w>
hisse si</w>
haf tas
ha fif
güven liğin</w>
gündem de</w>
göster me</w>
go d</w>
gi ous</w>
genişle til
gener ali</w>
for tress</w>
fil l</w>
exper tise</w>
en k
edi ğini</w>
ede bileceğini</w>
e ser</w>
dic t
democra tisation</w>
dead lines</w>
day sa</w>
d ost</w>
cour ses</w>
com for
classi fied</w>
cat ch</w>
bulun urken</w>
bo jan</w>
blu e
bil et</w>
bankrupt cy</w>
b ling</w>
at ının</w>
ar adaki</w>
al um
akade mik</w>
advis ory</w>
7 50</w>
4 50</w>
. ö.</w>
şah ıs</w>
önlem leri</w>
öner diği</w>
ö mür</w>
çoğun lukta</w>
yön deki</w>
yakal ay
y ovan
wei gh
ver dik</w>
uğra dığı</w>
ust a</w>
under take</w>
umud unu</w>
türk lerin</w>
tran daf
trandaf ir</w>
thre aten</w>
te ye</w>
tasar ısı</w>
söyle mekle</w>
symbol ic</w>
suçla maların</w>
silah lar</w>
serma ye
sergile di</w>
savc ılığı</w>
safh asında</w>
sa r</w>
s na</w>
ro oms</w>
res pects</w>
rek lam
re stored</w>
re affirmed</w>
rahi be</w>
ra muş</w>
ra dar</w>
r ence</w>
pren si
pre servation</w>
port fol
pol i</w>
ple a</w>
par ça</w>
p iş
otobü s
orchest ra</w>
operasyon lar</w>
olacak lar</w>
no w
ne f
nak it</w>
n bs</w>
mir jana</w>
mekaniz ması</w>
ma tes</w>
m ü</w>
lo j
li yoruz</w>
la ğ
la ting</w>
koy uyor</w>
kiş ilere</w>
kaynak lı</w>
jurisdi ction</w>
jour ney</w>
jo han
jeopardis e</w>
işbir liğinden</w>
işbir liğinde</w>
iş adamları</w>
iz mir</w>
iste kl
is yan</w>
inter rup
inter ference</w>
in tent</w>
im al
ilerle mesine</w>
ihti mal
hükümet te</w>
heav ily</w>
hand ball</w>
görün üm
gor a</w>
glo be</w>
gir l</w>
gerçekleştir il
gel diğinde</w>
fel se
eğil imi</w>
ex cee
eu politi
et mesinin</w>
en tal</w>
en danger
emphas is</w>
embas sies</w>
eas es</w>
ear th</w>
e a</w>
discus ses</w>
discover y</w>
dire ktör</w>
di ren</w>
da s</w>
cular ından</w>
cul ovski</w>
challen ging</w>
cer n</w>
cer mak</w>
cat al
bu lat
briga de</w>
biome tric</w>
bi s</w>
belar us</w>
be ste
başvur usunda</w>
ba ba</w>
araştır maya</w>
alli ed</w>
ajans ına</w>
adalet ten</w>
acquit ted</w>
acknowled ging</w>
a bi
3 .</w>
1. 4</w>
ız ın</w>
örgü te</w>
ön görül
çek meye</w>
çab alara</w>
zorun dayız</w>
yaz dığı</w>
yar ar</w>
yakın ında</w>
win dows</w>
wat ching</w>
ven in</w>
un gure
ungure anu</w>
truc ks</w>
tel li
tar culovski</w>
t us
sürdür düğünü</w>
söz ler</w>
susta ined</w>
sun dular</w>
stre am
son un
sol dan</w>
soci eties</w>
siyas eti</w>
si dir</w>
seç me</w>
san dık
sa telli
sa mp
sa mi</w>
s cru
ro t</w>
ri an</w>
rest oran
referand uma</w>
raufo glu</w>
push ed</w>
presti gious</w>
pre sevo</w>
plo t</w>
pl ying</w>
petro vic</w>
pe ş
olma makla</w>
nez av
nezav is
mur at</w>
ma çı</w>
ma masını</w>
l il
kut sal</w>
kullanım ına</w>
kongr e</w>
keş f
kaçakç ılığıyla</w>
kararl ılık</w>
je wish</w>
iste miyor</w>
i os</w>
hızlandır ılması</w>
hil l</w>
hemşi re
hav ayolları</w>
hav acılık</w>
ha x
gru ba</w>
gj i
gir me</w>
gi l</w>
gerçekleş iyor</w>
fırsat lar</w>
fled ged</w>
fac tories</w>
eyal ete</w>
expen ses</w>
er oglu</w>
ele mentary</w>
ei gh
değer indeki</w>
den di</w>
degre es</w>
de tain
de liber
d inin</w>
confis cated</w>
condi tional</w>
con sp
com ment
co mings</w>
ci d
celebra tion</w>
c ileri</w>
brief ed</w>
blue print</w>
bir ds</w>
bilir siniz</w>
belir sizlik</w>
bayra m
attor ney</w>
as ts</w>
art tığını</w>
ar da</w>
advo cates</w>
adal etin</w>
ac on
9 4</w>
6 0,000</w>
50 0,000</w>
15 0,000</w>
12 ,
ş at
ı daki</w>
ziyar etin</w>
yetk ileri</w>
yen di</w>
yayın landı</w>
w rap</w>
ver ip</w>
u yardı
toky o</w>
tedbir lerini</w>
te a</w>
tamam ını</w>
talima tı</w>
t ül
speci alised</w>
soldi er</w>
sivil lere</w>
short comings</w>
sex ual</w>
seviye sini</w>
seven th</w>
sergile diği</w>
sektör de</w>
scre ening</w>
schedul e</w>
sa c</w>
ra t</w>
q atar</w>
priş tin
predomin antly</w>
prede cess
predecess or</w>
ph ones</w>
per mits</w>
parlamento daki</w>
par ame
p um
olma m
olay dan</w>
occas ion</w>
nokt aya</w>
negoti ators</w>
nefre t</w>
n ia</w>
n hac</w>
mot e</w>
may oral</w>
mar nhac</w>
mal larının</w>
lo v</w>
li fted</w>
kö k</w>
ku r</w>
kor general</w>
kes ini</w>
kar ayol
kampan yanın</w>
ka j</w>
k lau
k ins</w>
jol a</w>
i̇liş k
ir on</w>
ile bilir</w>
il ki</w>
hisse dar
he ated</w>
he at</w>
hazır lık
hal i
gösteric iler</w>
göster mektedir</w>
görü nen</w>
gönder ildi</w>
gru buna</w>
gelenek lerini</w>
gel miştir</w>
g avr
foun ding</w>
finan cially</w>
eş te</w>
extradi te</w>
eur ob
et tiğine</w>
et enin</w>
er o
emplo y</w>
egemen lik</w>
ec ological</w>
e bilecek</w>
diğer lerinin</w>
devre t
den cy</w>
decre ased</w>
datab ase</w>
dair enin</w>
cy cle</w>
cor ceviç</w>
constitu ent</w>
com prised</w>
co op
cla use</w>
cen sor
ce z</w>
cav iç</w>
cat as
care ful</w>
car l</w>
c ovic</w>
budap eşte</w>
bro wn</w>
birbir lerine</w>
be ating</w>
bask ısı</w>
ba con
as ıl
ar tarak</w>
anony mous</w>
ann ul
alan lardaki</w>
6 .</w>
şart lı</w>
ı c
çeyre ğinde</w>
çatış maların</w>
çalışmalar a</w>
yapıla cağını</w>
veril diği</w>
ver medi</w>
ve da</w>
van ia</w>
v ola
ut an
um ar
türk lerinin</w>
tür ban</w>
tutuk l
tray kov</w>
tot ally</w>
tho mas</w>
th west</w>
testi fy</w>
ter mik</w>
ter ed
te cri
tatbi kat</w>
taraf ta</w>
sür erken</w>
söz ünü</w>
suz luk</w>
suspen d</w>
su ya</w>
sto len</w>
stav revski</w>
spek ül
sey ah
servis i</w>
serbestleştir me</w>
se ks</w>
sağlay acaktır</w>
sağla manın</w>
sayı la
samar dzic</w>
sa ç
sa cri
restaur ant</w>
resor ts</w>
remov ing</w>
ref using</w>
radovan ovic</w>
radman oviç</w>
ra du</w>
priştin eli</w>
poz is
pol an
pasap ort</w>
pac olli</w>
olağ an</w>
okul lar</w>
off s</w>
ni kos</w>
ni ce</w>
nati ve</w>
nar co
nak ledil
meş ru
merkez in</w>
mar mara</w>
man s</w>
m jaf
mjaf t</w>
lev a</w>
kurban ı</w>
kur u</w>
konsorsi yum</w>
komis er</w>
kent sel</w>
kadar ki</w>
kabaş i</w>
k ısı</w>
k li
inten se</w>
in ev
il gisini</w>
i yeti</w>
hayat ı</w>
han e</w>
hal is</w>
gros sman</w>
gelece ğinin</w>
for uma</w>
fir masının</w>
fil ist
eş siz</w>
eli te</w>
el lerinden</w>
ekono m
dünyas ının</w>
dmit ry</w>
den li</w>
defe ating</w>
de p
contin ent</w>
chi efs</w>
cha os</w>
bırak ıl
bölge ler</w>
bulun maya</w>
bulun acağını</w>
break through</w>
borç larını</w>
belir ledi</w>
be aut
beaut y</w>
bacon schi</w>
ay ının</w>
ay larca</w>
ater ally</w>
at ılacak</w>
artış ın</w>
ar sa</w>
adverti sing</w>
ad ının</w>
acknowled ge</w>
ach ed</w>
3 g</w>
şans ının</w>
ür k</w>
önce likler</w>
çıkar maya</w>
çık maz</w>
çalış anlar</w>
yürüy üş
yüküm lü</w>
yöneti mine</w>
yönet tiği</w>
yönel tilen</w>
yor gos</w>
yetkil ileriyle</w>
yeter siz
vergil endir
vecern je</w>
um uyorum</w>
ulaş tır
tük en
tut ma</w>
tered dü
tavsiye de</w>
tav ır
tamamla ma</w>
talep leri</w>
t ability</w>
sınır ında</w>
spor cular</w>
si gh
shi pping</w>
sev k</w>
separ ately</w>
sendik ası</w>
see med</w>
se cession</w>
ri m</w>
redde derek</w>
re fra
ran k</w>
rai ffe
questi on
pun ished</w>
politikas ına</w>
pla j
piyas ası</w>
pharmaceu tical</w>
parti sini</w>
p ian</w>
p dp</w>
oper ative</w>
ne ft</w>
mon d</w>
moderniz asyon
mla can</w>
min gly</w>
milli yet</w>
me lerde</w>
mar gin</w>
man jola</w>
lo b
larımız a</w>
land mark</w>
kuruluş lar</w>
konular ını</w>
konferans ın</w>
kon umu</w>
kaygı larını</w>
karar ından</w>
kar ic</w>
kali tesini</w>
kaldır maya</w>
jor dan</w>
jol ie</w>
iz etbeg
izetbeg ovic</w>
inc enti
incenti ves</w>
in da</w>
ilke lerine</w>
ili ğin</w>
ilgilendi ren</w>
ihal eyi</w>
ig no
iddiana me</w>
hol der</w>
hen t
haz ar</w>
hay van</w>
havalim anı</w>
hafi fle
gros s</w>
gregor ian</w>
geçir ildi</w>
geç tiği</w>
getir meyi</w>
geti receğini</w>
gel u</w>
fun eral</w>
fis cher</w>
f ed</w>
f as</w>
eurob on
eupoliti x</w>
er wan</w>
edece kler</w>
echo ed</w>
ec o</w>
e us
düşünü len</w>
dön üm</w>
di o</w>
de de
dav is</w>
dar ies</w>
da vis
d dy</w>
cumhuri yetin</w>
ce mil</w>
cas pian</w>
cap tured</w>
büro kras
boun daries</w>
biyolo jik</w>
belon ging</w>
belir leyici</w>
be ch
açıkla dığı</w>
ayrılık çı</w>
ay lardır</w>
austral ian</w>
at ıldı</w>
as e
anton escu</w>
an ısına</w>
ac ces
şidde ti</w>
şart larından</w>
ş artı
ım ına</w>
çıkar an</w>
zir venin</w>
yur ti
yapılandır ma</w>
yapıl dığını</w>
volun tary</w>
volun tar
vi ş</w>
vi able</w>
veril eceğini</w>
ver meleri</w>
uzman lara</w>
tü f
tur ne
trans yl
trans il
toplum una</w>
teş his</w>
tesis leri</w>
tecrü be
te ct</w>
tal ked</w>
tack ling</w>
sın av</w>
sürü len</w>
sun ması</w>
sul tan</w>
su bayı</w>
su bay</w>
sp as
sorgu ya</w>
satış a</w>
satelli te</w>
saldırı ya</w>
ro oted</w>
rela tion</w>
protesto cular</w>
prosedür leri</w>
piyas aya</w>
philos oph
peku sic</w>
pe ak</w>
pat layıcı</w>
passen ger</w>
oyla maya</w>
oyla manın</w>
ola maz</w>
nov ine</w>
nak li</w>
mun giu</w>
mold ov
mil e
mer on</w>
lu ktan</w>
loc ked</w>
lear ned</w>
kö şe</w>
kor kun
konuş landır
koka in</w>
kil l</w>
ke mer</w>
kay ı</w>
kat ar</w>
karar la</w>
kal e</w>
kal anı</w>
k uyru
k ps</w>
k ay</w>
j so</w>
i̇s kender</w>
intellec tual</w>
infec ted</w>
indi cates</w>
iler ide</w>
ig h</w>
i ou</w>
helikop ter
hareket inin</w>
harcan acak</w>
hakim lerin</w>
hafif let
h ük
gün ümüz</w>
göz ler</w>
gö ğ
gri gor
gri bi</w>
git tiğini</w>
gelir ken</w>
gay ri
g ov
g ana</w>
ex pedi
etkile yecek</w>
entrepreneur s</w>
enti tled</w>
ekono mist
düşü ne
döne minin</w>
dum it
dis agreements</w>
di e</w>
değiştir ilmesi</w>
değiş imi</w>
der viş</w>
de alt</w>
dav asının</w>
constru ct</w>
clas ses</w>
character ised</w>
censor ship</w>
cav ic</w>
bu günkü</w>
biyo metrik</w>
biti ki</w>
bildir ilen</w>
be ach</w>
başkan lığının</w>
ay lo</w>
avi ation</w>
av l
arkadaş ı</w>
araç ları</w>
ar ben</w>
any more</w>
al e
al am
abil iriz</w>
7 .</w>
6. 5</w>
198 0s</w>
şe ye</w>
şart larının</w>
şampiyon asında</w>
ıy sa</w>
öf ke
çocuk larının</w>
çalış tır
çalış acağını</w>
zor laştır
yıl ını</w>
yık ıcı</w>
yetk ilerini</w>
yalan ladı</w>
x ing</w>
w right</w>
vet on</w>
v ast</w>
tur ns</w>
thous and</w>
taraf a</w>
tanı ma</w>
sürdüre n</w>
sür düler</w>
swim ming</w>
super vis
su m</w>
stur ica</w>
stratejis inin</w>
[...]
