the 315201
, 242838
. 195254
of 129296
to 115653
in 115292
and 113206
a 84712
&quot; 77942
for 51846
&apos;s 46050
@-@ 44962
is 43336
on 42761
that 42352
with 30505
by 27667
/ 26733
as 26664
said 25840
will 25549
) 24093
( 24066
it 22547
be 22504
are 20471
has 19987
have 18309
from 18288
at 17639
eu 17409
was 16993
he 16889
an 16370
kosovo 16346
-- 16186
not 15174
this 14536
its 13629
minister 13163
serbia 12785
european 12338
country 11284
also 11160
government 11067
we 10967
which 10868
&#91; 10723
&#93; 10717
their 10428
but 10380
new 10219
his 9922
they 9466
year 9450
would 9350
- 8868
been 8697
turkey 8408
two 8235
i 7959
were 7952
one 7804
more 7669
international 7647
countries 7579
all 7534
bih 7488
after 7327
president 7287
who 7284
prime 7014
: 6966
serbian 6802
times 6709
other 6708
macedonia 6555
political 6457
southeast 6429
belgrade 6396
co 6349
state 6278
or 6272
there 6059
about 6037
party 5990
croatia 5941
foreign 5878
people 5834
us 5772
according 5769
first 5762
told 5742
over 5700
% 5655
euros 5590
last 5561
during 5502
than 5483
setimes 5471
turkish 5392
up 5316
operation 5176
years 5151
only 5145
between 5136
un 5017
can 4974
some 4847
economic 4838
nato 4781
should 4738
albania 4735
bulgaria 4674
if 4631
no 4608
former 4597
montenegro 4584
had 4567
police 4474
talks 4473
against 4442
while 4381
agreement 4335
time 4319
romania 4299
; 4294
security 4258
greece 4235
may 4233
world 4227
under 4196
however 4190
per 4184
&apos; 4176
war 4166
could 4115
most 4109
says 4064
three 4031
public 3981
europe 3926
parliament 3913
now 3886
support 3883
10 3849
11 3783
since 3770
into 3764
our 3757
well 3745
when 3735
out 3681
part 3668
process 3624
region 3615
monday 3584
such 3581
croatian 3560
national 3529
officials 3517
law 3506
greek 3485
cent 3473
them 3459
many 3451
do 3450
albanian 3431
bosnia 3419
states 3375
meeting 3344
report 3315
news 3255
because 3233
general 3228
herzegovina 3225
so 3208
including 3159
end 3124
members 3107
wednesday 3106
macedonian 3101
member 3094
those 3085
elections 3082
local 3022
crimes 2994
authorities 2993
what 2977
council 2970
must 2967
democratic 2953
day 2939
she 2924
expected 2912
month 2904
tuesday 2898
pristina 2886
images 2886
any 2882
made 2878
among 2875
high 2873
09 2864
getty 2841
12 2835
re@@ 2835
week 2833
07 2789
05 2782
bank 2777
06 2761
both 2756
say 2747
work 2747
these 2742
court 2734
reuters 2731
take 2731
before 2715
04 2715
ministry 2708
serb 2706
03 2705
08 2693
military 2686
group 2680
membership 2673
business 2659
issue 2654
way 2652
afp 2652
project 2618
number 2616
future 2615
still 2571
being 2545
un@@ 2524
next 2506
parties 2506
march 2502
development 2494
visit 2482
media 2477
commission 2473
bulgarian 2466
june 2450
citizens 2443
progress 2436
october 2432
leaders 2401
union 2398
thursday 2394
through 2392
? 2392
energy 2388
december 2384
decision 2383
integration 2371
status 2334
you 2328
corruption 2327
january 2322
centre 2316
&apos;t 2304
very 2303
company 2299
balkans 2289
reforms 2286
held 2275
chief 2270
announced 2266
important 2265
accession 2256
agency 2254
romanian 2250
relations 2249
long 2232
based 2227
where 2219
saying 2203
leader 2200
economy 2197
institutions 2195
november 2191
july 2187
won 2183
system 2176
make 2174
skopje 2168
see 2162
plan 2161
place 2159
added 2158
independence 2155
opposition 2137
april 2135
community 2130
months 2124
called 2112
sarajevo 2111
even 2109
regional 2109
met 2109
ing 2097
serbs 2095
tribunal 2094
four 2093
power 2092
united 2090
policy 2075
rights 2075
towards 2070
efforts 2066
issues 2053
in@@ 2048
balkan 2045
organised 2040
sunday 2036
euro 2031
help 2028
head 2024
september 2011
reform 2004
various 2002
defence 1986
office 1980
situation 1971
sources 1959
february 1953
led 1950
festival 1943
need 1938
crisis 1938
vote 1936
bosnian 1934
same 1923
right 1918
athens 1918
second 1916
financial 1912
another 1905
him 1897
cyprus 1897
around 1894
her 1894
official 1882
border 1880
main 1878
continue 1870
several 1869
billion 1867
crime 1864
signed 1860
programme 1847
negotiations 1840
deal 1838
social 1836
peace 1827
election 1826
market 1823
trade 1807
able 1806
without 1804
measures 1804
following 1801
justice 1800
ec 1785
major 1775
s 1771
key 1768
20 1765
ethnic 1760
become 1758
possible 1755
conference 1753
within 1741
set 1740
recent 1737
move 1727
special 1723
good 1712
five 1704
past 1692
statement 1685
left 1680
event 1680
august 1674
problems 1672
problem 1672
open 1672
until 1671
friday 1671
then 1653
companies 1653
tadic 1652
further 1648
human 1646
due 1644
western 1640
sofia 1640
free 1639
much 1637
director 1630
case 1625
zagreb 1618
mission 1616
brussels 1615
deputy 1615
top 1614
team 1611
days 1605
cultural 1601
... 1599
forces 1596
s@@ 1595
ruling 1594
how 1592
ministers 1591
rs 1591
15 1590
investment 1585
02 1584
secretary 1582
current 1568
ap 1567
t 1558
sector 1558
city 1556
join 1553
central 1550
down 1541
already 1535
did 1529
tirana 1527
representatives 1516
russia 1516
press 1512
level 1510
use 1499
women 1496
plans 1493
coalition 1492
does 1490
full 1484
01 1482
hague 1482
meet 1481
took 1476
meanwhile 1469
agreed 1468
representative 1468
1 1468
gas 1466
e 1466
budget 1463
back 1447
30 1447
just 1445
ted 1444
2004 1433
ankara 1429
education 1425
parliamentary 1419
old 1417
es 1417
ic 1415
ed 1415
areas 1413
six 1409
like 1408
far 1402
children 1402
joint 1401
bucharest 1397
early 1394
go 1391
e@@ 1388
istanbul 1388
stability 1387
army 1386
standards 1383
de@@ 1383
off 1380
order 1373
force 1373
start 1368
role 1367
better 1361
increase 1361
imf 1359
ten 1357
construction 1347
association 1346
my 1345
best 1339
25 1338
quoted 1332
clear 1331
want 1330
final 1327
mladic 1326
earlier 1323
think 1320
information 1320
o@@ 1319
en@@ 1318
dis@@ 1317
film 1316
opened 1312
conflict 1312
each 1311
found 1306
results 1305
get 1304
culture 1303
money 1298
o 1296
growth 1295
come 1294
$ 1289
ovic 1289
conditions 1288
province 1284
step 1282
solution 1279
change 1278
used 1277
together 1272
remains 1270
daily 1270
northern 1263
majority 1261
erdogan 1255
interest 1253
late 1253
cases 1247
came 1246
own 1240
although 1238
currently 1237
area 1236
experts 1234
fight 1233
2007 1232
working 1229
candidate 1223
life 1219
less 1217
p@@ 1215
criminal 1208
action 1205
al 1202
de 1193
tourism 1189
summit 1184
2008 1184
cypriot 1175
legal 1173
cannot 1171
given 1170
campaign 1170
administration 1167
organisation 1166
independent 1166
c@@ 1166
presidency 1165
provide 1165
university 1164
reported 1162
17 1161
position 1157
politicians 1157
germany 1156
icty 1156
ago 1153
projects 1151
term 1150
remain 1149
u@@ 1149
g@@ 1141
urged 1139
building 1138
albanians 1137
d@@ 1131
implementation 1130
put 1127
every 1127
whether 1127
believe 1126
counterpart 1125
include 1125
different 1125
capital 1123
16 1123
received 1122
despite 1122
third 1122
later 1121
strong 1119
ahead 1117
3@@ 1117
taken 1114
hope 1113
i@@ 1112
line 1112
show 1112
2006 1107
27 1107
13 1104
18 1104
run 1096
ar@@ 1095
total 1095
needs 1090
3 1087
2@@ 1087
ts 1085
positive 1084
2005 1083
4@@ 1083
al@@ 1083
alliance 1080
soon 1072
face 1071
bid 1069
finance 1069
health 1068
large 1066
changes 1062
freedom 1061
2 1060
control 1059
global 1056
along 1054
er@@ 1051
least 1050
14 1049
name 1046
groups 1040
town 1040
north 1035
dialogue 1034
violence 1034
period 1032
yugoslavia 1032
2009 1031
republic 1030
making 1030
million 1028
enlargement 1023
ting 1023
home 1022
men 1021
saturday 1020
constitutional 1018
unmik 1016
prosecutor 1012
review 1011
commissioner 1010
funds 1007
democracy 1007
oil 1004
young 1001
iraq 1000
anti 995
er 995
am 993
serious 992
24 992
near 991
russian 991
lack 990
z@@ 990
likely 986
boris 986
montenegrin 986
visa 984
largest 983
constitution 982
few 979
post 978
result 977
protection 977
nearly 975
ties 972
others 971
bring 971
arrest 971
family 971
an@@ 970
kostunica 970
trial 970
interior 969
laws 965
ers 961
reached 960
bloc 960
potential 957
ready 957
yet 955
society 952
return 952
2010 951
21 948
nation 946
give 943
especially 939
though 939
small 938
t@@ 937
recently 934
tax 933
nations 933
improve 932
taking 931
adding 929
republika 927
necessary 925
population 923
k@@ 923
goal 922
needed 922
find 921
service 919
non 919
great 918
decided 917
approved 915
rate 914
list 911
south 911
italy 911
slovenia 909
22 909
committee 909
me 907
aimed 907
srpska 907
privatisation 906
significant 906
b@@ 903
y 901
science 901
reports 901
discuss 900
ri@@ 897
resolution 897
assistance 897
5@@ 896
began 896
initiative 896
diplomatic 895
b92 893
private 893
focus 892
boost 892
services 889
sports 887
german 887
troops 886
activities 886
point 885
ambassador 884
19 883
school 882
established 882
arrested 881
road 880
france 879
kfor 879
noted 878
karadzic 878
li@@ 877
seven 876
fact 876
today 874
strategy 873
eight 873
23 873
osce 873
milosevic 871
steps 871
w@@ 870
annual 870
pay 866
launched 866
ti@@ 863
lead 862
again 862
rule 862
customs 862
bilateral 859
close 859
28 859
d 858
1995 857
property 855
c 855
domestic 854
ation 852
affairs 851
opening 851
workers 850
don 850
26 850
washington 850
too 848
n@@ 848
f@@ 847
increased 846
seen 846
6 845
di@@ 844
ate 843
whose 841
minority 841
living 841
warned 841
latest 840
2003 840
rehn 839
akp 837
adopted 837
as@@ 836
production 832
a@@ 831
plant 831
regime 828
wants 828
le@@ 828
trafficking 827
build 825
infrastructure 824
leading 821
expressed 821
charges 820
difficult 819
ensure 818
stressed 817
students 816
ds 815
common 814
research 814
reporters 813
round 813
hold 813
commander 813
eulex 810
real 809
pressure 809
analysts 809
50 809
debt 808
zoran 807
pkk 805
half 804
h@@ 803
done 802
co@@ 802
proposal 802
bbc 800
higher 799
envoy 799
expect 798
1st 798
ating 795
referendum 795
be@@ 793
movement 792
l@@ 792
summer 791
proposed 790
history 788
legislation 786
involved 785
means 785
institute 784
nikola 784
5 784
known 782
man 781
technology 780
sign 779
house 777
committed 776
6@@ 776
4 775
voters 770
prices 766
m 766
fully 763
discussed 763
ahtisaari 763
7 761
radio 759
started 757
asked 756
once 754
industry 754
weeks 752
v@@ 752
roma 752
brought 752
kurdish 752
receive 751
gdp 751
here 750
almost 749
terms 748
se@@ 748
award 747
effort 746
air 746
la@@ 746
price 745
rather 745
low 745
job 743
allow 743
religious 743
yugoslav 743
issued 742
tions 741
cabinet 741
organisations 740
29 739
document 738
competition 738
investigation 737
1999 737
cost 736
related 734
date 732
hopes 732
begin 729
failed 727
ra@@ 726
m@@ 726
dpa 726
data 724
reach 723
ceremony 723
berisha 721
journalists 719
going 716
delegation 716
ly 714
illegal 714
ding 714
k 714
direct 713
british 712
entry 711
ex@@ 711
prosecutors 709
know 709
terrorism 707
7@@ 707
communities 706
ro@@ 706
investments 705
ban 704
u 703
reportedly 703
french 703
voiced 702
coming 702
across 700
jovanovic 699
water 699
form 698
con@@ 697
electricity 697
nine 694
enough 694
forward 693
civil 693
basescu 693
senior 692
responsibility 692
scheduled 692
judicial 691
department 691
planned 691
access 691
is@@ 691
eastern 690
george 689
ha@@ 689
similar 689
included 689
considered 687
victims 687
side 686
8 686
biggest 686
p 685
internet 685
fair 684
present 683
pipeline 683
investors 682
includes 682
environment 682
dispute 681
killed 681
operate 679
behind 679
fund 678
particularly 678
island 678
training 678
nuclear 678
might 677
mar@@ 677
presidential 676
described 675
credit 675
sides 675
offer 674
attacks 673
released 672
average 672
gul 670
comes 669
points 668
sanader 667
olympic 667
ated 666
east 666
se 666
j@@ 664
sent 664
address 662
chairman 662
network 661
red 660
g 660
attended 660
addition 660
entity 660
on@@ 659
or@@ 659
politics 659
forum 659
partnership 659
short 658
ma@@ 658
sea 658
file 657
pre@@ 656
40 655
natural 654
capacity 653
your 653
sa@@ 652
create 651
ended 651
win 651
judiciary 649
presented 649
strategic 648
instead 648
certain 647
officers 646
loan 646
land 645
concern 644
provided 644
atlantic 643
followed 643
never 642
hand 642
call 641
calls 641
keep 640
operations 640
confidence 639
previous 637
ded 637
became 636
exhibition 636
declaration 635
board 634
framework 633
os 633
ad@@ 633
tv 632
governments 631
site 631
example 630
interests 628
assembly 628
thaci 628
regarding 627
soldiers 627
terrorist 627
2002 627
study 627
candidates 626
100 625
published 625
opportunity 623
aid 623
tayyip 623
ne@@ 622
recep 621
deficit 621
management 620
participants 620
theatre 620
success 618
mandate 618
ka 617
visited 617
agenda 616
outside 616
importance 615
im@@ 615
si@@ 614
hard 613
responsible 612
went 612
single 612
impact 611
big 611
trying 611
travel 610
markets 610
5th 609
beginning 608
gruevski 607
il@@ 607
stabilisation 607
confirmed 606
armed 606
live 606
events 605
l 605
ch@@ 603
srebrenica 603
lower 602
accused 601
games 601
over@@ 601
view 600
ter 600
thousands 599
prison 599
question 599
required 599
2001 599
having 597
transport 597
jobs 596
why 596
banks 594
age 594
act 593
complete 593
priority 591
staff 591
muslim 591
lost 590
debate 590
criteria 590
spokesman 590
2011 589
del 589
exchange 588
12th 588
art 588
mo@@ 587
additional 587
ivo 587
conducted 587
draft 587
ce@@ 587
y@@ 586
ever 586
agreements 585
challenges 584
ia 582
completed 581
pledged 581
igor 580
at@@ 580
food 580
wanted 579
implement 579
professor 578
continued 578
highest 578
alleged 577
itself 575
federation 574
ratko 574
joining 570
overall 569
whole 568
vojislav 568
unemployment 567
abroad 567
joined 567
bo@@ 567
works 566
interview 566
commitment 566
opinion 565
respect 565
te@@ 565
h 565
indictees 565
6th 564
labour 564
mi@@ 563
8@@ 563
tourists 561
tra@@ 561
ponte 561
path 560
technical 560
implementing 560
signing 560
play 559
19@@ 559
idea 558
ous 558
votes 558
prevent 558
9@@ 556
village 556
3rd 556
museum 555
lo@@ 553
launch 553
fighting 553
mayor 553
municipalities 553
31 552
8th 552
charged 551
elected 551
using 551
concerns 550
re 549
threat 548
4th 548
stand 548
away 547
car@@ 547
things 546
establish 545
amount 543
7th 543
10th 543
welcomed 543
15th 543
judges 543
paid 543
series 542
poor 542
successful 542
agree 541
sp@@ 541
to@@ 541
austria 541
r@@ 539
compared 539
products 538
vi@@ 538
everything 538
attack 537
estimated 536
failure 535
seeking 535
tic 534
football 534
9 533
weapons 532
explained 532
victory 532
church 532
often 531
share 531
turn 531
2nd 530
1992 530
ab@@ 529
so@@ 529
starting 529
response 529
facing 528
something 528
b 528
little 527
enter 527
os@@ 527
middle 525
ac@@ 524
ent 524
calling 524
field 524
protest 523
session 523
podgorica 523
mis@@ 522
faces 522
gotovina 522
slobodan 521
unit 521
it@@ 520
basis 520
suspects 519
hungary 519
continues 518
invest 518
criticised 518
cypriots 517
polls 515
borders 515
leave 514
documents 514
participation 514
reduce 513
passed 513
evidence 512
socialist 512
olli 512
planning 512
djindjic 512
prospects 510
schools 510
accept 508
speaking 508
authority 507
hours 507
policies 506
rules 506
participate 506
ongoing 505
9th 505
lawmakers 504
firm 504
ana 503
effect 503
risk 503
language 502
presence 501
owned 500
aims 500
17th 500
doing 500
mesic 499
arrived 499
communist 498
requirements 498
th@@ 498
man@@ 498
tion 498
saa 498
indicted 497
rejected 497
entire 497
pro@@ 496
popular 495
bi@@ 495
death 493
ina 493
luka 493
achieve 492
solana 492
me@@ 492
greater 492
20th 491
message 491
mobile 491
islamic 490
21st 490
quality 490
becoming 489
ge@@ 489
stop 488
parts 488
package 487
minorities 487
ations 487
mer@@ 487
ashdown 487
po@@ 487
offered 486
cut 486
resources 486
inter@@ 486
light 485
rise 485
speaker 484
throughout 484
60 484
tender 484
reason 483
influence 482
pro 482
chance 482
anniversary 482
survey 482
seats 482
created 482
territory 481
britain 481
longer 480
worth 480
families 480
obligations 479
per@@ 479
recognise 479
murder 479
strengthen 479
ep 479
st@@ 478
exports 478
structures 477
suggested 477
performance 477
course 476
youth 476
built 476
ant 475
closer 475
banja 475
book 475
goods 474
believes 474
ci@@ 474
2000 473
crucial 473
actions 471
always 471
italian 471
growing 469
thus 469
york 469
ap@@ 469
gold 468
promote 467
remaining 467
rates 467
businesses 466
ce 466
1990s 466
closed 465
11th 465
recognised 464
century 464
dayton 464
supported 463
19th 463
divided 463
papandreou 463
themselves 463
specific 462
funding 462
inflation 462
fall 461
king 461
genocide 461
active 460
cup 460
tes 459
black 459
ali 458
demand 458
increasing 458
declared 457
ist 457
vice 456
seek 456
music 456
ohrid 455
ak@@ 455
airport 455
front 454
kind 454
shows 454
equipment 452
fiscal 452
officially 451
orthodox 451
he@@ 450
zone 450
involvement 449
ally 449
neighbouring 449
mitrovica 449
protect 449
television 448
achieved 448
radovan 447
southern 447
am@@ 447
experience 446
claims 446
indictment 446
analyst 445
recognition 444
citing 444
da@@ 444
decide 444
ment 443
immediately 442
decisions 442
du@@ 442
olympics 441
matter 441
ised 440
slovenian 440
look 439
ability 439
leadership 439
implemented 439
try 439
consider 439
either 438
28th 438
par@@ 438
iran 438
operating 437
concrete 437
approval 437
moscow 437
prepared 436
allowed 436
figures 436
stable 436
son 435
embassy 435
existing 435
levels 435
effective 434
climate 434
annan 433
split 433
nothing 432
executive 432
challenge 432
establishment 431
ur@@ 431
municipality 431
benefit 430
tomislav 430
gu@@ 430
modern 430
takes 429
gave 429
approach 429
13th 429
sh@@ 429
ov 428
lives 427
courts 427
do@@ 427
stage 427
ic@@ 427
particular 426
op@@ 426
des 425
compromise 425
opportunities 425
employment 425
self 425
improved 425
persons 424
employees 423
14th 423
costs 423
financing 423
dodik 423
protests 422
promised 422
submitted 422
improving 422
release 422
treaty 421
sejdiu 420
era 420
concerning 420
care 419
registered 419
charge 418
crvenkovski 418
positions 418
ones 418
abdullah 418
su@@ 418
professional 418
critical 417
voa 417
account 417
drug 416
agriculture 416
holds 416
showed 416
secure 415
ge 414
16th 414
meetings 414
programmes 414
internal 413
als 412
ho@@ 411
amid 410
mostly 410
r 410
dragan 410
partners 410
ag@@ 410
partner 409
possibility 409
rest 409
mid 409
djukanovic 408
eurozone 408
praised 407
25th 407
30th 407
ar 407
match 407
car 406
benefits 406
focused 406
develop 405
street 405
died 405
expects 405
mark 405
happen 404
stay 404
visitors 403
providing 403
believed 402
record 402
sale 401
out@@ 401
chamber 401
23rd 401
phase 401
ity 401
ol@@ 400
for@@ 400
ba@@ 400
contract 400
ways 400
hit 399
reconstruction 399
har@@ 399
under@@ 399
ir@@ 398
cross 398
american 398
river 398
ko 398
resolve 397
serve 397
22nd 397
5m 396
tu@@ 396
ov@@ 396
establishing 395
heads 395
aim 395
spain 395
monitoring 394
hundreds 394
sure 394
18th 394
movie 393
cities 393
shown 393
tourist 393
rating 393
adriatic 392
upcoming 392
heritage 392
let 391
fatmir 391
forced 390
1@@ 390
makes 390
el@@ 390
negative 390
afghanistan 389
contact 389
bill 389
institution 389
poll 389
headed 389
poverty 388
35 388
ged 388
available 388
200 388
refugees 388
ments 388
avoid 387
negotiating 386
discussions 386
z 386
ses 385
basic 385
intelligence 385
host 385
traditional 385
environmental 385
continuing 384
ground 384
27th 384
mainly 384
san@@ 383
export 383
strengthening 383
bar@@ 382
allegedly 382
kovic 382
lot 381
libya 381
priorities 381
huge 381
agencies 380
sought 380
vladimir 380
70 380
gra@@ 380
1,@@ 379
czech 379
go@@ 379
est 379
liberal 379
spending 379
scheffer 378
send 378
pe@@ 378
der 378
person 377
served 377
turned 376
personal 376
tried 376
hoop 376
ko@@ 376
finally 376
looking 376
command 376
ja 375
goals 375
ver@@ 375
ica 375
ings 375
mean 375
vienna 375
voting 375
task 374
supply 374
settlement 374
moment 374
census 374
ling 373
historic 373
1,000 373
facilities 373
procedures 373
sali 372
letter 372
pre 372
greeks 372
everyone 372
economies 372
transition 371
affected 370
med 370
urging 370
26th 370
km 369
israel 369
fire 369
2012 369
1991 369
goran 369
cited 368
west 368
f 368
caused 368
rfe 368
assessment 368
conflicts 367
changed 366
places 366
emergency 366
bridge 366
ft 366
request 366
res@@ 366
vuk 365
liberalisation 365
den@@ 365
helping 365
prosecution 365
studies 365
reasons 364
le 364
austrian 364
loans 364
j 364
roundup 364
ls 363
contribute 363
holding 363
traffic 363
resolved 363
suspected 363
us@@ 363
developments 363
ii 363
nikolic 363
individual 362
prize 362
rl 362
bu@@ 361
ber@@ 361
interested 361
currency 361
condition 360
via 360
500 360
medical 360
no@@ 360
attend 360
principles 359
foundation 359
lu@@ 359
championship 359
criminals 359
concluded 358
track 358
ngos 358
raised 358
raise 358
residents 358
les 357
offers 357
attempt 357
ou@@ 357
1998 357
x@@ 357
ies 356
territorial 356
body 356
hashim 356
affect 355
bringing 355
ten@@ 355
night 355
sfor 354
ban@@ 354
edition 354
80 354
spent 354
individuals 353
attention 353
democrats 353
quickly 352
threats 351
hosted 351
personnel 351
bur@@ 351
transfer 351
follow 350
ans 350
ty 349
headquarters 349
noting 349
radical 349
figure 349
croats 349
peacekeeping 348
linda 348
decades 348
statements 348
stake 348
id 348
invitation 347
amendments 347
carried 347
criticism 347
sites 347
karamanlis 347
voted 346
backed 346
tive 346
hospital 346
trust 345
provides 344
ru@@ 344
1.@@ 344
placed 344
ise 344
incident 344
29th 344
visits 344
code 344
adoption 343
te 343
china 343
questions 343
.@@ 343
muslims 343
tri@@ 343
taxes 342
journalist 342
hi@@ 342
represent 342
milorad 342
block 342
ca 342
turnout 342
located 341
facility 341
phone 341
speech 340
jeremic 340
electoral 340
fourth 340
gain 339
ons 339
traian 339
tells 339
speed 338
mps 338
formed 338
industrial 338
safety 337
decade 337
tensions 337
massacre 337
qu@@ 336
24th 336
ski 336
ki 336
statistics 335
300 335
target 335
croat 335
determined 334
neighbours 334
can@@ 334
peaceful 334
systems 334
0.@@ 334
concerned 333
ni@@ 333
ovski 333
fer@@ 332
port 332
tour 332
feel 332
buildings 332
named 332
developed 332
imports 332
90 331
sectors 331
permanent 331
initial 331
separate 331
pact 331
supporters 330
stance 330
ates 330
played 330
ve 330
paul 330
treatment 330
connection 330
transparency 329
values 329
ul@@ 329
revenues 329
res 328
houses 328
bush 328
films 328
da 328
artists 328
bosniak 328
outcome 328
barroso 327
commercial 327
hands 327
numerous 327
worst 326
pace 326
accepted 326
lines 326
et@@ 326
ists 326
club 326
administrative 326
participated 326
homes 326
ter@@ 325
com@@ 325
indicated 325
participating 325
marked 325
georgi 325
model 325
limited 325
firms 324
units 324
woman 324
thing 324
civilian 324
supports 323
mu@@ 323
creating 323
warning 323
sell 323
ahmet 322
london 322
ta 322
18@@ 322
stations 322
fear 322
mass 322
sold 321
nor 321
essential 321
eventually 321
fans 321
sed 321
hdz 321
expert 320
gathered 320
netherlands 320
kar@@ 320
branko 319
table 319
prior 319
antonio 319
entities 319
buy 319
range 318
income 318
n 318
civilians 318
got 317
division 317
beta 317
alone 316
station 316
ces 316
allowing 316
cr@@ 315
saw 315
players 315
test 315
above 315
race 315
ance 314
giving 314
wing 314
damage 314
ser@@ 314
pass 314
entertainment 314
supporting 313
simply 313
incidents 313
ine 313
consensus 312
missions 312
acts 312
milan 312
es@@ 312
ebrd 312
creation 312
fugitive 312
assets 311
favour 311
therefore 311
tors 311
gi@@ 311
ohr 311
nationalist 311
cover 311
institutional 310
mediterranean 310
2m 310
visiting 310
managed 310
newly 310
really 310
assassination 310
ism 310
tariceanu 310
solve 309
readiness 309
radic 309
banking 309
karadaku 308
natasa 308
ble 308
ders 308
deadline 308
safe 307
salaries 307
operational 307
demands 306
square 306
decentralisation 306
maintain 305
fa@@ 305
ancient 305
application 305
accord 305
ivan 304
getting 304
complex 303
carry 303
resolving 302
pas@@ 302
moving 302
newspaper 302
dutch 302
image 302
schengen 302
ev@@ 301
poland 301
approximately 301
talk 301
encourage 301
turks 301
beyond 300
controversial 300
consequences 300
the@@ 300
mal@@ 300
produce 300
ging 300
overcome 299
born 299
strike 299
mil@@ 299
contribution 298
discovered 298
relationship 298
christmas 298
largely 298
parvanov 298
bad 298
reconciliation 297
q@@ 297
structure 297
ci 297
discussion 296
commitments 296
pi@@ 296
sub@@ 296
addressing 296
ngo 296
quarter 295
roads 295
running 295
score 295
plants 295
reduction 294
appointed 294
annually 294
macedonians 294
delay 294
il 293
completely 293
officer 293
mon@@ 293
georgiev 292
procedure 292
student 292
sovereignty 292
secret 292
weekend 292
novi 292
primary 292
fbih 292
arrests 291
cor@@ 291
himself 291
javier 291
player 291
source 291
stipe 291
ova 291
base 291
returned 291
autonomy 291
medal 291
paper 290
mor@@ 290
reiterated 290
3m 290
min@@ 290
story 290
highly 290
push 290
lajcak 290
vo@@ 289
anything 289
clearly 289
leaving 288
em@@ 288
observers 288
introduced 288
district 288
dropped 288
moldova 287
understanding 287
allegations 287
euobserver 286
friends 286
highway 286
developing 286
acting 286
syria 286
claim 285
gar@@ 285
offices 285
paris 285
winning 285
pa@@ 285
&apos;m 285
star 285
alternative 285
article 284
faced 284
wrote 284
respectively 284
cars 284
claimed 284
academy 284
prominent 283
judge 283
finding 283
6.@@ 283
romanians 283
external 283
bas@@ 283
municipal 283
increasingly 283
activity 282
resignation 282
season 282
child 282
contest 282
representing 282
numbers 282
requires 282
reaching 282
finished 281
require 281
historical 281
missing 281
details 281
ju@@ 281
ends 281
helped 281
ministries 281
diplomats 281
worked 280
value 280
functioning 280
powers 280
um 280
streets 280
moved 280
practice 280
martti 280
hal@@ 280
parents 280
regular 280
rec@@ 279
thessaloniki 279
addressed 279
restrictions 279
stands 279
adopt 279
buckovski 279
ma 278
space 278
plus 278
rising 278
directly 278
door 278
widely 278
arms 277
av@@ 277
mutual 277
fo@@ 277
w 277
seat 277
ology 277
owners 276
differences 276
isation 276
diplomat 276
doesn 276
hungarian 276
web 275
ask 275
ad 275
iraqi 275
ukraine 275
promises 275
ian 275
probably 274
tan@@ 274
improvement 273
strongly 273
equal 273
factory 273
ch 273
opposed 273
seems 272
bre@@ 272
cause 272
remained 272
reality 272
owner 271
unless 271
teams 271
ot@@ 271
hoping 271
pla@@ 271
dra@@ 271
reduced 271
awards 271
regulations 271
measure 271
br@@ 271
double 270
talat 270
internationally 270
her@@ 270
opens 270
offering 270
suggest 270
gre@@ 270
blocked 269
cic 269
drop 269
substantial 269
granted 269
sentence 268
verdict 268
filed 268
refused 268
conduct 268
ms 268
easy 268
trip 268
danube 268
31st 268
athletes 268
scientists 268
stock 268
1m 267
ste@@ 267
ku@@ 267
fi@@ 267
describing 267
retired 267
exercise 267
thought 266
enforcement 266
um@@ 266
ottoman 266
enterprises 265
linked 265
spring 265
ke@@ 265
winter 265
la 265
ying 265
computer 265
ivica 264
rotating 264
difficulties 264
&apos;re 264
na@@ 264
ranked 264
intended 264
index 264
ve@@ 263
meant 263
attract 263
tonnes 263
appear 263
2,000 262
battle 262
designed 262
anyone 262
standard 262
insurance 262
scientific 262
christofias 262
camp 262
telecom 262
chapters 261
apply 261
seeks 261
pan@@ 261
regions 261
sentenced 260
mine 260
5,000 260
subject 260
goes 260
winner 260
involving 260
vmro 259
break 259
standing 259
el 259
costas 259
formal 259
ak 259
psd 259
willing 258
sense 258
hasani 258
assist 258
trend 258
represented 258
concert 258
duties 258
cuts 258
telekom 258
7.@@ 258
imposed 257
abuse 257
ordered 257
sustainable 257
solutions 257
stressing 257
vic 257
rose 257
blic 257
guarantee 256
welcome 256
prove 256
sing 256
gh@@ 256
ranking 256
salary 256
war@@ 256
cu@@ 256
initially 256
x 256
option 256
agricultural 256
van 256
communication 256
hour 256
factors 255
choice 255
ren@@ 255
founded 255
et 255
threatened 255
proposals 255
destroyed 255
bor@@ 255
supreme 255
remarks 254
setting 254
nis 254
berlin 254
sales 254
direction 254
fell 254
discrimination 253
views 253
risks 253
tly 253
wide 253
smaller 253
invited 253
fields 253
austerity 253
ze@@ 253
miroslav 253
operator 253
efficiency 252
true 252
ters 252
contributed 251
der@@ 251
attempts 251
honour 251
unable 251
words 250
depends 250
ry 250
slow 250
bal@@ 250
decline 250
fugitives 250
petersen 250
sdp 249
neither 249
charter 249
detained 249
killing 249
seriously 249
prepare 249
communications 249
carla 249
adds 248
dead 248
spokesperson 248
&apos;ve 248
rugova 248
witness 247
en 247
cen@@ 247
room 247
dealing 247
tr@@ 247
transportation 247
ker 247
green 247
400 247
mother 247
jessen 247
transferred 246
aware 246
appeal 246
sal@@ 246
previously 246
boycott 246
ta@@ 246
preparations 246
crossing 246
initiatives 246
libyan 246
sur@@ 246
critics 245
injured 245
ful 245
dss 245
cal@@ 245
denied 245
mostar 245
represents 244
preparing 244
lose 244
integrity 244
monitor 244
website 244
pri@@ 244
sad 244
governor 244
dpmne 244
cra@@ 243
obtain 243
ven@@ 243
ship 243
cards 243
arrangement 243
net 243
ps 243
socialists 243
league 242
targets 242
sponsored 242
ordination 242
af@@ 242
marks 242
understand 241
identity 241
deputies 241
laura 241
cnn 241
ruled 241
networks 241
golden 241
determine 241
13@@ 241
dan@@ 241
christian 241
extended 241
identified 241
merkel 241
happened 240
significantly 240
generally 240
insisted 240
profit 240
fuel 240
pensions 240
bro@@ 240
politically 239
relevant 239
promoting 239
2,@@ 239
online 239
obstacle 238
sic 238
tennis 238
medals 238
coast 238
restructuring 238
supplies 238
ranks 238
failing 237
stream 237
pension 237
ca@@ 237
stronger 237
vat 236
asylum 236
entered 236
primarily 236
davutoglu 236
sanctions 236
powerful 235
men@@ 235
humanitarian 235
ked 235
marking 235
park 235
voter 235
fe@@ 235
eufor 235
ves 234
comments 234
sar@@ 234
boosting 234
ec@@ 234
9.@@ 234
congress 234
borisov 234
gazprom 234
upon 233
ators 233
scale 233
appeared 233
ks 233
game 233
japan 233
books 233
stanishev 233
bri@@ 233
telecommunications 233
dar@@ 232
israeli 232
existence 232
55 232
st 232
spend 232
gor@@ 232
structural 232
ev 232
fraud 232
guilty 231
4.@@ 231
determination 231
fore@@ 231
users 231
fifth 231
dinkic 231
unacceptable 231
bids 231
names 231
expectations 231
changing 231
paddy 231
regardless 231
factor 231
obstacles 231
jose 230
links 230
route 230
josipovic 230
refugee 230
urges 230
competitiveness 230
purchase 230
white 230
manager 229
handed 229
expansion 229
4m 229
cur@@ 229
showing 229
wife 229
heavy 229
ensuring 229
educational 229
monetary 229
kurds 229
lic 228
ary 228
violations 228
centres 228
normal 228
bloomberg 228
6m 228
consortium 228
vojvodina 228
chances 228
cevic 228
ph@@ 228
jaap 227
spoke 227
gr@@ 227
pasok 227
ending 227
0@@ 227
lawyer 227
covering 227
economist 227
milo 227
tor 227
suspect 226
asia 226
georgia 226
waiting 226
diary 226
dnevnik 226
insists 226
closely 225
evic 225
45 225
envisions 225
5.@@ 225
flag 225
considering 225
enable 225
suggests 225
consumers 225
pfp 225
ges 225
optimistic 225
pet@@ 224
dj@@ 224
speak 224
presidents 224
fulfil 224
pos@@ 224
ising 224
inc@@ 224
below 224
governance 224
scene 223
principle 223
ivanovic 223
appears 223
receiving 223
writer 223
draskovic 223
vujanovic 223
extradition 223
nicosia 223
invested 222
grant 222
immediate 222
certainly 222
resort 222
drugs 222
transit 222
efficient 222
search 222
combat 222
switzerland 222
losses 222
africa 222
smuggling 222
&amp; 222
pr@@ 222
moves 221
serving 221
mehmet 221
adviser 221
dic 221
wins 221
gen@@ 221
reporting 221
shares 221
republics 221
perspective 221
airlines 221
father 220
exist 220
marina 220
signal 220
kr@@ 220
mediapool 220
song 220
ante 220
distribution 220
paying 219
convicted 219
2.@@ 219
stefan 219
jazz 219
icj 219
competitive 219
reducing 219
compli@@ 218
someone 218
&apos;ll 218
protected 218
loss 218
mas@@ 218
150 218
wartime 218
silver 218
tor@@ 218
software 218
v 218
enjoy 218
surrender 218
voice 217
whom 217
occurred 217
demanding 217
islam 217
allies 217
generals 217
sparked 217
produced 217
comprehensive 217
nabucco 217
effects 216
band 216
mechanism 216
inter 216
southeastern 216
ction 215
resident 215
chp 215
becomes 215
unique 215
damaged 215
kic 215
medium 215
wait 215
michael 215
ness 215
belgium 215
otherwise 214
assistant 214
ships 214
ins 214
7m 214
0 214
ciocoiu 214
ceku 214
rural 214
express 214
constructive 214
acknowledged 214
hiding 214
impossible 213
broad 213
reunification 213
considerable 213
announcement 213
guardian 213
kept 213
sti@@ 213
submit 213
vowed 212
tournament 212
suspended 212
bodies 212
bronze 212
forms 212
fast 212
lan@@ 212
ist@@ 212
nevertheless 211
federal 211
jo@@ 211
arts 211
wi@@ 211
completion 211
8m 211
jevic 211
counts 211
gets 210
achieving 210
unesco 210
dangerous 210
meets 210
citizenship 210
collection 210
trans@@ 210
3,000 210
doctors 210
slovakia 210
applied 209
3.@@ 209
entering 209
organisers 209
10,000 209
trials 209
holiday 209
hosts 209
aki 209
bulgarians 209
removed 208
witnesses 208
manuel 208
ivanov 208
qaeda 208
mind 208
guard 208
ger@@ 208
didn 208
65 208
zaman 208
ideas 208
uk 208
carrying 208
candidacy 207
satisfied 207
arab 207
alexander 207
wall 207
rally 207
ously 207
unity 207
blerta 207
villages 207
requirement 207
widespread 207
undp 207
viewed 207
investigations 207
ke 206
worldwide 206
happy 206
kosor 206
mia 206
back@@ 206
spanish 206
protocol 206
objective 206
heart 206
interim 206
estate 206
wish 206
argues 206
15@@ 206
vehicles 205
metres 205
hotel 205
performed 205
topic 205
sions 205
terror 205
ors 205
multiethnic 205
editor 204
teachers 204
gives 204
ence 204
watch 204
towns 204
title 204
signs 204
8.@@ 204
wages 204
balance 204
unilateral 204
monthly 204
ti 204
fundamental 203
keeping 203
confident 203
dui 203
acceptable 203
eventual 203
representation 203
exit 203
manner 203
euractiv 203
tasks 203
size 203
mit@@ 203
je 203
ns 202
obligation 202
larger 202
except 202
deployment 202
shot 202
destination 202
! 202
effectively 202
foniqi 202
iz@@ 202
businessmen 202
sha@@ 202
awareness 202
choose 201
universities 201
fail 201
inside 201
facilitate 201
losing 201
memorandum 201
kov 201
integrated 201
haradinaj 201
lowest 201
je@@ 201
popescu 200
2013 200
gap 200
van@@ 200
nikolovski 200
delayed 200
directed 200
shared 200
col@@ 200
apart 200
multi 200
aside 200
minimum 200
1.5 200
farmers 200
ac 199
li 199
ion 199
replace 199
recommendations 199
rich 199
hi 199
nastase 199
killings 199
14@@ 198
mines 198
fil@@ 198
backing 198
commerce 198
markovic 198
features 198
arguing 198
returns 198
makfax 198
ldk 198
top@@ 197
ig@@ 197
extremely 197
sion 197
quite 197
page 197
listed 197
violent 197
performances 197
bil@@ 197
organise 197
initiated 197
luxembourg 197
oz@@ 197
nature 197
babacan 197
preliminary 196
16@@ 196
proved 196
shortly 196
motion 196
sch@@ 196
argue 196
jic 196
10@@ 196
sen@@ 196
moon 196
revenue 196
iv@@ 196
sla@@ 195
accounts 195
location 195
notes 195
deep 195
sovereign 195
bed 195
rexhepi 195
ned 195
advantage 194
unions 194
knowledge 194
sentences 194
stri@@ 194
topics 194
75 194
controlled 194
greatest 194
analysis 194
famous 194
don@@ 194
passports 194
quick 194
lin@@ 193
successfully 193
down@@ 193
suffered 193
ash@@ 193
row 193
asking 193
ger 193
600 193
dusan 193
duty 193
expand 193
detention 193
mp 192
reaction 192
awarded 192
kofi 192
eu@@ 192
beat 192
ler 192
up@@ 192
career 192
20@@ 192
lies 192
ljajic 192
circumstances 192
chancellor 192
extend 192
agrees 191
massive 191
delivered 191
demonstrate 191
ck 191
expression 191
elements 191
robert 191
mes 191
scandal 191
ibrahim 191
voicing 190
aleksandar 190
pointed 190
kers 190
cer@@ 190
dr@@ 190
chinese 190
dominated 190
rama 190
stepped 190
1996 190
patients 190
kurdistan 190
hu@@ 190
gained 189
remove 189
read 189
pen@@ 189
respondents 189
50m 189
tal@@ 189
railway 189
dacic 189
tradition 189
processes 189
fin@@ 189
eurovision 189
accompanied 189
singer 189
crossings 188
parallel 188
ages 188
accusations 188
producer 188
val@@ 188
improvements 188
english 188
endorsed 188
scores 188
turning 187
severe 187
defined 187
terrorists 187
resulted 187
dy 187
immunity 187
raising 187
waste 187
leads 187
provisions 187
hor@@ 187
&apos;@@ 187
echo 187
flights 187
bosniaks 187
indictee 187
regard 186
prosperity 186
mustafa 186
chosen 186
1993 186
bra@@ 186
ha 186
displaced 186
allows 186
davor 186
plays 186
economics 186
percentage 186
attending 186
citizen 185
cre@@ 185
bat@@ 185
ced 185
cing 185
tough 185
titled 185
sees 185
fena 185
estimates 185
purpose 185
contracts 185
chapter 185
ner 184
ator 184
instance 184
expensive 184
drew 184
capture 184
prompted 184
irregularities 184
enhance 184
inzko 184
hina 184
ping 183
tar@@ 183
doubt 183
daniel 183
ordinator 183
type 183
responsibilities 183
replaced 183
canada 183
cancer 183
1990 182
argued 182
struggle 182
faculty 182
shooting 182
peoples 182
telling 182
fears 182
sweden 182
original 182
besides 182
7,000 182
dance 182
ished 182
written 182
milososki 181
mosque 181
appointment 181
32 181
sufficient 181
morning 181
actually 181
wrong 181
elsewhere 181
sa 181
dp 181
proceedings 181
17@@ 181
ically 180
removal 180
corridor 180
oglu 180
train 180
kg 180
map 180
actual 180
milovanovic 180
none 180
nebojsa 180
audience 180
spread 180
coe 180
aj 180
ip@@ 180
sets 180
-@@ 180
visas 180
wage 180
draw 180
humanity 180
ep@@ 179
legislative 179
rice 179
kal@@ 179
destruction 179
closure 179
imp@@ 179
tobacco 179
accordance 179
recovery 179
100,000 179
insist 179
accords 179
equ@@ 179
increases 179
tur@@ 179
guarantees 178
electronic 178
panel 178
protesters 178
cs 178
advance 178
protecting 178
putin 178
sdsm 178
friendly 178
truth 178
playing 178
maintaining 178
formally 178
count 178
millions 178
governing 178
rescue 178
durres 178
hearing 177
covered 177
sending 177
seized 177
troika 177
moreover 177
link 177
degree 177
clinton 177
drawn 177
120 177
ched 177
elect 176
ik 176
36 176
tolerance 176
explains 176
category 176
cul@@ 176
declined 176
34 176
introduction 176
formation 176
za 175
john 175
america 175
vision 175
deals 175
archaeologists 175
incumbent 175
100m 175
migration 175
assured 175
armenian 175
immigrants 175
blocking 175
corporation 175
easier 174
ws 174
convinced 174
bakoyannis 174
deutsche 174
medi@@ 174
branch 174
sarkozy 174
secular 174
stan@@ 174
repeatedly 174
wind 174
selected 174
modernisation 174
flu 174
atmosphere 174
organising 174
feasibility 174
informal 174
assess 174
usaid 174
consumption 174
eligible 174
promising 173
sho@@ 173
stated 173
bla@@ 173
clashes 173
urgent 173
conservative 173
note 173
easily 173
celebrated 173
founder 173
forming 173
disaster 173
ff@@ 173
bills 172
announcing 172
vital 172
depend 172
drafted 172
emphasised 172
practical 172
comp@@ 172
pu@@ 172
gal@@ 172
var@@ 172
hurriyet 172
sealed 172
donors 172
valentin 172
channel 172
ili@@ 172
material 172
pose 172
matters 172
housing 172
selling 171
instability 171
ska 171
coach 171
rela@@ 171
8,000 171
dedicated 171
savings 171
kicked 171
tion@@ 171
zivkovic 171
50,000 171
colleagues 171
ef@@ 170
furthermore 170
license 170
insisting 170
urban 170
id@@ 170
danger 170
smoking 170
comment 170
tanjug 170
ring 170
han@@ 170
djelic 170
hoped 169
worse 169
celebrate 169
profile 169
cvetkovic 169
demanded 169
petar 169
stra@@ 169
healthcare 169
combined 169
cos@@ 169
politician 169
ents 169
bureau 169
ka@@ 169
spokeswoman 169
compete 169
muhamet 168
deliver 168
wake 168
grounds 168
withdraw 168
aspects 168
topi 168
brings 168
dozens 168
couple 168
prevention 168
directorate 168
dubrovnik 168
nobody 167
che@@ 167
correspondent 167
upi 167
claiming 167
lived 167
calin 167
religion 167
answer 167
referring 167
passing 167
outlook 166
por@@ 166
practices 166
broke 166
gone 166
ching 166
requested 166
cap@@ 166
va 166
demonstrated 166
video 166
hailed 166
microsoft 166
soviet 166
kabashi 166
doors 166
steel 166
introduce 166
pdk 166
section 165
spirit 165
surprise 165
banned 165
preventing 165
amounts 165
din@@ 165
43 165
fu@@ 165
lists 165
twice 165
hotels 165
mountain 165
generation 165
syrian 165
giant 165
impose 164
ative 164
33 164
condemned 164
mixed 164
grand 164
display 164
ran@@ 164
photo 164
usually 164
pal@@ 164
capable 164
prlenda 164
wave 164
ined 163
proper 163
potentially 163
ning 163
intervention 163
torture 163
vu@@ 163
featuring 163
jan@@ 163
lov@@ 163
wa@@ 163
gaddafi 163
ramadan 163
looks 162
dismissed 162
laundering 162
negotiation 162
tackle 162
import 162
violation 162
platform 162
ir 162
ambassadors 162
adequate 162
picture 162
tribune 162
im 162
directors 162
achievements 162
pic 162
closing 162
bought 161
equality 161
vac@@ 161
cy 161
minute 161
recommended 161
admission 161
ines 161
origin 161
herald 161
female 161
love 161
freedoms 161
bajram 161
10m 161
vlado 161
au@@ 161
exclusive 160
peacekeepers 160
autumn 160
ease 160
card 160
ics 160
atrocities 160
context 160
cast 160
feature 160
promise 160
begun 160
zeljko 159
resigned 159
neighbour 159
veto 159
materials 159
ports 159
ners 159
ical 159
ants 159
collective 159
oppose 159
finnish 159
beijing 159
pol@@ 159
heard 159
shi@@ 159
gallery 159
dz@@ 159
advanced 159
expressing 159
sergey 159
broadcasting 159
managing 159
limit 159
momentum 159
tension 158
stopped 158
putting 158
save 158
1997 158
tell 158
basketball 158
facebook 158
encouraging 158
text 158
deaths 158
pending 158
concerts 158
missile 158
mer 158
dro@@ 158
temporary 157
counter 157
ct 157
mirko 157
jury 157
presents 157
haris 157
connected 157
reactions 157
sp 157
ini 157
producers 157
polling 157
contributions 157
counterparts 157
perform 156
stojanovska 156
conclusion 156
sel 156
archaeological 156
51 156
communism 156
char@@ 156
stood 156
di 156
indeed 156
ga@@ 156
vukovar 156
fying 156
interethnic 156
ther@@ 156
difference 156
fires 156
quar@@ 155
approve 155
sciences 155
else 155
returning 155
we@@ 155
peter 155
filip 155
diplomacy 155
succeed 155
gen 155
ownership 155
ile 155
konjikusic 155
ory 155
sive 155
delays 155
solidarity 155
stankovic 155
hadzic 155
grow 155
brajshori 154
solved 154
riots 154
bot@@ 154
appropriate 154
talking 154
attracting 154
wor@@ 154
mat@@ 154
jan 154
monuments 154
enormous 154
ality 154
utility 154
relatively 154
promotion 154
tre@@ 154
poetry 154
statistical 154
admitted 153
ton@@ 153
revealed 153
lake 153
jean 153
optimism 153
artist 153
moisiu 153
ob@@ 153
swedish 153
g17 153
ati@@ 153
convention 153
favourable 153
th 153
ber 153
gri@@ 153
surrounding 153
nano 153
ite 153
hiv 153
locations 152
str@@ 152
xinhua 152
gates 152
fellow 152
welcoming 152
iting 152
investor 152
mechanisms 152
considers 152
ches 152
bailout 152
obama 152
ik@@ 152
lawyers 152
dan 151
concept 151
publicly 151
wrapped 151
unfortunately 151
launching 151
des@@ 151
minutes 151
dating 151
dimitris 151
hellenic 151
author 151
digital 151
agim 151
marovic 151
mentioned 151
respected 151
reflect 151
telephone 151
decrease 151
threshold 151
function 150
complicated 150
ice 150
controversy 150
opera 150
bojana 150
37 150
swiss 150
convince 150
disputes 150
resume 150
unemployed 150
regulation 150
ils 150
technologies 150
krasniqi 149
tihic 149
sol@@ 149
decisive 149
ki@@ 149
clean 149
weekly 149
20,000 149
literature 149
collapse 149
kla 149
floods 149
fla@@ 148
fran@@ 148
istic 148
covers 148
deployed 148
brief 148
multi@@ 148
realistic 148
encouraged 148
achievement 148
sin@@ 148
strikes 148
ratings 148
boys 148
w. 147
birth 147
opponents 147
recession 147
hosting 147
gaining 147
collaboration 147
investigative 147
class 147
outgoing 147
turk 147
41 147
palace 147
macroeconomic 147
croatians 147
uni@@ 147
investigate 147
ras@@ 147
ars 147
700 146
serves 146
fied 146
ek@@ 146
ble@@ 146
sw@@ 146
cas@@ 146
learn 146
product 146
sto@@ 146
respond 146
she@@ 146
bozidar 146
foster 146
conce@@ 146
stone 146
chi@@ 146
handle 146
australia 145
bos@@ 145
payments 145
findings 145
lam@@ 145
actor 145
isolation 145
bul@@ 145
engagement 145
options 145
cautioned 145
ou 145
emerging 145
provisional 145
cies 145
barbutov 145
2.5 145
yes 145
tered 144
tripartite 144
gun@@ 144
gender 144
trajkovski 144
pl@@ 144
ward 144
undermine 144
recorded 144
experienced 144
defeated 144
islamist 144
inf@@ 144
bs 144
ple@@ 144
lated 144
4,000 144
proof 144
halt 144
skills 144
dev@@ 144
ens 144
ats 144
corrupt 144
runs 143
champion 143
iled 143
subsidies 143
ious 143
diaspora 143
finland 143
kovacevic 143
actors 143
magazine 143
belene 143
insufficient 143
prospect 143
hospitals 143
highlighted 143
ut@@ 143
nearby 143
perhaps 143
manage 142
activists 142
iling 142
ani 142
sun@@ 142
47 142
india 142
marija 142
registration 142
barricades 142
associations 142
word 142
dubbed 142
debts 142
marko 142
pope 142
richard 142
oc@@ 142
na 142
output 142
churches 141
ya 141
palestinian 141
speculation 141
unlikely 141
waters 141
rock 141
dur@@ 141
doctor 141
geoana 141
posts 141
employers 141
fails 141
42 141
sometimes 141
adrian 141
warn 141
visible 141
tin@@ 141
simple 141
thirds 140
air@@ 140
va@@ 140
bomb 140
pledging 140
sk@@ 140
aspirations 140
ities 140
ran 140
weak 140
boyko 140
cubic 140
driving 140
jail 140
desire 139
passengers 139
objectives 139
ratified 139
begins 139
attitude 139
hos@@ 139
ay@@ 139
originally 139
mur@@ 139
ovo 139
silajdzic 139
jankovic 139
functional 139
dejan 139
connections 139
movies 139
properties 139
wine 139
professionals 139
willingness 139
brammertz 139
gan@@ 139
pres@@ 139
labus 139
mountains 139
probe 139
pushing 139
acquired 139
schilling 139
opoulos 138
downtown 138
intention 138
rapid 138
shift 138
ne 138
declare 138
arm 138
az@@ 138
tical 138
dimitrova 138
reserves 138
drive 138
contrast 138
funded 138
collected 138
compensation 137
head@@ 137
acted 137
contacts 137
pap@@ 137
250 137
ered 137
egypt 137
david 137
mladjan 137
hy@@ 137
policemen 137
ministerial 137
portugal 137
suggesting 137
resign 137
broadcast 137
inv@@ 137
dramatic 137
friendship 137
worry 137
fixed 137
defendants 137
sixth 137
rhetoric 137
proceed 137
schwarz 137
ratification 137
racan 137
foreigners 137
meta 137
bus 137
hall 136
fulfilled 136
38 136
finish 136
ath@@ 136
behalf 136
9m 136
financed 136
uses 136
ol 136
fine 136
orders 136
relatives 136
coastal 136
maximum 136
cec 136
customers 136
iranian 136
nimetz 135
preparation 135
consideration 135
ben@@ 135
journal 135
arrive 135
den 135
symbol 135
fired 135
monastery 135
announce 135
relief 135
trends 135
vulnerable 135
0km 135
rival 135
situations 135
biljana 134
assume 134
intends 134
lers 134
solid 134
opposes 134
friend 134
transparent 134
burden 134
bel@@ 134
bak@@ 134
controls 134
falls 134
mining 134
targeted 134
newspapers 133
coup 133
items 133
coun@@ 133
ordinary 133
53 133
62 133
evening 133
crowd 133
ora 133
aegean 133
by@@ 133
inclusion 133
cha@@ 133
retain 133
ase 133
30,000 133
demetris 133
appearance 133
allocated 133
languages 133
preserve 133
buying 133
consumer 133
dps 133
angela 133
responded 132
veteran 132
cefta 132
records 132
fresh 132
jadranka 132
attracted 132
cash 132
contemporary 132
1989 132
simsek 132
documentary 132
44 132
technological 132
ra 132
legally 132
exists 132
lisbon 132
investing 132
def@@ 132
seekers 132
cold 132
tuzla 131
welfare 131
lebanon 131
dora 131
1244 131
excellent 131
lasting 131
profits 131
kemal 131
nobel 131
cting 131
renowned 131
gs 131
prizren 131
defend 131
aries 131
welcomes 131
objections 131
soren 131
holidays 131
unprecedented 130
irish 130
rely 130
bases 130
stu@@ 130
venture 130
ayhan 130
bigger 130
seem 130
speci@@ 130
postponed 130
ure 130
ming 130
mi 130
focusing 130
warns 130
thanks 130
ering 130
ved 130
48 130
calm 130
secondary 130
ilic 130
carrier 130
800 130
complaints 129
negotiate 129
felt 129
eli@@ 129
consultations 129
custody 129
46 129
papadopoulos 129
3,@@ 129
shut 129
mladen 129
reli@@ 129
chain 129
1,500 129
aircraft 129
illegally 129
emerged 129
payment 129
requests 129
catholic 128
jusuf 128
blame 128
identify 128
bit 128
centuries 128
fication 128
unrest 128
ial 128
sensitive 128
limits 128
banka 128
gerb 128
matic 128
vit@@ 128
farm 128
rebels 128
bird 128
strongest 127
poses 127
sharing 127
roman 127
caught 127
backs 127
11@@ 127
cau@@ 127
cinema 127
thinks 127
nurses 127
tens 127
wo@@ 127
dnevnik.bg 127
gro@@ 126
republican 126
thermal 126
tro@@ 126
honoured 126
conducting 126
dly 126
mag@@ 126
campaigns 126
srs 126
photos 126
tional 126
transformation 126
obtained 126
guests 126
liberation 126
appeals 126
trained 126
arena 126
ped 126
kos@@ 126
researchers 126
connect 126
pat@@ 126
hin@@ 125
has@@ 125
contrary 125
competing 125
fr@@ 125
cy@@ 125
eye 125
kil@@ 125
breaking 125
jak@@ 125
chairmanship 125
tetovo 125
messages 125
snsd 125
slightly 125
ard 125
purposes 125
immigration 125
featured 125
lukic 125
outstanding 125
6,000 125
norway 125
nominated 125
bsp 125
inaugurated 125
informed 125
bio@@ 125
reflects 125
far@@ 125
capacities 125
celebrations 125
comply 124
discussing 124
jointly 124
grew 124
finds 124
bar 124
investigators 124
nu@@ 124
fur@@ 124
core 124
prisoners 124
sharp 124
possibilities 124
dozen 124
renewed 124
20m 124
everybody 124
compliance 124
legitimate 124
latter 124
county 124
blood 124
bear 123
ishing 123
arrangements 123
direc@@ 123
bin 123
sum@@ 123
ths 123
documentation 123
akis 123
staged 123
que 123
polish 123
euronews 123
rome 123
finals 123
han 123
ery 123
alised 123
murders 123
rasim 123
influential 123
envisioned 123
marketing 123
ck@@ 123
ish 123
investigated 123
gather 123
assad 123
enterprise 123
receives 123
barriers 123
ksf 123
sandzak 122
speaks 122
academic 122
dri@@ 122
attacked 122
sound 122
medieval 122
drawing 122
evski 122
engaged 122
sharply 122
monopoly 122
lacks 122
computers 122
selimaj 122
doubts 122
style 122
zero 122
anadolu 122
sugar 122
ton 122
brothers 122
zar@@ 122
kovski 122
dar 122
resistance 122
sda 121
sel@@ 121
opinions 121
amended 121
tank 121
follows 121
drivers 121
ological 121
200m 121
din 121
stadium 121
sized 121
presenting 121
yan@@ 121
ving 121
ireland 121
fled 121
version 121
perpetrators 121
bility 121
guaranteed 121
aged 121
cat@@ 121
legislature 121
papoulias 121
bon@@ 121
girls 121
employed 120
anti@@ 120
significance 120
respective 120
reas@@ 120
super@@ 120
presentation 120
defeat 120
writers 120
ljubljana 120
blue 120
questioned 120
performers 120
if@@ 120
operators 120
economists 120
realise 120
2014 120
earthquake 120
apartment 120
200,000 120
ster@@ 120
ba 120
cel@@ 120
kon@@ 120
attractive 120
upgrade 120
treated 119
yed 119
whatever 119
nd 119
rac@@ 119
possibly 119
triggered 119
afford 119
fulfilling 119
cu 119
associated 119
projected 119
kat@@ 119
ro 119
arrival 119
principal 119
terzic 119
ultimately 118
ali@@ 118
ining 118
ramadanovic 118
welle 118
contributing 118
haven 118
retail 118
behaviour 118
monitors 118
frozen 118
ets 118
novak 118
jur@@ 118
laid 118
causing 118
strength 118
extension 118
linking 118
ises 118
collect 118
continuation 118
milk 118
plastic 118
negotiator 118
sta@@ 118
49 118
kostov 118
destinations 118
mc@@ 118
arguments 117
combating 117
moldovan 117
predrag 117
new@@ 117
mic 117
ita 117
bars 117
exhibitions 117
library 117
ately 117
businessman 117
airports 117
ros@@ 117
actively 117
aj@@ 117
zones 117
simeon 117
definitely 117
producing 117
victim 117
demonstrations 117
frattini 117
ambitious 117
blamed 117
fish 117
burns 117
pensioners 117
outlined 116
expanded 116
edi@@ 116
credibility 116
struck 116
investigating 116
pur@@ 116
oning 116
harm 116
85 116
chev 116
threatening 116
cin@@ 116
tac@@ 116
legacy 116
ici@@ 116
12@@ 116
ni 116
extraordinary 116
kov@@ 116
types 116
suffering 116
pressing 116
regulatory 116
ga 116
processing 116
st. 116
overhaul 116
baj@@ 116
worried 116
gains 116
maturity 116
turmoil 116
remember 116
add 116
divisions 116
introducing 116
aids 116
bun@@ 116
accelerate 116
maintained 115
specifically 115
sis 115
flags 115
proud 115
facts 115
sport 115
ethnically 115
alcohol 115
restaurants 115
militants 115
contingent 115
maj@@ 115
djokovic 115
boz@@ 115
sil@@ 115
bombings 115
hel@@ 115
educated 115
strasbourg 115
steering 115
fuele 115
meat 115
svetla 115
older 115
beautiful 115
unicef 115
amp@@ 115
bitola 115
unclear 115
ergenekon 115
vlora 115
monument 115
fri@@ 114
fees 114
james 114
and@@ 114
swe@@ 114
wider 114
graphy 114
kan@@ 114
isn 114
supervised 114
rohan 114
svetozar 114
survive 114
pe 114
suicide 114
eve 114
successor 114
chemical 114
restore 114
bdp 114
physical 114
propose 114
coverage 114
alise 114
elderly 114
mir@@ 113
teacher 113
enjoyed 113
planes 113
tasked 113
shop 113
si 113
penal 113
iti@@ 113
39 113
alfred 113
medicine 113
succeeded 113
chose 113
nica 113
54 113
extreme 113
dates 113
store 113
memorial 113
len@@ 113
partition 113
denmark 113
precondition 113
strict 113
ture 113
economically 113
gy 113
syn@@ 113
tle 113
stalled 113
multiple 113
ich 113
industries 113
write 113
recru@@ 113
helps 112
falling 112
ze 112
firmly 112
ots 112
neighbourhood 112
eyes 112
las 112
sl@@ 112
seselj 112
husband 112
jelena 112
empire 112
grave 112
championships 112
files 112
lying 112
register 112
engage 112
ex 112
islands 112
verheugen 112
gashi 112
cts 112
affecting 112
.com 112
electric 112
households 112
ye@@ 112
explain 112
fewer 112
renewable 112
--@@ 111
blow 111
stalemate 111
ologists 111
1994 111
maria 111
mes@@ 111
faith 111
40,000 111
secured 111
pon@@ 111
burgas 111
penalties 111
flow 111
engineering 111
solar 111
fdi 111
cocaine 111
64 110
disappointment 110
intellectuals 110
handover 110
pieces 110
kostelic 110
inven@@ 110
violated 110
vis@@ 110
passport 110
starts 110
shel@@ 110
cri@@ 110
variety 110
iu 110
erlis 110
crackdown 110
mir 110
evol@@ 110
seeing 110
wealth 110
authors 110
los@@ 110
boc 110
cutting 110
medics 110
provision 110
excessive 110
procurement 110
migrants 110
tin 110
fulfill 109
komsic 109
sulejman 109
broader 109
obvious 109
mpa 109
wh@@ 109
cation 109
finalised 109
tied 109
credits 109
pop 109
bridges 109
montenegrins 109
frank 109
apparent 109
happens 109
azerbaijan 109
ians 109
alising 109
nationals 109
3.5 109
ashton 109
freely 109
bic 109
kathimerini 109
mayors 109
indicate 109
testimony 109
pursue 109
armenia 109
sake 108
deeply 108
ballot 108
but@@ 108
oldest 108
66 108
categories 108
ys 108
nov@@ 108
withdrawal 108
clubs 108
associate 108
lasted 108
observed 108
0m 108
vas@@ 108
explo@@ 108
placing 108
safeguard 108
pollution 108
actress 108
expanding 108
unveiled 108
dependence 108
indi@@ 108
demonstration 108
shortages 108
expecting 108
exhibit 108
suit 108
pic@@ 108
ship@@ 108
56 108
andy 108
undertaken 107
methods 107
tation 107
cally 107
demonstrators 107
ballots 107
pan 107
injuries 107
cal 107
matches 107
bogdanovic 107
reading 107
teen 107
ff 107
suspension 107
pra@@ 107
hectares 107
ovac 107
tel 107
rain 107
warrant 107
adopting 107
thinking 107
virus 107
star@@ 107
dna 107
repeat 107
extent 107
amnesty 107
satisfaction 107
signals 107
fines 107
proven 106
uncertainty 106
52 106
equally 106
confirm 106
monitored 106
mp@@ 106
aging 106
recommend 106
shops 106
mail 106
ish@@ 106
gathering 106
4,@@ 106
lift 106
corporate 106
10.@@ 106
civic 106
isolated 106
traditionally 106
gate 106
1.2 106
airline 106
shopping 106
moderate 106
zi@@ 106
contain 106
cate 105
motivated 105
gener@@ 105
simic 105
extra 105
ire 105
reputation 105
grade 105
occur 105
zi 105
flight 105
democrat 105
applications 105
extending 105
dos 105
absolutely 105
wars 105
soci@@ 105
binding 105
trouble 105
ordinated 105
hikes 105
holkeri 105
plane 105
sen 105
95 105
armenians 105
marathon 105
tives 104
ammunition 104
statehood 104
heading 104
prevented 104
instrument 104
lar@@ 104
extremist 104
broken 104
pleased 104
weather 104
architecture 104
obtaining 104
gang 104
assumed 104
afraid 104
ah@@ 104
unresolved 104
drafting 104
attempted 104
ethnicity 104
fashion 104
amounted 104
unearthed 104
determining 104
securing 104
mafia 104
sy@@ 104
connecting 104
stemming 104
expenditures 104
afterwards 104
rounds 104
branches 104
distance 104
prague 104
bc 104
chan@@ 104
counter@@ 104
capabilities 104
disrup@@ 104
flo@@ 103
ley 103
fly 103
ticket 103
kur@@ 103
provo@@ 103
frequently 103
valley 103
2,500 103
ner@@ 103
finances 103
pamuk 103
eng@@ 103
trading 103
0,000 103
repeated 103
lieutenant 103
fishing 103
kosova 103
extremists 103
unlike 103
mediafax 103
ranging 103
disappointed 103
geneva 103
dering 103
atory 103
reliable 103
nomination 103
hot 103
limaj 103
mediator 103
popularity 102
sezer 102
center 102
cli@@ 102
grown 102
dil@@ 102
inovic 102
mircea 102
camps 102
toll 102
enjoys 102
30m 102
pave 102
comman@@ 102
authorised 102
ances 102
4.5 102
musicians 102
renewal 102
sort 102
spiric 102
emil 102
crises 102
absence 102
surprised 102
driven 102
patriarch 102
daughter 102
fy 102
gue 101
realised 101
bran@@ 101
accusing 101
perceived 101
wan@@ 101
belgian 101
ast 101
carefully 101
bombing 101
tis 101
runoff 101
contains 101
ceo 101
restoration 101
journalism 101
performing 101
termin@@ 101
younger 101
travelled 101
sli@@ 101
forest 101
rompres 101
eliminate 101
settle 101
arresting 101
bonds 101
strengthened 101
siege 101
tests 101
japanese 101
40m 101
amendment 100
surveillance 100
ill 100
exchanges 100
cla@@ 100
reject 100
wn 100
ctions 100
aiming 100
piece 100
ljiljana 100
seminar 100
leg@@ 100
pun@@ 100
copenhagen 100
paramilitary 100
ces@@ 100
wal@@ 100
fies 100
detailed 100
fal@@ 100
obliged 100
supposed 100
63 100
reserve 100
initi@@ 100
0th 100
issuing 99
fought 99
corps 99
6,@@ 99
valid 99
oliver 99
condoleezza 99
korea 99
ri 99
wounded 99
veterans 99
describes 99
oned 99
pledges 99
ray 99
tal 99
faster 99
ken@@ 99
worker 99
rare 99
lations 99
suffer 99
subsi@@ 99
ivana 99
lay 99
dimitrov 99
piracy 99
impasse 99
kosumi 99
reforming 99
solving 99
consu@@ 99
nationalism 99
enti@@ 99
gent 99
haj@@ 99
kova 99
500m 99
temperatures 99
eib 99
operated 98
tries 98
helm 98
cho@@ 98
ums 98
appealed 98
cian 98
scored 98
pav@@ 98
tas@@ 98
oriented 98
explosion 98
awaiting 98
delegations 98
rap@@ 98
stem 98
raises 98
targeting 98
innovation 98
slowly 98
gaz@@ 98
revised 98
hear 98
heating 98
fre@@ 98
cks 98
lar 98
guards 98
wisner 98
consists 98
maybe 98
deficits 98
exercises 98
publishing 98
colonel 98
boskovski 98
dy@@ 97
ahmeti 97
shall 97
estonia 97
med@@ 97
charging 97
conten@@ 97
opposing 97
retirement 97
bamir 97
concessions 97
saxe 97
coburg 97
travelling 97
sting 97
sky 97
consul@@ 97
cleared 97
ss 97
bi 97
ed@@ 97
tito 97
musical 97
openly 97
dream 97
nationwide 97
specialists 97
sun 97
kingdom 97
flat 97
rupel 97
kermabon 97
ruecker 97
content 96
audi@@ 96
ash 96
constitu@@ 96
alities 96
cancelled 96
wed 96
poet 96
fest 96
posted 96
regularly 96
ly@@ 96
od@@ 96
sds 96
volume 96
ele@@ 96
pressures 96
experiences 96
bottom 96
12.@@ 96
mid@@ 96
surgery 96
icg 96
rapidly 96
lazarova 96
resulting 96
infor@@ 96
ourselves 96
gur@@ 96
hol@@ 96
disabled 96
transmission 96
apartments 96
donor 96
constant 95
driver 95
maker 95
heroin 95
bin@@ 95
passes 95
lithuania 95
europeans 95
pull 95
vehicle 95
conver@@ 95
check 95
beth 95
conclude 95
estimate 95
sup@@ 95
pul@@ 95
foundations 95
uncertain 95
bta 95
ija 95
ballet 95
forget 95
ot 95
fate 95
djordjevic 95
lec@@ 95
tw@@ 95
edi 95
handling 95
instruments 95
properly 95
pil@@ 95
vetevendosje 95
mas 95
fts 95
organ 95
predicted 95
nic@@ 95
sekerinska 95
fron@@ 95
nik 95
ori@@ 95
yo@@ 94
fra@@ 94
ovska 94
deadlock 94
postpone 94
licenses 94
knows 94
milestone 94
undersecretary 94
destroy 94
tool 94
lation 94
72 94
tight 94
budapest 94
est@@ 94
rail 94
protestors 94
reasonable 94
selection 94
managers 94
purchased 94
aling 94
hon@@ 94
answers 94
struggling 94
&apos;clock 94
sou@@ 94
dual 94
designated 94
character@@ 94
conclusions 94
pli@@ 94
consistent 94
78 94
functions 94
cope 94
unified 94
brother 94
struga 94
roots 94
steiner 94
fiat 94
tured 93
puts 93
weight 93
raids 93
imported 93
stages 93
routes 93
personally 93
scope 93
african 93
initiate 93
brazil 93
brand 93
uz@@ 93
refusal 93
blo@@ 93
design 93
unhcr 93
portion 93
57 93
acquire 93
int 93
approves 93
indictments 93
productive 93
feeling 93
nomin@@ 93
assigned 93
entirely 93
instal@@ 93
squ@@ 93
causes 93
spot 93
canadian 93
resi@@ 93
ine@@ 93
refinery 93
shape 93
pledge 93
hike 93
snow 93
gos@@ 93
ball 93
scandals 93
refuse 93
ie 93
stores 93
punishment 92
enabling 92
benchmarks 92
regret 92
useful 92
accident 92
gj@@ 92
channels 92
completing 92
hur@@ 92
praising 92
react 92
cl@@ 92
earn 92
haz@@ 92
pot@@ 92
cour@@ 92
lis 92
ultranationalist 92
5,@@ 92
miss 92
folk 92
mention 92
recommendation 92
interpre@@ 92
tru@@ 92
san 92
15,000 92
rasmussen 92
domin@@ 92
symbol@@ 92
petrol 92
dig@@ 92
learning 92
commit 92
odds 92
sps 92
joins 92
2015 92
collabor@@ 92
1.6 92
2020 92
mul@@ 92
writes 92
earmarked 92
mental 92
ecb 92
cell 92
frequent 91
vol@@ 91
dated 91
passage 91
supervision 91
settled 91
bound 91
sessions 91
ket 91
volunteers 91
sidelines 91
ek 91
insight 91
secularism 91
kor@@ 91
telegraph 91
dal@@ 91
pel@@ 91
granting 91
scenario 91
1974 91
ency 91
brcko 91
surveyed 91
clients 91
nas@@ 91
progressive 91
maritime 91
mo 91
phenomenon 91
fatos 91
68 91
daianu 91
luxury 91
storm 91
koha 91
wel@@ 91
exactly 91
quo 91
hydro 91
referred 91
escape 91
diyarbakir 91
taxation 91
capita 91
governmental 91
integrate 91
auto@@ 90
neighbourly 90
my@@ 90
nicolas 90
iti 90
withdrew 90
ption 90
walk 90
bia 90
constitute 90
urge 90
stress 90
belong 90
indicators 90
thanked 90
euro@@ 90
lo 90
nationalists 90
knew 90
demonstrates 90
58 90
fl@@ 90
attributed 90
rejection 90
tickets 90
happening 90
69 90
fairly 90
moral 90
voices 90
hydropower 90
winners 90
60m 90
robertson 90
evasion 89
tel@@ 89
penalty 89
involve 89
recognising 89
tain 89
writing 89
bles 89
see@@ 89
exceed 89
wood 89
gradually 89
bol@@ 89
modernise 89
extradited 89
reflected 89
buried 89
lit@@ 89
castle 89
jovic 89
gabriel 89
unknown 89
donated 89
prepares 89
traditions 89
transformed 89
offensive 89
character 89
dink 89
alive 88
bedrana 88
greatly 88
sts 88
cement 88
sit 88
freeze 88
gjorge 88
stars 88
painful 88
eva 88
cus 88
strategies 88
festivals 88
tangible 88
define 88
leaves 88
stipulates 88
ramush 88
surplus 88
urs 88
ries 88
grand@@ 88
pointing 88
ee 88
disease 88
subsequently 88
adnan 88
ardi 88
pulaj 88
intensified 88
electrical 88
venues 88
servants 88
colle@@ 88
67 88
operates 87
victor 87
expertise 87
god 87
implications 87
sole 87
truck 87
subsequent 87
symp@@ 87
milos 87
ures 87
qualified 87
novosti 87
deadlines 87
hungarians 87
whereabouts 87
democratisation 87
courses 87
meaning 87
fortress 87
miroljub 87
sle@@ 87
inadequate 87
species 87
cab@@ 87
fill 87
non@@ 87
jat 87
rehabilitation 87
tranche 87
classified 87
rapporteur 87
bankruptcy 87
symbols 87
makers 87
ghts 87
toward 87
hurdle 87
truly 87
onal 87
advisory 87
kesh 87
sat 86
symbolic 86
respects 86
cam@@ 86
mobil@@ 86
minor 86
preservation 86
pers@@ 86
catch 86
undertake 86
reference 86
heavily 86
threaten 86
glo@@ 86
gordana 86
lating 86
restored 86
ads 86
convic@@ 86
challenging 86
embassies 86
prodi 86
biometric 86
acknowledging 86
jeopardise 86
acquitted 86
illu@@ 86
sutanovac 86
jurisdiction 86
cher@@ 86
che 86
stories 86
impro@@ 86
exploration 86
cked 86
izmir 86
discusses 86
dynamic 86
25m 86
vely 86
handball 86
lap@@ 86
brigade 86
intent 86
rad@@ 86
reaffirmed 86
interference 86
basha 86
bis@@ 86
emphasis 86
plea 86
allied 86
element 86
ham@@ 86
watching 85
expenses 85
ail@@ 85
celebration 85
eroglu 85
ok@@ 85
conditional 85
400m 85
kul@@ 85
prestigious 85
plot 85
popovic 85
trucks 85
briefed 85
factories 85
albert 85
advocates 85
fledged 85
societies 85
tures 85
blueprint 85
gas@@ 85
anatolian 85
restri@@ 85
tap@@ 85
confiscated 85
clar@@ 85
fat@@ 85
lun@@ 85
scar@@ 85
kas@@ 85
rooms 85
petrovic 85
elementary 85
win@@ 85
sustained 85
franco 85
attorney 85
refer@@ 85
birds 85
alisation 85
pushed 85
mun@@ 85
pers 85
shortcomings 84
decreased 84
employ 84
alle@@ 84
soldier 84
compar@@ 84
clause 84
comprised 84
razvan 84
financially 84
schedule 84
negotiators 84
seventh 84
sava 84
extradite 84
constituent 84
wrap 84
mic@@ 84
metal 84
00@@ 84
heat 84
bor 84
journey 84
sexual 84
database 84
predominantly 84
reve@@ 84
covic 84
occasion 84
mayoral 84
permits 84
jewish 84
founding 84
trajkov 84
500,000 84
150,000 84
heated 84
hun@@ 84
spa@@ 84
specialised 84
predecessor 84
careful 84
phones 84
ecological 84
embar@@ 84
screening 84
ences 84
ama@@ 84
sasa 84
medvedev 84
lavrov 84
beating 84
lifted 84
60,000 84
discovery 84
author@@ 84
cycle 84
underground 84
bly 83
refusing 83
acknowledge 83
samardzic 83
jac@@ 83
agents 83
blair 83
restaurant 83
native 83
ilir 83
continent 83
shar@@ 83
kan 83
chaos 83
defeating 83
kes 83
petrov 83
comple@@ 83
suspend 83
madrid 83
testify 83
fas@@ 83
advertising 83
aak 83
irs 83
oured 83
breakthrough 83
els 83
intense 83
beauty 83
gic 83
green@@ 83
removing 83
powell 83
aw@@ 83
og@@ 83
djur@@ 83
echoed 82
mb@@ 82
seemed 82
commemor@@ 82
landmark 82
caspian 82
kap@@ 82
incentives 82
holder 82
orhan 82
separately 82
secession 82
59 82
turing 82
bac@@ 82
radovanovic 82
belonging 82
seecp 82
totally 82
captured 82
karolos 82
karic 82
fic@@ 82
stolen 82
margin 82
partial 82
deli@@ 82
slovak 82
punished 82
ach@@ 82
tionally 82
pilot 82
rank 82
izetbegovic 82
funeral 82
degrees 82
anymore 81
relation 81
fried 81
chiefs 81
shipping 81
rooted 81
posed 81
jacques 81
disagreements 81
oun@@ 81
zemun 81
intellectual 81
boundaries 81
ny 81
peak 81
pahor 81
viable 81
locked 81
entitled 81
passenger 81
talked 81
dealt 81
,000 81
1980s 81
learned 81
characterised 81
tically 81
tackling 81
classes 81
tics 81
voluntary 81
+ 81
indicates 81
infected 81
entrepreneurs 81
ologist 81
vers 81
qatar 81
rts 81
elite 81
cavic 81
resorts 81
nicholas 81
censorship 81
distinc@@ 80
tioning 80
appoint 80
stefanovic 80
ves@@ 80
vast 80
laden 80
hundred 80
blast 80
martin 80
obviously 80
rebuild 80
roles 80
ip 80
literary 80
scan@@ 80
swimming 80
depending 80
jump 80
bloggers 80
turns 80
vin@@ 80
thousand 80
ust 80
ul 80
supervis@@ 80
asian 80
iron 80
girl 80
purchasing 80
read@@ 80
anticipated 80
ford 80
newest 80
ox@@ 80
evaluation 80
earth 80
locals 80
kinds 80
acquisition 80
hardly 80
budgets 80
highlights 80
fan 80
perception 80
alter@@ 80
strain 80
recognises 80
om 80
containing 80
profitable 80
chaired 80
formerly 79
false 79
pop@@ 79
ing@@ 79
articles 79
auspices 79
attempting 79
permission 79
plan@@ 79
equipped 79
tassos 79
mel@@ 79
pharmaceutical 79
janovic 79
ef 79
defending 79
enters 79
apparently 79
valuable 79
condemning 79
timing 79
kampschror 79
launches 79
vesna 79
complained 79
criticising 79
grad 79
pekusic 79
survival 79
mitev 79
keeps 79
royal 79
cum@@ 79
dr 79
pressed 79
ici 79
background 79
examples 79
construct 79
assessed 79
1.3 79
kill 79
prefer 79
voluntarily 79
sends 79
uncovered 79
kets 79
assisting 79
miller 79
operative 79
depic@@ 79
reactors 79
red@@ 79
questioning 79
simitis 79
fire@@ 79
prompting 78
a1 78
globe 78
matthew 78
hunger 78
narcotics 78
escu 78
fli@@ 78
quest 78
orchestra 78
mos@@ 78
trans 78
denies 78
harder 78
tations 78
favours 78
prote@@ 78
mount 78
del@@ 78
beqiri 78
ass@@ 78
college 78
biden 78
lawsuit 78
earned 78
extensive 78
snap 78
senate 78
diseases 78
legitimacy 78
junior 78
satellite 78
aviation 78
rtk 78
moody 78
shield 78
sor@@ 78
buyers 78
debates 77
fatih 77
suggestions 77
reacted 77
ker@@ 77
guns 77
intensive 77
stones 77
ombudsman 77
81 77
rak@@ 77
und 77
bay 77
kol@@ 77
petroleum 77
celebrates 77
spots 77
srdjan 77
nationality 77
saudi 77
bus@@ 77
embra@@ 77
anovic 77
300m 77
98 77
mounting 77
kop@@ 77
addresses 77
sec@@ 77
papers 77
alongside 77
cigarette 77
enhanced 77
practically 77
promoted 77
50@@ 77
bread 77
expec@@ 77
hood 77
73 77
900 77
srbija 77
outbreak 77
accepting 77
overnight 77
300,000 77
generations 77
parliaments 77
registry 77
fundamental@@ 77
whereas 77
involves 77
songs 77
chair 77
drazen 77
proclaimed 77
statue 77
iliescu 77
dow@@ 77
deadly 77
advice 77
yilmaz 77
13.@@ 77
pin@@ 77
forecast 77
sele@@ 76
influx 76
real@@ 76
vessels 76
professors 76
ok 76
consisting 76
observe 76
ion@@ 76
pped 76
predi@@ 76
25@@ 76
posters 76
patri@@ 76
twenty 76
ale 76
novinite 76
cheaper 76
broadcaster 76
textile 76
decides 76
zastava 76
ino 76
virtually 76
invite 76
partly 76
owns 76
halted 76
deposits 76
wards 76
clash 76
prohibi@@ 76
impressive 76
140 76
questionnaire 76
day@@ 76
show@@ 76
aring 76
tragedy 76
fruit 76
negotiated 76
deploy 76
rankings 76
bags 76
impression 75
vel@@ 75
kaletovic 75
necdet 75
regarded 75
disappeared 75
ay 75
undermining 75
budgetary 75
roman@@ 75
ited 75
rou@@ 75
departure 75
&apos;d 75
competitors 75
soccer 75
mol@@ 75
filled 75
helsinki 75
velchev 75
radmila 75
jobless 75
ordinate 75
25,000 75
balanced 75
male 75
confirms 75
fragile 75
disasters 75
northeast 75
commen@@ 75
jun@@ 75
sr@@ 75
clinic 75
clearing 75
employee 75
bru@@ 75
default 75
bo 75
evo 75
correspon@@ 75
gun 75
76 75
hyseni 75
roughly 75
kos 75
7,@@ 75
airspace 75
darko 75
reg@@ 75
83 75
inten@@ 74
alina 74
mr. 74
belongs 74
explosives 74
rus@@ 74
transactions 74
forth 74
reluctant 74
sively 74
latvia 74
vasil@@ 74
cak@@ 74
mak@@ 74
yield 74
spur 74
alexandroupolis 74
jovan 74
accountability 74
ener@@ 74
ins@@ 74
hen@@ 74
intend 74
theme 74
lie 74
ken 74
ima@@ 74
poorest 74
eta 74
lined 74
inefficient 74
hampered 74
abandoned 74
suspicion 74
globalisation 74
fostering 74
exception 74
len 74
interesting 74
alakbar 74
underlined 74
responding 74
nur@@ 74
hand@@ 74
revolution 74
rompuy 74
permit 74
15.@@ 74
georgievski 74
transform 74
130 74
donations 74
off@@ 74
pnl 74
legend 74
sections 74
physi@@ 74
veli@@ 73
pec@@ 73
intensify 73
mutually 73
australian 73
diversity 73
one@@ 73
glass 73
excavations 73
rejects 73
railways 73
erupted 73
yal@@ 73
accelerated 73
dist@@ 73
ligh@@ 73
haf@@ 73
rivers 73
paving 73
radicals 73
ja@@ 73
semi 73
folklore 73
iceland 73
parti@@ 73
ria 73
portal 73
buyer 73
rob@@ 73
bribery 73
hurdles 73
lukovic 73
kosanovic 73
ku 73
dictator 73
declaring 73
cler@@ 73
hatred 73
lau@@ 73
sion@@ 73
diagnos@@ 73
productivity 73
interven@@ 73
grey 73
wolfgang 73
circu@@ 73
infec@@ 73
raufoglu 73
lj@@ 73
fed 73
favoured 73
fallen 73
kosovars 73
cking 73
collecting 73
ditore 73
prin@@ 73
stabilise 73
reads 73
1.4 73
antonela 73
forecasts 73
mess 73
institu@@ 73
dropping 73
distributed 73
mosques 73
zannier 73
exact 73
pir@@ 73
reveal 73
exceeded 73
radmanovic 73
holy 73
consolidation 73
tem@@ 72
captain 72
anna 72
pm 72
gil@@ 72
82 72
wrestling 72
tree 72
populated 72
argentina 72
gh 72
rian 72
les@@ 72
ric 72
belief 72
let@@ 72
dor@@ 72
gru@@ 72
tou@@ 72
clan 72
drama 72
focuses 72
bosnians 72
acknowledges 72
eliminating 72
installed 72
licen@@ 72
prerequisite 72
repair 72
kragujevac 72
cro@@ 72
mistakes 72
angry 72
partially 72
nenad 72
divide 72
subsidiary 72
mus@@ 72
warnings 72
petrescu 72
tele@@ 72
extremism 72
praise 72
metohija 72
correct 72
holbrooke 72
maintenance 72
beaches 72
competencies 72
perceptions 72
milic 72
feith 72
erhard 72
namely 72
populations 72
isa 72
museums 72
ceasefire 72
jel@@ 72
acquis 72
develop@@ 72
athlete 72
unanimously 72
evacu@@ 72
h5n1 72
legality 71
ignored 71
additionally 71
acceptance 71
prece@@ 71
activ@@ 71
positively 71
raid 71
fee 71
modi@@ 71
5km 71
russians 71
beach 71
premiere 71
persuade 71
obradovic 71
dent 71
mar 71
google 71
photo@@ 71
tops 71
assisted 71
unite 71
berg 71
cautious 71
cable 71
rot@@ 71
hu 71
autonomous 71
translated 71
condemn 71
cigarettes 71
eur@@ 71
mw 71
shala 71
serge 71
animal 71
unnecessary 71
watchdog 71
territories 71
pac@@ 71
confirmation 71
ene 71
movements 71
innocent 71
patient 71
honest 71
dtp 71
shock 71
teresa 71
worries 71
gers 71
cted 71
radi@@ 71
facilitating 71
coalitions 71
stambolic 71
semin@@ 71
sign@@ 71
simpli@@ 71
treasury 71
pa 71
turk@@ 71
contin@@ 71
bytyci 70
desi@@ 70
enver 70
graphic 70
enhancing 70
ordinating 70
prisons 70
nat@@ 70
hidden 70
bitter 70
lifting 70
wearing 70
justified 70
searching 70
cheap 70
ioc 70
eni 70
embargo 70
tak@@ 70
14.@@ 70
dinar 70
remarkable 70
commanders 70
wasn 70
delta 70
surveys 70
affects 70
deemed 70
son@@ 70
flood 70
prostitution 70
ataturk 70
maintains 70
dark 70
assa@@ 70
rijeka 70
danish 70
detainees 70
dangers 70
earthquakes 70
imposing 70
110 70
dervis 70
proeski 70
84 70
comparison 70
necessarily 70
alt@@ 70
with@@ 70
1984 70
testing 70
rev@@ 70
ivanic 70
xhe@@ 70
motor@@ 70
cit@@ 70
holders 70
audiences 70
sooner 70
cyber 70
adjustment 70
tist 70
dul@@ 69
freezing 69
examine 69
zlatko 69
philosophy 69
beg@@ 69
stabilising 69
execution 69
supporter 69
exported 69
evident 69
collapsed 69
origin@@ 69
dam 69
ratify 69
lav 69
tense 69
columnist 69
30@@ 69
woes 69
stor@@ 69
rebuilding 69
metre 69
propaganda 69
tious 69
rit@@ 69
eg@@ 69
inform 69
70,000 69
kovac 69
jordan 69
amend 69
prosecute 69
sum 69
tex@@ 69
residence 69
influenced 69
unilaterally 69
policing 69
lou@@ 69
helicopters 69
encies 69
outright 69
terminal 69
forests 69
preserving 69
99 69
privatise 69
airways 69
hard@@ 69
delivery 69
ush@@ 69
portra@@ 69
favourite 69
ive 69
graduate 69
psych@@ 69
surrendered 69
objec@@ 69
homeland 69
land@@ 69
wireless 69
philip 69
ideal 69
gross 69
donald 69
pru@@ 69
gency 69
rel 69
scrutiny 68
manufacturing 68
violating 68
witnessed 68
teaching 68
downturn 68
workshop 68
constantly 68
listen 68
boy 68
ium 68
ena 68
shor@@ 68
crimin@@ 68
cm 68
disputed 68
segment 68
neighbor@@ 68
lion 68
windows 68
avaz 68
anywhere 68
intimidation 68
generate 68
hoxha 68
lip@@ 68
damages 68
extra@@ 68
requiring 68
dow 68
relative 68
ashed 68
colo@@ 68
dum@@ 68
dered 68
stepping 68
pros@@ 68
method 68
charles 68
punish 68
1,200 68
inauguration 68
kids 68
approaching 68
unchanged 68
wishes 68
flee 68
websites 68
fulfil@@ 68
exploitation 68
projections 68
61 68
catherine 68
admit 68
tone 68
curb 68
elec@@ 68
deny 68
pleaded 68
mandates 68
looked 68
letters 68
kozloduy 68
ur 68
krajina 68
0.5 68
organs 68
cuk 68
theft 68
navy 68
pack 68
coal 68
anu 67
satisfactory 67
las@@ 67
fleet 67
constructed 67
byzantine 67
flooding 67
declining 67
brutal 67
lat@@ 67
replacing 67
violate 67
regards 67
asi@@ 67
nan@@ 67
alike 67
foot@@ 67
ty@@ 67
viewing 67
dismissal 67
persecution 67
hence 67
explaining 67
capital@@ 67
dnevni 67
marred 67
instruc@@ 67
0s 67
74 67
petkovic 67
graves 67
anonymous 67
ach 67
esm 67
conven@@ 67
concession 67
ukrainian 67
overcoming 67
corner 67
complaint 67
barack 67
charity 67
premi@@ 67
popovski 67
steady 67
cristian 67
short@@ 67
norwegian 67
shut@@ 67
england 67
separatist 67
kpc 67
ote 67
sia 67
leakey 67
blockade 66
confirming 66
bou@@ 66
traffickers 66
artefacts 66
rig@@ 66
generated 66
enforce 66
volleyball 66
cher 66
gel 66
emphasising 66
emo@@ 66
passy 66
portfolio 66
chair@@ 66
milenkovic 66
ade@@ 66
campaigning 66
considerably 66
dependent 66
mann 66
abolished 66
jer@@ 66
creates 66
bearing 66
importantly 66
stal@@ 66
ril@@ 66
composed 66
outlets 66
fun@@ 66
prosperous 66
avoided 66
hide 66
lis@@ 66
aspect 66
ano 66
meps 66
cep@@ 66
jarinje 66
zenica 66
renov@@ 66
unification 66
dge 66
ghter 66
ver 66
deal@@ 66
marty 66
peninsula 66
tripoli 66
contradi@@ 66
shkullaku 66
quoting 66
nesovski 66
gracanica 66
hat 66
12,000 66
draws 66
dis 66
die 66
ram@@ 66
escal@@ 66
tier 66
bribes 66
glu 66
theory 66
ghana 66
sns 66
vari@@ 66
dabilis 66
geo@@ 66
component 65
aded 65
petition 65
differ 65
expense 65
timetable 65
explosive 65
reciprocity 65
borislav 65
enclaves 65
bond 65
tot@@ 65
proposing 65
counting 65
observer 65
77 65
obli@@ 65
lowered 65
thracian 65
viewers 65
cameras 65
severely 65
15m 65
checks 65
celebrating 65
tanja 65
treat 65
discrimin@@ 65
fighters 65
rocen 65
textbooks 65
sceptical 65
reformist 65
150m 65
troubled 65
zel@@ 65
remittances 65
mation 65
kin@@ 65
latin 65
lessons 65
hurt 65
upgraded 65
koci 65
crowds 65
margin@@ 65
identification 65
endangered 65
discipline 65
industri@@ 65
bh 65
ize 65
longstanding 65
rejecting 65
somewhat 65
shelter 65
usage 65
tified 65
tested 65
survived 65
healthy 65
black@@ 65
walls 65
lev@@ 65
proliferation 65
sak@@ 65
hillary 65
addi@@ 65
demarcation 65
sibenik 65
storage 64
devices 64
altogether 64
ational 64
tled 64
alism 64
aggres@@ 64
explore 64
polo 64
gymnastics 64
kps 64
beer 64
350 64
spar@@ 64
tol@@ 64
hill 64
associates 64
lukoil 64
resumed 64
hes 64
sergei 64
udf 64
designate 64
secre@@ 64
herman 64
analy@@ 64
accountable 64
inci@@ 64
reporter 64
delegates 64
6.5 64
advantages 64
flexibility 64
kurti 64
deeper 64
counted 64
mt 64
pleas@@ 64
tenders 64
strained 64
unded 64
sex 64
understood 64
milanovic 64
impe@@ 64
poets 64
not@@ 64
asks 64
tic@@ 64
pictures 64
models 64
choosing 64
unfair 64
nor@@ 64
fitch 64
lor@@ 64
ambitions 64
tioned 64
regain 64
cave 64
easing 64
pierre 64
vet@@ 64
dogan 64
tose 64
trees 64
gasoline 64
touch 64
svilanovic 64
condi@@ 64
shed 63
deepening 63
sight 63
proves 63
absolute 63
narrow 63
ably 63
damaging 63
cultures 63
ghtened 63
pipelines 63
environmental@@ 63
dele@@ 63
tab@@ 63
vacation 63
jas@@ 63
paintings 63
71 63
inspired 63
lawmaker 63
sured 63
miha@@ 63
disclosed 63
publish 63
fierce 63
attac@@ 63
grants 63
lescu 63
attitudes 63
ous@@ 63
unofficial 63
1.7 63
dable 63
facto 63
frustration 63
apped 63
competent 63
flexible 63
controlling 63
accounting 63
concludes 63
continu@@ 63
tend 63
slowdown 63
adap@@ 63
avljevic 63
defense 63
provider 63
arbitration 63
7.5 63
undergo 63
flying 63
liaison 63
postponement 63
incomes 63
studying 63
hr@@ 63
uprising 63
pula 63
peri@@ 63
sustainability 63
bildt 63
occupied 63
ily 63
isaf 63
vic@@ 63
laboratory 63
boo@@ 63
home@@ 63
contra@@ 63
ther 63
eide 63
pages 63
pt 63
flows 63
districts 63
cular 63
bombs 63
fix 62
hostage 62
ole@@ 62
fru@@ 62
breach 62
norms 62
stakes 62
pakistan 62
boom 62
fouere 62
enrol@@ 62
affirmed 62
mile 62
sco@@ 62
icic 62
formula 62
jani 62
smoke 62
uefa 62
pit@@ 62
tapped 62
tape 62
tear 62
jana 62
missed 62
professionalism 62
budva 62
jor@@ 62
vla@@ 62
deliveries 62
mihajlovic 62
hari 62
branislav 62
describe 62
spreading 62
ults 62
interpreted 62
ven 62
stretch 62
tun@@ 62
consulting 62
harsh 62
titles 62
occasions 62
abolish 62
ier 62
finalise 62
intervene 62
simultaneously 62
guest 62
root 62
fi 62
scr@@ 62
exp@@ 62
mothers 62
devastating 62
roc@@ 62
predict 62
kam@@ 62
married 62
dignity 62
capability 62
disagree 62
warm 62
eth@@ 62
securitate 62
thrown 62
rt@@ 62
alert 62
goodwill 62
thorough 62
mary 62
exhibi@@ 62
evade 62
vis 62
kre@@ 62
interpol 62
yves 62
sn@@ 62
creditors 61
preconditions 61
congratulated 61
plates 61
disagrees 61
tomorrow 61
vide@@ 61
briefing 61
poc@@ 61
qi 61
bb 61
scoring 61
dou@@ 61
bah@@ 61
til@@ 61
fifa 61
dings 61
venue 61
hired 61
hits 61
anagnostopoulos 61
tism 61
specu@@ 61
busy 61
democracies 61
grap@@ 61
taining 61
pavkovic 61
tomb 61
shkodra 61
applies 61
dos@@ 61
capitals 61
rever@@ 61
decree 61
protested 61
bands 61
existed 61
armies 61
experiencing 61
invitations 61
trigger 61
tile 61
advocate 61
normalisation 61
sustain 61
egyptian 61
vlatko 61
blan@@ 61
donation 61
aver@@ 61
kav@@ 61
lehne 61
bidder 61
mistake 61
cil@@ 61
ignoring 61
88 61
onto 61
manufacturer 61
ico 61
ose 61
biased 61
sav@@ 61
taxi 61
96 61
tan 61
acy 61
pow@@ 61
nak@@ 61
mers 61
io 61
boxes 61
1,0@@ 61
forcing 60
rup@@ 60
indication 60
az 60
habi@@ 60
baran 60
pursuing 60
defended 60
architect 60
consequence 60
oting 60
shouldn 60
precedent 60
opponent 60
accomplish@@ 60
apolog@@ 60
approaches 60
shake 60
rivals 60
ased 60
handled 60
eli 60
bnn 60
blago@@ 60
taleski 60
nova 60
genuine 60
romano 60
calcu@@ 60
refuses 60
hala 60
risen 60
defendant 60
bel 60
household 60
ren 60
classical 60
circles 60
buses 60
flu@@ 60
beqaj 60
jos@@ 60
wind@@ 60
steadily 60
swift 60
protesting 60
expelled 60
hap@@ 60
ailing 60
malta 60
vowing 60
boat 60
repatri@@ 60
slav@@ 60
solely 60
executed 60
jews 60
fol@@ 60
tages 60
revo@@ 60
transylvania 60
restitution 60
gordon 60
stall 60
consent 60
poultry 60
ual 60
joachim 60
bishop 60
miners 60
fuels 60
pd 60
nms 60
applying 59
ived 59
ninth 59
excise 59
ids 59
harmful 59
reiterating 59
feels 59
courage 59
arche@@ 59
periods 59
everywhere 59
usual 59
mol 59
eliminated 59
compo@@ 59
wouldn 59
deb@@ 59
couldn 59
wear 59
competed 59
empty 59
crash 59
lacking 59
prosecuted 59
adver@@ 59
precise 59
complain 59
readers 59
grace 59
objects 59
technically 59
shantek 59
editorial 59
artistic 59
ared 59
youngest 59
mandatory 59
sters 59
skiing 59
veles 59
sworn 59
emissions 59
devoted 59
imprisonment 59
thir@@ 59
costly 59
adequately 59
notably 59
70m 59
won@@ 59
spor@@ 59
slated 59
jonilda 59
temporarily 59
benedict 59
entrance 59
checkpoint 59
mov@@ 59
muammar 59
dal 59
kalfin 59
reviewed 59
liqu@@ 59
hub 59
signatures 59
propor@@ 59
drought 59
slight 59
refrain 59
referenda 59
ole 59
negle@@ 59
inhabitants 59
polar@@ 59
eries 59
retrial 59
gangs 59
kumanovo 59
tra 59
awaits 59
systematic 59
researcher 59
dise 59
ptk 59
idis 59
das 59
ade 59
tes@@ 59
kuci 59
enjoying 59
universal 59
rumsfeld 59
tatlises 59
kovska 58
communists 58
util@@ 58
elimination 58
commenting 58
tahiri 58
idi@@ 58
aled 58
breakaway 58
vukcevic 58
stro@@ 58
86 58
grenades 58
premises 58
visi@@ 58
militant 58
sitting 58
kra@@ 58
ai@@ 58
birthday 58
josip 58
footage 58
tia 58
belonged 58
alists 58
civilisation 58
zarko 58
00,000 58
drag@@ 58
deciding 58
misko 58
droutsas 58
ases 58
transitional 58
allocate 58
ear@@ 58
essence 58
revive 58
miodrag 58
breaks 58
besa 58
yan 58
visegrad 58
rat@@ 58
abandon 58
kick 58
beneficial 58
credi@@ 58
lingering 58
mihai 58
incorpor@@ 58
coffee 58
pliva 58
trou@@ 58
andrija 58
5.5 58
shocked 58
shap@@ 58
undergoing 58
wreath 58
lustration 58
beaten 58
smokers 58
sy 58
accomplished 58
pays 58
rescu 58
virtual 58
50th 58
rated 58
ji@@ 58
graph@@ 58
dity 58
murdered 58
totalling 58
warsaw 58
wild 58
sydney 58
tools 58
dece@@ 58
contracted 58
night@@ 58
venizelos 58
councils 58
op 58
absorption 58
privatised 57
stems 57
soft 57
dence 57
cicek 57
discontent 57
gaza 57
dollars 57
stamp 57
ass 57
compatible 57
gi 57
metal@@ 57
notorious 57
ata 57
ordin@@ 57
exploded 57
janica 57
repli@@ 57
gin 57
guide 57
ide@@ 57
polt 57
jov@@ 57
ong 57
privileged 57
hot@@ 57
spr@@ 57
super 57
partnerships 57
confes@@ 57
ently 57
psychological 57
ute 57
migr@@ 57
justi@@ 57
defining 57
proposes 57
jones 57
preserved 57
continuous 57
promotes 57
ris@@ 57
conventional 57
lay@@ 57
indian 57
borrowing 57
telecommunication 57
occup@@ 57
regulate 57
dramatically 57
affair 57
sian 57
patten 57
convincing 57
greeted 57
evenings 57
eco 57
pel 57
combination 57
tip 57
nice 57
ore 57
clean@@ 57
ilovic 57
consulate 57
resumption 57
committees 57
ham 57
bet 57
neutral 57
pool 57
ign@@ 57
boycotted 57
workshops 57
1.5m 57
meantime 57
sof@@ 57
unpaid 57
caucasus 57
waves 57
301 57
fos@@ 57
nokia 57
gur 57
zed 56
profession 56
disagreement 56
hopeful 56
fe 56
flotilla 56
cargo 56
box 56
genc 56
excluded 56
troop 56
scotsman 56
subjects 56
1,800 56
tax@@ 56
announces 56
arrives 56
formu@@ 56
parade 56
demonstrating 56
antiqu@@ 56
amounting 56
zan@@ 56
itary 56
rumours 56
regulated 56
composer 56
debut 56
memory 56
stagnation 56
djurovic 56
credible 56
rece@@ 56
lengthy 56
drinking 56
anger 56
gl@@ 56
champions 56
sufficiently 56
quit 56
replacement 56
tory 56
end@@ 56
observatory 56
components 56
ser 56
reductions 56
harmonisation 56
zadar 56
ada@@ 56
enta@@ 56
exemp@@ 56
exclusively 56
cafes 56
water@@ 56
delaying 56
residential 56
varna 56
transported 56
rin@@ 56
comfortable 56
dem 56
landscape 56
remote 56
mediated 56
scientist 56
cations 56
vatican 56
oecd 56
colin 56
80m 56
jansa 56
slalom 56
400,000 56
denying 56
contained 56
9,@@ 56
pled 56
scheme 56
ron 56
hop@@ 56
ron@@ 55
threatens 55
cating 55
challenged 55
assurances 55
jandrokovic 55
indirect 55
setback 55
spoken 55
affili@@ 55
abuses 55
semi@@ 55
emir 55
hasan 55
floor 55
cav@@ 55
inc 55
comm@@ 55
electorate 55
sing@@ 55
excav@@ 55
92 55
kadare 55
novel 55
conferences 55
atic 55
screened 55
trains 55
brain 55
boosted 55
bidding 55
tery 55
marian 55
assuming 55
integral 55
apprehended 55
poised 55
migrant 55
predicts 55
lending 55
registering 55
emer@@ 55
utilities 55
mediation 55
bit@@ 55
resource 55
sal 55
agreeing 55
marine 55
accidents 55
ees 55
dness 55
sis@@ 55
nedjeljko 55
seaside 55
chambers 55
evaluate 55
mari@@ 55
commentator 55
www.@@ 55
za@@ 55
1.1 55
lining 55
forever 55
shocks 55
ky@@ 55
confron@@ 55
relationships 55
essentially 55
blocks 55
denktash 55
suppliers 55
dogs 55
legendary 55
trilateral 55
appreciation 55
remin@@ 55
elena 55
zdravko 55
outs 55
narro@@ 55
ocalan 55
emerge 55
spite 55
unusual 55
phil@@ 55
cians 55
highways 55
reward 55
kristina 55
ignore 55
9,000 55
daci 55
matics 55
sljivancanin 55
rebel 55
contractors 55
quarter@@ 55
carriers 54
audit 54
suspicious 54
piraeus 54
christos 54
abolition 54
argument 54
atives 54
tony 54
tina 54
slogan 54
villagers 54
lon@@ 54
damir 54
fer 54
yard 54
provoked 54
giorgos 54
normal@@ 54
tenure 54
favour@@ 54
multinational 54
pride 54
hil@@ 54
75m 54
div@@ 54
myself 54
lju@@ 54
q 54
communicate 54
publication 54
clauses 54
tual 54
olo@@ 54
sibiu 54
sweeping 54
silent 54
250m 54
modest 54
topalli 54
buz@@ 54
revision 54
rudovic 54
shale 54
courtesy 54
dom 54
renovated 54
renovation 54
kidnap@@ 54
accommodation 54
ibar 54
separation 54
los 54
avoiding 54
barbu 54
coinci@@ 54
petro@@ 54
lowering 54
osijek 54
practi@@ 54
break@@ 54
doubled 54
fle@@ 54
particip@@ 54
boasts 54
equivalent 54
caution 54
triumph 54
presiding 54
print 54
signalled 54
cohesion 54
ultimate 54
oring 54
cements 54
insulting 54
unhappy 54
borissov 54
coo@@ 54
common@@ 54
papademos 54
academics 54
commo@@ 54
pression 54
nation@@ 54
heav@@ 54
wto 54
burned 54
antalya 54
merchan@@ 54
olympiad 54
eupm 54
cites 53
ctive 53
tative 53
earn@@ 53
stag@@ 53
shakes 53
soil 53
bureaucracy 53
stoj@@ 53
brokered 53
zur@@ 53
painter 53
window 53
device 53
than@@ 53
cry 53
rent 53
statute 53
conversation 53
attendance 53
arch@@ 53
acropolis 53
ler@@ 53
respon@@ 53
impressed 53
frag@@ 53
demographic 53
occupation 53
emplo@@ 53
com 53
dimitar 53
angel 53
fulfillment 53
locate 53
maja 53
roadmap 53
alling 53
assault 53
odihr 53
chic@@ 53
separated 53
aggressive 53
incentive 53
everyday 53
ios 53
ideology 53
echr 53
regimes 53
cleansing 53
afternoon 53
riot 53
comparatively 53
ah 53
jocic 53
attraction 53
philharmonic 53
gran@@ 53
chem@@ 53
destabilise 53
mufti 53
barracks 53
isting 53
18.@@ 53
moder@@ 53
macovei 53
unstable 53
spectators 53
91 53
cardi@@ 53
eurostat 53
conviction 53
mustaf@@ 53
dre@@ 53
mits 53
plavsic 53
helicopter 53
constan@@ 53
neg@@ 53
engineers 53
tech 53
xes 53
revival 53
apprehend 53
omy 53
doc@@ 53
distant 53
televised 53
avian 53
staying 53
imply 53
basbug 53
eurasian 53
rich@@ 53
overthrow 53
joseph 53
filmmakers 53
seconds 53
denis 53
ctors 53
dimitrij 53
infection 53
mitreva 53
negatively 53
europol 53
segments 53
ih@@ 53
arhin 53
gjirokastra 53
dalma@@ 53
cru@@ 53
policeman 53
clark 53
icc 53
struc@@ 52
shak@@ 52
87 52
outlines 52
automatically 52
nis@@ 52
span@@ 52
ingly 52
ossetia 52
bernard 52
kouchner 52
lovic 52
ara 52
person@@ 52
takeover 52
headscarves 52
portuguese 52
pick 52
documentaries 52
meters 52
ipa 52
bankrupt 52
denti@@ 52
sadiku 52
returnees 52
eighth 52
enabled 52
barrier 52
separ@@ 52
offen@@ 52
queen 52
mentality 52
disbanded 52
bir@@ 52
ized 52
slim 52
dismis@@ 52
stream@@ 52
crowded 52
anders 52
dents 52
upper 52
refer 52
ari 52
possession 52
familiar 52
12m 52
cultiv@@ 52
sre@@ 52
positi@@ 52
engine 52
alpha 52
naval 52
kit@@ 52
staf@@ 52
packed 52
undertaking 52
tehran 52
stick 52
taxpayers 52
lulzim 52
nes 52
ranko 52
dick 52
prix 52
dic@@ 52
shadow 52
awaited 52
oslo 52
atomic 52
bulletin 52
lum@@ 52
termination 52
auto 52
deplo@@ 52
play@@ 52
wil@@ 52
recommends 52
exposed 52
headscarf 52
tudjman 52
mhp 52
guler 52
20km 52
scor@@ 52
dies 52
expires 52
radar 52
ceausescu 52
stephen 52
prosper 52
firefighters 52
culmin@@ 51
impetus 51
weaknesses 51
maps 51
watched 51
warming 51
fications 51
overwhelmingly 51
robust 51
reflecting 51
duc@@ 51
ero@@ 51
gated 51
cripts 51
threw 51
silence 51
forgotten 51
97 51
gol@@ 51
successes 51
alek@@ 51
vlasic 51
rem@@ 51
enforced 51
badly 51
acquiring 51
touched 51
sreten 51
realisation 51
slowed 51
dinars 51
clear@@ 51
surprising 51
composition 51
rum@@ 51
kai 51
credited 51
harmony 51
prot@@ 51
longest 51
reminded 51
kir@@ 51
alkalaj 51
destroying 51
sloven@@ 51
animals 51
travellers 51
admiral 51
prince 51
btv 51
scepanovic 51
reserved 51
strictly 51
baghdad 51
drink 51
mood 51
disar@@ 51
alumin@@ 51
affordable 51
dors 51
zukorlic 51
plovdiv 51
dam@@ 51
inevitable 51
200@@ 51
safe@@ 51
christians 51
highlight 51
vski 51
noticed 51
prises 51
rift 51
loose 51
prohibited 51
limiting 51
resignations 51
open@@ 51
ulted 51
downer 51
totalled 51
markac 51
irreversible 51
wright 51
transla@@ 51
é 51
oli@@ 51
hinges 51
rout@@ 51
tas 51
evn 51
marin 51
hrant 51
easter 51
refin@@ 51
stresses 51
verdicts 50
nicolae 50
prev@@ 50
kt@@ 50
crew 50
resolutions 50
mainstream 50
effectiveness 50
nar@@ 50
prosecuting 50
missiles 50
guidelines 50
tanks 50
kou@@ 50
ut 50
clashed 50
ela 50
aca 50
layoffs 50
fined 50
tactics 50
rol@@ 50
balkan@@ 50
toon 50
adverti@@ 50
absta@@ 50
ctively 50
smo@@ 50
length 50
problematic 50
skender 50
fir@@ 50
camer@@ 50
79 50
hat@@ 50
honours 50
wav@@ 50
bour@@ 50
forged 50
laying 50
weapon 50
marriage 50
sible 50
nazi 50
run@@ 50
perfect 50
smooth 50
feet 50
gan 50
mah@@ 50
imagine 50
jus@@ 50
gradual 50
gam@@ 50
bling 50
appointments 50
eat 50
peacefully 50
bright 50
eradi@@ 50
secretariat 50
withdrawn 50
archy 50
burning 50
americans 50
rarely 50
patience 50
pling 50
advised 50
transferring 50
aftermath 50
ivan@@ 50
standby 50
handing 50
patrols 50
northeastern 50
8,@@ 50
thank 50
photographs 50
stays 50
wonder 50
tariffs 50
lord 50
dicarlo 50
pum@@ 50
gratitude 50
93 50
bone 50
assassin@@ 50
fold 50
produces 50
gendar@@ 50
profession@@ 50
six@@ 50
janez 50
forums 50
harvest 50
percent 50
main@@ 50
fabri@@ 50
180 50
remikovic 50
cop@@ 50
selimi 50
liquidity 50
cannes 50
schook 50
mrf 50
17.@@ 49
graduates 49
internally 49
enter@@ 49
proportion 49
justify 49
samir 49
master 49
picked 49
ona 49
illy@@ 49
athy 49
canton 49
cir@@ 49
analyse 49
colony 49
asset 49
harmonise 49
gla@@ 49
blog 49
tre 49
rings 49
forthcoming 49
gies 49
persistent 49
panic 49
furniture 49
zic 49
enemy 49
sni@@ 49
desig@@ 49
alarm 49
saved 49
sit@@ 49
momcilo 49
object 49
hearings 49
arguably 49
activist 49
xvi 49
rocket 49
geographical 49
country@@ 49
motto 49
providers 49
ailed 49
shoul@@ 49
sam@@ 49
jko 49
difficulty 49
spot@@ 49
indicating 49
trafficked 49
satisfy 49
quake 49
torn 49
thereby 49
tragic 49
kosovar 49
of@@ 49
3.6 49
miranda 49
hic 49
suspicions 49
naf@@ 49
govern 49
jes@@ 49
broadband 49
adis 49
250,000 49
uma 49
vity 49
reinfor@@ 49
enthusiasm 49
alp@@ 49
pdl 49
blaming 49
life@@ 49
marshall 49
tower 49
kotor 49
vodafone 49
arn@@ 49
midnight 49
regulator 49
supplier 49
biological 49
cons@@ 49
modernising 49
kyprianou 49
intensi@@ 49
inspectors 49
mere 49
spiritual 49
djo@@ 49
prefec@@ 49
naz@@ 49
abilities 49
stimu@@ 49
cluj 49
jna 49
posing 49
sinc@@ 48
ites 48
dor 48
dimension 48
discre@@ 48
competence 48
afghan 48
machine 48
ressed 48
qualify 48
questionable 48
group@@ 48
dle 48
cedomir 48
gesture 48
borut 48
prog@@ 48
enables 48
cates 48
hate 48
farewell 48
prayer 48
ethical 48
manipu@@ 48
tering 48
circle 48
micro@@ 48
po 48
shu@@ 48
inquiry 48
denomin@@ 48
bribe 48
necessity 48
mini 48
landslide 48
loyal 48
qualifying 48
expedi@@ 48
explanation 48
elling 48
sim@@ 48
pursu@@ 48
echoing 48
fogh 48
abused 48
belarus 48
situated 48
hev 48
emphasises 48
tancy 48
kicks 48
voulgarakis 48
surrounded 48
ischinger 48
keen 48
maric 48
ambi@@ 48
gorous 48
cells 48
unrealistic 48
assessing 48
thor@@ 48
gulf 48
precisely 48
ros 48
guaranteeing 48
regulating 48
buil@@ 48
milutinovic 48
discipl@@ 48
550 48
opposite 48
tir@@ 48
motorway 48
om@@ 48
oto 48
jev@@ 48
medal@@ 48
kazakhstan 48
consolidate 48
merely 48
uph@@ 48
weigh@@ 48
saric 48
uniting 48
parliamentarians 48
eased 48
religions 48
ster 48
turkishness 48
cruise 48
burg 48
hes@@ 48
.net 48
baykal 48
owed 48
busek 48
kno@@ 48
applicants 48
lan 48
hunt 48
jen@@ 48
dominant 48
pep@@ 48
unanimous 48
stein 48
uranium 48
davinic 48
fun 48
archives 48
em 48
album 48
lus@@ 48
sub 48
tom@@ 48
veselin 48
rein@@ 48
convergence 48
skilled 48
ration@@ 48
lagging 48
ow@@ 48
indicator 48
dissatisfaction 48
nbs 48
sparks 48
mathe@@ 48
16.@@ 48
artificial 48
make@@ 48
workforce 47
logical 47
deserve 47
ere@@ 47
s.@@ 47
tzanis 47
mist@@ 47
upgrading 47
counterterrorism 47
hit@@ 47
liberty 47
amariei 47
flooded 47
recovered 47
sue 47
escalation 47
cease 47
ika 47
kas 47
jak 47
ached 47
convoy 47
jec@@ 47
secularists 47
revolutionary 47
stayed 47
trum@@ 47
ation@@ 47
coastline 47
bans 47
rallies 47
spe@@ 47
followers 47
hollywood 47
themes 47
ges@@ 47
af 47
understands 47
intentions 47
photography 47
venice 47
guenter 47
cevski 47
inherited 47
tedly 47
envis@@ 47
ght 47
couples 47
integrating 47
accurate 47
pes 47
mirjana 47
zor@@ 47
carries 47
exam@@ 47
anticorruption 47
manipulation 47
arabia 47
una 47
cna 47
pazar 47
insur@@ 47
fruit@@ 47
bolster 47
brigadier 47
auction 47
packages 47
oming 47
nad@@ 47
max@@ 47
urgently 47
stand@@ 47
harri 47
ams 47
py@@ 47
chris 47
cot@@ 47
rid@@ 47
clarify 47
specified 47
recre@@ 47
dmitry 47
leg 47
meter 47
correc@@ 47
lobbying 47
accommodate 47
deliberately 47
benghazi 47
ght@@ 47
unnamed 47
hosp@@ 47
concluding 47
preferred 47
testi@@ 47
vlahovic 47
crossed 47
mexico 47
roundtable 47
inspection 47
hear@@ 47
arriving 47
alpine 47
cap 47
frankfurt 47
saving 47
eye@@ 47
adults 47
striking 47
historians 47
fan@@ 47
policymakers 47
srpske 47
ionian 47
depos@@ 47
2.9 47
thro@@ 47
zbogar 47
pair 47
youtube 47
jakup 46
quiet 46
safet 46
sely 46
confront 46
asi 46
tat@@ 46
subordin@@ 46
160 46
plenty 46
gordan 46
advancing 46
quantities 46
expli@@ 46
bureaucratic 46
treasures 46
surface 46
tos@@ 46
vr@@ 46
art@@ 46
squad 46
replaces 46
differ@@ 46
plagued 46
tine 46
89 46
skep@@ 46
evenimentul 46
sty@@ 46
moun@@ 46
accommo@@ 46
poster 46
privacy 46
claude 46
crude 46
geopolitical 46
cemetery 46
stat@@ 46
insistence 46
presevo 46
outdated 46
vie@@ 46
secondly 46
lazarevic 46
abide 46
outlining 46
rele@@ 46
virtu@@ 46
precautionary 46
35,000 46
ress 46
twin 46
fit 46
sche@@ 46
neo 46
ill@@ 46
endor@@ 46
consp@@ 46
employs 46
bonn 46
pay@@ 46
coff@@ 46
mandic 46
fixing 46
suggestion 46
eps 46
mut@@ 46
butmir 46
itaries 46
zo@@ 46
upset 46
exceeds 46
stabil@@ 46
emphasise 46
hrt 46
frustrated 46
sad@@ 46
topped 46
historian 46
kukes 46
privileges 46
schroeder 46
sos 46
crack 46
liter@@ 46
proving 46
settling 46
departments 46
christie 46
sna 46
mall 46
tment 46
ts@@ 46
cheva 46
signatories 46
andreas 46
clinical 46
hero@@ 46
bom@@ 46
2.2 46
regre@@ 46
orientation 46
disposal 46
mal 46
filling 46
crip@@ 46
omv 46
bidders 46
cle@@ 46
archbishop 46
dimen@@ 46
oscar 46
runner 46
evska 46
phases 46
garnered 46
tiny 46
blackmail 46
lah 46
ljube 46
00m 46
sahin 46
kri@@ 46
christ@@ 46
ours 46
johnson 46
constanta 46
conservation 46
rena@@ 46
zeri 46
tunnel 46
shan@@ 46
adoptions 46
sacrifice 46
sister 46
preferential 46
independently 45
vali@@ 45
annulled 45
exporters 45
verification 45
mitic 45
trajkovic 45
inspec@@ 45
rami@@ 45
leftist 45
bujar 45
spectacular 45
merged 45
umbrella 45
arti@@ 45
cite 45
shots 45
keeper 45
sap@@ 45
itar 45
gift 45
condolences 45
promotional 45
viktor 45
small- 45
atp 45
trophy 45
zilei 45
ada 45
angered 45
bojan 45
enko 45
factions 45
inability 45
advocating 45
aren 45
dation 45
recycling 45
regist@@ 45
cho 45
1.9 45
ys@@ 45
moratinos 45
lingu@@ 45
envisioning 45
19.@@ 45
micic 45
feasible 45
oty@@ 45
breakup 45
ordering 45
fatal 45
manufac@@ 45
prescri@@ 45
gle 45
sation 45
irresponsible 45
brown 45
dulic 45
mirror 45
indirectly 45
consistently 45
william 45
seas 45
protocols 45
tesla 45
ato 45
mladenov 45
endanger 45
hasn 45
unconstitutional 45
pyramid 45
luksic 45
reconsider 45
literacy 45
ivanovski 45
discover 45
chairs 45
pulled 45
thi@@ 45
permanently 45
pi 45
monasteries 45
veterinary 45
anth@@ 45
human@@ 45
ater@@ 45
snezana 45
enacted 45
committing 45
jela@@ 45
3.8 45
zupljanin 45
misuse 45
gy@@ 45
adaman@@ 45
singers 45
limit@@ 45
glad 45
packett 45
ization 45
exposure 45
allocation 45
foot 45
curren@@ 45
cern 45
iri 45
illustration 45
appealing 45
prizes 45
measuring 45
fearing 45
explosions 45
ball@@ 45
commun@@ 45
evangelos 45
bail 45
efficiently 45
anonymity 45
bakir 45
20.@@ 45
walked 45
meaning@@ 45
gents 45
dov 45
ultra 45
transplants 45
pping 45
pianist 45
pective 45
gheorghe 45
happiness 45
timely 45
stanis@@ 45
krivokapic 45
conqu@@ 45
custo@@ 45
crow@@ 45
opho@@ 44
safer 44
speculate 44
recogni@@ 44
reunite 44
pupils 44
harmonised 44
1980 44
cont@@ 44
reinforce 44
circulation 44
yor@@ 44
dol@@ 44
swimmer 44
finishing 44
sponsors 44
spark 44
plo@@ 44
athletics 44
hum@@ 44
select 44
ljub@@ 44
beli@@ 44
sever@@ 44
olive 44
kaj 44
wise 44
divac 44
shareholders 44
suring 44
accomplish 44
smoothly 44
baby 44
ading 44
commissions 44
evalu@@ 44
firing 44
tune 44
eager 44
proceeds 44
liber@@ 44
defa@@ 44
politic@@ 44
denounced 44
pillar 44
ely 44
unaware 44
deserves 44
dened 44
sven 44
centr@@ 44
geous 44
drilling 44
comprising 44
commissioned 44
tility 44
scholars 44
ć 44
socially 44
jankulovska 44
alarming 44
ere 44
recom 44
pain 44
lands 44
expired 44
races 44
mediu 44
lyn@@ 44
tivity 44
roadblocks 44
tian 44
tionary 44
specialist 44
saranda 44
await 44
spare 44
kadek 44
zu@@ 44
patrio@@ 44
typical 44
stir 44
240 44
distinguished 44
lazar@@ 44
cip@@ 44
ea 44
forwarded 44
disciplinary 44
rid 44
infantry 44
dire 44
birn 44
sentiment 44
ousness 44
analyses 44
adopts 44
grid 44
pet 44
mourning 44
judgment 44
relating 44
violates 44
rebuilt 44
concentration 44
surge 44
graft 44
responses 44
advisers 44
shortage 44
hilmi 44
geographic 44
crete 44
exceptional 44
detail 44
1.8 44
accounted 44
lon 44
mented 44
telemedicine 44
io@@ 44
anne@@ 44
hackers 44
paj@@ 44
testified 43
screen 43
iri@@ 43
plot@@ 43
stops 43
boats 43
compas@@ 43
you@@ 43
ses@@ 43
organization 43
cia 43
wraps 43
machines 43
alli@@ 43
feelings 43
erwan 43
lawsuits 43
provinces 43
mate 43
ast@@ 43
kaya 43
audio 43
tles 43
wer 43
attends 43
consecutive 43
laureate 43
automatic 43
interrup@@ 43
sq 43
radio@@ 43
saf@@ 43
fted 43
flowers 43
hero 43
consequently 43
yer 43
gation 43
innovative 43
rush 43
minimal 43
repayment 43
orial 43
sev@@ 43
normally 43
manoeuv@@ 43
attached 43
rape 43
mastermin@@ 43
birth@@ 43
talent 43
lend 43
gling 43
surroi 43
strated 43
anastas@@ 43
bb@@ 43
reform@@ 43
e. 43
197@@ 43
anthem 43
3.3 43
3.2 43
wat@@ 43
warrants 43
coincided 43
vil@@ 43
roof 43
stimulate 43
criticise 43
shoot@@ 43
consultation 43
14,000 43
jailed 43
sf 43
advisor 43
documented 43
cheese 43
utmost 43
commended 43
2.6 43
800,000 43
thum@@ 43
fighter 43
disagreed 43
hir 43
holocaust 43
vows 43
guid@@ 43
any@@ 43
hoxhaj 43
gifts 43
inmates 43
evil 43
disman@@ 43
cafe 43
plun@@ 43
contention 43
orche@@ 43
substantially 43
deepen 43
accessible 43
sultan 43
forestry 43
agu@@ 43
kwh 43
load 43
tify 43
cermak 43
bet@@ 43
stun@@ 43
gregorian 43
populist 43
organiser 43
tarculovski 43
respecting 43
trandafir 43
sus@@ 43
conduc@@ 43
bankers 43
interrupted 43
metropolitan 43
ozkok 43
ij@@ 43
studied 43
zealand 43
counties 43
marin@@ 43
bancroft 43
ibm 43
sells 42
vocal 42
tomic 42
undoubtedly 42
sticking 42
unidentified 42
commemorate 42
thwar@@ 42
inaugural 42
prolonged 42
osama 42
implies 42
parameters 42
kle@@ 42
supple@@ 42
nikolay 42
beh@@ 42
escaped 42
aide 42
aching 42
notable 42
defines 42
clos@@ 42
pillars 42
ez@@ 42
architectural 42
illicit 42
liberalising 42
neft 42
preparedness 42
sociologist 42
networking 42
ups 42
hearts 42
vecernje 42
fis@@ 42
gues 42
reiter@@ 42
him@@ 42
observation 42
170 42
absentia 42
scenes 42
instructions 42
wedding 42
treaties 42
ilija 42
compos@@ 42
loc@@ 42
baz@@ 42
mot@@ 42
ification 42
800m 42
carl 42
annul 42
iring 42
patrol@@ 42
feder@@ 42
oath 42
sul@@ 42
tokyo 42
ai 42
sop@@ 42
mjaft 42
cos 42
limbo 42
hed 42
gov@@ 42
interpretation 42
deterioration 42
contamin@@ 42
kin 42
tightening 42
abo@@ 42
cus@@ 42
publishers 42
pris@@ 42
item 42
pretty 42
4.4 42
intergovernmental 42
sity 42
apology 42
smes 42
thers 42
scenarios 42
ama 42
incre@@ 42
dency 42
speeding 42
foods 42
incoming 42
individually 42
ratio 42
number@@ 42
imprisoned 42
tolerate 42
clim@@ 42
bers 42
restricted 42
gene@@ 42
acquittal 42
dividing 42
unve@@ 42
pdp 42
overwhelming 42
revis@@ 42
decent 42
concep@@ 42
korean 42
ss@@ 42
asser@@ 42
net@@ 42
endeavour 42
butler 42
alistic 42
liberals 42
stopping 42
theatres 42
suburb 42
opti@@ 42
jordan@@ 42
worship 42
conventions 42
mountainous 42
endorse 42
estonian 42
priv@@ 42
anima@@ 42
bert 42
risky 42
northwest 42
eric 42
besi@@ 42
oic 42
cycl@@ 42
commented 42
alic 42
stam@@ 42
straw 42
c. 42
stojkovic 42
ean 42
seas@@ 42
insult 42
purchases 42
contractor 42
fault 42
m. 42
adin@@ 42
simon@@ 42
wrapping 42
lira 42
contents 42
cez 42
cist 42
mare 42
3g 42
rene@@ 41
dictatorship 41
longtime 41
radu 41
list@@ 41
isti@@ 41
expenditure 41
cemil 41
eupolitix 41
countered 41
oper@@ 41
cele@@ 41
fa 41
quali@@ 41
signaled 41
secularist 41
ign 41
sami 41
successive 41
laz@@ 41
breaches 41
reflection 41
contested 41
recor@@ 41
rajko 41
architects 41
emigrants 41
preven@@ 41
consultant 41
recy@@ 41
administered 41
accompanying 41
presentations 41
copy@@ 41
eleven 41
dak 41
queu@@ 41
exporting 41
grapher 41
manjola 41
singing 41
winds 41
liberal@@ 41
trig@@ 41
week@@ 41
drin@@ 41
competitions 41
gul@@ 41
boundary 41
qualifications 41
wrongdoing 41
treasure 41
dependency 41
ols 41
tran@@ 41
mitted 41
bey 41
astron@@ 41
ceremonies 41
inde@@ 41
zla@@ 41
ment@@ 41
ventures 41
typically 41
murat 41
deteriorated 41
raw 41
indications 41
gelu 41
gg@@ 41
njak 41
logistics 41
resur@@ 41
su 41
similarly 41
somewhere 41
eding 41
programming 41
turkmenistan 41
alex@@ 41
undermined 41
regi@@ 41
frac@@ 41
franjo 41
rhyth@@ 41
prejudice 41
reverse 41
fres@@ 41
advances 41
liest 41
innocence 41
admitting 41
organized 41
transnational 41
whe@@ 41
exclude 41
wooden 41
interviews 41
juven@@ 41
atrocity 41
battalion 41
certificates 41
shorter 41
ordnance 41
fights 41
bloody 41
gora 41
aire 41
administrator 41
helpful 41
exporter 41
novine 41
gsm 41
unlawful 41
700m 41
ungureanu 41
balances 41
60th 41
client 41
vukovic 41
froze 41
lery 41
600,000 41
ital@@ 41
kins 41
calculated 41
stake@@ 41
fare 41
inflow 41
classic 41
repercussions 41
dr. 41
antic 41
ride 41
chron@@ 41
shou@@ 41
capitalism 41
decreasing 41
electronics 41
marnhac 41
hydroelectric 41
itors 41
machinery 41
checkpoints 41
submitting 41
anatolia 41
isic 41
zana 41
counterfe@@ 41
contributes 41
turnover 41
sac 41
kras@@ 41
telephony 41
esi 41
babies 41
brazilian 41
yildiz 41
urring 40
lutovska 40
supplied 40
cad@@ 40
chisinau 40
attacking 40
searched 40
cit 40
grigor@@ 40
civilisations 40
hei@@ 40
affiliated 40
gering 40
weakened 40
diversi@@ 40
fake 40
nate 40
hajredin 40
transforming 40
teenagers 40
courtroom 40
banning 40
drain 40
inappropriate 40
2.3 40
engineer 40
ismail 40
financi@@ 40
underworld 40
rowing 40
hamper 40
2.7 40
tables 40
nj@@ 40
leva 40
interfere 40
arben 40
quotas 40
jso 40
thy 40
nee@@ 40
maj 40
ame@@ 40
demol@@ 40
orphan@@ 40
subjected 40
recover 40
alexand@@ 40
olog@@ 40
veton 40
free@@ 40
deposit 40
stojan 40
bullets 40
kostic 40
exceeding 40
proclamation 40
tim 40
offences 40
was@@ 40
trio 40
deteriorating 40
nap@@ 40
motives 40
may@@ 40
tated 40
alleg@@ 40
eusr 40
guil@@ 40
standoff 40
barely 40
bag 40
plu@@ 40
ition 40
stav@@ 40
hole 40
borro@@ 40
fastest 40
overseeing 40
recipient 40
closest 40
implicated 40
imper@@ 40
choices 40
reunify 40
hometown 40
scepticism 40
biodi@@ 40
occur@@ 40
ntv 40
perce@@ 40
samples 40
detection 40
injec@@ 40
evi@@ 40
janjic 40
pus 40
cn@@ 40
tively 40
concentrate 40
strive 40
teach 40
mez 40
radical@@ 40
accuse 40
joy 40
requesting 40
tenth 40
patrol 40
prefer@@ 40
rif@@ 40
steven 40
fiel@@ 40
vo 40
curta@@ 40
extends 40
southwest 40
sem@@ 40
deportation 40
wounds 40
motive 40
thomas 40
gok@@ 40
conservatives 40
facilitation 40
ula 40
kidney 40
congratula@@ 40
davis 40
gallup 40
edge 40
weightlifting 40
accu@@ 40
hiring 40
meh@@ 40
examination 40
ović 40
samaras 40
delivering 40
reti@@ 40
shop@@ 40
babic 40
pukanic 40
mungiu 40
betra@@ 39
dedication 39
tely 39
struggles 39
smugglers 39
dams 39
3,500 39
answered 39
jet 39
georgian 39
ho 39
rer 39
cles 39
evacuated 39
kab@@ 39
leaked 39
aspiring 39
highlighting 39
krstic 39
todorovic 39
belt 39
itar@@ 39
prop@@ 39
painting 39
cinemato@@ 39
opted 39
tech@@ 39
tribute 39
ulemek 39
frequ@@ 39
aired 39
formations 39
withdra@@ 39
constructing 39
blames 39
repay 39
multilateral 39
dilemma 39
work@@ 39
distributor 39
barred 39
vukotic 39
valued 39
germans 39
grossman 39
minds 39
examined 39
gunned 39
onic 39
studio 39
contributor 39
enforcing 39
understan@@ 39
survivors 39
ades 39
mati@@ 39
bashar 39
somebody 39
apprehen@@ 39
dimin@@ 39
planted 39
viola@@ 39
adapt 39
inciting 39
vrs 39
bechtel 39
broz 39
administrations 39
agent 39
dismiss 39
raiffeisen 39
stron@@ 39
waited 39
aths 39
hinge 39
dead@@ 39
protec@@ 39
italisation 39
refers 39
marie 39
eski 39
wherever 39
thirty 39
harmon@@ 39
steep 39
festivities 39
distrust 39
attorneys 39
120m 39
malay@@ 39
spee@@ 39
shelling 39
acces@@ 39
accepts 39
voje 39
reshuffle 39
jud@@ 39
enclave 39
ara@@ 39
prijedor 39
inhumane 39
pervasive 39
sophisticated 39
notch 39
gus 39
ple 39
annul@@ 39
domain 39
nights 39
fischer 39
bing 39
deniz 39
identities 39
resist 39
ji 39
antonescu 39
stating 39
thetic 39
productions 39
tours 39
jeopardis@@ 39
less@@ 39
unexpected 39
translate 39
righ@@ 39
pensioner 39
janin 39
arbitr@@ 39
occas@@ 39
meron 39
judo 39
worsening 39
reintegration 39
defin@@ 39
assure 39
exaggerated 39
fit@@ 39
magistrates 39
perisic 39
escor@@ 39
macro 39
fel@@ 39
suffers 39
wheat 39
pacolli 39
au 39
termed 39
tz@@ 39
parks 39
khal@@ 39
conve@@ 39
signature 39
vegetables 39
ferry 39
tu 39
athoc 39
ola 39
baconschi 39
jolie 39
600m 38
klaudija 38
anton@@ 38
alar@@ 38
printing 38
fisher@@ 38
affirming 38
continuity 38
billions 38
paved 38
unfavourable 38
twelve 38
sculptures 38
discour@@ 38
rulings 38
consult 38
zal@@ 38
chers 38
child@@ 38
wrestler 38
fier 38
kusturica 38
imer 38
sporting 38
veljovic 38
stricter 38
tant 38
skiers 38
sued 38
sculpture 38
stefan@@ 38
petkov 38
slogans 38
restoring 38
sim 38
constru@@ 38
stavrevski 38
45m 38
yu@@ 38
crossroads 38
stojan@@ 38
checked 38
ult 38
somehow 38
stationed 38
kandic 38
fac@@ 38
disastrous 38
stipulated 38
rade 38
bulatovic 38
tav@@ 38
mortality 38
hdi 38
socio 38
clinics 38
brands 38
briefly 38
aven@@ 38
weighed 38
confusion 38
commemoration 38
smil@@ 38
obstruc@@ 38
alist 38
ore@@ 38
lobby 38
seize 38
toxic 38
degra@@ 38
peres 38
updated 38
stric@@ 38
lout 38
chenko 38
fuelled 38
weak@@ 38
3.4 38
motivation 38
organiz@@ 38
.the 38
deliber@@ 38
tigh@@ 38
14m 38
cyril 38
zen@@ 38
repairs 38
reservations 38
humans 38
bajrami 38
rub@@ 38
medicines 38
snow@@ 38
accelerating 38
anticipates 38
negotiable 38
hadz@@ 38
class@@ 38
bologna 38
mit 38
enthusiastic 38
road@@ 38
underpin 38
nikos 38
tom 38
accordingly 38
steinberg 38
specify 38
80,000 38
outrage 38
bene@@ 38
paves 38
miti@@ 38
notice 38
mobtel 38
substance 38
recal@@ 38
cuba 38
yasar 38
buyukanit 38
iness 38
sincere 38
dog@@ 38
pc 38
alleviate 38
vasile 38
torch 38
executives 38
renault 38
prompt 38
triple 38
musliu 38
cea 38
businesspeople 38
stop@@ 38
libraries 38
ffs 38
doub@@ 38
nezavisne 38
underwater 38
clock 38
ds@@ 38
tariff 38
cruel 38
dak@@ 38
quantity 38
incomplete 38
velimir 38
theodor 38
transplant 38
gon@@ 38
logic 38
vran@@ 38
exceptionally 38
polis 38
jewel@@ 38
manufacturers 38
plat@@ 38
rogge 38
favor@@ 38
trips 38
diesel 38
iph@@ 38
boss 38
samuel 38
met@@ 38
ias 38
dissolution 38
barak 38
gavr@@ 38
mitrovic 38
crops 38
dsb 38
conspiracy 37
shaken 37
entrepreneurship 37
sorts 37
promp@@ 37
wahhabi 37
quarters 37
handful 37
criticises 37
viol@@ 37
hani 37
aided 37
generating 37
chirac 37
dominate 37
tains 37
reminder 37
poorer 37
klaus 37
aca@@ 37
debated 37
guar@@ 37
hip 37
bas 37
temple 37
solomon 37
mat 37
pip@@ 37
demir 37
educ@@ 37
iz 37
stances 37
ung 37
dia 37
tie 37
photographers 37
ented 37
impunity 37
news@@ 37
indebted 37
lenders 37
legalisation 37
confederation 37
colleague 37
opt 37
coupled 37
holdings 37
walks 37
commissioners 37
switch 37
gazette 37
marmara 37
od 37
walter 37
endorsement 37
complaining 37
lady 37
noti@@ 37
jozefina 37
mix 37
musi@@ 37
istan@@ 37
laj@@ 37
casualties 37
100th 37
honouring 37
midst 37
who@@ 37
appreciate 37
acqu@@ 37
surge@@ 37
reconstructed 37
chen 37
fused 37
exacer@@ 37
constraints 37
cantons 37
agron 37
depth 37
odi@@ 37
rors 37
book@@ 37
corpor@@ 37
transfers 37
privatising 37
instruction 37
nic 37
s. 37
pragmatic 37
50km 37
kru@@ 37
oll 37
wary 37
drill 37
ution 37
alternatives 37
ested 37
govic 37
honorary 37
pale 37
dispar@@ 37
embezzlement 37
ldp 37
feed 37
leverage 37
akovic 37
clarified 37
ess 37
ae 37
fullani 37
lib@@ 37
thou@@ 37
rog@@ 37
anticipate 37
reduces 37
honey 37
guer@@ 37
volunteer 37
thal 37
partitioning 37
reciprocal 37
schooling 37
94 37
lab 37
volatile 37
lazar 37
roland 37
masters 37
standart 37
1986 37
reactor 37
clou@@ 37
oversee 37
encourages 37
120,000 37
elektroprivreda 37
veness 37
law@@ 37
communal 37
alogoskoufis 37
tolerated 37
akos 37
tance 37
separatists 37
sitel 37
mad 37
lifestyle 37
erec@@ 37
striving 37
reviewing 37
jav@@ 37
barcelona 37
margar@@ 37
licence 37
some@@ 37
gui@@ 37
appe@@ 37
complex@@ 37
hinted 37
unifil 37
constituted 37
adjust 37
adri@@ 37
dissatisfied 37
kek 37
tati@@ 37
ljubicic 37
synago@@ 37
importing 37
cetinje 37
sd 37
tougher 37
settlements 37
stumbling 37
dollar 37
pain@@ 37
differing 37
fule 37
cpi 37
chil@@ 36
seizure 36
assessments 36
kis@@ 36
sorry 36
recalled 36
faithful 36
kusari 36
differently 36
jaz@@ 36
divi@@ 36
penet@@ 36
unify 36
3.7 36
2.1 36
ano@@ 36
heal@@ 36
harassment 36
slipped 36
hong 36
qualification 36
throw 36
fif@@ 36
catalyst 36
behavi@@ 36
disper@@ 36
ceiling 36
novo 36
tain@@ 36
ethics 36
spaces 36
chi 36
bourgas 36
sk 36
oy@@ 36
vals 36
closes 36
rushed 36
diaries 36
nikol@@ 36
collections 36
ijevic 36
appar@@ 36
bekim 36
diplomas 36
graduated 36
scho@@ 36
kom@@ 36
repe@@ 36
anch@@ 36
obstructing 36
printed 36
absur@@ 36
implements 36
envision 36
politika 36
mr@@ 36
parad@@ 36
liberalise 36
outlawed 36
berets 36
archive 36
nity 36
designer 36
lov 36
tire 36
otto@@ 36
lment 36
avo@@ 36
entren@@ 36
luc@@ 36
poorly 36
burdened 36
hardest 36
potocari 36
mourners 36
elled 36
cated 36
pari@@ 36
famagusta 36
chess 36
proxima 36
mik@@ 36
sig@@ 36
ideological 36
panels 36
advanta@@ 36
plamen 36
cents 36
mediate 36
advocated 36
vey 36
litre 36
suburbs 36
aiding 36
inhabited 36
rises 36
hailing 36
stephan@@ 36
disbursement 36
nen@@ 36
cancel 36
concentrated 36
lights 36
2.8 36
mr 36
hiu 36
mem@@ 36
memories 36
asselborn 36
milosavljevic 36
farmer 36
believers 36
tsunami 36
ati 36
extradi@@ 36
dations 36
northwestern 36
memija 36
europe@@ 36
travels 36
establishes 36
munitions 36
109 36
motiv@@ 36
assassinated 36
niksic 36
issu@@ 36
lamberto 36
simovic 36
constitutes 36
cheap@@ 36
ancic 36
lik@@ 36
privatisations 36
mentor 36
djankov 36
patriarch@@ 36
copies 36
rtrs 36
gnp 36
alises 36
notion 36
expulsion 36
amed 36
charities 36
exem@@ 36
benchmark 36
sec 36
disclose 36
tackled 36
dragging 36
bargaining 36
sional 36
imir 36
gaps 36
approached 36
comedy 36
occurs 36
skating 36
scen@@ 36
diana 36
alo@@ 36
mous@@ 36
bagis 36
shrink 36
gala 36
counterfeit 36
curriculum 36
miletic 36
likewise 36
condemnation 36
dimitrijevic 36
automobile 36
osi 36
intercep@@ 36
crown 36
lates 36
retailer 36
sus 36
organisational 36
bollah 36
post@@ 36
ian@@ 36
kyrgy@@ 36
stan 36
swap 36
dragoljub 36
celsius 36
lija 36
strpce 36
sm@@ 36
discriminatory 35
critic 35
nicknamed 35
encouragement 35
impli@@ 35
raided 35
spurred 35
plenary 35
cessors 35
inte@@ 35
revol@@ 35
installation 35
perfec@@ 35
protectorate 35
flar@@ 35
presi@@ 35
retali@@ 35
victories 35
iro 35
kong 35
santa 35
sacked 35
thouse 35
staging 35
throwing 35
staunch 35
milliyet 35
geria 35
spo@@ 35
ruins 35
ath 35
loaded 35
kuzmanovic 35
translation 35
stip 35
hussein 35
bp 35
appearing 35
reviews 35
dzic 35
zo 35
workplace 35
filipovic 35
unsuccessful 35
ethno 35
sluggish 35
invi@@ 35
tracking 35
neces@@ 35
proba@@ 35
congres@@ 35
ashi 35
dervis@@ 35
preventive 35
tiles 35
nationalistic 35
menekse 35
publisher 35
forensic 35
jevo 35
applicable 35
cede 35
catastrophic 35
inflationary 35
tement 35
loved 35
identifying 35
uring 35
spectrum 35
berat 35
whenever 35
spir@@ 35
states@@ 35
distur@@ 35
fishermen 35
impor@@ 35
organ@@ 35
experim@@ 35
lef@@ 35
clu@@ 35
parking 35
mediating 35
underlying 35
restraint 35
consist 35
acceler@@ 35
samp@@ 35
tay@@ 35
tracks 35
tsvetanov 35
sm 35
public@@ 35
baltic 35
restructure 35
suspen@@ 35
concerted 35
rov 35
naming 35
epide@@ 35
detected 35
catastrophe 35
rapprochement 35
magnitude 35
tents 35
basically 35
smuggled 35
modern@@ 35
mus 35
stran@@ 35
connects 35
anxiety 35
loo@@ 35
srna 35
yas@@ 35
educate 35
soul 35
presen@@ 35
berlusconi 35
1970s 35
share@@ 35
00km 35
logistical 35
boycotting 35
publications 35
arm@@ 35
carlos 35
polled 35
kim 35
centralised 35
expres@@ 35
derail 35
andre@@ 35
arise 35
jahjaga 35
physically 35
protective 35
taught 35
sick 35
yl@@ 35
realities 35
consolidated 35
salt 35
functionality 35
racial 35
scot@@ 35
besimi 35
ache 35
fortun@@ 35
.bg 35
disappointing 35
pist@@ 35
bear@@ 35
itate 35
imminent 35
kck 35
16,000 35
mili@@ 35
guarantor 35
domestically 35
oes 35
ambo 35
scholarships 35
execu@@ 35
archaeologist 35
physics 35
transaction 35
nominate 35
forci@@ 35
depor@@ 35
underwent 35
exhausted 35
provoke 35
landmines 35
gonul 35
meas@@ 35
jeopardised 35
shifts 35
advising 35
zes 35
gray 35
plevneliev 35
answ@@ 35
oversight 35
quota 35
wealthy 35
agen@@ 35
dynamics 35
cuisine 35
concordia 35
predictable 35
impartial 35
saint 35
seemo 35
surren@@ 35
appropri@@ 35
leasing 35
cooper 35
reaches 35
lane 35
dinal 35
wire 35
syri@@ 35
shell 35
inflows 35
750 35
sar 35
lebanese 35
singapore 35
anxious 35
ide 35
lob@@ 35
defen@@ 35
carmaker 35
normalise 35
ambigu@@ 35
zubin 35
visions 35
0kg 35
iom 35
lagumdzija 34
ening 34
confrontation 34
indic@@ 34
grenade 34
reception 34
sponsor@@ 34
hk 34
arsen@@ 34
premature 34
bocevski 34
lesson 34
gov 34
lighting 34
jeopar@@ 34
authentic 34
computer@@ 34
ala 34
outdoor 34
proximity 34
imen@@ 34
stret@@ 34
efs 34
28@@ 34
35m 34
elaborate 34
unch 34
kuneva 34
blogs 34
bbing 34
cadas@@ 34
clears 34
fatigue 34
disturbing 34
repa@@ 34
troupes 34
coin 34
bala 34
legija 34
fail@@ 34
abor@@ 34
lutfi 34
joe 34
tokyay 34
anne 34
dem@@ 34
displayed 34
steinmeier 34
governors 34
invasion 34
speakers 34
smel@@ 34
scal@@ 34
zoo 34
advise 34
aks 34
use@@ 34
stuck 34
serbians 34
clothing 34
tar 34
teach@@ 34
manovic 34
suddenly 34
austin 34
shipyard 34
ston 34
harbour 34
elusive 34
homeless 34
beds 34
strength@@ 34
ifc 34
searches 34
dju@@ 34
beings 34
preval@@ 34
existent 34
barrot 34
conne@@ 34
influ@@ 34
1987 34
summoned 34
exert 34
procedural 34
locating 34
voys 34
tycoon 34
650 34
hatay 34
manages 34
philip@@ 34
flew 34
creative 34
jumped 34
donate 34
pessi@@ 34
hygi@@ 34
swiftly 34
nul@@ 34
radulovic 34
pavel 34
fortune 34
kelmendi 34
herself 34
sounds 34
gover@@ 34
advancement 34
provincial 34
undergone 34
imi 34
codes 34
dija 34
ivaylo 34
deta@@ 34
ethnicities 34
bulk 34
weakening 34
combine 34
adjustments 34
postponing 34
mandated 34
foca 34
atric 34
traveling 34
definition 34
bogdan 34
kuwait 34
tis@@ 34
inger 34
weaken 34
xture 34
sights 34
thorny 34
remembered 34
line@@ 34
leu 34
450 34
attractions 34
fbi 34
mme@@ 34
antonis 34
flock 34
3.9 34
rational 34
arran@@ 34
chronic 34
convene 34
wild@@ 34
anybody 34
slam@@ 34
rwe 34
riga 34
terr@@ 34
ensured 34
cle 34
bias 34
voj@@ 34
evaluated 34
runners 34
xing 34
feast 34
thr@@ 34
tum@@ 34
teodor 34
pavle 34
costing 34
corner@@ 34
techniques 34
sky@@ 34
hrw 34
jum@@ 34
todor@@ 34
klan 34
side@@ 34
battling 34
sided 34
fajon 34
daskalaki 34
overturned 34
compulsory 34
brezovica 34
iftar 34
confli@@ 34
surely 34
bishops 34
17,000 33
elev@@ 33
lila 33
fiercely 33
lav@@ 33
suc@@ 33
marched 33
alsat 33
towers 33
pak@@ 33
tunisia 33
nowadays 33
mosa@@ 33
memeti 33
ctor 33
omer 33
team@@ 33
delicate 33
oric 33
orban 33
knowing 33
andric 33
wimbledon 33
measured 33
arranged 33
decor@@ 33
cev 33
saddam 33
barrels 33
gunmen 33
vasic 33
ceremon@@ 33
blanka 33
aka 33
absorb 33
minimise 33
verbal 33
immun@@ 33
ify 33
terrible 33
sations 33
repression 33
abdul@@ 33
scrap 33
weigh 33
decani 33
securities 33
flor@@ 33
battles 33
freestyle 33
amateur 33
mater@@ 33
contr@@ 33
morina 33
clothes 33
cers 33
bloodshed 33
pursuit 33
dinner 33
inclu@@ 33
ru 33
junction 33
dja 33
staunchly 33
vaccine 33
apping 33
observing 33
custom 33
plur@@ 33
ceric 33
dir@@ 33
neutrality 33
roganovic 33
authoritarian 33
declar@@ 33
democratically 33
unsustainable 33
ota 33
founders 33
rush@@ 33
elizabeth 33
dign@@ 33
critic@@ 33
adic 33
yellow 33
harry 33
jelasic 33
adhere 33
somalia 33
broad@@ 33
formidable 33
defuse 33
downgraded 33
brun@@ 33
buffer 33
natur@@ 33
diver@@ 33
decisi@@ 33
embarked 33
ied 33
climbed 33
ration 33
lik 33
incur@@ 33
gin@@ 33
refuge 33
encing 33
confronting 33
till 33
mature 33
sums 33
wl 33
tale 33
enemies 33
ight 33
path@@ 33
stamp@@ 33
wr@@ 33
vi 33
lacked 33
symposium 33
mak 33
reopening 33
deepen@@ 33
speeches 33
vul@@ 33
mistre@@ 33
restart 33
coins 33
exec@@ 33
abolishing 33
erol 33
honour@@ 33
suits 33
massac@@ 33
slashed 33
makedonija 33
influences 33
sc 33
politi@@ 33
depri@@ 33
pieter 33
myster@@ 33
excluding 33
bickering 33
perpet@@ 33
curbing 33
sko 33
congratu@@ 33
market@@ 33
hinder 33
vent 33
cut@@ 33
offs 33
indefin@@ 33
gostivar 33
eigh@@ 33
bre 33
tened 33
cer 33
aer@@ 33
spear@@ 33
contestants 33
tremendous 33
ljubisa 33
dental 33
paralymp@@ 33
exploit 33
globally 33
simil@@ 33
sentencing 33
casting 33
disbursed 33
reluc@@ 33
alians 33
ić 33
retained 33
vulner@@ 33
ibra@@ 33
downsizing 33
coher@@ 33
aleksander 33
rail@@ 33
brdo 33
declares 33
stocks 33
xed 33
obe@@ 33
applau@@ 33
markos 33
compensate 33
owes 33
og 33
5.2 33
alan@@ 33
ljubomir 33
ioan 33
mill 33
recognitions 33
alb@@ 33
hak@@ 33
abstentions 33
é@@ 33
arily 33
milit@@ 33
hamza 33
polancec 33
kaczynski 33
deriv@@ 33
4.6 33
expedition 33
stojanovski 33
rifle 33
broadcasters 33
blasts 33
david@@ 33
flour@@ 33
farming 33
systemic 33
savic 33
hotline 33
hyper@@ 33
ud@@ 32
draw@@ 32
manu@@ 32
damascus 32
commemorating 32
dismantling 32
amaz@@ 32
vary 32
discourage 32
jkovic 32
besim 32
hoods 32
offset 32
cancellation 32
scre@@ 32
shame 32
shoe 32
copy 32
dirty 32
anes 32
transporting 32
totaling 32
oid 32
survi@@ 32
novelist 32
semifinals 32
racism 32
30.@@ 32
mov 32
dles 32
freight 32
ramp@@ 32
usa 32
barrett 32
cultur@@ 32
pantic 32
abdu@@ 32
ud 32
distributors 32
dun@@ 32
eing 32
dop@@ 32
hopefuls 32
collaborated 32
pirated 32
worrying 32
vuc@@ 32
electing 32
facilitated 32
stockholm 32
struct 32
instrumental 32
suitable 32
bora 32
stat 32
weakness 32
contempt 32
balaj 32
unsolved 32
painters 32
exer@@ 32
appli@@ 32
rains 32
hou@@ 32
racted 32
liberties 32
betting 32
confidential 32
sewage 32
28.@@ 32
mep 32
gli@@ 32
zy 32
cleaning 32
destabilisation 32
lings 32
demolition 32
doned 32
ae@@ 32
attendees 32
mou@@ 32
pump 32
progres@@ 32
emirates 32
juncker 32
attra@@ 32
phar@@ 32
jal@@ 32
begovic 32
containers 32
rus 32
dling 32
regula@@ 32
lag@@ 32
minors 32
prosecu@@ 32
diminish 32
distribute 32
tless 32
gnant 32
hire 32
asing 32
navigation 32
dest@@ 32
ick 32
poly@@ 32
fasting 32
interoper@@ 32
reformed 32
bode 32
praises 32
sas@@ 32
2.4 32
cev@@ 32
wonderful 32
hills 32
phare 32
sculptor 32
wol@@ 32
koc 32
drastic 32
decre@@ 32
sor 32
haziri 32
casts 32
avni 32
nam@@ 32
pois@@ 32
substantive 32
calen@@ 32
phenomen@@ 32
log 32
ben 32
hammer 32
sudden 32
ust@@ 32
mina 32
cc 32
acute 32
inevitably 32
attri@@ 32
dani@@ 32
meteor@@ 32
slau@@ 32
herceg 32
bilingual 32
gaz 32
radiation 32
cade 32
subscribers 32
enlar@@ 32
lasts 32
anska 32
olithic 32
batic 32
four@@ 32
avis 32
ores@@ 32
superior 32
yon 32
bled 32
retailers 32
itation 32
boards 32
reviving 32
fantas@@ 32
configur@@ 32
sci@@ 32
overhauling 32
fifteen 32
prof@@ 32
millennium 32
yearly 32
likelihood 32
albena 32
ony 32
wis@@ 32
swit@@ 32
allotted 32
polje 32
tolerant 32
5.8 32
deme@@ 32
feu@@ 32
eren 32
power@@ 32
contests 32
hsbc 32
deni@@ 32
sensa@@ 32
diversification 32
dreams 32
traveled 32
margins 32
jerusalem 32
disabilities 32
carnival 32
iii 32
nam 32
gence 32
instances 32
du 32
wines 32
affirm 32
potok 32
ort 32
konstantin@@ 32
uzan 32
bank@@ 32
vlach 32
substan@@ 31
assumes 31
turbulent 31
provisionally 31
heres 31
sable 31
reinforced 31
marble 31
beatings 31
inspect 31
miliband 31
dispat@@ 31
isola@@ 31
dusko 31
lif@@ 31
mingly 31
michalis 31
defender 31
hooligans 31
vat@@ 31
parthenon 31
excess 31
multimedia 31
itor 31
decorated 31
xen@@ 31
bears 31
billboards 31
killers 31
inspections 31
ia@@ 31
meglena 31
bosses 31
string 31
deeds 31
blind 31
liqui@@ 31
horse 31
seismic 31
reconcile 31
low@@ 31
fou@@ 31
vlastimir 31
spell 31
foresees 31
emigration 31
intimi@@ 31
exercised 31
innovations 31
inspiration 31
cov@@ 31
rocky 31
senator 31
tour@@ 31
eled 31
austr@@ 31
ovica 31
assembled 31
trim 31
succession 31
setbacks 31
clin@@ 31
pluralism 31
comfor@@ 31
faruk 31
palest@@ 31
hesitate 31
cative 31
coura@@ 31
icals 31
ardian 31
key@@ 31
fence 31
ita@@ 31
tabled 31
guiding 31
ref@@ 31
impacts 31
exchanged 31
hotnews.ro 31
compare 31
konjanovski 31
slan@@ 31
valentina 31
kot@@ 31
alliances 31
slavica 31
angeles 31
mor 31
mahmoud 31
assesses 31
brink 31
benefici@@ 31
mament 31
luck 31
jl@@ 31
euros@@ 31
believ@@ 31
accumula@@ 31
underscored 31
kic@@ 31
exclusion 31
editors 31
archaeology 31
strumica 31
lung 31
29@@ 31
lately 31
tifying 31
interviewed 31
aides 31
pasha 31
enri@@ 31
miro@@ 31
intolerance 31
assemb@@ 31
lucky 31
asts 31
curricula 31
promo@@ 31
spre@@ 31
jumping 31
like@@ 31
prilep 31
humili@@ 31
horizon 31
manipula@@ 31
restricting 31
buhler 31
unfortunate 31
trusted 31
finalising 31
defici@@ 31
overly 31
eas@@ 31
itely 31
suff@@ 31
lawrence 31
systematically 31
psychi@@ 31
arising 31
groundwork 31
kalinic 31
traikov 31
barring 31
0mw 31
telecom@@ 31
locally 31
wit@@ 31
ili 31
choir 31
body@@ 31
camp@@ 31
impede 31
objected 31
aba@@ 31
ringas 31
vladan 31
vlad 31
norac 31
screenings 31
puppet 31
undant 31
alija 31
oni 31
persecu@@ 31
inspectorate 31
gnite 31
9.9 31
renew 31
hardline 31
relies 31
uniqu@@ 31
offence 31
exhibited 31
proceeding 31
unding 31
appreci@@ 31
criter@@ 31
javno.hr 31
emergence 31
miro 31
aps 31
set@@ 31
ilinka 31
sh 31
chr@@ 31
diverse 31
channe@@ 31
quic@@ 31
griev@@ 31
mrk@@ 31
pronounced 31
undecided 31
nexhat 31
haj 31
footing 31
2.5m 31
cannabis 31
drina 31
confiscation 31
surpass 31
reopened 31
btc 31
brankovic 31
meal 31
peas@@ 31
yil@@ 31
fenerbahce 31
tants 31
aligned 31
rado@@ 31
jack 31
boxing 31
readmission 31
guarding 31
vir@@ 31
judged 31
straight 31
pharmac@@ 31
mobi@@ 31
tally 31
efully 31
angelopoulos 31
nek 31
vekaric 31
boarding 31
california 31
ilazi 31
wers 31
35th 31
bujanovac 31
jasenovac 31
shipyards 31
upheld 30
naim 30
vassilis 30
southwestern 30
phorus 30
master@@ 30
0.1 30
foun@@ 30
specific@@ 30
tbilisi 30
tili@@ 30
rea 30
weight@@ 30
syntagma 30
chry@@ 30
panay@@ 30
tos 30
ful@@ 30
gyurcsany 30
alu@@ 30
gly 30
accur@@ 30
perfor@@ 30
temperature 30
ese 30
fet@@ 30
prise 30
nings 30
anton 30
rho@@ 30
von 30
timeframe 30
meth@@ 30
stere@@ 30
yielded 30
roll 30
click 30
itarian 30
swept 30
uri 30
skeleton 30
mtv 30
tica 30
icu@@ 30
anticip@@ 30
fting 30
i.@@ 30
istics 30
farms 30
offshore 30
tril@@ 30
ost 30
ert 30
hid 30
strides 30
brasov 30
stimul@@ 30
yacht 30
hep@@ 30
methodius 30
verge 30
widening 30
ong@@ 30
dav@@ 30
1963 30
lesser 30
worsen@@ 30
kalmeta 30
tap 30
gerhard 30
uncover 30
gau@@ 30
hus@@ 30
lock 30
avoi@@ 30
46.@@ 30
infr@@ 30
laszlo 30
teful 30
iy@@ 30
tortured 30
brnjak 30
eri 30
desperate 30
300km 30
slop@@ 30
establish@@ 30
dru@@ 30
9.5 30
aida 30
entr@@ 30
time@@ 30
iaea 30
kanal 30
histor@@ 30
mechan@@ 30
blogger 30
ror 30
4.7 30
smallest 30
patrick 30
succeeds 30
trium@@ 30
turbul@@ 30
mans 30
elenovski 30
cript 30
stock@@ 30
slavko 30
tolimir 30
100km 30
lux@@ 30
automotive 30
cker 30
38.@@ 30
bull@@ 30
bug@@ 30
therapy 30
telegrafi 30
struction 30
insi@@ 30
sphere 30
kens 30
troubles 30
revi@@ 30
atomstroyexport 30
jagodina 30
recipi@@ 30
led@@ 30
armo 30
1981 30
drc 30
4.1 30
lal@@ 30
ola@@ 30
zvecan 30
drews 30
depo@@ 30
comment@@ 30
medo@@ 30
dras@@ 30
prede@@ 30
majko 30
streamline 30
geor@@ 30
ator@@ 30
penal@@ 30
projec@@ 30
buc@@ 30
chy 30
tivat 30
tav 30
benef@@ 30
ans@@ 30
sanc@@ 30
toronto 30
bad@@ 30
pur 30
laos 30
5.9 30
vlachs 30
zz@@ 30
ago@@ 30
qui@@ 30
papaconstantinou 30
munk 30
xi@@ 30
merdare 30
videanu 30
enhan@@ 29
campaig@@ 29
arist@@ 29
mon 29
rescu@@ 29
emper@@ 29
sert 29
eurobarometer 29
hoti 29
devi@@ 29
cel 29
navig@@ 29
nada 29
demo@@ 29
ressing 29
jag@@ 29
materi@@ 29
pedi@@ 29
rumen 29
6.7 29
elabor@@ 29
milica 29
danilo 29
sandra 29
soprano 29
costa 29
ld@@ 29
arning 29
obser@@ 29
motor 29
epp 29
total@@ 29
alia 29
garbage 29
monopol@@ 29
mour@@ 29
stir@@ 29
europa 29
esti@@ 29
lut@@ 29
illi@@ 29
dus@@ 29
ira@@ 29
condem@@ 29
osman 29
spa 29
krst@@ 29
ems 29
ables 29
defi@@ 29
recover@@ 29
tari 29
nordic 29
ag 29
king@@ 29
cis 29
4.3 29
gel@@ 29
adria 29
darik 29
azeri 29
stem@@ 29
itable 29
sex@@ 29
10,@@ 29
silvio 29
heed 29
plassnik 29
mikere@@ 29
ethno@@ 29
pek@@ 29
magic 29
simultane@@ 29
slavon@@ 29
tam@@ 29
popov 29
paravantes 29
selmani 29
keys 29
tp 29
vera 29
proces@@ 29
cris@@ 29
ant@@ 29
continental 29
gaj 29
ired 29
moham@@ 29
pendarovski 29
guinness 29
etrol 29
copper 29
gos 29
aut@@ 29
tanovic 29
sighisoara 29
aches 29
sol 29
luk 29
omin@@ 29
eag@@ 29
patter@@ 29
mber 29
pancevo 29
lawed 29
kli@@ 29
fair@@ 29
arri@@ 29
gligorov 29
cheney 29
vola@@ 29
tudor 29
aqu@@ 29
doha 29
niko 29
brod 29
ez 29
compet@@ 29
kilo@@ 29
frau@@ 29
cathol@@ 29
maz@@ 29
zek@@ 29
3.1 29
your@@ 29
eurobon@@ 29
jackson 29
trave@@ 29
vecernji 29
cengiz 29
ann@@ 29
watch@@ 29
dragis@@ 29
twitter 29
tern 29
ane 29
handi@@ 29
environ@@ 29
buff@@ 29
stolojan 29
ponta 29
ademi 29
tea 29
bosna 29
taner 29
tc 29
rw@@ 29
0.2 29
kel 28
destin@@ 28
edita 28
depar@@ 28
reap 28
commer@@ 28
5.3 28
vou@@ 28
marc 28
thal@@ 28
gyp@@ 28
vassil@@ 28
gay 28
zen 28
inescu 28
outra@@ 28
phr@@ 28
fas 28
smiljanic 28
borisova 28
contrac@@ 28
tyco@@ 28
haxhinasto 28
arte@@ 28
garde 28
disbur@@ 28
dair@@ 28
wash@@ 28
layer 28
consider@@ 28
hir@@ 28
brian 28
vijesti 28
transatlantic 28
hydro@@ 28
yiel@@ 28
30km 28
flow@@ 28
exten@@ 28
gram 28
inist 28
lej@@ 28
peti@@ 28
illusion 28
tk 28
aden 28
bog@@ 28
leposav@@ 28
frame 28
agerpres 28
virgil 28
agrafiotis 28
dimitri@@ 28
signat@@ 28
gement 28
bes@@ 28
ula@@ 28
olo 28
princip@@ 28
classi@@ 28
ensemble 28
bosanski 28
recip@@ 28
cyril@@ 28
rebel@@ 28
persu@@ 28
trn@@ 28
remain@@ 28
ement 28
u2 28
srbije 28
movski 28
mos 28
cine@@ 28
metro 28
nific@@ 28
diff@@ 28
acce@@ 28
cam 28
prvoslav 28
dean 28
theless 28
jat@@ 28
ony@@ 28
denkova 28
staviski 28
hans 28
4.2 28
bon 28
dv@@ 28
ila 28
lateral 28
stead@@ 28
louis 28
fers 28
dral 28
pod@@ 28
gor 28
kinder@@ 28
mask 28
muja@@ 28
severin 28
sipa 28
lions 28
udmr 28
igman 28
transitions 28
absor@@ 28
bartholomew 28
franz 28
mentary 28
36@@ 28
galicnik 28
ab 28
warded 28
tev 28
braj@@ 28
riz@@ 28
egmont 28
zer@@ 28
pia 28
bondsteel 28
giu 28
chrome 28
taseva 27
vinc@@ 27
mimoza 27
certific@@ 27
orig@@ 27
istani 27
pren@@ 27
box@@ 27
magaz@@ 27
label@@ 27
ticism 27
cuse 27
inaugur@@ 27
pes@@ 27
exper@@ 27
vska 27
stitut@@ 27
aspir@@ 27
dare 27
broadcas@@ 27
tzvetina 27
entrepren@@ 27
tle@@ 27
mineral 27
luis 27
inski 27
sey 27
meli@@ 27
tren@@ 27
iana 27
bum@@ 27
mam@@ 27
univer@@ 27
fusion 27
vers@@ 27
medy 27
gradu@@ 27
hamper@@ 27
kovac@@ 27
jutarnji 27
wah@@ 27
sin 27
tep@@ 27
sures 27
iden@@ 27
bk 27
ored 27
ference 27
hns 27
corri@@ 27
trajko 27
ljupco 27
strate@@ 27
cecilia 27
angel@@ 27
refor@@ 27
reuni@@ 27
avail@@ 27
nos@@ 27
azerbai@@ 27
utrinski 27
vesnik 27
cr 27
sme@@ 27
unic@@ 27
bid@@ 27
comb@@ 27
ply 27
rae 27
consum@@ 27
1960 27
ened 27
orange 27
urred 27
gm@@ 27
wire@@ 27
elbasan 27
simir 27
insp@@ 27
seri@@ 27
apos@@ 27
hartmann 27
asy@@ 27
appro@@ 27
pec 27
mart 27
program 27
hia 27
jin 27
refu@@ 27
contain@@ 27
lia 27
cling 27
dacia 27
meg@@ 27
wilson 27
bez@@ 27
stoy@@ 27
mani@@ 27
edward 27
ions 27
maxim 27
stre@@ 27
reven@@ 27
ever@@ 27
final@@ 27
sir@@ 27
uka 27
mek@@ 27
djordje 27
xavier 27
5.6 27
turer 27
cani 27
hax@@ 27
diri@@ 27
turn@@ 27
expo 27
telenor 27
rug@@ 27
1945 27
6.4 27
sullivan 27
cek 27
mole@@ 27
aming 27
sil 27
acta 27
haiti 27
cija 27
screen@@ 27
bruno 27
stara 27
agos 27
sponsor 27
mac@@ 27
sff 27
chiarini 27
veliko 27
karat@@ 27
xhi 27
1982 26
mirsad 26
fu 26
civil@@ 26
emp@@ 26
tiff 26
compla@@ 26
neighbour@@ 26
iotis 26
derly 26
homen 26
milen@@ 26
democra@@ 26
bien@@ 26
ghly 26
sever 26
kun@@ 26
bist@@ 26
rodriguez 26
gymn@@ 26
edmond 26
formal@@ 26
jeleva 26
bilgi 26
planet 26
zani 26
rain@@ 26
plying 26
alban@@ 26
dep@@ 26
cin 26
villa@@ 26
mly 26
fon@@ 26
seis@@ 26
rem 26
hail 26
faz@@ 26
hang 26
nin@@ 26
mortgage 26
sabah 26
kole@@ 26
control@@ 26
gu 26
mobiltel 26
konjic 26
anski 26
serv@@ 26
dubai 26
paraly@@ 26
subs@@ 26
lence 26
asa 26
pero 26
mani 26
stored 26
rauf 26
school@@ 26
tenor 26
jovi@@ 26
competi@@ 26
partizan 26
kocijan@@ 26
susta@@ 26
barri@@ 26
verhagen 26
lava 26
ang@@ 26
aban@@ 26
fatlum 26
prejudi@@ 26
kedev 26
ira 26
360 26
hoo@@ 26
vak@@ 26
seven@@ 26
strauss 26
drag 26
bud@@ 26
wasted 26
dn 26
eller 26
8.5 26
megawatt 26
karad@@ 26
davi@@ 26
gad@@ 26
islami 26
agri@@ 26
radikal 26
sej@@ 26
legiti@@ 26
trp@@ 26
lucas 26
ilies 26
raf@@ 26
athle@@ 26
ura 26
bes 26
popova 26
observ@@ 26
zvornik 26
mercedes 26
trade@@ 26
nominal 26
bilic 26
impres@@ 26
cernavoda 26
boj@@ 26
journ@@ 26
sos@@ 26
svetlana 26
raznat@@ 26
program@@ 26
ovcara 26
recommen@@ 26
bunardzik 26
jar@@ 26
eagle 26
rullahu 26
korca 26
yar@@ 26
mobilkom 26
detec@@ 26
gar 26
blaga 26
sat@@ 26
geoffrey 26
film@@ 26
mila 26
albtelecom 26
bis 26
oce@@ 26
chs 26
liv@@ 26
guca 26
micun@@ 26
stefanovski 26
atalay 26
mira 26
vesel@@ 26
magyar 26
ava 25
diam@@ 25
guaran@@ 25
tels 25
pos 25
sacrifi@@ 25
ras 25
vaclav 25
slo@@ 25
kok@@ 25
mira@@ 25
dni@@ 25
care@@ 25
atan@@ 25
ˈ@@ 25
bio 25
avi@@ 25
suppor@@ 25
unodc 25
fled@@ 25
lem@@ 25
inher@@ 25
shore 25
isa@@ 25
phe@@ 25
sbih 25
tial 25
militar@@ 25
café 25
rust 25
ske@@ 25
circum@@ 25
ley@@ 25
conclu@@ 25
itsa 25
moldov@@ 25
marke@@ 25
ume 25
erup@@ 25
sand@@ 25
after@@ 25
excep@@ 25
bot 25
otov 25
deterior@@ 25
mato@@ 25
bach 25
sokol@@ 25
ruli 25
dog 25
sak 25
mini@@ 25
ste 25
alie 25
distribut@@ 25
00 25
jasna 25
scienti@@ 25
atifete 25
.org 25
inti@@ 25
lit 25
ich@@ 25
iste@@ 25
ior 25
ang 25
lehtinen 25
oth 25
gjakova 25
ught 25
radis@@ 25
determin@@ 25
seks 25
ciko@@ 25
mity 25
lur@@ 25
johan@@ 25
kac@@ 25
diaconescu 25
novin@@ 25
kus@@ 25
nikola@@ 25
theod@@ 25
victoria 25
ropoulos 25
spon@@ 25
tane@@ 25
danis 25
skender@@ 25
112 25
24@@ 25
konju@@ 25
traj@@ 25
zhe@@ 25
momir 25
pentagon 25
standar@@ 25
boucher 25
doboj 25
log@@ 25
dish 25
taliban 25
bell 25
nati@@ 25
upgra@@ 25
labor@@ 25
nik@@ 25
milen 25
vucin@@ 25
zag@@ 25
nel@@ 25
voda 25
ziv@@ 25
kel@@ 25
kenya 25
hss 25
bbb 25
afrim 25
yers 25
tec 25
thin@@ 25
itions 25
fyrom 25
omi@@ 25
depre@@ 25
treas@@ 25
finci 25
max 25
zban@@ 25
fav@@ 25
pardew 25
levski 25
lop@@ 25
confi@@ 25
wells 25
senti@@ 25
kost@@ 25
hep 25
ei@@ 25
banca 25
expl@@ 25
1915 25
pas 25
turin 25
ayr@@ 24
evac 24
resig@@ 24
kaz@@ 24
achiev@@ 24
info 24
econo@@ 24
greco 24
iki 24
roun@@ 24
ides 24
panag@@ 24
yur@@ 24
dat 24
kum@@ 24
teries 24
hein@@ 24
vlade 24
confer@@ 24
ret 24
aro@@ 24
bery 24
ltd 24
1967 24
ue 24
bratunac 24
sour@@ 24
toral 24
organis@@ 24
yer@@ 24
elek@@ 24
koz@@ 24
inging 24
janic 24
artan 24
riso@@ 24
loz@@ 24
omir 24
nel 24
weal@@ 24
emin@@ 24
lu 24
oth@@ 24
wikipedia 24
bogoljub 24
petrom 24
approxima@@ 24
shrin@@ 24
dp@@ 24
mental@@ 24
dil 24
d. 24
aki@@ 24
ette 24
adi@@ 24
ified 24
chel@@ 24
categor@@ 24
glavas 24
ile@@ 24
kryeziu 24
ests 24
djer@@ 24
kosov@@ 24
cola 24
ece@@ 24
boos@@ 24
hef@@ 24
a.@@ 24
gical 24
gjor@@ 24
ikea 24
nea 24
spas@@ 24
jin@@ 24
rosemary 24
rol 24
bursa 24
iste 24
rav@@ 24
announ@@ 24
ovidiu 24
yi@@ 24
inka 24
125 24
ey 24
reski 24
rence 24
banker 24
ioannis 24
peja 24
uk@@ 24
š@@ 24
gjilan 24
simon 24
tv@@ 24
femin@@ 24
mana@@ 24
eties 24
muharrem 24
consolid@@ 24
just@@ 24
legisla@@ 24
sibly 24
althea 24
affir@@ 24
goati 24
almunia 24
seiz@@ 24
olov 24
27.@@ 24
bakoyanni 24
var 24
picula 24
mend 24
ader 24
andrew 24
bac 24
ericsson 24
lech 24
pharmaceuticals 24
yun@@ 24
dvor 24
deep@@ 24
jahorina 24
ije 24
rai@@ 24
williamson 24
uncertain@@ 24
best@@ 24
doris 24
naumovski 24
mrt 24
seyin 24
uss 24
podravka 24
vuk@@ 24
eh 24
gir@@ 24
appla@@ 24
hay@@ 24
osmanag@@ 24
vetvendosje 23
seb 23
senad 23
advis@@ 23
anian 23
gotten 23
georgi@@ 23
ivanko 23
zer 23
danas 23
graph 23
vancouver 23
ilo 23
vseki 23
compen@@ 23
serbi@@ 23
slam 23
dragu@@ 23
ey@@ 23
lin 23
bela 23
zvezdan 23
yugo 23
radoslav 23
.hr 23
1985 23
nut@@ 23
tusup 23
ende@@ 23
albin 23
georgieva 23
stadi@@ 23
burkay 23
packaging 23
icki 23
stitute 23
policy@@ 23
christopher 23
1988 23
hav@@ 23
ober@@ 23
slow@@ 23
ard@@ 23
440 23
oprea 23
besnik 23
fox 23
kurt 23
stavros 23
kut@@ 23
belgra@@ 23
raz@@ 23
allow@@ 23
boar@@ 23
dinejad 23
zing 23
ket@@ 23
rek 23
kadir 23
intel@@ 23
refra@@ 23
dau@@ 23
dir 23
enthusias@@ 23
dana 23
oslav 23
bratislava 23
aliyev 23
elefther@@ 23
victor@@ 23
prison@@ 23
ints 23
pal 23
josep 23
borrell 23
rivi@@ 23
gaspar@@ 23
cess 23
debar 23
say@@ 23
tus@@ 23
hn 23
craft 23
hvar 23
introdu@@ 23
tric 23
tai@@ 23
itan 23
cag@@ 23
vecdi 23
golf 23
230 23
toler@@ 23
pin 23
reconc@@ 23
push@@ 23
adi 23
isted 23
wei@@ 23
egemen 23
1973 23
nec@@ 23
kastrati 23
kongra 23
smederevo 23
filip@@ 23
pollu@@ 23
succee@@ 23
friend@@ 23
ilova 23
gior@@ 23
jovica 23
simat@@ 23
venezuela 23
placement 23
vinko 23
timisoara 23
rcc 23
ith@@ 23
activis@@ 23
monica 23
siemens 23
paravac 23
ipko 23
rosen 23
murati 23
radomir 23
lupu 23
ekathimerini 23
anov 23
alled 23
osmani 23
profes@@ 23
leka 23
pira@@ 23
xhi@@ 23
wef 23
prespa 23
selim@@ 23
astronom@@ 23
ral 23
tent 23
jovanovska 23
mehmed 23
pavlevski 23
unficyp 23
sot@@ 23
eucom 23
kirin 23
blocka@@ 22
ishes 22
inqu@@ 22
kl@@ 22
lieberman 22
hamas 22
tionality 22
bnr 22
lets 22
theodoros 22
aliu 22
respec@@ 22
haras@@ 22
argen@@ 22
kne@@ 22
alig@@ 22
jon@@ 22
novel@@ 22
exerc@@ 22
tn@@ 22
kovo 22
ognjen 22
scra@@ 22
kesi@@ 22
kneze@@ 22
groz@@ 22
compati@@ 22
goti@@ 22
olos 22
bir 22
mut 22
oi@@ 22
eping 22
cent@@ 22
plagu@@ 22
bran 22
laun@@ 22
imam 22
ariu 22
nacional 22
rad 22
alexei 22
ori 22
ramadani 22
desper@@ 22
dumit@@ 22
dino 22
fin 22
bal 22
isla@@ 22
rar@@ 22
muhamed 22
zuzul 22
bozo 22
sensi@@ 22
milevska 22
split@@ 22
dragut@@ 22
anja 22
bekistan 22
kremlin 22
ligence 22
msnbc 22
sonja 22
noble 22
usted 22
ebu 22
apple 22
uta 22
arifi 22
vl@@ 22
surroun@@ 22
fic 22
faith@@ 22
rin 22
otp 22
waldner 22
villa 22
dari 22
douglas 22
ground@@ 22
nun@@ 22
1971 22
richter 22
monte 22
advo@@ 22
vas 22
kiev 22
matei 22
raj@@ 22
mario 22
yach@@ 22
monaco 22
mont@@ 22
nez@@ 22
sisak 22
attica 22
kral@@ 22
macy 22
ima 22
megawat@@ 22
a. 22
cisco 22
oph@@ 22
catalin 22
sigh@@ 22
raffi 22
ander@@ 22
spo 22
cant@@ 22
rul@@ 22
icmp 22
jeffrey 22
diz@@ 22
drenica 22
ljuboten 22
fing 22
tum 22
kara@@ 22
mmed 22
mali@@ 22
nest@@ 22
tek@@ 22
jo 22
westerwelle 22
emil@@ 22
ceca 22
vor@@ 22
gerdec 22
chec@@ 22
colak 22
vac 22
nedz@@ 22
spec@@ 22
akes 22
gol 22
cac@@ 22
reid 22
ral@@ 22
dragisa 22
marri@@ 22
pr 22
tling 22
lier 22
asse@@ 22
grabar 22
kitar@@ 22
krajisnik 22
enel 22
avr@@ 22
oh@@ 22
ciu@@ 22
reeker 22
resum@@ 22
benjamin 22
ljubljanska 22
applican@@ 22
ob 22
ohio 22
suici@@ 22
esa 22
appointing 22
caf@@ 22
jaeger 22
libera 22
bari 22
wes@@ 22
ifa 22
evros 22
deter@@ 22
dali 22
nikolai 22
locher 22
sah@@ 22
wh 22
havel 22
lance 22
cvi@@ 22
forbes 22
anda 22
molyviatis 22
internation@@ 22
atanasi@@ 22
andjel@@ 22
gop@@ 22
teenag@@ 22
universi@@ 22
confis@@ 21
yiannis 21
endanger@@ 21
hamid 21
allan 21
maz 21
wrest@@ 21
descri@@ 21
acade@@ 21
ferenc 21
serda 21
cox 21
maastricht 21
valen@@ 21
viz@@ 21
trebinje 21
bat 21
house@@ 21
chicago 21
rati@@ 21
dublin 21
fta 21
orien@@ 21
gjergji 21
attribu@@ 21
sot 21
nostal@@ 21
aktar 21
citi@@ 21
gry 21
ky 21
vojvo@@ 21
botsan 21
jaca 21
anim@@ 21
piran 21
dell 21
lal 21
sega 21
ataka 21
mel 21
malev 21
arre@@ 21
min 21
gula@@ 21
pup@@ 21
pol 21
ursula 21
ville 21
umn 21
malmstrom 21
asso 21
nemanja 21
topolanek 21
dat@@ 21
het@@ 21
stari 21
mirli 21
challen@@ 21
robo@@ 21
juli@@ 21
zogiani 21
ll 21
setimes.com 21
maxime 21
meto@@ 21
ferrero 21
titude 21
rtcg 21
frckovski 21
yar 21
inning 21
archi@@ 21
wan 21
bulgargaz 21
stipu@@ 21
adam 21
sett@@ 21
dominique 21
barkey 21
retros@@ 21
adin 21
gunter 21
puscas 21
vet 21
gabriela 21
christi@@ 21
yusuf 21
bbb- 21
eff@@ 21
ry@@ 21
itz 21
decentral@@ 21
mcv 21
iuli@@ 21
hays 21
awar@@ 21
ear 21
ovich 21
josef 21
robot 21
mates 21
dc 21
mist 21
andrei 21
trifun@@ 21
wre@@ 21
veget@@ 21
trage@@ 21
luc 21
got@@ 21
yon@@ 21
siz@@ 21
gymnasium 21
identi@@ 21
dul 21
amsterdam 21
resear@@ 21
sars 21
kahn 21
dtt 21
tch 21
ulo@@ 21
hamad 21
dina 21
zaj@@ 21
arthur 21
barr 21
verdi 21
saban@@ 21
alexandros 21
massari 21
milena 21
mav@@ 21
prm 21
vb 21
arta 21
dah 21
volunte@@ 21
ej@@ 21
craiova 21
aku 21
aio 21
pova 21
inej 21
realitatea 21
jonathan 21
angelina 21
nbg 21
kalet@@ 21
g20 21
heu 21
skat@@ 21
tary 21
vilnius 21
netanyahu 21
ech@@ 21
zdrav@@ 21
psi 21
avala 21
privati@@ 20
ramkovski 20
fti 20
remov@@ 20
rada 20
matsuura 20
lakis 20
teli@@ 20
cove 20
lithu@@ 20
jet@@ 20
terror@@ 20
otto 20
antar@@ 20
dless 20
neza 20
travnik 20
florin 20
ature 20
ensem@@ 20
edu@@ 20
istence 20
traykov 20
nba 20
miguel 20
lary 20
zvonko 20
web@@ 20
jour@@ 20
blues 20
ij 20
ald 20
arch 20
akr 20
oral 20
presse 20
ww@@ 20
kolubara 20
yu 20
montana 20
bayram 20
salzburg 20
cros@@ 20
1944 20
1948 20
chur@@ 20
menduh 20
ambul@@ 20
servi@@ 20
ultranation@@ 20
solyom 20
oski 20
aren@@ 20
dragana 20
rectly 20
charac@@ 20
blerim 20
zman 20
famili@@ 20
florence 20
ule 20
mountain@@ 20
raf 20
kristi@@ 20
andrej 20
saraj@@ 20
peace@@ 20
eci 20
even@@ 20
badinter 20
hem 20
ë@@ 20
ao 20
lian 20
eurobank 20
bina 20
ris 20
1978 20
nasa 20
alties 20
l. 20
harvard 20
skil@@ 20
ks@@ 20
iku 20
belul 20
bl@@ 20
treat@@ 20
tass 20
emportal 20
get@@ 20
yol 20
judg@@ 20
jka 20
carri@@ 20
sios 20
ziua 20
aes 20
stur@@ 20
eness 20
trivan 20
cameron 20
beg 20
certi@@ 20
bute 20
hikmet 20
mirel 20
berger 20
stamboliski 20
mum@@ 20
facilit@@ 20
vest@@ 20
deva 20
inge 20
enka 20
kabul 20
tur 20
nac 20
morris 20
cines 20
davos 20
sement 20
collap@@ 20
nes@@ 20
bay@@ 20
jek@@ 20
s.com 20
j. 20
lja 20
jer 20
tres@@ 20
matijas@@ 20
snp 20
gold@@ 20
yards 20
podujevo 20
ague 20
onally 20
nrc 20
1970 20
stak@@ 20
aph@@ 20
nac@@ 20
napoca 20
near@@ 20
prosecut@@ 20
morar 20
constantin 20
sie 20
gregory 20
kaidanow 20
metro@@ 20
maurizio 20
adevarul 20
versi@@ 20
aster@@ 20
insig 20
yle 20
ari@@ 20
milovan 20
busat@@ 20
phor@@ 20
privile@@ 20
hrvat@@ 20
erial 20
kohavision 20
goethe 20
haw@@ 20
ahmed 20
kokin@@ 20
turkcell 20
electrica 20
tect 20
gorazde 20
srbijagas 20
alev@@ 20
dec@@ 20
dane 20
laj 20
dobro@@ 20
timo@@ 19
minim@@ 19
karzai 19
appoin@@ 19
yang 19
oted 19
discover@@ 19
alex 19
dritan 19
kostas 19
zam@@ 19
tti 19
prag@@ 19
tral 19
mato 19
johan 19
mala 19
gevgeli@@ 19
progra@@ 19
miz@@ 19
manchevski 19
west@@ 19
tson@@ 19
corneliu 19
kati@@ 19
sokol 19
av 19
rica 19
salihu 19
nal 19
brahi@@ 19
gia 19
appear@@ 19
shq@@ 19
goj@@ 19
karel 19
radoj@@ 19
enica 19
unds 19
ishi 19
chevron 19
bregu 19
vandal@@ 19
incor@@ 19
reporter.gr 19
vuko@@ 19
dim 19
tsvetan 19
dragnea 19
himi 19
muamer 19
prelec 19
cres@@ 19
italia 19
ingent 19
duran 19
tug@@ 19
facul@@ 19
nex@@ 19
ought 19
miomir 19
matur@@ 19
tality 19
poriki 19
zele@@ 19
istina 19
coca 19
stipula@@ 19
tough@@ 19
ei 19
melbourne 19
mac 19
tevski 19
foreig@@ 19
ceni 19
borko 19
lama 19
sax@@ 19
nuri 19
bos 19
geli@@ 19
maili 19
sollaku 19
aracinovo 19
lil@@ 19
ues 19
rat 19
otis 19
p. 19
energoinvest 19
fiba 19
ort@@ 19
cole 19
1979 19
zerp 19
onur 19
dedi@@ 19
dynam@@ 19
shekulli 19
morgan 19
ional 19
zvon@@ 19
mega 19
kp 19
equip@@ 19
hristo 19
145 19
selo 19
val 19
briga@@ 19
kranjcar 19
dani 19
sek 19
vranje 19
fab@@ 19
sls 19
rehabil@@ 19
pron@@ 19
stevan 19
har 19
andri@@ 19
becali 19
sko@@ 19
erz@@ 19
iwpr 19
hler 19
č@@ 19
witnes@@ 19
consist@@ 19
tiri@@ 19
mccormack 19
ques 19
850 19
nag@@ 19
nicholl 19
iye 19
mou 19
arul 19
kf@@ 19
musa 19
lim@@ 19
inovski 19
ovci 19
banatski 19
zagrebdox 19
sapard 19
pante@@ 19
gery 19
br 19
anul 19
chu@@ 19
oswald 19
luk@@ 19
gian@@ 19
transgaz 19
filat 19
erl 19
christina 19
hellas 19
cei 19
assum@@ 19
carlo 19
further@@ 19
atlanta 19
yev 19
rex@@ 19
francois 19
madonna 19
samast 19
tov 19
cp 19
jab@@ 19
mcelhaney 19
rec 19
petros 19
franco@@ 19
medve@@ 19
wolfowitz 19
sors 19
lugar 19
bentler 19
mali 19
rit 19
milj@@ 19
primorac 19
baghdatis 19
slobodanka 19
theat@@ 19
koto@@ 19
isarescu 19
hevski 19
jung 19
thra@@ 19
cvjet@@ 19
lora 19
europ@@ 18
prerequis@@ 18
bugojno 18
our@@ 18
mlloja 18
wester@@ 18
paralle@@ 18
panathinaikos 18
dzija 18
sliven 18
communic@@ 18
bill@@ 18
ually 18
116 18
tsvet@@ 18
secu@@ 18
2016 18
rosatom 18
todor 18
documen@@ 18
minent 18
gang@@ 18
sev 18
cevo 18
remember@@ 18
fehmiu 18
portfol@@ 18
apol@@ 18
salon 18
uf@@ 18
cior@@ 18
mk 18
fonet 18
societe 18
habsburg 18
ives 18
verica 18
dding 18
chasa 18
siderov 18
engin 18
ln@@ 18
strugg@@ 18
restruc@@ 18
liviu 18
prol@@ 18
face@@ 18
ansip 18
vreme 18
coman@@ 18
ivanis@@ 18
marco 18
elli 18
tz 18
gjana 18
soros 18
risto 18
elizabeta 18
nia 18
laure@@ 18
mont 18
oulos 18
drago 18
ruz@@ 18
versity 18
deha@@ 18
dj 18
recognis@@ 18
corrup@@ 18
aner 18
embezz@@ 18
anin 18
1946 18
dently 18
pk@@ 18
surviv@@ 18
vised 18
dian 18
exha@@ 18
savo 18
eld 18
kuna 18
gardetto 18
neretva 18
leonard 18
zig 18
paradi@@ 18
lars 18
func@@ 18
zaev 18
ulu@@ 18
demir@@ 18
opol@@ 18
lot@@ 18
kad@@ 18
kilome@@ 18
nick 18
tained 18
bihac 18
stvo 18
1975 18
stjepan 18
kastriot 18
resor@@ 18
dozer 18
gather@@ 18
marsicanin 18
tore 18
loncar 18
12,@@ 18
sumo 18
minist@@ 18
voic@@ 18
millen@@ 18
sman 18
ub@@ 18
sas 18
jub 18
trajanov 18
authen@@ 18
injur@@ 18
ksenija 18
explor@@ 18
varazdin 18
voz@@ 18
mersin 18
justin 18
tsar@@ 18
requ@@ 18
barac 18
valotto 18
kis 18
sep@@ 18
obren@@ 18
fren@@ 18
kanceska 18
sta 18
kolinda 18
cbbh 18
bry@@ 18
distingu@@ 18
0,@@ 18
skin 18
eurobond 18
jen 18
giotopoulos 18
kw 18
ljum@@ 18
irina 18
chos@@ 18
expan@@ 18
dicle 18
ispa 18
mode@@ 18
tokes 18
hakan 18
sorin 18
tex 18
latifi 18
milli@@ 18
olaf 18
gianna 18
evgen@@ 18
tara 18
yemen 18
cd 18
agan 18
dimitrovgrad 18
korac 18
ox 18
cis@@ 18
tuncel 18
koh@@ 18
ana@@ 18
marri 18
bail@@ 18
nano@@ 18
woo@@ 18
resses 18
trieste 18
exclu@@ 18
ske 18
dm 18
endi@@ 18
isg 18
mup 18
plas@@ 18
cana 18
christo 18
vej@@ 18
ceyhan 18
sofa 18
bies 18
fro@@ 18
js 18
hayssam 18
dows 18
glis@@ 18
jti 18
irex 18
trop@@ 18
bje@@ 18
jacev 18
alevi 18
resen 18
hidro@@ 17
bish@@ 17
tul@@ 17
faction 17
rim 17
abol@@ 17
oulou 17
boston 17
oy 17
dumitru 17
dou 17
gir 17
zaf@@ 17
rahman 17
porto 17
alexandra 17
techni@@ 17
mud 17
indu@@ 17
liapis 17
colum@@ 17
aleksandra 17
iro@@ 17
ovan@@ 17
anno@@ 17
usive 17
bulgartabac 17
vica 17
business@@ 17
zapatero 17
horiz@@ 17
basa 17
luan 17
cali@@ 17
riz 17
rom@@ 17
sekul@@ 17
vassiliou 17
schwarzenberg 17
depen@@ 17
agence 17
ulrich 17
acti@@ 17
cession 17
mad@@ 17
vuke@@ 17
subotica 17
vip 17
perpetrat@@ 17
ella 17
mort@@ 17
reinfeldt 17
scep@@ 17
hion 17
bliznakov 17
101 17
tration 17
titu@@ 17
examin@@ 17
mik 17
tihomir 17
oriz@@ 17
oblig@@ 17
allah 17
pat 17
philos@@ 17
vahit 17
fen@@ 17
zlat@@ 17
hibi@@ 17
erste 17
lul@@ 17
paramil@@ 17
punish@@ 17
contem@@ 17
certain@@ 17
gal 17
andon@@ 17
benita 17
ruse 17
nen 17
kali 17
rible 17
seller 17
appathurai 17
idol 17
bodrum 17
kather 17
dubra@@ 17
tro 17
kid@@ 17
humphreys 17
olympia 17
henri 17
agrokor 17
orchest@@ 17
athanas@@ 17
zafer 17
intesa 17
115 17
legi@@ 17
maritsa 17
tek 17
por 17
soy 17
ljak 17
stoyanov 17
vena 17
lica 17
swim@@ 17
solo 17
haliti 17
oslobodjenje 17
topal@@ 17
sz@@ 17
chap@@ 17
dden 17
explan@@ 17
scru@@ 17
acci@@ 17
poli 17
publi@@ 17
viet@@ 17
kay@@ 17
beris@@ 17
boro 17
arkan 17
sequ@@ 17
mladen@@ 17
vaz@@ 17
tec@@ 17
vela 17
bilkent 17
stad@@ 17
dinamo 17
prepar@@ 17
rey 17
2017 17
mehmeti 17
marius 17
satis@@ 17
alco@@ 17
toni 17
acknowled@@ 17
wer@@ 17
260 17
13,@@ 17
dro 17
gerald 17
eca@@ 17
reka 17
uc@@ 17
oi 17
kemal@@ 17
nichol@@ 17
grbavica 17
karam@@ 17
phas@@ 17
owski 17
balan@@ 17
velika 17
turers 17
bnt 17
iv 17
brin@@ 17
hiro 17
bijeljina 17
krs@@ 17
rah@@ 17
limani 17
transnistria 17
ledra 17
ggle 17
flori@@ 17
sov 17
nef@@ 17
spiegel 17
dei 17
nab@@ 17
vm 17
danova 17
vojin 17
diploma 17
1961 17
210 17
lak@@ 17
nhqsa 17
esma 17
hiz@@ 17
transconflict 17
cacak 17
spy@@ 17
jurisdi@@ 17
kada 17
investig@@ 17
planina 17
sap 17
vio@@ 17
abak@@ 17
ele 17
mg@@ 17
juris@@ 17
cak 17
johannesburg 17
ome@@ 17
zef 17
bankas@@ 17
osman@@ 17
vest 17
awlaki 17
cnsas 17
tarnovo 17
airbus 17
duk 17
erbakan 17
sofianski 17
hut@@ 17
linden 17
ye 16
degert 16
huruglica 16
die@@ 16
tez@@ 16
trabzon 16
osto@@ 16
patras 16
kukan 16
negotino 16
aviv 16
etti 16
gene 16
idc 16
fik@@ 16
reput@@ 16
yev@@ 16
emphas@@ 16
rels 16
haber 16
gorenje 16
petrovaradin 16
apo@@ 16
anni@@ 16
gac@@ 16
ale@@ 16
dali@@ 16
withers 16
konya 16
nikica 16
celebr@@ 16
afat 16
boeing 16
pad@@ 16
rados@@ 16
drik 16
yana 16
ough 16
126 16
milutin 16
arely 16
108 16
esra 16
accoun@@ 16
367 16
fak@@ 16
buke@@ 16
europe.bg 16
aga@@ 16
andrea 16
tros@@ 16
pollo 16
ison 16
ods 16
ential 16
braz@@ 16
sibility 16
chal@@ 16
mism 16
siro@@ 16
resol@@ 16
rying 16
ilham 16
atanas@@ 16
liu 16
andris 16
brid@@ 16
virgin@@ 16
lena 16
ht@@ 16
amer@@ 16
beau@@ 16
sid 16
keraterm 16
robin@@ 16
jol@@ 16
ularly 16
egyp@@ 16
mezi 16
selmo 16
stut@@ 16
stevo 16
indeb@@ 16
tak 16
administrat@@ 16
mate@@ 16
makedonski 16
brijuni 16
infrastruc@@ 16
glen@@ 16
ž@@ 16
aaron 16
telsim 16
rotterdam 16
transyl@@ 16
santek 16
135 16
romtelecom 16
1957 16
anal@@ 16
pam@@ 16
judi@@ 16
tsenkov 16
nin 16
340 16
muha@@ 16
singh 16
dobri@@ 16
drum 16
gements 16
delo@@ 16
vardar 16
bijel@@ 16
kiro 16
zagre@@ 16
vos@@ 16
sole@@ 16
kro@@ 16
alis@@ 16
eger 16
boja@@ 16
schild 16
nagy 16
thre@@ 16
hypo 16
biz@@ 16
giuseppe 16
joaquin 16
kazak@@ 16
hatz@@ 16
visoki 16
121 16
nedim 16
bey@@ 16
bage 16
rer@@ 16
poin@@ 16
salvador 16
sam 16
spart@@ 16
escap@@ 16
genu@@ 16
hectar@@ 16
bele@@ 16
gram@@ 16
tees 16
alam@@ 16
revolu@@ 16
cvet@@ 16
epcg 16
ern@@ 16
relev@@ 16
expul@@ 16
sri 16
icev@@ 16
tonino 16
aug@@ 16
nja 16
ulan@@ 16
rehabilit@@ 16
taton 16
lex 16
tola 16
memor@@ 16
iver 16
veljanovski 16
yav@@ 16
dri 16
kola@@ 16
spasov 16
dragomir 16
citaku 16
maliki 16
volks@@ 16
mures 16
106 16
astra 16
wolf@@ 16
hadley 16
dimov@@ 16
selim 16
henry 16
morning@@ 16
gillian 16
ponos 16
dde@@ 16
lightly 16
vukas@@ 16
sevi@@ 16
manchester 16
ado 16
stano@@ 16
hac@@ 16
jim 16
ferguson 16
eanu 16
kosovareport 16
jon 16
freder@@ 16
assment 16
abbas 16
albtelekom 16
gf@@ 16
dea 16
grub@@ 16
akkuyu 16
gere 16
kuz@@ 16
yadis 16
jagnjenica 16
minsk 16
mbmd 16
sorensen 16
guehenno 16
inov 16
carreras 16
sredoje 16
orden 16
compe@@ 16
news.bg 16
dokufest 16
zafer@@ 16
bukov@@ 16
georgiou 16
techn@@ 16
mihajl@@ 16
caglavica 16
relja 16
dik@@ 16
papadi@@ 16
intern@@ 16
acr 16
rajevac 16
fili@@ 16
elghandour 16
yal 15
oliti@@ 15
mur 15
a- 15
vard 15
165 15
oyan 15
tut@@ 15
ram 15
athan@@ 15
fc 15
.. 15
elen@@ 15
vanhanen 15
leigh 15
bure@@ 15
percen@@ 15
ace 15
kings 15
poposki 15
atten@@ 15
petersburg 15
aco 15
grip 15
dit 15
nico@@ 15
vlas@@ 15
ovina 15
lum 15
sir 15
mitro@@ 15
sebastian 15
hak 15
rect 15
cade@@ 15
hristov 15
deci@@ 15
ice@@ 15
naser 15
cross@@ 15
stratfor 15
ude 15
tele2 15
cht 15
humane 15
aferdita 15
maksim 15
bli@@ 15
prac@@ 15
branimir 15
fon 15
jali 15
valya 15
ather 15
distribu@@ 15
halis 15
ternava 15
lek 15
270 15
220 15
salih 15
gart 15
spaso@@ 15
subscri@@ 15
vjetrenica 15
put@@ 15
ariz@@ 15
transi@@ 15
zerihoun 15
mond 15
nist@@ 15
victi@@ 15
cg 15
b. 15
zr@@ 15
tnews 15
alum@@ 15
trud 15
dini 15
slobodna 15
palli 15
petral@@ 15
dying 15
scholar@@ 15
mous 15
ulting 15
ultima@@ 15
trav@@ 15
beyrle 15
simp@@ 15
constra@@ 15
milan@@ 15
dee@@ 15
mev@@ 15
sveti 15
butrint 15
192 15
tho@@ 15
kilowatt 15
exagger@@ 15
truc@@ 15
zoellick 15
kok 15
medenica 15
pandeli 15
michel 15
cem 15
000 15
auth@@ 15
g.@@ 15
nicola@@ 15
detain@@ 15
cere@@ 15
consorti@@ 15
franko 15
mihal@@ 15
enga@@ 15
kak@@ 15
yam@@ 15
foren@@ 15
ental 15
ilane 15
antoniou 15
assist@@ 15
jelas@@ 15
nihat 15
budge@@ 15
skare 15
ozbolt 15
330 15
opoulou 15
indj@@ 15
k. 15
predomin@@ 15
sans 15
hr 15
gji@@ 15
kolay 15
vadi@@ 15
tem 15
topcag@@ 15
uruguay 15
198@@ 15
mavi 15
183 15
mullen 15
defe@@ 15
tura 15
hale 15
lem 15
jad@@ 15
nier 15
prije@@ 15
gaf@@ 15
hija 15
vinci 15
titov 15
pt@@ 15
mgk 15
bogos@@ 15
cey@@ 15
nedelj@@ 15
jeli@@ 15
landsli@@ 15
tif@@ 15
hemo@@ 15
demos 15
toska 15
fo 15
chard 15
duka 15
ghe@@ 14
maur@@ 14
atas@@ 14
rossin 14
reh@@ 14
noon 14
skun@@ 14
ision 14
tural 14
sudan 14
kaplan@@ 14
puhal@@ 14
model@@ 14
bek@@ 14
tray@@ 14
svet@@ 14
glas@@ 14
will@@ 14
stamen@@ 14
cowen 14
manship 14
nit@@ 14
generale 14
nn 14
kond@@ 14
presti@@ 14
tack@@ 14
nesses 14
pn@@ 14
yo 14
abani 14
high@@ 14
poz@@ 14
investi@@ 14
affa@@ 14
sulej@@ 14
parliamentar@@ 14
kerim 14
stru@@ 14
emin 14
isms 14
inden 14
ike 14
berto 14
patron@@ 14
snez@@ 14
catas@@ 14
gallach 14
boycot@@ 14
isi 14
piebalgs 14
ories 14
emi@@ 14
138 14
keepers 14
lands@@ 14
disban@@ 14
electron@@ 14
metin 14
deut@@ 14
15,@@ 14
oly@@ 14
dili@@ 14
makar@@ 14
procee@@ 14
dimir 14
dest 14
105 14
itis 14
akkale 14
inci 14
duk@@ 14
swoboda 14
edin@@ 14
heli@@ 14
aterally 14
rement 14
hn@@ 14
vatan 14
stry 14
ney 14
judici@@ 14
rumyana 14
ell 14
b- 14
pire 14
disput@@ 14
markus 14
144 14
john@@ 14
langu@@ 14
casey 14
returne@@ 14
sov@@ 14
accum@@ 14
cker@@ 14
tus 14
diu 14
fut@@ 14
dra 14
boun@@ 14
bh@@ 14
itu 14
spectac@@ 14
bil 14
borovcanin 14
antun@@ 14
precau@@ 14
mis 14
ulos 14
postpon@@ 14
tay 14
gnj@@ 14
kev@@ 14
zet@@ 14
bob 14
matache 14
integra@@ 14
bine 14
gible 14
easi@@ 14
ive@@ 14
beri 14
kale@@ 14
amo 14
atures 14
dants 14
protes@@ 14
smu@@ 14
feller 14
cesses 14
crats 14
hiri 14
annis 14
enerji 14
beara 14
colon@@ 14
beq@@ 14
manag@@ 14
infan@@ 14
jovan@@ 14
emre 14
phere 14
yn@@ 14
tish 14
mote 14
mex@@ 14
ops 14
sok 14
milo@@ 14
janovski 14
yn 14
holi@@ 14
reding 14
stac@@ 14
sson 14
yaz@@ 14
yla 14
anon@@ 14
gsy@@ 14
gali@@ 14
md 14
kly 13
youn@@ 13
sings 13
hellen@@ 13
udov@@ 13
stitu@@ 13
miche@@ 13
geno@@ 13
rot 13
ciornei 13
teod@@ 13
ikon 13
fil 13
taries 13
sna@@ 13
statisti@@ 13
fis 13
cou@@ 13
eter@@ 13
photograph@@ 13
deleg@@ 13
dai@@ 13
entrepreneur@@ 13
gian 13
uz 13
tuz@@ 13
milos@@ 13
selin 13
adv@@ 13
lugg@@ 13
spi@@ 13
bak 13
merci@@ 13
popular@@ 13
dio 13
hin 13
consen@@ 13
katar@@ 13
gez@@ 13
priz@@ 13
samar@@ 13
ignor@@ 13
analiti@@ 13
ipi 13
tage 13
popul@@ 13
conserv@@ 13
commission@@ 13
atta 13
thes@@ 13
innov@@ 13
1930 13
broker@@ 13
blu@@ 13
indepen@@ 13
128 13
stum@@ 13
pati@@ 13
raff@@ 13
glav@@ 13
mentation 13
mesut 13
ney@@ 13
nish 13
procu@@ 13
reshuff@@ 13
allevi@@ 13
ire@@ 13
inary 13
legen@@ 13
uygu@@ 13
mla@@ 13
konus@@ 13
choos@@ 13
mework 13
devast@@ 13
had@@ 13
konstantin 13
otopoulos 13
mark@@ 13
dij@@ 13
acquis@@ 13
aspira@@ 13
dol 13
dict@@ 13
ite@@ 13
taj@@ 13
hoolig@@ 13
zan 13
cese@@ 13
boy@@ 13
emma 13
are@@ 13
zey@@ 13
leak@@ 13
tablo@@ 13
figu@@ 13
imar@@ 13
ljaj@@ 13
protest@@ 13
soti@@ 13
premis@@ 13
coz@@ 13
latif 13
olympi@@ 13
ior@@ 13
oz 13
eti 13
uris 13
halk@@ 13
quanti@@ 13
iliation 13
zim@@ 13
nav@@ 13
cay 13
nai 13
suz@@ 13
saba@@ 13
elektro@@ 13
jankul@@ 13
lego 13
joble@@ 13
ˈ 13
beli 13
milis@@ 13
slan 13
viso@@ 13
serge@@ 13
kap 13
aziz@@ 12
electri@@ 12
111 12
festi@@ 12
sies 12
portal@@ 12
elle 12
152 12
concentr@@ 12
rom 12
ambassa@@ 12
datab@@ 12
know@@ 12
lemierre 12
geograph@@ 12
bn@@ 12
ange@@ 12
yel 12
evi 12
abi@@ 12
102 12
dita 12
philosoph@@ 12
thur@@ 12
satur@@ 12
math 12
igh 12
quis@@ 12
lla 12
central@@ 12
anet 12
320 12
fik 12
llo@@ 12
mob@@ 12
lular 12
gus@@ 12
herzeg@@ 12
weap@@ 12
lest 12
sacri@@ 12
occu@@ 12
nan 12
ctable 12
layan 12
imag@@ 12
lana 12
mations 12
oto@@ 12
dialo@@ 12
boris@@ 12
ester 12
svil@@ 12
conc@@ 12
lick 12
battal@@ 12
illing 12
aus@@ 12
artif@@ 12
news.@@ 12
bbi 12
mevlana 12
doz@@ 12
rau@@ 12
lez@@ 12
ret@@ 12
cz@@ 12
ansa 12
bosn@@ 12
vete@@ 12
dum 12
lak 12
leon@@ 12
kalan@@ 12
unders 12
enor@@ 12
zor 12
ohi@@ 12
klas@@ 12
kandil 12
health@@ 12
valu@@ 12
sumed 12
zil@@ 12
meri 12
280 12
americ@@ 12
19,@@ 12
numer@@ 12
dening 12
ouli@@ 12
ake 12
ety 12
ya@@ 12
inters 12
zog@@ 12
cancel@@ 12
kris@@ 12
aba 12
tana 12
afri@@ 12
asov 12
ebe 12
christo@@ 12
tepe 12
wen 12
phan@@ 12
separati@@ 12
contribut@@ 12
swis@@ 12
bek 12
nick@@ 12
rene 12
380 12
brit@@ 12
kun 12
fiz@@ 12
aç@@ 12
poulos 12
neutr@@ 12
vre@@ 12
ceanu 12
lara 12
verage 12
opportun@@ 11
therap@@ 11
ombuds@@ 11
ece 11
ring@@ 11
ductions 11
karak@@ 11
umi 11
kat 11
ital 11
hrist@@ 11
bt 11
taban@@ 11
anxi@@ 11
standart@@ 11
ular 11
bana 11
lani 11
türkiye 11
yen 11
n1 11
cky 11
ington 11
lam 11
dok@@ 11
commis@@ 11
mitting 11
sti 11
ggling 11
state@@ 11
tuna 11
w.@@ 11
kup@@ 11
them@@ 11
pau@@ 11
taci 11
* 11
cise 11
dt 11
17,@@ 11
downgra@@ 11
vene@@ 11
kar 11
inian 11
aleksan@@ 11
ister 11
subur@@ 11
good@@ 11
175 11
rober@@ 11
where@@ 11
deniz@@ 11
fem@@ 11
his@@ 11
govern@@ 11
glas 11
subjec@@ 11
antly 11
partner@@ 11
invest@@ 11
20,@@ 11
kale 11
dik 11
git@@ 11
massa@@ 11
yannis 11
gjerg@@ 11
vendos@@ 11
associ@@ 11
1950 11
ë 11
elic 11
bu 11
kere 11
telekom@@ 11
temper@@ 11
reper@@ 11
onar@@ 11
dec 11
micha@@ 11
fp 11
igno@@ 11
dictat@@ 11
testi 11
krsti@@ 11
tik@@ 11
ede@@ 11
implic@@ 11
mace@@ 11
crai@@ 11
daj 11
fini 11
mert 11
isti 11
zir@@ 11
hass@@ 11
reu@@ 11
enem@@ 11
imler 11
teen@@ 11
oran 11
mahmud 11
oms 11
117 11
dimitri 11
canin 11
sona 11
nazar@@ 11
merc@@ 11
bab@@ 11
controversi@@ 11
paskal@@ 11
manch@@ 11
mists 11
ree 11
chen@@ 11
metri@@ 11
uli@@ 11
ikov 11
herit@@ 11
rogan@@ 11
affor@@ 11
sey@@ 11
through@@ 11
mies 11
muammer 11
pek 11
icial 11
kol 11
kal 11
taj 11
novos@@ 11
bourg 11
isra@@ 11
ices 11
sages 11
optimis@@ 11
lah@@ 11
leum 11
gr 11
usuz 11
alan 11
lika 11
jah@@ 11
phony 11
terim 11
assur@@ 10
iou 10
cemal 10
raz 10
intro@@ 10
esti 10
ith 10
santi@@ 10
sculp@@ 10
phy@@ 10
ljubi@@ 10
eted 10
miz 10
ilgili 10
özel 10
sitesi 10
geliyor 10
effici@@ 10
more@@ 10
krist@@ 10
blog@@ 10
inen 10
ramazan@@ 10
tremen@@ 10
sevo 10
eti@@ 10
dafi 10
afer@@ 10
cath@@ 10
skop@@ 10
abri@@ 10
candi@@ 10
adil 10
yanov 10
arly 10
aya 10
macro@@ 10
psy@@ 10
ahme@@ 10
grup@@ 10
phot@@ 10
neys 10
isen 10
inhabi@@ 10
irregular@@ 10
then@@ 10
drak@@ 10
tainment 10
tir 10
resolu@@ 10
rodri@@ 10
ala@@ 10
ranka 10
div 10
teur 10
sana 10
coup@@ 10
zve@@ 10
grow@@ 10
stic 10
mediapo@@ 10
190 10
voi@@ 10
feh@@ 10
dne@@ 10
kilometre 10
mony 10
osa 10
tutu@@ 10
mil 10
cially 10
istan 10
gymnas@@ 10
doda 10
genoci@@ 10
edin 10
withdraw@@ 10
onu 10
produc@@ 10
seli 10
gn@@ 10
lyu@@ 10
austri@@ 10
poet@@ 10
paras@@ 10
zul@@ 10
condol@@ 10
hitler 10
arbi@@ 10
pce 10
iter@@ 10
destro@@ 10
beton 10
sabr@@ 10
kiril 10
yak@@ 10
tag@@ 10
skal@@ 10
text@@ 10
ahmet@@ 10
byty@@ 10
engel 10
vania 10
conte@@ 10
brus@@ 10
silvi@@ 10
resist@@ 10
lat 10
phy 10
bulgar@@ 10
tournam@@ 10
fanati@@ 10
stil 10
taraf 10
myk 10
leader@@ 10
musli@@ 10
ktar 10
oku 10
hur 10
gil 10
nium 10
paral@@ 9
yok 9
fier@@ 9
aret@@ 9
dinc@@ 9
koc@@ 9
aziz 9
yen@@ 9
technic@@ 9
restor@@ 9
worn 9
toptan 9
dere 9
facil@@ 9
fax 9
buyu@@ 9
dans 9
ami 9
laku 9
ddy 9
unlaw@@ 9
publish@@ 9
transpar@@ 9
summon@@ 9
presiden@@ 9
overwhel@@ 9
taki 9
economi@@ 9
tiz@@ 9
sche 9
there@@ 9
schedul@@ 9
karadz@@ 9
stren@@ 9
gis@@ 9
unanim@@ 9
atively 9
restra@@ 9
technolo@@ 9
kazan@@ 9
itza 9
denkt@@ 9
kath@@ 9
slovak@@ 9
derek 9
gidi@@ 9
acquit@@ 9
tiveness 9
srp@@ 9
blin@@ 9
surve@@ 9
mec@@ 9
rac 9
pects 9
enjo@@ 9
akla@@ 9
syste@@ 9
happen@@ 9
versary 9
combin@@ 9
micros@@ 9
spirit@@ 9
comprehen@@ 9
concentra@@ 9
tler 9
exter@@ 9
dun 9
isten@@ 9
lie@@ 9
patr@@ 9
fes@@ 9
dine 9
nak 9
dup 9
bloc@@ 9
oft 9
scul@@ 9
lic@@ 9
aci 9
feth@@ 9
çi 9
fred 9
kodra 9
bekiri 9
worl@@ 9
ulou 9
milest@@ 9
alp 9
mula 9
dier 9
william@@ 9
galer@@ 9
belon@@ 9
siz 9
seri 9
strom 9
dev 9
bur 9
ince@@ 9
absten@@ 9
juni@@ 9
zem@@ 9
ddi@@ 9
iler 9
candida@@ 9
kayak 9
rahim 9
yugos@@ 9
hev@@ 9
daf@@ 9
oco@@ 9
karas@@ 9
tte@@ 9
mim 9
wald 9
sophisti@@ 8
derg@@ 8
karan@@ 8
olar@@ 8
seek@@ 8
det 8
mara 8
ceme@@ 8
wide@@ 8
yılmaz 8
privre@@ 8
rell 8
joz@@ 8
prolifer@@ 8
eline 8
leng@@ 8
gey@@ 8
lement 8
gül 8
impas@@ 8
dek 8
torate 8
cleans@@ 8
clo@@ 8
zvez@@ 8
dl 8
oran@@ 8
hop 8
inic 8
bler@@ 8
ax 8
part@@ 8
iqi 8
fat 8
nolo@@ 8
б@@ 8
citizen@@ 8
olan 8
sari 8
finale 8
ddi 8
cumhuriyet 8
veterin@@ 8
çok 8
yakında 8
daha 8
fazla 8
almak 8
için 8
önümüzdeki 8
haftalarda 8
ziyaret 8
ack 8
nay@@ 8
tika 8
stants 8
general@@ 8
ail 8
bag@@ 8
lus 8
launder@@ 8
assu@@ 8
espe@@ 8
rappor@@ 8
yment 8
spokes@@ 8
steph@@ 8
hek@@ 8
eri@@ 8
isations 8
cover@@ 8
isia 8
brief@@ 8
econ@@ 8
demar@@ 8
propag@@ 8
prom 8
à 8
kilo 8
cb@@ 8
yos@@ 8
muz@@ 8
tability 8
yi 8
mv@@ 8
ishness 8
bedr@@ 8
christop@@ 8
ambar@@ 8
gert 8
quot@@ 8
fam@@ 8
transnist@@ 8
ania 8
caz@@ 8
vendosje 8
mete 8
rhet@@ 8
gros@@ 8
bureau@@ 8
ć@@ 8
promot@@ 8
yse 8
tow@@ 8
idi 8
mele@@ 8
avan@@ 8
beha@@ 8
durak@@ 8
aga 8
mined 8
reci@@ 8
hec@@ 8
eval 8
kere@@ 8
nei@@ 8
konj@@ 8
bent 8
arab@@ 8
port@@ 8
minu@@ 8
bombar@@ 8
overha@@ 8
dz 8
pub@@ 8
gazi 8
arya 8
hali 8
eb@@ 8
gure@@ 8
hua 8
croati@@ 8
commit@@ 8
ate@@ 8
hal 8
world@@ 8
afgh@@ 8
herze@@ 8
bogdan@@ 8
iden 8
imize 8
nr@@ 8
kayak@@ 8
ciro 8
prele@@ 8
bray@@ 8
peter@@ 8
temel@@ 8
meclis 8
yiti@@ 8
gece 8
cili 8
radul@@ 7
accor@@ 7
tip@@ 7
lobb@@ 7
libr@@ 7
astri@@ 7
lish 7
herce@@ 7
agues 7
gev@@ 7
danger@@ 7
kadar 7
ims 7
insan@@ 7
doje 7
estima@@ 7
meni 7
erg@@ 7
annu@@ 7
ulus@@ 7
makedon@@ 7
avier 7
help@@ 7
ameli@@ 7
yurt 7
ç@@ 7
tat 7
cee@@ 7
mam 7
tko 7
benin 7
hey@@ 7
duled 7
gently 7
cesur 7
ovi@@ 7
academic@@ 7
rak 7
accomp@@ 7
goraz@@ 7
mio@@ 7
suspec@@ 7
round@@ 7
ukra@@ 7
reserv@@ 7
tually 7
elef@@ 7
soc@@ 7
situ@@ 7
urai 7
lahu 7
accep@@ 7
gele@@ 7
cely 7
amam 7
mach@@ 7
aten 7
vec@@ 7
ements 7
kik@@ 7
ramazan 7
jug 7
ays 7
hab@@ 7
kac 7
adequ@@ 7
ural 7
papadop@@ 7
orities 7
eases 7
tzvet@@ 7
bg 7
dur 7
tators 7
uman 7
tamp@@ 7
cum 7
disi 7
rant 7
cas 7
vil 7
eder 7
mk@@ 7
avro@@ 7
.gr 7
iljana 7
televiz@@ 7
14,@@ 7
kranj@@ 7
jaf@@ 7
skan@@ 7
idly 7
baba 7
rafi@@ 7
haber@@ 7
giti@@ 7
ray@@ 7
pazar@@ 7
buz 7
tile@@ 7
oc 7
dvd 7
blood@@ 7
stef@@ 7
inet 7
ergen@@ 7
hart@@ 7
schol@@ 7
kah@@ 7
kini 7
kta 7
finan@@ 7
sutan@@ 7
kamp 7
alternati@@ 7
treni 7
alkal@@ 7
kurban 7
umut 7
refle@@ 7
amin 7
landal@@ 7
zim 7
zira@@ 7
azi 7
revski 7
fay@@ 7
eh@@ 7
aslan 7
magist@@ 7
kara 7
esad 7
mbo 7
risti@@ 7
trak@@ 7
bron@@ 7
col 7
gure 7
warran@@ 7
rum 7
ace@@ 7
adop@@ 7
gration 7
rud@@ 7
atom 7
ulus 7
ait 7
lider 7
ured 7
verg@@ 7
diku 7
lim 7
kom 7
nette 7
gana 7
bulgarta@@ 7
holm 7
elimin@@ 6
dmit@@ 6
archa@@ 6
mez@@ 6
tari@@ 6
carni@@ 6
big@@ 6
und@@ 6
yt 6
arap@@ 6
lemi@@ 6
ansi@@ 6
macedon@@ 6
ander 6
num@@ 6
sef 6
inska 6
inje 6
sab@@ 6
erdoğan 6
lows 6
etary 6
lements 6
potenti@@ 6
ktor 6
zv@@ 6
sabit 6
nated 6
endeav@@ 6
tron@@ 6
negoti@@ 6
ceau@@ 6
ines@@ 6
writ@@ 6
metin@@ 6
demon@@ 6
noel 6
kot 6
oline 6
theodor@@ 6
enthusi@@ 6
kali@@ 6
yeni 6
uran@@ 6
wrong@@ 6
ï@@ 6
sibil@@ 6
spiri@@ 6
tane 6
gered 6
sical 6
16,@@ 6
diyarbakır 6
cial 6
ross 6
vili@@ 6
yay@@ 6
itations 6
mens 6
urk 6
purch@@ 6
ghtening 6
holo@@ 6
advan@@ 6
dez@@ 6
monas@@ 6
kt 6
cre 6
iba@@ 6
supre@@ 6
global@@ 6
pres 6
yel@@ 6
mada 6
decis@@ 6
kes@@ 6
staunch@@ 6
jik 6
rejec@@ 6
hare@@ 6
tee 6
suffici@@ 6
packa@@ 6
slugg@@ 6
skelet@@ 6
earth@@ 6
laki 6
folkl@@ 6
gest 6
plen@@ 6
tiful 6
kla@@ 6
atif 6
verit@@ 6
ifa@@ 6
renew@@ 6
iry 6
pis@@ 6
imi@@ 6
sein 6
ech 6
ski@@ 6
ase@@ 6
barometer 6
mitrov@@ 6
oda 6
paz@@ 6
traffic@@ 6
naum@@ 6
dt@@ 6
sine 6
cham@@ 6
reso@@ 6
bako@@ 6
individu@@ 6
oranda 6
transpor@@ 6
taxpay@@ 6
aleksandro@@ 6
bratis@@ 6
dential 6
ö@@ 6
taz@@ 6
,@@ 6
dner 6
prov@@ 6
member@@ 6
đ@@ 6
occupi@@ 6
varn@@ 6
ık 6
samu@@ 6
bul 6
cape 6
djan 6
slobo@@ 6
cess@@ 6
gligor@@ 6
kaf@@ 6
arif@@ 6
veda 6
meti 6
inste@@ 6
tribun@@ 6
regular@@ 6
zorlu 6
editor@@ 6
gheorg@@ 6
moderniz@@ 6
kamp@@ 6
elector@@ 6
lini 6
alem 6
guide@@ 6
prehen@@ 6
yir@@ 6
infla@@ 6
ardz@@ 6
nh@@ 6
coal@@ 6
champion@@ 6
ilers 6
rul 6
arzu 6
whel@@ 6
reco@@ 6
rest@@ 6
giu@@ 6
azer@@ 6
leri 6
rami 6
stambol@@ 6
partite 6
mihay@@ 6
galla@@ 6
ulu 6
eler 6
smeder@@ 6
muhammed 6
sevil@@ 6
etnik 6
somali 6
ordje 6
andan 6
saat 6
sure@@ 6
feren@@ 6
efa 6
hend 6
sels 5
metz 5
enlarge@@ 5
bekir 5
hem@@ 5
mano@@ 5
uy@@ 5
yat@@ 5
engen 5
bosni@@ 5
tese@@ 5
compan@@ 5
icient 5
18,@@ 5
honor@@ 5
habi 5
hoca 5
uf 5
jar 5
casu@@ 5
instr@@ 5
maya 5
coop@@ 5
kolo@@ 5
kule@@ 5
dous 5
nered 5
mro 5
thes 5
muse@@ 5
machin@@ 5
smugg@@ 5
mitre@@ 5
cen 5
jim@@ 5
repor@@ 5
test@@ 5
gane 5
temiz@@ 5
posav@@ 5
danka 5
djor@@ 5
ince 5
sali@@ 5
proj@@ 5
tral@@ 5
receiv@@ 5
dip 5
ksen@@ 5
ilan 5
sburg 5
tisation 5
serti@@ 5
rej@@ 5
uda 5
jis@@ 5
islav 5
ete 5
selves 5
invol@@ 5
€ 5
agro@@ 5
brov@@ 5
vlah@@ 5
gabri@@ 5
vag@@ 5
nakov 5
slj@@ 5
kent@@ 5
represen@@ 5
narco@@ 5
ekme@@ 5
fore 5
gymnasi@@ 5
demonstr@@ 5
1000 5
sami@@ 5
atro@@ 5
bol 5
rokas@@ 5
kele@@ 5
overhaul@@ 5
hil 5
voy@@ 5
absen@@ 5
vad@@ 5
ayan 5
gren@@ 5
sten@@ 5
crack@@ 5
ljubo@@ 5
í@@ 5
add@@ 5
teh@@ 5
nezavis@@ 5
agre@@ 5
brez@@ 5
zap@@ 5
schwartz 5
legis@@ 5
hizbullah 5
vse@@ 5
tise 5
tür@@ 5
orship 5
dk 5
condole@@ 5
funda@@ 5
ege@@ 5
olan@@ 5
kler 5
brd 5
transil@@ 5
sear@@ 5
akdeniz 5
bing@@ 5
kulu 5
vur@@ 5
kim@@ 5
enfor@@ 5
seli@@ 5
çek@@ 5
lia@@ 5
ğlu 5
popu@@ 5
ority 5
rop@@ 5
dispos@@ 5
bliz@@ 5
byzan@@ 5
mum 5
haps 5
coast@@ 5
organize 5
mensu@@ 5
rought 5
zat 5
fen 5
echo@@ 5
xin@@ 5
croft 5
milovan@@ 5
modernis@@ 5
dela@@ 5
subo@@ 5
thew 5
kuy@@ 5
atik 5
eker 5
bern@@ 5
diploma@@ 5
olma@@ 5
bahar 5
montene@@ 5
\ 5
rik 5
amer 5
sofi@@ 5
199@@ 5
tances 5
yugoslav@@ 5
eus@@ 5
arda 5
kuveyt 5
sini 5
atomstro@@ 5
galic@@ 5
aran@@ 5
hede@@ 5
cataly@@ 5
mutlu 5
umental 5
kent 5
kredi@@ 5
moldav@@ 5
yetkin 5
bastian 5
witz 5
feld 5
fias 5
idity 4
siy@@ 4
alma 4
ph 4
aar@@ 4
thu@@ 4
cro 4
tiv 4
iade@@ 4
stration 4
sek@@ 4
plav@@ 4
harm@@ 4
pect 4
deliver@@ 4
secon@@ 4
zanis 4
tarif@@ 4
servation 4
hox@@ 4
eric@@ 4
methodi@@ 4
travel@@ 4
atle@@ 4
ried 4
tories 4
beat@@ 4
tesa 4
iski 4
miros@@ 4
krasni@@ 4
tox@@ 4
csan@@ 4
agement 4
akar@@ 4
kala 4
engine@@ 4
long@@ 4
atam@@ 4
lider@@ 4
mmer@@ 4
cades 4
derne@@ 4
ettes 4
concer@@ 4
giz@@ 4
rast@@ 4
srbi@@ 4
unes@@ 4
canadi@@ 4
clamation 4
arg@@ 4
hazi 4
tama@@ 4
duy@@ 4
atat@@ 4
ş@@ 4
neigh@@ 4
repub@@ 4
alma@@ 4
kefal@@ 4
imple@@ 4
que@@ 4
consequ@@ 4
essen@@ 4
heu@@ 4
ó@@ 4
papa@@ 4
cı 4
dnevnik@@ 4
mesu@@ 4
eno@@ 4
bayra@@ 4
vement 4
lup@@ 4
anat@@ 4
reel 4
tam 4
sez@@ 4
tsun@@ 4
curri@@ 4
lice 4
kay 4
baba@@ 4
other@@ 4
stati@@ 4
klau@@ 4
expos@@ 4
1500 4
_ 4
affec@@ 4
administ@@ 4
kran@@ 4
olymp@@ 4
champ@@ 4
propos@@ 4
serg@@ 4
ular@@ 4
toge@@ 4
sugge@@ 4
dures 4
strat@@ 4
wedne@@ 4
matically 4
miras 4
hayal 4
recipro@@ 4
administra@@ 4
tah@@ 4
yap@@ 4
expen@@ 4
tments 4
polon@@ 4
inno@@ 4
trum 4
incum@@ 4
ister@@ 4
umbre@@ 4
pical 4
bren@@ 4
hri 4
akti@@ 4
ente@@ 4
mahal@@ 4
beyon@@ 4
partisi 4
das@@ 4
bı@@ 4
tü@@ 4
bi̇@@ 4
schwarzen@@ 4
itals 4
kilowat@@ 4
smooth@@ 4
eser 4
esk@@ 4
til 4
bara 4
jele@@ 4
ua 4
fati@@ 4
ateral 4
feti@@ 4
deste@@ 4
laming 4
adam@@ 4
anony@@ 4
referans 4
septem@@ 4
yol@@ 4
thres@@ 4
dals 4
omi 4
oslo@@ 4
vite@@ 4
ruc@@ 4
take@@ 4
leh@@ 4
uly 4
gular 4
macar@@ 4
musev@@ 4
ars@@ 4
bujan@@ 4
satelli@@ 4
ferdi 4
sayg@@ 4
febru@@ 4
ozone 4
hs@@ 4
uzun@@ 4
prox@@ 4
luxem@@ 4
pler 4
koman@@ 4
tini 4
kett 4
hol 4
bug 4
alar 4
dimit@@ 4
â 4
 4
yah@@ 4
pret@@ 4
cohe@@ 4
bankrup@@ 4
frank@@ 4
question@@ 4
kea 4
cypri@@ 4
ortho@@ 4
keri 4
kaynak 4
bond@@ 4
manja 4
ın 4
stavro@@ 4
kemer 4
distri@@ 4
ofisi 4
onik 4
vities 4
peris@@ 4
ghazi 4
= 4
aland 4
ı@@ 4
eden 4
sten 4
swif@@ 4
idir 4
profil@@ 4
onable 4
lene 4
fec@@ 4
prolon@@ 4
try@@ 4
ι@@ 4
α 4
lokomo@@ 4
inovo 4
generali 4
ekonomi@@ 4
conces@@ 4
@ 4
setimes@@ 4
ebe@@ 4
yas 4
cko 4
cease@@ 4
lish@@ 4
accompan@@ 4
gardi@@ 4
koru@@ 4
anagnostop@@ 4
baghda@@ 4
offici@@ 4
mendi 4
bini 4
panathin@@ 4
anke@@ 4
okum@@ 4
cell@@ 4
pici@@ 4
davutoğlu 4
eder@@ 4
enin 4
tici 4
geti@@ 4
wim@@ 4
tekel 4
aslan@@ 4
keli 3
favo@@ 3
arka 3
podrav@@ 3
yumurta 3
wonder@@ 3
ligi 3
termo@@ 3
zon 3
yum@@ 3
geopoliti@@ 3
uten@@ 3
depart@@ 3
orman 3
aza 3
kum 3
а@@ 3
sym@@ 3
lari 3
г 3
frat@@ 3
kamer@@ 3
seker@@ 3
muh@@ 3
flexi@@ 3
thessalon@@ 3
sekiz 3
hane 3
gue@@ 3
anatol@@ 3
dyu@@ 3
slov@@ 3
ulti@@ 3
kore@@ 3
rhy@@ 3
knowled@@ 3
equival@@ 3
tela@@ 3
akro@@ 3
dub@@ 3
mese 3
borov@@ 3
iae@@ 3
zai 3
jina 3
tiv@@ 3
belgi@@ 3
therine 3
bü@@ 3
masum 3
org@@ 3
spor 3
yıldırım 3
ffe@@ 3
janov 3
adaki 3
racak 3
finans@@ 3
resta@@ 3
republi@@ 3
kyr@@ 3
cetin@@ 3
parame@@ 3
imed 3
liz@@ 3
atly 3
slav 3
censor@@ 3
skor@@ 3
muhar@@ 3
primar@@ 3
ders@@ 3
eks 3
hürriyet 3
vek@@ 3
politici@@ 3
dole@@ 3
fy@@ 3
euv@@ 3
ihti@@ 3
emir@@ 3
hey 3
politik 3
lili@@ 3
atmos@@ 3
vere@@ 3
disab@@ 3
mh@@ 3
courtro@@ 3
gawat@@ 3
füle 3
siv@@ 3
boda 3
resul@@ 3
zirve 3
çak@@ 3
çı 3
posta 3
memoran@@ 3
iki@@ 3
servis 3
harek@@ 3
jutarn@@ 3
garanti 3
particul@@ 3
atis 3
soy@@ 3
envir@@ 3
atina 3
pension@@ 3
prosper@@ 3
clash@@ 3
tere 3
moil 3
taze 3
hane@@ 3
tif 3
roi 3
klin@@ 3
liap@@ 3
reversible 3
prelimin@@ 3
srebren@@ 3
vade@@ 3
usta 3
kafa 3
hij@@ 3
manas@@ 3
hafi@@ 3
dama@@ 3
ning@@ 3
demonstra@@ 3
rar 3
elektri@@ 3
benz@@ 3
nun 3
maf@@ 3
bm@@ 3
asion 3
bulat@@ 3
beyaz 3
det@@ 3
erin 3
munition 3
daki 3
aff@@ 3
tradi@@ 3
unil@@ 3
ote@@ 3
cumhur@@ 3
riyet 3
follow@@ 3
referen@@ 3
tress 3
tempor@@ 3
° 3
mize 3
ül@@ 3
atma 3
paint@@ 3
&@@ 3
extre@@ 3
arnav@@ 3
check@@ 3
kod 3
1800 3
catal@@ 3
imaj 3
sahi@@ 3
acu@@ 3
ekonomi 3
produ@@ 3
konstan@@ 3
inan@@ 3
vjet@@ 3
zay@@ 3
adet 3
kli 3
enced 3
adalet 3
how@@ 3
kostis 3
bench@@ 3
mold@@ 3
alay@@ 3
hiseni 3
buna 3
coffe@@ 3
nite@@ 3
biri@@ 3
sie@@ 3
shori 3
mimar@@ 3
requi@@ 3
ild 3
asya 3
josip@@ 3
dans@@ 3
hata 3
ducing 3
marath@@ 3
deli 3
κ@@ 3
ο@@ 3
osia 3
stjep@@ 3
erte@@ 3
makro@@ 3
festiv@@ 3
youtu@@ 3
evin 3
opoliti@@ 3
sine@@ 3
dented 3
gest@@ 3
ziy@@ 3
dimitro@@ 3
obrad@@ 3
neboj@@ 3
istent 3
henne@@ 3
proto@@ 3
vanya 3
türk 3
seb@@ 3
anci@@ 3
reforma 3
mod@@ 3
rap 3
parliamen@@ 3
saran 3
stras@@ 3
tomis@@ 3
swi@@ 3
ween 3
mings 3
alg@@ 3
kor 3
efe@@ 3
hist@@ 3
denge@@ 3
bula@@ 3
lieuten@@ 3
metropol@@ 3
madal@@ 3
metho@@ 3
yük@@ 3
kira@@ 3
siste@@ 3
somal@@ 3
ique 3
kork@@ 3
ermeni 3
twel@@ 3
egel 3
izi 3
kur 3
tik 3
kova@@ 3
octo@@ 3
tisa@@ 3
kul 3
gere@@ 3
belar@@ 3
utili@@ 3
sibi@@ 3
sik@@ 3
bok@@ 3
dokuz@@ 3
bayrami 3
simi@@ 3
г@@ 3
kuru 3
figh@@ 3
asker 3
memnun@@ 3
tekni@@ 2
unfortun@@ 2
ortak@@ 2
drav@@ 2
nejat 2
medi 2
inda 2
eylül 2
tice 2
efina 2
barış 2
toplan@@ 2
dokuz 2
sesli 2
zengin 2
eper 2
öz@@ 2
cara 2
gious 2
sergi 2
munici@@ 2
cals 2
require@@ 2
design@@ 2
napo@@ 2
devri@@ 2
ceeded 2
arı 2
blue@@ 2
salon@@ 2
mast 2
religi@@ 2
compu@@ 2
oslobo@@ 2
ayn@@ 2
fahri 2
plev@@ 2
usu@@ 2
terdam 2
mija 2
chner 2
zvor@@ 2
diz 2
vidu@@ 2
indir@@ 2
davis@@ 2
kurt@@ 2
sday 2
consecu@@ 2
veri 2
magnit@@ 2
therlands 2
trab@@ 2
seg@@ 2
tesi 2
cari 2
nedjel@@ 2
türk@@ 2
koci@@ 2
kula@@ 2
kender@@ 2
kostun@@ 2
iming 2
sime@@ 2
reporter@@ 2
speak@@ 2
eful 2
sefer 2
yorgo 2
sanayi 2
month@@ 2
hum 2
incen@@ 2
never@@ 2
komis@@ 2
guez 2
tet@@ 2
schi 2
sabah@@ 2
remi@@ 2
iş@@ 2
gregor@@ 2
angelos 2
poster@@ 2
yor 2
onews 2
gay@@ 2
helsin@@ 2
logisti@@ 2
papandre@@ 2
miran@@ 2
percep@@ 2
ljup@@ 2
� 2
anese 2
pomp@@ 2
gün 2
mobil 2
conspira@@ 2
civili@@ 2
timet@@ 2
refah 2
fazil@@ 2
integr@@ 2
compul@@ 2
sibilities 2
alı 2
ün@@ 2
á@@ 2
evet 2
tale@@ 2
atan 2
entre@@ 2
casus 2
belli 2
tenance 2
sade@@ 2
veter@@ 2
gergin 2
tsen@@ 2
mci 2
boj 2
tivar 2
prising 2
pekin 2
tatlı@@ 2
acon@@ 2
salih@@ 2
kamu 2
haz 2
telefon@@ 2
amin@@ 2
enab@@ 2
öl@@ 2
mortg@@ 2
limi@@ 2
cil 2
concor@@ 2
yıldız 2
ufu@@ 2
gge@@ 2
seti@@ 2
campa@@ 2
idar 2
lendi 2
atlantik 2
eph 2
kolu@@ 2
hali@@ 2
cep 2
berman 2
hayat 2
liman@@ 2
joaqu@@ 2
trol@@ 2
sulli@@ 2
kore 2
orta@@ 2
ü@@ 2
akova 2
sok@@ 2
allot@@ 2
column@@ 2
у@@ 2
ovan 2
erre 2
sud@@ 2
sage 2
halk 2
aat 2
ord@@ 2
malar@@ 2
eupoliti@@ 2
moda 2
chev@@ 2
omous 2
iller 2
ticari 2
parma@@ 2
 2
hate@@ 2
vati@@ 2
ı 2
ounced 2
zev@@ 2
keti 2
ceska 2
bask@@ 2
ager@@ 2
swo@@ 2
parla@@ 2
bureaucra@@ 2
engel@@ 2
xima@@ 2
yalç@@ 2
cü@@ 2
tuğ@@ 2
özkök 2
wri@@ 2
alim@@ 2
bomb@@ 2
secular@@ 2
biome@@ 2
iku@@ 2
restaur@@ 2
join@@ 2
mcel@@ 2
edil@@ 2
bulg@@ 2
zora 2
oppos@@ 2
goog@@ 2
large@@ 2
raiffe@@ 2
jasen@@ 2
mean@@ 2
½ 2
jaga 2
nu 2
itably 2
sevin@@ 2
primor@@ 2
keli@@ 2
elektrik 2
т@@ 2
asses@@ 2
qsa 2
edip 2
ø@@ 2
parthen@@ 2
ileti@@ 2
ril 2
multin@@ 2
caine 2
gece@@ 2
kondu 2
bizim 2
negot@@ 2
kragu@@ 2
architec@@ 2
td 2
kalp 2
pyra@@ 2
kson 2
ted@@ 2
kanad@@ 2
 2
kalab@@ 2
olas@@ 2
erdi 2
bourne 2
org 2
finans 2
kanıt 2
sistem 2
elektronik 2
madri@@ 2
sence 2
camii 2
kesi 2
ileri 2
üm@@ 2
mler 2
lul 2
secur@@ 2
opin@@ 2
karac@@ 2
memn@@ 2
oke 2
questionna@@ 2
ingu@@ 2
enje 2
schwar@@ 2
warn@@ 2
orta 2
tire@@ 2
amatör 2
nadir 2
koha@@ 2
devrim 2
teral 2
i̇@@ 2
cigar@@ 2
poul@@ 2
podu@@ 2
hayati 2
landa 2
bech@@ 2
silaj@@ 2
sula 2
atlan@@ 2
# 2
avlj@@ 2
ço@@ 2
turist 2
consoli@@ 2
explos@@ 2
oara 2
emeklilik 2
seni 2
sds@@ 2
brahim 2
imz@@ 2
omic 2
erini 2
kont@@ 2
kriz 2
sory 2
mesi@@ 2
liman 2
anad@@ 2
trakya 2
yaya 2
göl@@ 2
lü 2
sön@@ 2
suspici@@ 2
bayrak@@ 2
ilk@@ 2
momc@@ 2
sopran@@ 2
xious 2
gah@@ 2
devlet 2
mekan@@ 2
inin 2
mama 2
taksi@@ 2
uyum@@ 2
territ@@ 2
militan@@ 2
tüz@@ 2
sius 2
milliyet@@ 2
osse@@ 2
feri@@ 2
mirol@@ 2
keskin 2
danu@@ 2
mu 2
cesar@@ 2
bm 2
gidiyor 2
mimar 2
kalem@@ 2
ocak 2
acı@@ 2
hristos 2
mack 2
parmak 2
asam@@ 2
medya 2
mahalle@@ 2
isch@@ 2
bunardz@@ 2
teac@@ 2
unda 2
limin@@ 2
iç 2
terran@@ 2
vukov@@ 2
eus 2
thous@@ 2
jacqu@@ 2
iyor 2
tues@@ 2
namic 2
bolog@@ 2
now@@ 2
risk@@ 2
attitu@@ 2
oin 2
bai 2
ayak@@ 2
mosco@@ 2
dili 2
shek@@ 2
varma 2
tache 2
seyre@@ 2
cently 2
zagreb@@ 2
maden 2
repercus@@ 2
koka@@ 2
adan@@ 2
ave 2
uld 2
sefer@@ 2
happ@@ 2
activ 2
yakup 2
enna 2
yut 2
isin@@ 2
lises 2
achi@@ 2
strum@@ 2
ime 2
muaz@@ 2
miye 2
millet 2
kart 2
lavica 2
wiki@@ 2
olig@@ 2
terranean 2
sayan 2
thusi@@ 2
tention 2
kuran 2
mikro@@ 2
teme@@ 2
krem@@ 2
р 2
belde@@ 2
pover@@ 2
basit 2
я 2
hepi 2
malm@@ 2
laka 1
reli 1
saat@@ 1
masa 1
expor@@ 1
radovan@@ 1
cay@@ 1
prised 1
demokra@@ 1
kolek@@ 1
fenerbahçe 1
dina@@ 1
vah@@ 1
gür@@ 1
doğ@@ 1
grup 1
petrol@@ 1
shorta@@ 1
ika@@ 1
deba@@ 1
а 1
ruh 1
leban@@ 1
asl@@ 1
sover@@ 1
eliza@@ 1
kanun 1
armen@@ 1
venkovski 1
redin 1
millet@@ 1
isar@@ 1
giden 1
makedon 1
inst 1
zko 1
tada 1
kuman@@ 1
yüre@@ 1
olu 1
dispu@@ 1
convinc@@ 1
muz 1
obvi@@ 1
kastr@@ 1
yani 1
tuk 1
auton@@ 1
şen@@ 1
ür@@ 1
offic@@ 1
avl@@ 1
kın 1
osij@@ 1
evler 1
gelen 1
satan 1
saray@@ 1
meydan@@ 1
lise 1
akın@@ 1
ugli@@ 1
unac 1
orad 1
baraj 1
cami 1
usu 1
bama 1
nce 1
vurg@@ 1
unu 1
osu 1
uzat@@ 1
jola 1
iyet 1
içi 1
servan@@ 1
raufo@@ 1
bilim 1
teknik 1
ceed 1
ã 1
© 1
anas@@ 1
büyük@@ 1
tetik 1
fabrik@@ 1
otomotiv 1
tul 1
kolon@@ 1
contri@@ 1
ario 1
urugu@@ 1
mül@@ 1
niture 1
graf@@ 1
etin 1
acik@@ 1
eurob@@ 1
ede 1
kriz@@ 1
cusing 1
koste@@ 1
unsur@@ 1
şah@@ 1
baskın 1
korid@@ 1
furt 1
dees 1
sanat@@ 1
opulos 1
beni 1
examp@@ 1
effec@@ 1
effor@@ 1
threat@@ 1
ecker 1
park@@ 1
dney 1
ombud@@ 1
çetin 1
̇@@ 1
portugu@@ 1
twen@@ 1
elit 1
imprison@@ 1
º 1
illi 1
çiçek 1
rıza 1
rota 1
daskal@@ 1
enf@@ 1
ghten@@ 1
yet@@ 1
boru 1
nok@@ 1
sorti@@ 1
belge 1
çe 1
gracan@@ 1
kural 1
ır 1
entegre 1
mli 1
kend@@ 1
pack@@ 1
kart@@ 1
üs@@ 1
implemen@@ 1
tagon 1
kurum 1
relation@@ 1
temel 1
ä@@ 1
every@@ 1
pharmace@@ 1
uzu 1
ti̇@@ 1
meli 1
cali 1
ıs@@ 1
forum@@ 1
dakika 1
nabuc@@ 1
proble@@ 1
prosec@@ 1
arke@@ 1
opar@@ 1
adeta 1
cils 1
slogan@@ 1
olog 1
dox 1
otor@@ 1
temiz 1
hast@@ 1
enfl@@ 1
е 1
astase 1
bogar 1
galip 1
tarz@@ 1
afgan 1
arama 1
absolu@@ 1
bai@@ 1
gili 1
tially 1
mbol@@ 1
iyas 1
karde@@ 1
kimya 1
arap 1
floo@@ 1
о@@ 1
salar@@ 1
inese 1
tilla 1
neti@@ 1
pervasi@@ 1
denk@@ 1
kosovare@@ 1
bicker@@ 1
kapan@@ 1
afet@@ 1
zam 1
menkul 1
congr@@ 1
lerin@@ 1
jep@@ 1
pey@@ 1
sadak@@ 1
macı 1
perman@@ 1
terz@@ 1
sicil@@ 1
ahtisa@@ 1
senin 1
bizimle 1
akl@@ 1
temas@@ 1
protokol@@ 1
unut@@ 1
1.000 1
zynski 1
hile@@ 1
gül@@ 1
üm 1
humph@@ 1
amada 1
poo@@ 1
günter 1
dua 1
performan@@ 1
ledi 1
grubu 1
aege@@ 1
viz 1
istis@@ 1
dek@@ 1
bolu 1
kontrol@@ 1
baraj@@ 1
çin 1
inanç 1
istian 1
soren@@ 1
delil@@ 1
kimi 1
emek 1
platformu 1
arini 1
venezu@@ 1
bartholome@@ 1
uncu 1
pazartesi 1
milut@@ 1
kez 1
cern@@ 1
cioco@@ 1
hizmetleri 1
mussen 1
pea@@ 1
è@@ 1
toprak 1
kariyer@@ 1
ulan 1
ça 1
biz 1
seem@@ 1
¾ 1
uzak 1
trs 1
iade 1
krasniki 1
umun 1
dır 1
cerra@@ 1
polis@@ 1
kredi 1
akade@@ 1
enk@@ 1
bilen 1
arın@@ 1
sırrı 1
ladin 1
nede@@ 1
pipel@@ 1
adar 1
polan@@ 1
elektron@@ 1
katlan@@ 1
kıbrıs 1
feasi@@ 1
neut@@ 1
kafe 1
sider@@ 1
dedi 1
ekim 1
turizm 1
uru@@ 1
emlak 1
konut 1
çal@@ 1
ekonomisti 1
jür@@ 1
özgür 1
öğre@@ 1
sokak 1
jagas 1
kontrol 1
etleri 1
α@@ 1
ε@@ 1
ε 1
memur 1
cormack 1
atu@@ 1
oluk 1
kahraman@@ 1
anay@@ 1
gök@@ 1
rapor@@ 1
todo@@ 1
hima@@ 1
ayla 1
bire@@ 1
otur@@ 1
veril@@ 1
aikos 1
oya 1
bankrupt@@ 1
amnest@@ 1
leme 1
gezi 1
panath@@ 1
‑ 1
voluntar@@ 1
š 1
haft@@ 1
ovei 1
charest 1
domesti@@ 1
æ 1
bors@@ 1
indjic 1
philharmon@@ 1
hotnews.@@ 1
solu@@ 1
soldi@@ 1
yex@@ 1
elinden 1
dikt@@ 1
goe@@ 1
i̇stanbul 1
saf 1
doff 1
ody 1
podgor@@ 1
rama@@ 1
kahra@@ 1
doğdu 1
ktan 1
unearth@@ 1
rip 1
sovereign@@ 1
hediye 1
klu 1
gress 1
beş@@ 1
promis@@ 1
oun 1
devrimci 1
argu@@ 1
akın 1
erken 1
koç 1
para 1
doğan 1
¦ 1
djan@@ 1
discus@@ 1
meye 1
ş 1
hür@@ 1
ör@@ 1
soh@@ 1
μ@@ 1
ñ@@ 1
giz 1
gesi 1
dingly 1
monit@@ 1
ark@@ 1
kuru@@ 1
tatlıses 1
cevap 1
ý@@ 1
ý 1
zile@@ 1
geci@@ 1
ucu 1
mahmou@@ 1
eston@@ 1
reinf@@ 1
rakip@@ 1
cez@@ 1
rle 1
neli@@ 1
istin 1
pie@@ 1
gönül 1
kür@@ 1
convin@@ 1
stay@@ 1
hundre@@ 1
bahar@@ 1
takvim 1
piece@@ 1
stein@@ 1
kendi@@ 1
assas@@ 1
verdi@@ 1
huz@@ 1
konan 1
marka 1
zira 1
mese@@ 1
kabul@@ 1
barome@@ 1
devel@@ 1
kılı@@ 1
lywood 1
confir@@ 1
objek@@ 1
javno@@ 1
transa@@ 1
ruh@@ 1
papakon@@ 1
stantinou 1
schro@@ 1
bacon@@ 1
realita@@ 1
madon@@ 1
nicho@@ 1
inye 1
giani 1
antal@@ 1
ulli 1
abil@@ 1
southe@@ 1
thea 1
zuz@@ 1
fabrika 1
norwe@@ 1
sif 1
sem 1
ender 1
highligh@@ 1
sustain@@ 1
erse 1
mamaya 1
çerç@@ 1
bour 1
i̇brahim 1
fakat 1
istler 1
isoara 1
vodina 1
sinema 1
geri 1
estyle 1
muci@@ 1
jere@@ 1
oyun@@ 1
fela@@ 1
ıs 1
saray 1
nei 1
provi@@ 1
equiv@@ 1
ramaz@@ 1
hayat@@ 1
yaşar 1
dı@@ 1
izler 1
unsur 1
sored 1
damg@@ 1
alak@@ 1
atar 1
klasik 1
jut@@ 1
х 1
modernize 1
м@@ 1
resi 1
magu@@ 1
suyu 1
linde 1
olun@@ 1
udi 1
jahor@@ 1
mle 1
karada@@ 1
à@@ 1
headscar@@ 1
sur 1
oulias 1
3r@@ 1
ï 1
terminali 1
parti 1
lı@@ 1
provisi@@ 1
comings 1
djel@@ 1
ands 1
aydın 1
teki 1
ibar@@ 1
evine 1
hagen 1
loj@@ 1
suya 1
mayan 1
huff@@ 1
ipl@@ 1
eroğlu 1
abd 1
evers 1
cessive 1
brat@@ 1
sovere@@ 1
± 1
smal@@ 1
prv@@ 1
stale@@ 1
ege 1
police@@ 1
vot@@ 1
cra 1
arz 1
mile@@ 1
effer 1
redu@@ 1
ozar 1
guin@@ 1
kaid@@ 1
£ 1
ecz@@ 1
frc@@ 1
hag 1
calan 1
{ 1
} 1
otel 1
moni 1
achim 1
thur 1
garanti@@ 1
cyp@@ 1
benedi@@ 1
mois@@ 1
alexandrou@@ 1
consol@@ 1
twit@@ 1
 1
oec@@ 1
i- 1
bugün 1
piyade 1
tekar@@ 1
finansal 1
kiral@@ 1
gide 1
momen@@ 1
oğlu 1
racks 1
tepe@@ 1
cerrah@@ 1
reklam@@ 1
cilik 1
pazarlama 1
ikli 1
sile 1
proper@@ 1
frang@@ 1
uygun 1
kypri@@ 1
kriter 1
burgaz 1
hic@@ 1
sescu 1
ι 1
representati@@ 1
imza 1
ferit 1
eurov@@ 1
sudden@@ 1
arz@@ 1
dimitrov@@ 1
tiho@@ 1
asker@@ 1
undoub@@ 1
ç 1
busines@@ 1
form@@ 1
luko@@ 1
reta@@ 1
diaspor@@ 1
kanal@@ 1
ömer 1
ъ@@ 1
л@@ 1
р@@ 1
и@@ 1
л 1
wikipedi@@ 1
encour@@ 1
kender 1
mermer 1
bloom@@ 1
kolektif 1
ilke 1
atı 1
sizing 1
ethnic@@ 1
tli 1
tef@@ 1
kanat@@ 1
sympos@@ 1
vehic@@ 1
yez@@ 1
dnev@@ 1
turu 1
