<pad>
<eos>
<unk>
the
,
.
of
to
in
and
a
&quot;
for
&apos;s
@-@
is
on
that
with
by
/
as
said
will
)
(
it
be
are
has
have
from
at
eu
was
he
an
kosovo
--
not
this
its
minister
serbia
european
country
also
government
we
which
&#91;
&#93;
their
but
new
his
they
year
would
-
been
turkey
two
i
were
one
more
international
countries
all
bih
after
president
who
prime
:
serbian
times
other
macedonia
political
southeast
belgrade
co
state
or
there
about
party
croatia
foreign
people
us
according
first
told
over
%
euros
last
during
than
setimes
turkish
up
operation
years
only
between
un
can
some
economic
nato
should
albania
bulgaria
if
no
former
montenegro
had
police
talks
against
while
agreement
time
romania
;
security
greece
may
world
under
however
per
&apos;
war
could
most
says
three
public
europe
parliament
now
support
10
11
since
into
our
well
when
out
part
process
region
monday
such
croatian
national
officials
law
greek
cent
them
many
do
albanian
bosnia
states
meeting
report
news
because
general
herzegovina
so
including
end
members
wednesday
macedonian
member
those
elections
local
crimes
authorities
what
council
must
democratic
day
she
expected
month
tuesday
images
pristina
any
made
among
high
09
getty
12
re@@
week
07
05
bank
06
both
say
work
these
court
reuters
take
04
before
ministry
serb
03
08
military
group
membership
business
issue
afp
way
project
number
future
still
being
un@@
next
parties
march
development
visit
media
commission
bulgarian
june
citizens
progress
october
leaders
union
thursday
?
through
energy
december
decision
integration
status
you
corruption
january
centre
&apos;t
very
company
balkans
reforms
held
chief
announced
important
accession
agency
romanian
relations
long
based
where
saying
leader
economy
institutions
november
july
won
system
make
skopje
see
plan
place
added
independence
opposition
april
community
months
called
sarajevo
even
met
regional
ing
serbs
tribunal
four
power
united
policy
rights
towards
efforts
issues
in@@
balkan
organised
sunday
euro
help
head
september
reform
various
defence
office
situation
sources
february
led
festival
crisis
need
vote
bosnian
same
athens
right
second
financial
another
cyprus
him
around
her
official
border
main
continue
several
billion
crime
signed
programme
negotiations
deal
social
peace
election
market
trade
able
measures
without
following
justice
ec
major
s
key
20
ethnic
become
possible
conference
within
set
recent
move
special
good
five
past
statement
event
left
august
open
problem
problems
friday
until
companies
then
tadic
further
human
due
sofia
western
free
much
director
case
zagreb
mission
brussels
deputy
top
team
days
cultural
...
forces
s@@
ruling
how
ministers
rs
15
investment
02
secretary
current
ap
sector
t
city
join
central
down
already
did
tirana
representatives
russia
press
level
use
women
plans
coalition
does
full
01
hague
meet
took
meanwhile
1
agreed
representative
e
gas
budget
30
back
just
ted
2004
ankara
education
parliamentary
es
old
ed
ic
areas
six
like
children
far
joint
bucharest
early
go
e@@
istanbul
stability
army
de@@
standards
off
force
order
start
role
better
increase
imf
ten
construction
association
my
best
25
quoted
clear
want
final
mladic
earlier
information
think
o@@
en@@
dis@@
film
conflict
opened
each
found
results
get
culture
money
o
growth
come
$
ovic
conditions
province
step
solution
change
used
together
daily
remains
northern
majority
erdogan
interest
late
cases
came
own
although
currently
area
experts
fight
2007
working
candidate
life
less
p@@
criminal
action
al
de
tourism
2008
summit
cypriot
legal
cannot
campaign
given
administration
c@@
independent
organisation
presidency
provide
university
reported
17
politicians
position
germany
icty
ago
projects
term
remain
u@@
g@@
urged
building
albanians
d@@
implementation
every
put
whether
believe
counterpart
different
include
16
capital
despite
received
third
later
strong
3@@
ahead
taken
hope
i@@
line
show
2006
27
13
18
run
ar@@
total
needs
2@@
3
ts
positive
2005
4@@
al@@
alliance
soon
face
bid
finance
health
large
changes
freedom
2
control
global
along
er@@
least
14
name
groups
town
north
dialogue
violence
period
yugoslavia
2009
making
republic
million
enlargement
ting
home
men
saturday
constitutional
unmik
prosecutor
review
commissioner
democracy
funds
oil
young
iraq
anti
er
am
24
serious
near
russian
lack
z@@
boris
likely
montenegrin
visa
largest
constitution
few
post
protection
result
nearly
ties
arrest
bring
family
others
an@@
kostunica
trial
interior
laws
ers
bloc
reached
potential
ready
yet
return
society
2010
21
nation
give
especially
though
small
t@@
recently
nations
tax
improve
taking
adding
republika
necessary
k@@
population
goal
needed
find
non
service
great
decided
approved
rate
italy
list
south
22
committee
slovenia
aimed
me
srpska
privatisation
significant
b@@
reports
science
y
discuss
assistance
resolution
ri@@
5@@
began
initiative
diplomatic
b92
private
boost
focus
services
german
sports
activities
troops
point
ambassador
19
established
school
arrested
road
france
kfor
karadzic
noted
li@@
fact
seven
today
23
eight
osce
strategy
milosevic
steps
annual
w@@
launched
pay
ti@@
again
customs
lead
rule
28
bilateral
close
d
1995
c
property
domestic
ation
affairs
opening
26
don
washington
workers
n@@
too
f@@
increased
seen
6
di@@
ate
living
minority
warned
whose
2003
latest
rehn
adopted
akp
as@@
production
a@@
plant
le@@
regime
wants
trafficking
build
infrastructure
expressed
leading
charges
difficult
ensure
stressed
students
ds
common
research
commander
hold
reporters
round
eulex
50
analysts
pressure
real
debt
zoran
pkk
half
h@@
co@@
done
proposal
bbc
envoy
higher
1st
expect
ating
referendum
be@@
l@@
movement
summer
proposed
history
legislation
involved
means
5
institute
nikola
known
man
technology
sign
house
6@@
committed
4
voters
m
prices
ahtisaari
discussed
fully
7
radio
started
asked
industry
once
brought
kurdish
roma
v@@
weeks
gdp
receive
here
almost
se@@
terms
award
air
effort
la@@
low
price
rather
allow
job
religious
yugoslav
issued
cabinet
tions
organisations
29
competition
document
1999
investigation
cost
related
date
hopes
begin
failed
dpa
m@@
ra@@
data
ceremony
reach
berisha
journalists
delegation
going
ding
illegal
k
ly
direct
british
entry
ex@@
know
prosecutors
7@@
terrorism
communities
ro@@
investments
ban
french
reportedly
u
coming
voiced
across
jovanovic
water
form
con@@
electricity
enough
nine
basescu
civil
forward
responsibility
scheduled
senior
access
department
is@@
judicial
planned
eastern
george
ha@@
included
similar
considered
victims
8
biggest
side
internet
p
fair
pipeline
present
environment
includes
investors
dispute
killed
behind
operate
fund
island
nuclear
particularly
training
mar@@
might
presidential
credit
described
sides
offer
attacks
average
released
gul
comes
points
olympic
sanader
ated
east
se
j@@
sent
address
chairman
network
addition
attended
entity
g
red
forum
on@@
or@@
partnership
politics
ma@@
sea
short
file
pre@@
40
natural
capacity
your
sa@@
create
ended
win
judiciary
presented
instead
strategic
certain
loan
officers
land
concern
provided
atlantic
followed
hand
never
call
calls
keep
operations
confidence
ded
previous
became
exhibition
declaration
board
ad@@
framework
os
tv
governments
site
example
assembly
interests
thaci
2002
regarding
soldiers
study
terrorist
candidates
100
published
aid
opportunity
tayyip
ne@@
deficit
recep
management
participants
theatre
mandate
success
ka
visited
agenda
outside
im@@
importance
si@@
hard
responsible
single
went
big
impact
trying
markets
travel
5th
beginning
gruevski
il@@
stabilisation
armed
confirmed
live
events
l
ch@@
srebrenica
lower
accused
games
over@@
ter
view
2001
prison
question
required
thousands
having
transport
jobs
why
age
banks
act
complete
muslim
priority
staff
criteria
debate
lost
spokesman
2011
del
12th
art
exchange
additional
ce@@
conducted
draft
ivo
mo@@
ever
y@@
agreements
challenges
ia
completed
pledged
at@@
food
igor
implement
wanted
continued
highest
professor
alleged
itself
federation
ratko
joining
overall
vojislav
whole
abroad
bo@@
joined
unemployment
commitment
interview
works
h
indictees
opinion
respect
te@@
6th
labour
8@@
mi@@
ponte
tourists
tra@@
implementing
path
signing
technical
19@@
play
idea
ous
prevent
votes
3rd
9@@
village
museum
fighting
launch
lo@@
mayor
municipalities
31
8th
charged
elected
using
concerns
re
4th
stand
threat
away
car@@
things
establish
10th
15th
7th
amount
judges
paid
welcomed
poor
series
successful
agree
austria
sp@@
to@@
compared
r@@
everything
products
vi@@
attack
estimated
failure
seeking
football
tic
9
church
explained
victory
weapons
often
share
turn
1992
2nd
ab@@
response
so@@
starting
b
facing
something
enter
little
os@@
middle
ac@@
calling
ent
field
podgorica
protest
session
faces
gotovina
mis@@
slobodan
unit
basis
it@@
hungary
suspects
continues
criticised
invest
cypriots
borders
polls
documents
leave
participation
passed
reduce
djindjic
evidence
olli
planning
socialist
prospects
schools
accept
speaking
authority
hours
participate
policies
rules
9th
ongoing
firm
lawmakers
ana
effect
risk
language
presence
17th
aims
doing
owned
arrived
mesic
communist
man@@
requirements
saa
th@@
tion
entire
indicted
rejected
pro@@
bi@@
popular
death
ina
luka
achieve
greater
me@@
solana
20th
message
mobile
21st
islamic
quality
becoming
ge@@
parts
stop
ashdown
ations
mer@@
minorities
package
po@@
cut
inter@@
offered
resources
light
rise
60
speaker
tender
throughout
reason
anniversary
chance
created
influence
pro
seats
survey
britain
territory
families
longer
worth
ep
murder
obligations
per@@
recognise
strengthen
exports
st@@
performance
structures
suggested
built
course
youth
ant
banja
book
closer
believes
ci@@
goods
2000
crucial
actions
always
italian
ap@@
growing
thus
york
gold
promote
rates
remaining
1990s
businesses
ce
11th
closed
century
dayton
recognised
19th
divided
papandreou
supported
themselves
funding
inflation
specific
fall
genocide
king
active
cup
black
tes
ali
demand
increasing
declared
ist
music
seek
vice
airport
ak@@
ohrid
front
kind
shows
equipment
fiscal
officially
orthodox
he@@
zone
ally
involvement
mitrovica
neighbouring
protect
achieved
television
am@@
radovan
southern
claims
experience
indictment
analyst
citing
da@@
decide
recognition
ment
decisions
du@@
immediately
matter
olympics
ised
slovenian
ability
consider
implemented
leadership
look
try
28th
either
iran
par@@
approval
concrete
moscow
operating
allowed
figures
prepared
stable
embassy
existing
levels
son
climate
effective
annan
split
challenge
executive
nothing
establishment
municipality
ur@@
benefit
gu@@
modern
tomislav
13th
approach
gave
sh@@
takes
ov
courts
do@@
ic@@
lives
stage
op@@
particular
compromise
des
employment
improved
opportunities
self
persons
14th
costs
dodik
employees
financing
improving
promised
protests
release
submitted
treaty
concerning
era
sejdiu
care
registered
abdullah
charge
crvenkovski
ones
positions
professional
su@@
account
critical
voa
agriculture
drug
holds
showed
secure
16th
ge
meetings
programmes
internal
als
ho@@
ag@@
amid
dragan
mostly
partners
r
mid
partner
possibility
rest
djukanovic
eurozone
25th
30th
ar
match
praised
benefits
car
focused
develop
died
expects
mark
street
happen
stay
providing
visitors
believed
record
23rd
chamber
ity
out@@
phase
sale
ba@@
contract
for@@
ol@@
ways
har@@
hit
reconstruction
under@@
american
cross
ir@@
ko
river
22nd
resolve
serve
5m
ov@@
tu@@
aim
establishing
heads
spain
18th
hundreds
monitoring
sure
cities
movie
rating
shown
tourist
adriatic
heritage
upcoming
fatmir
let
1@@
el@@
forced
makes
negative
afghanistan
bill
contact
headed
institution
poll
200
35
available
ged
ments
poverty
refugees
avoid
discussions
negotiating
z
basic
environmental
host
intelligence
ses
traditional
27th
continuing
ground
mainly
export
san@@
strengthening
allegedly
bar@@
kovic
huge
libya
lot
priorities
70
agencies
gra@@
sought
vladimir
1,@@
czech
est
go@@
liberal
spending
der
pe@@
scheffer
send
person
served
command
finally
hoop
ko@@
looking
personal
tried
turned
goals
ica
ings
ja
mean
ver@@
vienna
voting
census
moment
settlement
supply
task
1,000
facilities
historic
ling
procedures
economies
everyone
greeks
letter
pre
sali
transition
26th
affected
med
urging
1991
2012
fire
goran
israel
km
assessment
caused
cited
f
rfe
west
conflicts
bridge
changed
emergency
ft
places
request
res@@
den@@
helping
liberalisation
prosecution
studies
vuk
austrian
j
le
loans
reasons
roundup
contribute
developments
holding
ii
ls
nikolic
resolved
suspected
traffic
us@@
individual
prize
rl
ber@@
bu@@
currency
interested
500
attend
condition
medical
no@@
via
championship
criminals
foundation
lu@@
principles
concluded
ngos
raise
raised
residents
track
1998
attempt
les
offers
ou@@
x@@
body
hashim
ies
territorial
affect
bringing
night
ten@@
80
ban@@
edition
sfor
spent
attention
democrats
individuals
quickly
bur@@
hosted
personnel
threats
transfer
ans
follow
croats
figure
headquarters
noting
radical
ty
decades
id
linda
peacekeeping
stake
statements
amendments
carried
criticism
invitation
karamanlis
sites
backed
hospital
tive
voted
trust
1.@@
29th
code
incident
ise
placed
provides
ru@@
visits
.@@
adoption
china
muslims
questions
te
tri@@
block
ca
hi@@
journalist
milorad
represent
taxes
turnout
facility
located
phone
electoral
fourth
jeremic
speech
gain
ons
tells
traian
formed
industrial
mps
speed
decade
massacre
safety
tensions
24th
ki
qu@@
ski
300
croat
statistics
target
0.@@
can@@
determined
neighbours
peaceful
systems
concerned
ni@@
ovski
buildings
developed
feel
fer@@
imports
named
port
tour
90
initial
pact
permanent
sectors
separate
ates
connection
paul
played
stance
supporters
treatment
ve
revenues
transparency
ul@@
values
artists
bosniak
bush
da
films
houses
outcome
res
barroso
commercial
hands
numerous
accepted
administrative
club
et@@
homes
ists
lines
pace
participated
worst
com@@
georgi
indicated
limited
marked
model
participating
ter@@
civilian
firms
thing
units
woman
creating
mu@@
sell
supports
warning
18@@
ahmet
fear
london
mass
stations
ta
essential
eventually
fans
hdz
nor
sed
sold
expert
gathered
kar@@
netherlands
antonio
branko
buy
entities
prior
table
civilians
income
n
range
beta
division
got
allowing
alone
ces
station
above
cr@@
players
race
saw
test
ance
damage
entertainment
giving
pass
ser@@
wing
incidents
ine
simply
supporting
acts
consensus
creation
ebrd
es@@
fugitive
milan
missions
assets
cover
favour
gi@@
nationalist
ohr
therefore
tors
2m
assassination
institutional
ism
managed
mediterranean
newly
really
tariceanu
visiting
banking
radic
readiness
solve
ble
deadline
ders
karadaku
natasa
operational
safe
salaries
decentralisation
demands
square
accord
ancient
application
fa@@
maintain
getting
ivan
carry
complex
dutch
image
moving
newspaper
pas@@
resolving
schengen
approximately
encourage
ev@@
poland
talk
turks
beyond
consequences
controversial
ging
mal@@
produce
the@@
born
mil@@
overcome
strike
bad
christmas
contribution
discovered
largely
parvanov
relationship
ci
q@@
reconciliation
structure
addressing
commitments
discussion
ngo
pi@@
sub@@
plants
quarter
roads
running
score
annually
appointed
delay
macedonians
reduction
completely
il
mon@@
officer
fbih
georgiev
novi
primary
procedure
secret
sovereignty
student
weekend
arrests
autonomy
base
cor@@
himself
javier
medal
ova
player
returned
source
stipe
3m
highly
lajcak
min@@
mor@@
paper
push
reiterated
story
anything
clearly
vo@@
district
dropped
em@@
introduced
leaving
observers
allegations
moldova
understanding
acting
developing
euobserver
friends
highway
syria
&apos;m
alternative
claim
gar@@
offices
pa@@
paris
star
winning
academy
article
cars
claimed
faced
respectively
wrote
6.@@
bas@@
external
finding
increasingly
judge
municipal
prominent
romanians
activity
child
contest
numbers
reaching
representing
requires
resignation
season
details
diplomats
ends
finished
helped
historical
ju@@
ministries
missing
require
functioning
hal@@
martti
moved
parents
powers
practice
regular
streets
um
value
worked
addressed
adopt
buckovski
rec@@
restrictions
stands
thessaloniki
directly
door
ma
plus
rising
space
widely
arms
av@@
fo@@
mutual
ology
seat
w
differences
diplomat
doesn
hungarian
isation
owners
ad
ask
ian
iraqi
promises
ukraine
web
probably
tan@@
ch
equal
factory
improvement
opposed
strongly
bre@@
cause
reality
remained
seems
awards
br@@
dra@@
hoping
measure
ot@@
owner
pla@@
reduced
regulations
teams
unless
double
gre@@
her@@
internationally
offering
opens
suggest
talat
blocked
cic
drop
granted
substantial
31st
athletes
conduct
danube
easy
filed
ms
refused
scientists
sentence
stock
trip
verdict
1m
describing
exercise
fi@@
ku@@
retired
ste@@
enforcement
ottoman
thought
um@@
computer
enterprises
ke@@
la
linked
spring
winter
ying
&apos;re
difficulties
index
intended
ivica
na@@
ranked
rotating
appear
attract
meant
tonnes
ve@@
2,000
anyone
battle
camp
christofias
designed
insurance
scientific
standard
telecom
apply
chapters
pan@@
regions
seeks
5,000
goes
involving
mine
sentenced
subject
winner
ak
break
costas
el
formal
psd
standing
vmro
7.@@
assist
concert
cuts
duties
hasani
represented
sense
telekom
trend
willing
abuse
blic
imposed
ordered
rose
solutions
stressing
sustainable
vic
agricultural
communication
cu@@
gh@@
guarantee
hour
initially
option
prove
ranking
salary
sing
van
war@@
welcome
x
bor@@
choice
destroyed
et
factors
founded
proposals
ren@@
supreme
threatened
berlin
direction
fell
nis
remarks
sales
setting
austerity
discrimination
fields
invited
miroslav
operator
risks
smaller
tly
views
wide
ze@@
efficiency
ters
true
attempts
contributed
der@@
honour
unable
bal@@
decline
depends
fugitives
petersen
ry
slow
words
carla
charter
communications
detained
killing
neither
prepare
sdp
seriously
&apos;ve
adds
dead
rugova
spokesperson
400
cen@@
dealing
en
green
jessen
ker
mother
room
tr@@
transportation
witness
appeal
aware
boycott
crossing
initiatives
libyan
preparations
previously
sal@@
sur@@
ta@@
transferred
cal@@
critics
denied
dss
ful
injured
mostar
dpmne
governor
integrity
lose
monitor
preparing
pri@@
represents
sad
website
arrangement
cards
cra@@
net
obtain
ps
ship
socialists
ven@@
af@@
league
marks
ordination
sponsored
targets
13@@
christian
cnn
dan@@
deputies
determine
extended
golden
identified
identity
laura
merkel
networks
ruled
understand
bro@@
fuel
generally
happened
insisted
pensions
profit
significantly
2,@@
online
politically
promoting
relevant
coast
medals
obstacle
ranks
restructuring
sic
supplies
tennis
ca@@
failing
pension
stream
stronger
asylum
davutoglu
entered
primarily
sanctions
vat
eufor
fe@@
humanitarian
ked
marking
men@@
park
powerful
voter
9.@@
boosting
borisov
comments
congress
ec@@
gazprom
sar@@
ves
appeared
ators
books
bri@@
game
japan
ks
scale
stanishev
telecommunications
upon
55
dar@@
ev
existence
fraud
gor@@
israeli
spend
st
structural
4.@@
bids
changing
determination
dinkic
expectations
factor
fifth
fore@@
guilty
names
obstacles
paddy
regardless
unacceptable
users
competitiveness
jose
josipovic
links
purchase
refugee
route
urges
white
4m
cur@@
educational
ensuring
expansion
handed
heavy
kurds
manager
monetary
showing
wife
6m
ary
bloomberg
centres
cevic
chances
consortium
lic
normal
ph@@
violations
vojvodina
0@@
covering
economist
ending
gr@@
jaap
lawyer
milo
pasok
spoke
tor
asia
diary
dnevnik
georgia
insists
suspect
waiting
45
5.@@
closely
considering
consumers
enable
envisions
evic
flag
ges
optimistic
pfp
suggests
below
dj@@
fulfil
governance
inc@@
ising
pet@@
pos@@
presidents
speak
appears
draskovic
extradition
ivanovic
nicosia
principle
receiving
scene
vujanovic
writer
&amp;
africa
certainly
combat
drugs
efficient
grant
immediate
invested
losses
pr@@
resort
search
smuggling
switzerland
transit
adviser
airlines
dic
gen@@
mehmet
moves
perspective
reporting
republics
serving
shares
wins
ante
distribution
exist
father
kr@@
marina
mediapool
signal
song
2.@@
competitive
convicted
icj
jazz
paying
reducing
stefan
&apos;ll
150
compli@@
enjoy
loss
mas@@
protected
silver
software
someone
surrender
tor@@
v
wartime
allies
comprehensive
demanding
generals
islam
nabucco
occurred
produced
sparked
voice
whom
band
effects
inter
mechanism
southeastern
becomes
belgium
chp
ction
damaged
kic
medium
michael
ness
resident
unique
wait
0
7m
acknowledged
assistant
ceku
ciocoiu
constructive
express
hiding
ins
otherwise
rural
ships
announcement
broad
considerable
guardian
impossible
kept
reunification
sti@@
submit
bodies
bronze
fast
forms
ist@@
lan@@
suspended
tournament
vowed
8m
arts
completion
counts
federal
jevic
jo@@
nevertheless
wi@@
3,000
achieving
citizenship
collection
dangerous
doctors
gets
meets
slovakia
trans@@
unesco
10,000
3.@@
aki
applied
bulgarians
entering
holiday
hosts
organisers
trials
65
carrying
didn
ger@@
guard
ideas
ivanov
manuel
mind
qaeda
removed
uk
witnesses
zaman
alexander
arab
blerta
candidacy
investigations
ously
rally
requirement
satisfied
undp
unity
viewed
villages
wall
widespread
15@@
argues
back@@
estate
happy
heart
interim
ke
kosor
mia
objective
protocol
spanish
wish
worldwide
hotel
metres
multiethnic
ors
performed
sions
terror
topic
vehicles
8.@@
balance
editor
ence
gives
monthly
signs
teachers
ti
title
towns
unilateral
wages
watch
acceptable
confident
dui
euractiv
eventual
exit
fundamental
je
keeping
manner
mit@@
representation
size
tasks
!
awareness
businessmen
deployment
destination
effectively
except
foniqi
iz@@
larger
ns
obligation
sha@@
shot
choose
facilitate
fail
haradinaj
inside
integrated
je@@
kov
losing
lowest
memorandum
universities
1.5
2013
apart
aside
col@@
delayed
directed
farmers
gap
minimum
multi
nikolovski
popescu
shared
van@@
ac
hi
ion
killings
li
nastase
recommendations
replace
rich
14@@
arguing
backing
commerce
features
fil@@
ldk
makfax
markovic
mines
returns
babacan
bil@@
extremely
ig@@
initiated
listed
luxembourg
nature
organise
oz@@
page
performances
quite
sion
top@@
violent
10@@
16@@
argue
iv@@
jic
moon
motion
preliminary
proved
revenue
sch@@
sen@@
shortly
accounts
bed
deep
location
ned
notes
rexhepi
sla@@
sovereign
75
advantage
analysis
controlled
don@@
famous
greatest
knowledge
passports
quick
sentences
stri@@
topics
unions
600
ash@@
asking
detention
down@@
dusan
duty
expand
ger
lin@@
row
successfully
suffered
20@@
awarded
beat
career
chancellor
circumstances
eu@@
extend
kofi
ler
lies
ljajic
mp
reaction
up@@
agrees
ck
delivered
demonstrate
elements
expression
ibrahim
massive
mes
robert
scandal
1996
aleksandar
cer@@
chinese
dominated
dr@@
hu@@
kers
kurdistan
patients
pointed
rama
stepped
voicing
50m
accompanied
dacic
eurovision
fin@@
gained
pen@@
processes
railway
read
remove
respondents
singer
tal@@
tradition
accusations
ages
crossings
endorsed
english
improvements
parallel
producer
scores
val@@
&apos;@@
bosniaks
defined
dy
echo
flights
hor@@
immunity
indictee
leads
provisions
raising
resulted
severe
terrorists
turning
waste
1993
allows
attending
bra@@
chosen
davor
displaced
economics
ha
mustafa
percentage
plays
prosperity
regard
bat@@
ced
chapter
cing
citizen
contracts
cre@@
estimates
fena
purpose
sees
titled
tough
ator
capture
drew
enhance
expensive
hina
instance
inzko
irregularities
ner
prompted
canada
cancer
daniel
doubt
ordinator
ping
replaced
responsibilities
tar@@
type
1990
7,000
argued
besides
dance
faculty
fears
ished
original
peoples
shooting
struggle
sweden
telling
written
17@@
32
actually
appointment
dp
elsewhere
milososki
morning
mosque
proceedings
sa
sufficient
wrong
-@@
actual
aj
audience
coe
corridor
draw
humanity
ically
ip@@
kg
map
milovanovic
nebojsa
none
oglu
removal
sets
spread
train
visas
wage
100,000
accordance
accords
closure
destruction
ep@@
equ@@
imp@@
increases
insist
kal@@
legislative
recovery
rice
tobacco
tur@@
advance
count
cs
durres
electronic
formally
friendly
governing
guarantees
maintaining
millions
panel
playing
protecting
protesters
putin
rescue
sdsm
truth
120
ched
clinton
covered
degree
drawn
hearing
link
moreover
seized
sending
troika
34
36
category
cul@@
declined
elect
explains
formation
ik
introduction
tolerance
100m
america
archaeologists
armenian
assured
blocking
corporation
deals
immigrants
incumbent
john
migration
vision
za
assess
atmosphere
bakoyannis
branch
consumption
convinced
deutsche
easier
eligible
feasibility
flu
informal
medi@@
modernisation
organising
repeatedly
sarkozy
secular
selected
stan@@
usaid
wind
ws
bla@@
celebrated
clashes
conservative
disaster
easily
ff@@
forming
founder
note
promising
sho@@
stated
urgent
announcing
bills
channel
comp@@
depend
donors
drafted
emphasised
gal@@
housing
hurriyet
ili@@
material
matters
pose
practical
pu@@
sealed
valentin
var@@
vital
50,000
8,000
coach
colleagues
dedicated
instability
kicked
rela@@
savings
selling
ska
tion@@
zivkovic
comment
danger
djelic
ef@@
furthermore
han@@
id@@
insisting
license
ring
smoking
tanjug
urban
bureau
celebrate
combined
compete
cos@@
cvetkovic
demanded
ents
healthcare
hoped
ka@@
petar
politician
profile
spokeswoman
stra@@
worse
aspects
brings
couple
deliver
directorate
dozens
dubrovnik
grounds
muhamet
prevention
topi
wake
withdraw
answer
calin
che@@
claiming
correspondent
lived
nobody
passing
referring
religion
upi
broke
cap@@
ching
demonstrated
doors
gone
hailed
introduce
kabashi
microsoft
outlook
pdk
por@@
practices
requested
soviet
steel
va
video
43
amounts
banned
din@@
fu@@
generation
giant
hotels
lists
mountain
preventing
section
spirit
surprise
syrian
twice
33
ative
capable
condemned
display
grand
impose
mixed
pal@@
photo
prlenda
ran@@
usually
wave
featuring
gaddafi
ined
intervention
jan@@
lov@@
ning
potentially
proper
ramadan
torture
vu@@
wa@@
achievements
adequate
ambassadors
closing
directors
dismissed
im
import
ir
laundering
looks
negotiation
pic
picture
platform
tackle
tribune
violation
10m
admission
au@@
bajram
bought
cy
equality
female
freedoms
herald
ines
love
minute
origin
recommended
vac@@
vlado
atrocities
autumn
begun
card
cast
context
ease
exclusive
feature
ics
peacekeepers
promise
advanced
ants
beijing
broadcasting
collective
dz@@
expressing
finnish
gallery
heard
ical
limit
managing
materials
momentum
neighbour
ners
oppose
pol@@
ports
resigned
sergey
shi@@
veto
zeljko
1997
basketball
concerts
deaths
dro@@
encouraging
facebook
mer
missile
pending
putting
save
stopped
tell
tension
text
connected
contributions
counter
counterparts
ct
haris
ini
jury
mirko
polling
presents
producers
reactions
sp
temporary
51
archaeological
char@@
communism
conclusion
di
difference
fires
fying
ga@@
indeed
interethnic
perform
sel
stojanovska
stood
ther@@
vukovar
approve
delays
diplomacy
else
filip
gen
grow
hadzic
ile
konjikusic
ory
ownership
peter
quar@@
returning
sciences
sive
solidarity
stankovic
succeed
we@@
ality
appropriate
attracting
bot@@
brajshori
enormous
jan
mat@@
monuments
poetry
promotion
relatively
riots
solved
statistical
talking
tre@@
utility
wor@@
admitted
artist
ati@@
ber
convention
favourable
g17
gri@@
hiv
ite
jean
lake
moisiu
nano
ob@@
optimism
revealed
surrounding
swedish
th
ton@@
bailout
ches
considers
fellow
gates
ik@@
investor
iting
lawyers
locations
mechanisms
obama
str@@
welcoming
xinhua
agim
author
concept
dan
dating
decrease
des@@
digital
dimitris
hellenic
launching
marovic
mentioned
minutes
publicly
reflect
respected
telephone
threshold
unfortunately
wrapped
37
bojana
complicated
controversy
convince
disputes
function
ice
ils
opera
regulation
resume
swiss
technologies
unemployed
20,000
clean
collapse
decisive
floods
ki@@
kla
krasniqi
literature
sol@@
tihic
weekly
achievement
boys
brief
covers
deployed
encouraged
fla@@
fran@@
istic
multi@@
ratings
realistic
sin@@
strikes
41
ars
birth
class
collaboration
croatians
gaining
hosting
investigate
investigative
macroeconomic
opponents
outgoing
palace
ras@@
recession
turk
uni@@
w.
700
ble@@
bozidar
cas@@
chi@@
conce@@
ek@@
fied
foster
handle
learn
product
respond
serves
she@@
sto@@
stone
sw@@
2.5
actor
australia
barbutov
bos@@
bul@@
cautioned
cies
emerging
engagement
findings
isolation
lam@@
options
ou
payments
provisional
yes
4,000
ats
bs
corrupt
defeated
dev@@
ens
experienced
gender
gun@@
halt
inf@@
islamist
lated
pl@@
ple@@
proof
recorded
skills
tered
trajkovski
tripartite
undermine
ward
actors
belene
champion
diaspora
finland
highlighted
hospitals
iled
insufficient
ious
kovacevic
magazine
nearby
perhaps
prospect
runs
subsidies
ut@@
47
activists
ani
associations
barricades
debts
dubbed
iling
india
manage
marija
marko
na
oc@@
output
pope
registration
richard
sun@@
word
42
adrian
churches
doctor
dur@@
employers
fails
geoana
palestinian
posts
rock
simple
sometimes
speculation
tin@@
unlikely
visible
warn
waters
ya
air@@
aspirations
bomb
boyko
cubic
driving
ities
jail
pledging
ran
sk@@
thirds
va@@
weak
acquired
attitude
ay@@
begins
brammertz
connections
dejan
desire
functional
gan@@
hos@@
jankovic
labus
mountains
movies
mur@@
objectives
originally
ovo
passengers
pres@@
probe
professionals
properties
pushing
ratified
schilling
silajdzic
willingness
wine
arm
az@@
collected
contrast
declare
dimitrova
downtown
drive
funded
intention
ne
opoulos
rapid
reserves
shift
tical
250
acted
broadcast
bus
compensation
contacts
david
defendants
dramatic
egypt
ered
fixed
foreigners
friendship
head@@
hy@@
inv@@
meta
ministerial
mladjan
pap@@
policemen
portugal
proceed
racan
ratification
resign
rhetoric
schwarz
sixth
suggesting
worry
38
9m
ath@@
behalf
cec
coastal
customers
financed
fine
finish
fulfilled
hall
iranian
maximum
ol
orders
relatives
uses
0km
announce
arrive
ben@@
consideration
den
fired
journal
monastery
nimetz
preparation
relief
rival
situations
symbol
trends
vulnerable
assume
bak@@
bel@@
biljana
burden
controls
falls
friend
intends
lers
mining
opposes
solid
targeted
transparent
30,000
53
62
aegean
allocated
angela
appearance
ase
buying
by@@
cha@@
consumer
coun@@
coup
crowd
demetris
dps
evening
inclusion
items
languages
newspapers
ora
ordinary
preserve
retain
1989
44
attracted
cash
cefta
cold
contemporary
def@@
documentary
exists
fresh
investing
jadranka
legally
lisbon
ra
records
responded
seekers
simsek
technological
veteran
1244
aries
cting
defend
dora
excellent
gs
holidays
kemal
lasting
lebanon
nobel
objections
prizren
profits
renowned
soren
tuzla
welcomes
welfare
48
800
ayhan
bases
bigger
calm
carrier
ering
focusing
ilic
irish
mi
ming
postponed
rely
secondary
seem
speci@@
stu@@
thanks
unprecedented
ure
ved
venture
warns
1,500
3,@@
46
aircraft
chain
complaints
consultations
custody
eli@@
emerged
felt
illegally
mladen
negotiate
papadopoulos
payment
reli@@
requests
shut
banka
bird
bit
blame
catholic
centuries
farm
fication
gerb
ial
identify
jusuf
limits
matic
rebels
sensitive
unrest
vit@@
11@@
backs
cau@@
caught
cinema
dnevnik.bg
nurses
poses
roman
sharing
strongest
tens
thinks
wo@@
appeals
arena
campaigns
conducting
connect
dly
gro@@
guests
honoured
kos@@
liberation
mag@@
obtained
pat@@
ped
photos
republican
researchers
srs
thermal
tional
trained
transformation
tro@@
6,000
ard
bio@@
breaking
bsp
capacities
celebrations
chairmanship
competing
contrary
cy@@
eye
far@@
featured
fr@@
has@@
hin@@
immigration
inaugurated
informed
jak@@
kil@@
lukic
messages
nominated
norway
outstanding
purposes
reflects
slightly
snsd
tetovo
20m
bar
blood
compliance
comply
core
county
discussing
dozen
everybody
finds
fur@@
grew
investigators
jointly
latter
legitimate
nu@@
possibilities
prisoners
renewed
sharp
akis
alised
arrangements
assad
barriers
bear
bin
ck@@
direc@@
documentation
enterprise
envisioned
ery
euronews
finals
gather
han
influential
investigated
ish
ishing
ksf
marketing
murders
polish
que
rasim
receives
rome
staged
sum@@
ths
academic
anadolu
attacked
brothers
computers
dar
doubts
drawing
dri@@
engaged
evski
kovski
lacks
medieval
monopoly
resistance
sandzak
selimaj
sharply
sound
speaks
style
sugar
ton
zar@@
zero
200m
aged
amended
bility
bon@@
cat@@
din
drivers
fled
follows
girls
guaranteed
ireland
legislature
ological
opinions
papoulias
perpetrators
presenting
sda
sel@@
sized
stadium
tank
version
ving
yan@@
200,000
2014
anti@@
apartment
attractive
ba
blue
cel@@
defeat
earthquake
economists
employed
if@@
kon@@
ljubljana
operators
performers
presentation
questioned
realise
reas@@
respective
significance
ster@@
super@@
upgrade
writers
afford
arrival
associated
cu
fulfilling
kat@@
nd
possibly
principal
projected
rac@@
ro
terzic
treated
triggered
whatever
yed
49
ali@@
behaviour
causing
collect
continuation
contributing
destinations
ets
extension
frozen
haven
ining
ises
jur@@
kostov
laid
linking
mc@@
milk
monitors
negotiator
novak
plastic
ramadanovic
retail
sta@@
strength
ultimately
welle
actively
airports
aj@@
ambitious
arguments
ately
bars
blamed
burns
businessman
combating
definitely
demonstrations
exhibitions
fish
frattini
ita
library
mic
moldovan
new@@
pensioners
predrag
producing
ros@@
simeon
victim
zones
12@@
85
accelerate
add
aids
baj@@
bun@@
chev
cin@@
credibility
divisions
edi@@
expanded
extraordinary
ga
gains
harm
ici@@
introducing
investigating
kov@@
legacy
maturity
ni
oning
outlined
overhaul
pressing
processing
pur@@
regulatory
remember
st.
struck
suffering
tac@@
threatening
turmoil
types
worried
alcohol
amp@@
beautiful
bitola
bombings
boz@@
contingent
djokovic
educated
ergenekon
ethnically
facts
flags
fuele
hel@@
maintained
maj@@
meat
militants
monument
older
proud
restaurants
sil@@
sis
specifically
sport
steering
strasbourg
svetla
unclear
unicef
vlora
alise
and@@
bdp
chemical
coverage
elderly
eve
fees
fri@@
graphy
isn
james
kan@@
pe
physical
propose
restore
rohan
successor
suicide
supervised
survive
svetozar
swe@@
wider
39
54
alfred
chose
dates
denmark
economically
enjoyed
extreme
gy
ich
industries
iti@@
len@@
medicine
memorial
mir@@
multiple
nica
partition
penal
planes
precondition
recru@@
shop
si
stalled
store
strict
succeeded
syn@@
tasked
teacher
tle
ture
write
.com
affecting
championships
cts
electric
empire
engage
ex
explain
eyes
falling
fewer
files
firmly
gashi
grave
helps
households
husband
islands
jelena
las
lying
neighbourhood
ots
register
renewable
seselj
sl@@
verheugen
ye@@
ze
--@@
1994
40,000
blow
burgas
cocaine
engineering
faith
fdi
flow
maria
mes@@
ologists
penalties
pon@@
secured
solar
stalemate
64
authors
boc
crackdown
cri@@
cutting
disappointment
erlis
evol@@
excessive
handover
intellectuals
inven@@
iu
kostelic
los@@
medics
migrants
mir
passport
pieces
procurement
provision
seeing
shel@@
starts
tin
variety
violated
vis@@
wealth
3.5
alising
apparent
armenia
ashton
azerbaijan
bic
bridges
broader
cation
credits
finalised
frank
freely
fulfill
happens
ians
indicate
kathimerini
komsic
mayors
montenegrins
mpa
nationals
obvious
pop
pursue
sulejman
testimony
tied
wh@@
0m
56
66
actress
andy
associate
ballot
but@@
categories
clubs
deeply
demonstration
dependence
exhibit
expanding
expecting
explo@@
indi@@
lasted
nov@@
observed
oldest
pic@@
placing
pollution
safeguard
sake
ship@@
shortages
suit
unveiled
vas@@
withdrawal
ys
adopting
amnesty
ballots
bogdanovic
cal
cally
demonstrators
dna
extent
ff
fines
hectares
injuries
matches
methods
ovac
pan
pra@@
rain
reading
repeat
satisfaction
signals
star@@
suspension
tation
teen
tel
thinking
undertaken
virus
warrant
1.2
10.@@
4,@@
52
aging
airline
civic
confirm
contain
corporate
equally
gate
gathering
ish@@
isolated
lift
mail
moderate
monitored
mp@@
proven
recommend
shopping
shops
traditionally
uncertainty
zi@@
95
absolutely
applications
armenians
binding
cate
democrat
dos
extending
extra
flight
gener@@
grade
hikes
holkeri
ire
marathon
motivated
occur
ordinated
plane
reputation
sen
simic
soci@@
trouble
wars
zi
afraid
afterwards
ah@@
ammunition
amounted
architecture
assumed
attempted
bc
branches
broken
capabilities
chan@@
connecting
counter@@
determining
disrup@@
distance
drafting
ethnicity
expenditures
extremist
fashion
gang
heading
instrument
lar@@
mafia
obtaining
pleased
prague
prevented
rounds
securing
statehood
stemming
sy@@
tives
unearthed
unresolved
weather
0,000
2,500
atory
dering
disappointed
eng@@
extremists
finances
fishing
flo@@
fly
frequently
geneva
hot
kosova
kur@@
ley
lieutenant
limaj
mediafax
mediator
ner@@
nomination
pamuk
provo@@
ranging
reliable
repeated
ticket
trading
unlike
valley
30m
4.5
absence
ances
authorised
camps
center
cli@@
comman@@
crises
daughter
dil@@
driven
emil
enjoys
fy
grown
inovic
mircea
musicians
patriarch
pave
popularity
renewal
sezer
sort
spiric
surprised
toll
40m
accusing
arresting
ast
belgian
bombing
bonds
bran@@
carefully
ceo
contains
eliminate
forest
gue
japanese
journalism
perceived
performing
realised
restoration
rompres
runoff
settle
siege
sli@@
strengthened
termin@@
tests
tis
travelled
wan@@
younger
0th
63
aiming
amendment
ces@@
cla@@
copenhagen
ctions
detailed
exchanges
fal@@
fies
ill
initi@@
leg@@
ljiljana
obliged
paramilitary
piece
pun@@
reject
reserve
seminar
supposed
surveillance
wal@@
wn
500m
6,@@
condoleezza
consu@@
corps
describes
dimitrov
eib
enti@@
faster
fought
gent
haj@@
impasse
issuing
ivana
ken@@
korea
kosumi
kova
lations
lay
nationalism
oliver
oned
piracy
pledges
rare
ray
reforming
ri
solving
subsi@@
suffer
tal
temperatures
valid
veterans
worker
wounded
appealed
awaiting
boskovski
cho@@
cian
cks
colonel
consists
deficits
delegations
exercises
explosion
fre@@
gaz@@
guards
hear
heating
helm
innovation
lar
maybe
operated
oriented
pav@@
publishing
raises
rap@@
revised
scored
slowly
stem
targeting
tas@@
tries
ums
wisner
ahmeti
bamir
bi
charging
cleared
coburg
concessions
consul@@
conten@@
dream
dy@@
ed@@
estonia
flat
kermabon
kingdom
med@@
musical
nationwide
openly
opposing
retirement
ruecker
rupel
saxe
shall
sky
specialists
ss
sting
sun
tito
travelling
12.@@
alities
apartments
ash
audi@@
bottom
cancelled
constitu@@
content
disabled
donor
ele@@
experiences
fest
gur@@
hol@@
icg
infor@@
lazarova
ly@@
mid@@
od@@
ourselves
poet
posted
pressures
rapidly
regularly
resulting
sds
surgery
transmission
volume
wed
ballet
beth
bin@@
bta
check
conclude
constant
conver@@
djordjevic
driver
edi
estimate
europeans
fate
forget
foundations
fron@@
fts
handling
heroin
ija
instruments
lec@@
lithuania
maker
mas
nic@@
nik
organ
ori@@
ot
passes
pil@@
predicted
properly
pul@@
pull
sekerinska
sup@@
tw@@
uncertain
vehicle
vetevendosje
&apos;clock
72
78
aling
answers
brother
budapest
character@@
conclusions
consistent
cope
deadlock
designated
destroy
dual
est@@
fiat
fra@@
functions
hon@@
knows
lation
licenses
managers
milestone
ovska
pli@@
postpone
protestors
purchased
rail
reasonable
roots
selection
sou@@
steiner
struga
struggling
tight
tool
undersecretary
unified
yo@@
57
acquire
african
approves
assigned
ball
blo@@
brand
brazil
canadian
causes
design
entirely
feeling
gos@@
hike
ie
imported
indictments
ine@@
initiate
instal@@
int
nomin@@
personally
pledge
portion
productive
puts
raids
refinery
refusal
refuse
resi@@
routes
scandals
scope
shape
snow
spot
squ@@
stages
stores
tured
unhcr
uz@@
weight
1.6
15,000
2015
2020
5,@@
accident
benchmarks
cell
channels
cl@@
collabor@@
commit
completing
cour@@
dig@@
domin@@
earmarked
earn
ecb
enabling
folk
gj@@
haz@@
hur@@
interpre@@
joins
learning
lis
mental
mention
miss
mul@@
odds
petrol
pot@@
praising
punishment
rasmussen
react
recommendation
regret
san
sps
symbol@@
tru@@
ultranationalist
useful
writes
1974
68
bound
brcko
capita
clients
daianu
dal@@
dated
diyarbakir
ek
ency
escape
exactly
fatos
frequent
governmental
granting
hydro
insight
integrate
ket
koha
kor@@
luxury
maritime
mo
nas@@
passage
pel@@
phenomenon
progressive
quo
referred
scenario
secularism
sessions
settled
sidelines
storm
supervision
surveyed
taxation
telegraph
vol@@
volunteers
wel@@
58
60m
69
attributed
auto@@
belong
bia
constitute
demonstrates
euro@@
fairly
fl@@
happening
hydropower
indicators
iti
knew
lo
moral
my@@
nationalists
neighbourly
nicolas
ption
rejection
robertson
stress
thanked
tickets
urge
voices
walk
winners
withdrew
bles
bol@@
buried
castle
character
dink
donated
evasion
exceed
extradited
gabriel
gradually
involve
jovic
lit@@
modernise
offensive
penalty
prepares
recognising
reflected
see@@
tain
tel@@
traditions
transformed
unknown
wood
writing
67
adnan
alive
ardi
bedrana
cement
colle@@
cus
define
disease
ee
electrical
eva
festivals
freeze
gjorge
grand@@
greatly
intensified
leaves
painful
pointing
pulaj
ramush
ries
servants
sit
stars
stipulates
strategies
sts
subsequently
surplus
tangible
urs
venues
advisory
bankruptcy
cab@@
classified
courses
deadlines
democratisation
expertise
fill
fortress
ghts
god
hungarians
hurdle
implications
inadequate
jat
kesh
makers
meaning
milos
miroljub
non@@
novosti
onal
operates
qualified
rapporteur
rehabilitation
sle@@
sole
species
subsequent
symbols
symp@@
toward
tranche
truck
truly
ures
victor
whereabouts
25m
acknowledging
acquitted
ads
allied
basha
biometric
bis@@
brigade
cam@@
catch
challenging
che
cher@@
cked
convic@@
discusses
dynamic
element
embassies
emphasis
exploration
glo@@
gordana
ham@@
handball
heavily
illu@@
impro@@
intent
interference
izmir
jeopardise
jurisdiction
lap@@
lating
minor
mobil@@
pers@@
plea
preservation
prodi
rad@@
reaffirmed
reference
respects
restored
sat
stories
sutanovac
symbolic
threaten
undertake
vely
400m
advocates
ail@@
albert
alisation
anatolian
attorney
birds
blueprint
briefed
celebration
clar@@
conditional
confiscated
elementary
eroglu
expenses
factories
fat@@
fledged
franco
gas@@
kas@@
kul@@
lun@@
mun@@
ok@@
pers
petrovic
plot
popovic
prestigious
pushed
refer@@
restri@@
rooms
scar@@
societies
sustained
tap@@
trucks
tures
watching
win@@
00@@
150,000
500,000
60,000
alle@@
ama@@
author@@
beating
bor
careful
clause
compar@@
comprised
constituent
covic
cycle
database
decreased
discovery
ecological
embar@@
employ
ences
extradite
financially
founding
heat
heated
hun@@
jewish
journey
lavrov
lifted
mayoral
medvedev
metal
mic@@
negotiators
occasion
permits
phones
predecessor
predominantly
razvan
reve@@
sasa
sava
schedule
screening
seventh
sexual
shortcomings
soldier
spa@@
specialised
trajkov
underground
wrap
aak
acknowledge
advertising
agents
aw@@
beauty
blair
bly
breakthrough
chaos
comple@@
continent
defeating
djur@@
els
fas@@
gic
green@@
ilir
intense
irs
jac@@
kan
kes
madrid
native
og@@
oured
petrov
powell
refusing
removing
restaurant
samardzic
shar@@
suspend
testify
59
ach@@
bac@@
belonging
captured
caspian
commemor@@
degrees
deli@@
echoed
fic@@
funeral
holder
incentives
izetbegovic
kap@@
karic
karolos
landmark
margin
mb@@
orhan
partial
pilot
punished
radovanovic
rank
secession
seecp
seemed
separately
slovak
stolen
tionally
totally
turing
+
,000
1980s
anymore
boundaries
cavic
censorship
characterised
chiefs
classes
dealt
disagreements
elite
entitled
entrepreneurs
fried
indicates
infected
intellectual
jacques
learned
locked
nicholas
ny
ologist
oun@@
pahor
passenger
peak
posed
qatar
relation
resorts
rooted
rts
shipping
tackling
talked
tically
tics
vers
viable
voluntary
zemun
acquisition
alter@@
anticipated
appoint
asian
blast
bloggers
budgets
chaired
containing
depending
distinc@@
earth
evaluation
fan
ford
girl
hardly
highlights
hundred
ip
iron
jump
kinds
laden
literary
locals
martin
newest
obviously
om
ox@@
perception
profitable
purchasing
read@@
rebuild
recognises
roles
scan@@
stefanovic
strain
supervis@@
swimming
thousand
tioning
turns
ul
ust
vast
ves@@
vin@@
1.3
apparently
articles
assessed
assisting
attempting
auspices
background
complained
condemning
construct
criticising
cum@@
defending
depic@@
dr
ef
enters
equipped
examples
false
fire@@
formerly
grad
ici
ing@@
janovic
kampschror
keeps
kets
kill
launches
mel@@
miller
mitev
operative
pekusic
permission
pharmaceutical
plan@@
pop@@
prefer
pressed
questioning
reactors
red@@
royal
sends
simitis
survival
tassos
timing
uncovered
valuable
vesna
voluntarily
a1
ass@@
aviation
beqiri
biden
buyers
college
del@@
denies
diseases
earned
escu
extensive
favours
fli@@
globe
harder
hunger
junior
lawsuit
legitimacy
matthew
moody
mos@@
mount
narcotics
orchestra
prompting
prote@@
quest
rtk
satellite
senate
shield
snap
sor@@
tations
trans
13.@@
300,000
300m
50@@
73
81
900
98
accepting
addresses
advice
alongside
anovic
bay
bread
bus@@
celebrates
chair
cigarette
deadly
debates
dow@@
drazen
embra@@
enhanced
expec@@
fatih
forecast
fundamental@@
generations
guns
hood
iliescu
intensive
involves
ker@@
kol@@
kop@@
mounting
nationality
ombudsman
outbreak
overnight
papers
parliaments
petroleum
pin@@
practically
proclaimed
promoted
rak@@
reacted
registry
saudi
sec@@
songs
spots
srbija
srdjan
statue
stones
suggestions
und
whereas
yilmaz
140
25@@
ale
aring
bags
broadcaster
cheaper
clash
consisting
day@@
decides
deploy
deposits
fruit
halted
impressive
influx
ino
invite
ion@@
negotiated
novinite
observe
ok
owns
partly
patri@@
posters
pped
predi@@
professors
prohibi@@
questionnaire
rankings
real@@
sele@@
show@@
textile
tragedy
twenty
vessels
virtually
wards
zastava
&apos;d
25,000
7,@@
76
83
airspace
ay
balanced
bo
bru@@
budgetary
clearing
clinic
commen@@
competitors
confirms
correspon@@
darko
default
departure
disappeared
disasters
employee
evo
filled
fragile
gun
helsinki
hyseni
impression
ited
jobless
jun@@
kaletovic
kos
male
mol@@
necdet
northeast
ordinate
radmila
reg@@
regarded
roman@@
rou@@
roughly
soccer
sr@@
undermining
vel@@
velchev
130
15.@@
abandoned
accountability
alakbar
alexandroupolis
alina
belongs
cak@@
donations
ener@@
eta
exception
explosives
forth
fostering
georgievski
globalisation
hampered
hand@@
hen@@
ima@@
inefficient
ins@@
inten@@
intend
interesting
jovan
ken
latvia
legend
len
lie
lined
mak@@
mr.
nur@@
off@@
permit
physi@@
pnl
poorest
reluctant
responding
revolution
rompuy
rus@@
sections
sively
spur
suspicion
theme
transactions
transform
underlined
vasil@@
yield
1.4
accelerated
antonela
australian
bribery
buyer
circu@@
cking
cler@@
collecting
consolidation
declaring
diagnos@@
dictator
dist@@
distributed
ditore
diversity
dropping
erupted
exact
excavations
exceeded
fallen
favoured
fed
folklore
forecasts
glass
grey
haf@@
hatred
holy
hurdles
iceland
infec@@
institu@@
intensify
interven@@
ja@@
kosanovic
kosovars
ku
lau@@
ligh@@
lj@@
lukovic
mess
mosques
mutually
one@@
parti@@
paving
pec@@
pir@@
portal
prin@@
productivity
radicals
radmanovic
railways
raufoglu
reads
rejects
reveal
ria
rivers
rob@@
semi
sion@@
stabilise
veli@@
wolfgang
yal@@
zannier
82
acknowledges
acquis
angry
anna
argentina
athlete
beaches
belief
bosnians
captain
ceasefire
clan
competencies
correct
cro@@
develop@@
divide
dor@@
drama
eliminating
erhard
evacu@@
extremism
feith
focuses
gh
gil@@
gru@@
h5n1
holbrooke
installed
isa
jel@@
kragujevac
les@@
let@@
licen@@
maintenance
metohija
milic
mistakes
mus@@
museums
namely
nenad
partially
perceptions
petrescu
pm
populated
populations
praise
prerequisite
repair
rian
ric
subsidiary
tele@@
tem@@
tou@@
tree
unanimously
warnings
wrestling
5km
acceptance
activ@@
additionally
animal
assisted
autonomous
beach
berg
cable
cautious
cigarettes
coalitions
condemn
confirmation
contin@@
cted
dent
dtp
ene
eur@@
facilitating
fee
gers
google
honest
hu
ignored
innocent
legality
mar
modi@@
movements
mw
obradovic
pa
pac@@
patient
persuade
photo@@
positively
prece@@
premiere
radi@@
raid
rot@@
russians
semin@@
serge
shala
shock
sign@@
simpli@@
stambolic
teresa
territories
tops
translated
treasury
turk@@
unite
unnecessary
watchdog
worries
110
14.@@
1984
84
adjustment
affects
alt@@
assa@@
ataturk
audiences
bitter
bytyci
cheap
cit@@
commanders
comparison
cyber
dangers
danish
dark
deemed
delta
dervis
desi@@
detainees
dinar
earthquakes
embargo
enhancing
eni
enver
flood
graphic
hidden
holders
imposing
ioc
ivanic
justified
lifting
maintains
motor@@
nat@@
necessarily
ordinating
prisons
proeski
prostitution
remarkable
rev@@
rijeka
searching
son@@
sooner
surveys
tak@@
testing
tist
wasn
wearing
with@@
xhe@@
30@@
70,000
99
airways
amend
beg@@
collapsed
columnist
dam
delivery
donald
dul@@
eg@@
encies
evident
examine
execution
exported
favourite
forests
freezing
gency
graduate
gross
hard@@
helicopters
homeland
ideal
influenced
inform
ive
jordan
kovac
land@@
lav
lou@@
metre
objec@@
origin@@
outright
philip
philosophy
policing
portra@@
preserving
privatise
propaganda
prosecute
pru@@
psych@@
ratify
rebuilding
rel
residence
rit@@
stabilising
stor@@
sum
supporter
surrendered
tense
terminal
tex@@
tious
unilaterally
ush@@
wireless
woes
zlatko
0.5
1,200
61
admit
anywhere
approaching
ashed
avaz
boy
catherine
charles
cm
coal
colo@@
constantly
crimin@@
cuk
curb
damages
deny
dered
disputed
dow
downturn
dum@@
elec@@
ena
exploitation
extra@@
flee
fulfil@@
generate
hoxha
inauguration
intimidation
ium
kids
kozloduy
krajina
letters
lion
lip@@
listen
looked
mandates
manufacturing
method
navy
neighbor@@
organs
pack
pleaded
projections
pros@@
punish
relative
requiring
scrutiny
segment
shor@@
stepping
teaching
theft
tone
unchanged
ur
violating
websites
windows
wishes
witnessed
workshop
0s
74
ach
alike
anonymous
anu
asi@@
barack
brutal
byzantine
capital@@
charity
complaint
concession
constructed
conven@@
corner
cristian
declining
dismissal
dnevni
england
esm
explaining
fleet
flooding
foot@@
graves
hence
instruc@@
kpc
las@@
lat@@
leakey
marred
nan@@
norwegian
ote
overcoming
persecution
petkovic
popovski
premi@@
regards
replacing
satisfactory
separatist
short@@
shut@@
sia
steady
ty@@
ukrainian
viewing
violate
12,000
abolished
ade@@
ano
artefacts
aspect
avoided
bearing
blockade
bou@@
bribes
campaigning
cep@@
chair@@
cher
composed
confirming
considerably
contradi@@
creates
dabilis
deal@@
dependent
dge
die
dis
draws
emo@@
emphasising
enforce
escal@@
fun@@
gel
generated
geo@@
ghana
ghter
glu
gracanica
hat
hide
importantly
jarinje
jer@@
lis@@
mann
marty
meps
milenkovic
nesovski
outlets
passy
peninsula
portfolio
prosperous
quoting
ram@@
renov@@
rig@@
ril@@
shkullaku
sns
stal@@
theory
tier
traffickers
tripoli
unification
vari@@
ver
volleyball
zenica
150m
15m
77
addi@@
aded
bh
black@@
bond
borislav
cameras
celebrating
checks
component
counting
crowds
demarcation
differ
discipline
discrimin@@
enclaves
endangered
expense
explosive
fighters
healthy
hillary
hurt
identification
industri@@
ize
kin@@
koci
latin
lessons
lev@@
longstanding
lowered
margin@@
mation
obli@@
observer
petition
proliferation
proposing
reciprocity
reformist
rejecting
remittances
rocen
sak@@
sceptical
severely
shelter
sibenik
somewhat
survived
tanja
tested
textbooks
thracian
tified
timetable
tot@@
treat
troubled
upgraded
usage
viewers
walls
zel@@
350
6.5
accountable
advantages
aggres@@
alism
altogether
ambitions
analy@@
asks
associates
ational
beer
cave
choosing
condi@@
counted
deeper
delegates
designate
devices
dogan
easing
explore
fitch
flexibility
gasoline
gymnastics
herman
hes
hill
impe@@
inci@@
kps
kurti
lor@@
lukoil
milanovic
models
mt
nor@@
not@@
pictures
pierre
pleas@@
poets
polo
regain
reporter
resumed
secre@@
sergei
sex
spar@@
storage
strained
svilanovic
tenders
tic@@
tioned
tled
tol@@
tose
touch
trees
udf
unded
understood
unfair
vet@@
1.7
7.5
71
ably
absolute
accounting
adap@@
apped
arbitration
attac@@
attitudes
avljevic
bildt
bombs
boo@@
competent
concludes
continu@@
contra@@
controlling
cular
cultures
dable
damaging
deepening
defense
dele@@
disclosed
districts
eide
environmental@@
facto
fierce
flexible
flows
flying
frustration
ghtened
grants
home@@
hr@@
ily
incomes
inspired
isaf
jas@@
laboratory
lawmaker
lescu
liaison
miha@@
narrow
occupied
ous@@
pages
paintings
peri@@
pipelines
postponement
proves
provider
pt
publish
pula
shed
sight
slowdown
studying
sured
sustainability
tab@@
tend
ther
undergo
unofficial
uprising
vacation
vic@@
abolish
affirmed
alert
boom
branislav
breach
budva
capability
consulting
deliveries
describe
devastating
dignity
disagree
enrol@@
eth@@
evade
exhibi@@
exp@@
fi
finalise
fix
formula
fouere
fru@@
goodwill
guest
hari
harsh
hostage
icic
ier
interpol
interpreted
intervene
jana
jani
jor@@
kam@@
kre@@
married
mary
mihajlovic
mile
missed
mothers
norms
occasions
ole@@
pakistan
pit@@
predict
professionalism
roc@@
root
rt@@
sco@@
scr@@
securitate
simultaneously
smoke
sn@@
spreading
stakes
stretch
tape
tapped
tear
thorough
thrown
titles
tun@@
uefa
ults
ven
vis
vla@@
warm
yves
1,0@@
88
96
acy
advocate
anagnostopoulos
applies
armies
aver@@
bah@@
bands
bb
biased
bidder
blan@@
boxes
briefing
busy
capitals
cil@@
congratulated
creditors
decree
democracies
dings
disagrees
donation
dos@@
dou@@
egyptian
existed
experiencing
fifa
grap@@
hired
hits
ico
ignoring
invitations
io
kav@@
lehne
manufacturer
mers
mistake
nak@@
normalisation
onto
ose
pavkovic
plates
poc@@
pow@@
preconditions
protested
qi
rever@@
sav@@
scoring
shkodra
specu@@
sustain
taining
tan
taxi
til@@
tile
tism
tomb
tomorrow
trigger
venue
vide@@
vlatko
accomplish@@
ailing
apolog@@
approaches
architect
ased
az
baran
bel
beqaj
bishop
blago@@
bnn
boat
buses
calcu@@
circles
classical
consent
consequence
defendant
defended
eli
executed
expelled
flu@@
fol@@
forcing
fuels
genuine
gordon
habi@@
hala
handled
hap@@
household
indication
jews
joachim
jos@@
malta
miners
nms
nova
opponent
oting
pd
poultry
precedent
protesting
pursuing
refuses
ren
repatri@@
restitution
revo@@
risen
rivals
romano
rup@@
shake
shouldn
slav@@
solely
stall
steadily
swift
tages
taleski
transylvania
ual
vowing
wind@@
70m
ade
adequately
adver@@
applying
arche@@
ared
artistic
awaits
benedict
checkpoint
competed
complain
compo@@
costly
couldn
courage
crash
dal
das
deb@@
devoted
dise
drought
editorial
eliminated
emissions
empty
enjoying
entrance
eries
everywhere
excise
feels
gangs
grace
harmful
hub
idis
ids
imprisonment
inhabitants
ived
jonilda
kalfin
kuci
kumanovo
lacking
liqu@@
mandatory
mol
mov@@
muammar
negle@@
ninth
notably
objects
ole
periods
polar@@
precise
propor@@
prosecuted
ptk
readers
referenda
refrain
reiterating
researcher
retrial
reviewed
rumsfeld
shantek
signatures
skiing
slated
slight
spor@@
sters
sworn
systematic
tatlises
technically
temporarily
tes@@
thir@@
tra
universal
usual
veles
wear
won@@
wouldn
youngest
00,000
5.5
50th
86
abandon
absorption
accomplished
ai@@
aled
alists
allocate
andrija
ases
beaten
belonged
beneficial
besa
birthday
breakaway
breaks
civilisation
coffee
commenting
communists
contracted
councils
credi@@
dece@@
deciding
dity
drag@@
droutsas
ear@@
elimination
essence
footage
graph@@
grenades
idi@@
incorpor@@
ji@@
josip
kick
kovska
kra@@
lingering
lustration
mihai
militant
miodrag
misko
murdered
night@@
op
pays
pliva
premises
rat@@
rated
rescu
revive
shap@@
shocked
sitting
smokers
stro@@
sy
sydney
tahiri
tia
tools
totalling
transitional
trou@@
undergoing
util@@
venizelos
virtual
visegrad
visi@@
vukcevic
warsaw
wild
wreath
yan
zarko
1.5m
301
affair
ass
ata
bet
borrowing
boycotted
caucasus
cicek
clean@@
combination
committees
compatible
confes@@
consulate
continuous
conventional
convincing
defining
dence
discontent
dollars
dramatically
eco
ently
evenings
exploded
fos@@
gaza
gi
gin
greeted
guide
gur
ham
hot@@
ide@@
ign@@
ilovic
indian
janica
jones
jov@@
justi@@
lay@@
meantime
metal@@
migr@@
neutral
nice
nokia
notorious
occup@@
ong
ordin@@
ore
partnerships
patten
pel
polt
pool
preserved
privatised
privileged
promotes
proposes
psychological
regulate
repli@@
resumption
ris@@
sian
sof@@
soft
spr@@
stamp
stems
super
telecommunication
tip
unpaid
ute
waves
workshops
1,800
400,000
80m
9,@@
ada@@
amounting
anger
announces
antiqu@@
arrives
box
cafes
cargo
cations
champions
colin
comfortable
components
composer
contained
credible
debut
delaying
dem
demonstrating
denying
disagreement
djurovic
drinking
end@@
enta@@
excluded
exclusively
exemp@@
fe
flotilla
formu@@
genc
gl@@
harmonisation
hop@@
hopeful
itary
jansa
landscape
lengthy
mediated
memory
observatory
oecd
parade
pled
profession
quit
rece@@
reductions
regulated
remote
replacement
residential
rin@@
ron
rumours
scheme
scientist
scotsman
ser
slalom
stagnation
subjects
sufficiently
tax@@
tory
transported
troop
varna
vatican
water@@
zadar
zan@@
zed
1.1
9,000
92
abuses
accidents
affili@@
agreeing
appreciation
apprehended
assuming
assurances
atic
bidding
bit@@
blocks
boosted
brain
cating
cav@@
challenged
chambers
cians
comm@@
commentator
conferences
confron@@
contractors
daci
denktash
dness
dogs
ees
electorate
elena
emer@@
emerge
emir
essentially
evaluate
excav@@
floor
forever
hasan
highways
ignore
inc
indirect
integral
jandrokovic
kadare
kristina
ky@@
legendary
lending
lining
mari@@
marian
marine
matics
mediation
migrant
narro@@
nedjeljko
novel
ocalan
outs
phil@@
poised
predicts
quarter@@
rebel
registering
relationships
remin@@
resource
reward
ron@@
sal
screened
seaside
semi@@
setback
shocks
sing@@
sis@@
sljivancanin
spite
spoken
suppliers
tery
threatens
trains
trilateral
unusual
utilities
www.@@
za@@
zdravko
250m
75m
abolition
academics
accommodation
antalya
argument
atives
audit
avoiding
barbu
boasts
borissov
break@@
burned
buz@@
carriers
caution
cements
christos
clauses
cohesion
coinci@@
commo@@
common@@
communicate
coo@@
courtesy
damir
div@@
dom
doubled
equivalent
eupm
favour@@
fer
fle@@
giorgos
heav@@
hil@@
ibar
insulting
kidnap@@
lju@@
lon@@
los
lowering
merchan@@
modest
multinational
myself
nation@@
normal@@
olo@@
olympiad
oring
osijek
papademos
particip@@
petro@@
piraeus
practi@@
presiding
pression
pride
print
provoked
publication
q
renovated
renovation
revision
rudovic
separation
shale
sibiu
signalled
silent
slogan
suspicious
sweeping
tenure
tina
tony
topalli
triumph
tual
ultimate
unhappy
villagers
wto
yard
18.@@
91
acropolis
afternoon
aggressive
ah
alling
angel
apprehend
arch@@
arhin
assault
attendance
attraction
avian
barracks
basbug
brokered
bureaucracy
cardi@@
chem@@
chic@@
cites
clark
cleansing
com
comparatively
constan@@
conversation
conviction
cru@@
cry
ctive
ctors
dalma@@
demographic
denis
destabilise
device
dimitar
dimitrij
distant
doc@@
dre@@
earn@@
echr
emplo@@
engineers
eurasian
europol
eurostat
everyday
filmmakers
frag@@
fulfillment
gjirokastra
gran@@
helicopter
icc
ideology
ih@@
imply
impressed
incentive
infection
ios
isting
jocic
joseph
ler@@
locate
macovei
maja
mitreva
mits
moder@@
mufti
mustaf@@
neg@@
negatively
occupation
odihr
omy
overthrow
painter
philharmonic
plavsic
policeman
regimes
rent
respon@@
revival
rich@@
riot
roadmap
seconds
segments
separated
shakes
soil
spectators
stag@@
statute
staying
stoj@@
tative
tech
televised
than@@
unstable
window
xes
zur@@
12m
20km
87
alpha
anders
ara
ari
atomic
auto
automatically
awaited
bankrupt
barrier
bernard
bir@@
bulletin
ceausescu
crowded
cultiv@@
denti@@
dents
deplo@@
dic@@
dick
dies
disbanded
dismis@@
documentaries
eighth
enabled
engine
expires
exposed
familiar
firefighters
guler
headscarf
headscarves
ingly
ipa
ized
kit@@
kouchner
lovic
lulzim
lum@@
mentality
meters
mhp
naval
nes
nis@@
offen@@
oslo
ossetia
outlines
packed
person@@
pick
play@@
portuguese
positi@@
possession
prix
prosper
queen
radar
ranko
recommends
refer
returnees
sadiku
scor@@
separ@@
shadow
shak@@
slim
span@@
sre@@
staf@@
stephen
stick
stream@@
struc@@
takeover
taxpayers
tehran
termination
tudjman
undertaking
upper
wil@@
200@@
97
acquiring
admiral
affordable
alek@@
alkalaj
alumin@@
animals
badly
baghdad
btv
christians
clear@@
composition
credited
cripts
culmin@@
dam@@
destroying
dinars
disar@@
dors
downer
drink
duc@@
easter
enforced
ero@@
evn
fications
forgotten
gated
gol@@
harmony
highlight
hinges
hrant
impetus
inevitable
irreversible
kai
kir@@
limiting
longest
loose
maps
marin
markac
mood
noticed
oli@@
open@@
overwhelmingly
plovdiv
prince
prises
prohibited
prot@@
realisation
refin@@
reflecting
rem@@
reminded
reserved
resignations
rift
robust
rout@@
rum@@
safe@@
scepanovic
silence
sloven@@
slowed
sreten
stresses
strictly
successes
surprising
tas
threw
totalled
touched
transla@@
travellers
ulted
vlasic
vski
warming
watched
weaknesses
wright
zukorlic
é
180
79
8,@@
93
absta@@
aca
adverti@@
advised
aftermath
americans
appointments
archy
assassin@@
balkan@@
bling
bone
bour@@
bright
burning
camer@@
cannes
clashed
cop@@
crew
ctively
dicarlo
eat
effectiveness
ela
eradi@@
fabri@@
feet
fined
fir@@
fold
forged
forums
gam@@
gan
gendar@@
gradual
gratitude
guidelines
handing
harvest
hat@@
honours
imagine
ivan@@
janez
jus@@
kou@@
kt@@
laying
layoffs
length
liquidity
lord
mah@@
main@@
mainstream
marriage
missiles
mrf
nar@@
nazi
nicolae
northeastern
patience
patrols
peacefully
percent
perfect
photographs
pling
prev@@
problematic
produces
profession@@
prosecuting
pum@@
rarely
remikovic
resolutions
rol@@
run@@
schook
secretariat
selimi
sible
six@@
skender
smo@@
smooth
standby
stays
tactics
tanks
tariffs
thank
toon
transferring
ut
verdicts
wav@@
weapon
withdrawn
wonder
17.@@
250,000
3.6
abilities
activist
adis
ailed
alarm
alp@@
analyse
arguably
arn@@
asset
athy
biological
blaming
blog
broadband
canton
cir@@
cluj
colony
cons@@
country@@
desig@@
difficulty
djo@@
enemy
enter@@
enthusiasm
forthcoming
furniture
geographical
gies
gla@@
govern
graduates
harmonise
hearings
hic
illy@@
indicating
inspectors
intensi@@
internally
jes@@
jko
jna
justify
kosovar
kotor
kyprianou
life@@
marshall
master
mere
midnight
miranda
modernising
momcilo
motto
naf@@
naz@@
object
of@@
ona
panic
pdl
persistent
picked
posing
prefec@@
proportion
providers
quake
regulator
reinfor@@
rings
rocket
sam@@
samir
satisfy
saved
shoul@@
sit@@
sni@@
spiritual
spot@@
stimu@@
supplier
suspicions
thereby
torn
tower
trafficked
tragic
tre
uma
vity
vodafone
xvi
zic
.net
16.@@
550
abused
afghan
album
ambi@@
applicants
archives
artificial
assessing
baykal
belarus
borut
bribe
buil@@
burg
busek
cates
cedomir
cells
circle
competence
consolidate
convergence
cruise
davinic
denomin@@
dimension
discipl@@
discre@@
dissatisfaction
dle
dominant
dor
eased
echoing
elling
em
emphasises
enables
ethical
expedi@@
explanation
farewell
fogh
fun
gesture
gorous
group@@
guaranteeing
gulf
hate
hes@@
hev
hunt
indicator
inquiry
ischinger
ites
jen@@
jev@@
kazakhstan
keen
kicks
kno@@
lagging
lan
landslide
loyal
lus@@
machine
make@@
manipu@@
maric
mathe@@
medal@@
merely
micro@@
milutinovic
mini
motorway
nbs
necessity
om@@
opposite
oto
ow@@
owed
parliamentarians
pep@@
po
prayer
precisely
prog@@
pursu@@
qualify
qualifying
questionable
ration@@
regulating
rein@@
religions
ressed
ros
saric
shu@@
sim@@
sinc@@
situated
skilled
sparks
stein
ster
sub
surrounded
tancy
tering
thor@@
tir@@
tom@@
turkishness
unanimous
uniting
unrealistic
uph@@
uranium
veselin
voulgarakis
weigh@@
2.9
accommodate
accurate
ached
adults
af
alpine
amariei
ams
anticorruption
arabia
arriving
ation@@
auction
bans
benghazi
bolster
brigadier
cap
carries
cease
cevski
chris
clarify
cna
coastline
concluding
convoy
correc@@
cot@@
counterterrorism
couples
crossed
deliberately
depos@@
deserve
dmitry
envis@@
ere@@
escalation
exam@@
eye@@
fan@@
flooded
followers
frankfurt
fruit@@
ges@@
ght
ght@@
guenter
harri
hear@@
historians
hit@@
hollywood
hosp@@
ika
inherited
inspection
insur@@
integrating
intentions
ionian
jak
jec@@
kas
leg
liberty
lobbying
logical
manipulation
max@@
meter
mexico
mirjana
mist@@
nad@@
oming
packages
pair
pazar
pes
photography
policymakers
preferred
py@@
rallies
recovered
recre@@
revolutionary
rid@@
roundtable
s.@@
saving
secularists
spe@@
specified
srpske
stand@@
stayed
striking
sue
tedly
testi@@
themes
thro@@
trum@@
tzanis
una
understands
unnamed
upgrading
urgently
venice
vlahovic
workforce
youtube
zbogar
zor@@
00m
160
2.2
35,000
89
abide
accommo@@
adoptions
advancing
andreas
archbishop
art@@
asi
bidders
blackmail
bom@@
bonn
bureaucratic
butmir
cemetery
cheva
christ@@
christie
claude
cle@@
clinical
coff@@
confront
conservation
consp@@
constanta
crack
crip@@
crude
departments
differ@@
dimen@@
disposal
emphasise
employs
endor@@
eps
evenimentul
evska
exceeds
expli@@
filling
fit
fixing
frustrated
garnered
geopolitical
gordan
hero@@
historian
hrt
ill@@
insistence
itaries
jakup
johnson
kri@@
kukes
lah
lazarevic
liter@@
ljube
mal
mall
mandic
moun@@
mut@@
neo
omv
orientation
oscar
ours
outdated
outlining
pay@@
phases
plagued
plenty
poster
precautionary
preferential
presevo
privacy
privileges
proving
quantities
quiet
regre@@
rele@@
rena@@
replaces
ress
runner
sacrifice
sad@@
safet
sahin
sche@@
schroeder
secondly
sely
settling
shan@@
signatories
sister
skep@@
sna
sos
squad
stabil@@
stat@@
sty@@
subordin@@
suggestion
surface
tat@@
tine
tiny
tment
topped
tos@@
treasures
ts@@
tunnel
twin
upset
vie@@
virtu@@
vr@@
zeri
zo@@
1.9
19.@@
20.@@
3.8
ada
adaman@@
advocating
allocation
angered
annulled
anonymity
anth@@
appealing
aren
arti@@
ater@@
ato
atp
bail
bakir
ball@@
bojan
breakup
brown
bujar
cern
chairs
cho
cite
committing
commun@@
condolences
conqu@@
consistently
crow@@
curren@@
custo@@
dation
discover
dov
dulic
efficiently
enacted
endanger
enko
envisioning
evangelos
explosions
exporters
exposure
factions
fatal
fearing
feasible
foot
gents
gheorghe
gift
glad
gle
gy@@
happiness
hasn
human@@
illustration
inability
independently
indirectly
inspec@@
iri
irresponsible
itar
ivanovski
ization
jela@@
keeper
krivokapic
leftist
limit@@
lingu@@
literacy
luksic
manufac@@
meaning@@
measuring
merged
micic
mirror
misuse
mitic
mladenov
monasteries
moratinos
ordering
oty@@
packett
pective
permanently
pi
pianist
pping
prescri@@
prizes
promotional
protocols
pulled
pyramid
rami@@
reconsider
recycling
regist@@
sap@@
sation
seas
shots
singers
small-
snezana
spectacular
stanis@@
tesla
thi@@
timely
trajkovic
transplants
trophy
ultra
umbrella
unconstitutional
vali@@
verification
veterinary
viktor
walked
william
ys@@
zilei
zupljanin
1.8
1980
240
accomplish
accounted
ading
adopts
advisers
alarming
analyses
anne@@
athletics
await
baby
beli@@
birn
centr@@
cip@@
circulation
commissioned
commissions
comprising
concentration
cont@@
crete
defa@@
dened
denounced
deserves
detail
dire
disciplinary
distinguished
divac
dol@@
drilling
ea
eager
ely
ere
evalu@@
exceptional
expired
finishing
firing
forwarded
geographic
geous
graft
grid
hackers
harmonised
hilmi
hum@@
infantry
io@@
jankulovska
judgment
kadek
kaj
lands
lazar@@
liber@@
ljub@@
lon
lyn@@
mediu
mented
mourning
olive
opho@@
ousness
pain
paj@@
patrio@@
pet
pillar
plo@@
politic@@
proceeds
pupils
races
rebuilt
recogni@@
recom
reinforce
relating
responses
reunite
rid
roadblocks
safer
saranda
scholars
select
sentiment
sever@@
shareholders
shortage
smoothly
socially
spare
spark
specialist
speculate
sponsors
stir
surge
suring
sven
swimmer
telemedicine
tian
tility
tionary
tivity
tune
typical
unaware
violates
wise
yor@@
zu@@
ć
14,000
197@@
2.6
3.2
3.3
800,000
accessible
advisor
agu@@
alli@@
anastas@@
anthem
any@@
ast@@
attached
attends
audio
automatic
bancroft
bankers
bb@@
bet@@
birth@@
boats
cafe
cermak
cheese
cia
coincided
commended
compas@@
conduc@@
consecutive
consequently
consultation
contention
counties
criticise
deepen
disagreed
disman@@
documented
e.
erwan
evil
feelings
fighter
flowers
forestry
fted
gation
gifts
gling
gregorian
guid@@
hero
hir
holocaust
hoxhaj
ibm
ij@@
inmates
innovative
interrup@@
interrupted
iri@@
jailed
kaya
kwh
laureate
lawsuits
lend
load
machines
manoeuv@@
marin@@
mastermin@@
mate
metropolitan
minimal
normally
orche@@
organiser
organization
orial
ozkok
plot@@
plun@@
populist
provinces
radio@@
rape
reform@@
repayment
respecting
roof
rush
saf@@
screen
ses@@
sev@@
sf
shoot@@
sq
stimulate
stops
strated
studied
stun@@
substantially
sultan
surroi
sus@@
talent
tarculovski
testified
thum@@
tify
tles
trandafir
utmost
vil@@
vows
warrants
wat@@
wer
wraps
yer
you@@
zealand
170
3g
4.4
800m
abo@@
absentia
aching
acquittal
adin@@
ai
aide
alic
alistic
ama
anima@@
annul
apology
architectural
asser@@
baz@@
beh@@
bers
bert
besi@@
butler
c.
carl
cez
cist
clim@@
clos@@
commemorate
commented
compos@@
concep@@
contamin@@
contents
contractor
conventions
cos
cus@@
cycl@@
decent
defines
dency
deterioration
dividing
ean
endeavour
endorse
eric
escaped
estonian
ez@@
fault
feder@@
fis@@
foods
gene@@
gov@@
gues
hearts
hed
him@@
ification
ilija
illicit
implies
imprisoned
inaugural
incoming
incre@@
individually
instructions
insult
intergovernmental
interpretation
iring
item
jordan@@
kin
kle@@
korean
liberalising
liberals
limbo
lira
loc@@
m.
mare
mjaft
mot@@
mountainous
neft
net@@
networking
nikolay
northwest
notable
number@@
oath
observation
oic
opti@@
osama
overwhelming
parameters
patrol@@
pdp
pillars
preparedness
pretty
pris@@
priv@@
prolonged
publishers
purchases
ratio
reiter@@
restricted
revis@@
risky
scenarios
scenes
seas@@
sells
simon@@
sity
smes
sociologist
sop@@
speeding
ss@@
stam@@
sticking
stojkovic
stopping
straw
suburb
sul@@
supple@@
theatres
thers
thwar@@
tightening
tokyo
tolerate
tomic
treaties
undoubtedly
unidentified
unve@@
ups
vecernje
vocal
wedding
worship
wrapping
600,000
60th
700m
accompanying
administered
administrator
admitting
advances
aire
alex@@
anatolia
antic
architects
astron@@
atrocity
babies
balances
battalion
bey
bloody
boundary
brazilian
breaches
calculated
capitalism
cele@@
cemil
ceremonies
certificates
checkpoints
chron@@
classic
client
competitions
consultant
contested
contributes
copy@@
countered
counterfe@@
dak
decreasing
dependency
deteriorated
dictatorship
dr.
drin@@
eding
electronics
eleven
emigrants
esi
eupolitix
exclude
expenditure
exporter
exporting
fa
fare
fights
frac@@
franjo
fres@@
froze
gelu
gg@@
gora
grapher
gsm
gul@@
helpful
hydroelectric
ign
inde@@
indications
inflow
innocence
interviews
isic
isti@@
ital@@
itors
juven@@
kins
kras@@
laz@@
lery
liberal@@
liest
list@@
logistics
longtime
machinery
manjola
marnhac
ment@@
mitted
murat
njak
novine
ols
oper@@
ordnance
organized
prejudice
presentations
preven@@
programming
quali@@
qualifications
queu@@
radu
rajko
raw
recor@@
recy@@
reflection
regi@@
rene@@
repercussions
resur@@
reverse
rhyth@@
ride
sac
sami
secularist
shorter
shou@@
signaled
similarly
singing
somewhere
stake@@
su
submitting
successive
telephony
tran@@
transnational
treasure
trig@@
turkmenistan
turnover
typically
undermined
ungureanu
unlawful
ventures
vukovic
week@@
whe@@
winds
wooden
wrongdoing
yildiz
zana
zla@@
2.3
2.7
accu@@
accuse
affiliated
alexand@@
alleg@@
ame@@
arben
attacking
babic
bag
banning
barely
biodi@@
borro@@
bullets
cad@@
chisinau
choices
cit
civilisations
closest
cn@@
concentrate
congratula@@
conservatives
courtroom
curta@@
davis
delivering
demol@@
deportation
deposit
detection
deteriorating
diversi@@
drain
edge
engineer
eusr
evi@@
examination
exceeding
extends
facilitation
fake
fastest
fiel@@
financi@@
free@@
gallup
gering
gok@@
grigor@@
guil@@
hajredin
hamper
hei@@
hiring
hole
hometown
imper@@
implicated
inappropriate
injec@@
interfere
ismail
ition
janjic
joy
jso
kidney
kostic
leva
lutovska
maj
may@@
meh@@
mez
motive
motives
mungiu
nap@@
nate
nee@@
nj@@
ntv
occur@@
offences
olog@@
orphan@@
overseeing
ović
patrol
perce@@
plu@@
prefer@@
proclamation
pukanic
pus
quotas
radical@@
recipient
recover
requesting
reti@@
reunify
rif@@
rowing
samaras
samples
scepticism
searched
sem@@
shop@@
southwest
standoff
stav@@
steven
stojan
strive
subjected
supplied
tables
tated
teach
teenagers
tenth
thomas
thy
tim
tively
transforming
trio
ula
underworld
urring
veton
vo
was@@
weakened
weightlifting
wounds
120m
3,500
accepts
acces@@
adapt
ades
administrations
agent
aired
annul@@
answered
antonescu
apprehen@@
ara@@
arbitr@@
aspiring
assure
athoc
aths
attorneys
au
baconschi
barred
bashar
bechtel
belt
betra@@
bing
blames
broz
cinemato@@
cles
constructing
contributor
conve@@
dams
dead@@
dedication
defin@@
deniz
dilemma
dimin@@
dismiss
distributor
distrust
domain
enclave
enforcing
escor@@
eski
evacuated
exaggerated
examined
fel@@
ferry
festivities
fischer
fit@@
formations
frequ@@
georgian
germans
grossman
gunned
gus
harmon@@
highlighting
hinge
ho
identities
inciting
inhumane
italisation
itar@@
janin
jeopardis@@
jet
ji
jolie
jud@@
judo
kab@@
khal@@
krstic
leaked
less@@
macro
magistrates
malay@@
marie
mati@@
meron
minds
multilateral
nights
notch
occas@@
ola
onic
opted
pacolli
painting
parks
pensioner
perisic
pervasive
planted
ple
prijedor
productions
prop@@
protec@@
raiffeisen
refers
reintegration
repay
rer
reshuffle
resist
righ@@
shelling
signature
smugglers
somebody
sophisticated
spee@@
stating
steep
stron@@
struggles
studio
suffers
survivors
tech@@
tely
termed
thetic
thirty
todorovic
tours
translate
tribute
tu
tz@@
ulemek
understan@@
unexpected
valued
vegetables
viola@@
voje
vrs
vukotic
waited
wheat
wherever
withdra@@
work@@
worsening
.the
14m
3.4
45m
600m
80,000
accelerating
accordingly
affirming
alar@@
alist
alleviate
anticipates
anton@@
aven@@
bajrami
barak
bene@@
billions
bologna
boss
brands
briefly
bulatovic
businesspeople
buyukanit
cea
checked
chenko
chers
child@@
class@@
clinics
clock
commemoration
confusion
constru@@
consult
continuity
crops
crossroads
cruel
cuba
cyril
dak@@
degra@@
deliber@@
diesel
disastrous
discour@@
dissolution
dog@@
doub@@
ds@@
dsb
enthusiastic
exceptionally
executives
fac@@
favor@@
ffs
fier
fisher@@
fuelled
gavr@@
gon@@
hadz@@
hdi
humans
ias
imer
incomplete
iness
iph@@
jewel@@
kandic
klaudija
kusturica
libraries
lobby
logic
lout
manufacturers
medicines
met@@
mit
miti@@
mitrovic
mobtel
mortality
motivation
musliu
negotiable
nezavisne
nikos
notice
obstruc@@
ore@@
organiz@@
outrage
paved
paves
pc
peres
petkov
plat@@
polis
printing
prompt
quantity
rade
recal@@
renault
repairs
reservations
restoring
road@@
rogge
rub@@
rulings
samuel
sculpture
sculptures
seize
sim
sincere
skiers
slogans
smil@@
snow@@
socio
somehow
specify
sporting
stationed
stavrevski
stefan@@
steinberg
stipulated
stojan@@
stop@@
stric@@
stricter
substance
sued
tant
tariff
tav@@
theodor
tigh@@
tom
torch
toxic
transplant
triple
trips
twelve
ult
underpin
underwater
unfavourable
updated
vasile
velimir
veljovic
vran@@
weak@@
weighed
wrestler
yasar
yu@@
zal@@
zen@@
100th
120,000
1986
50km
94
aca@@
acqu@@
adjust
adri@@
ae
agron
aided
akos
akovic
alogoskoufis
alternatives
anticipate
appe@@
appreciate
barcelona
bas
book@@
cantons
casualties
cetinje
chen
chirac
clarified
clou@@
colleague
commissioners
communal
complaining
complex@@
confederation
conspiracy
constituted
constraints
corpor@@
coupled
cpi
criticises
debated
demir
depth
dia
differing
dispar@@
dissatisfied
dollar
dominate
drill
educ@@
elektroprivreda
embezzlement
encourages
endorsement
ented
entrepreneurship
erec@@
ess
ested
exacer@@
feed
fule
fullani
fused
gazette
generating
govic
guar@@
guer@@
gui@@
handful
hani
hinted
hip
holdings
honey
honorary
honouring
importing
impunity
indebted
instruction
istan@@
iz
jav@@
jozefina
kek
klaus
kru@@
lab
lady
laj@@
law@@
lazar
ldp
legalisation
lenders
leverage
lib@@
licence
lifestyle
ljubicic
mad
margar@@
marmara
masters
mat
midst
mix
musi@@
news@@
nic
noti@@
od
odi@@
oll
opt
oversee
pain@@
pale
partitioning
photographers
pip@@
poorer
pragmatic
privatising
promp@@
quarters
reactor
reciprocal
reconstructed
reduces
reminder
reviewing
rog@@
roland
rors
s.
schooling
sd
separatists
settlements
shaken
sitel
solomon
some@@
sorts
stances
standart
striving
stumbling
surge@@
switch
synago@@
tains
tance
tati@@
temple
thal
thou@@
tie
tolerated
tougher
transfers
ung
unifil
ution
veness
viol@@
volatile
volunteer
wahhabi
walks
walter
wary
who@@
109
2.1
2.8
3.7
absur@@
advanta@@
advocated
aiding
alises
alo@@
amed
anch@@
ancic
ano@@
appar@@
approached
archive
assassinated
asselborn
assessments
ati
automobile
avo@@
bagis
bargaining
behavi@@
bekim
believers
benchmark
berets
bollah
bourgas
burdened
cancel
catalyst
cated
ceiling
celsius
cents
charities
cheap@@
chess
chi
chil@@
closes
collections
comedy
concentrated
condemnation
constitutes
copies
counterfeit
crown
curriculum
dations
designer
diana
diaries
differently
dimitrijevic
diplomas
disbursement
disclose
disper@@
divi@@
djankov
dragging
dragoljub
elled
entren@@
envision
establishes
ethics
europe@@
exem@@
expulsion
extradi@@
faithful
famagusta
farmer
fif@@
gala
gaps
gnp
graduated
hailing
harassment
hardest
heal@@
hiu
hong
ian@@
ideological
ijevic
imir
implements
inhabited
intercep@@
issu@@
jaz@@
kis@@
kom@@
kusari
kyrgy@@
lamberto
lates
liberalise
lights
lija
lik@@
likewise
litre
lment
lov
luc@@
mediate
mem@@
memija
memories
mentor
mik@@
miletic
milosavljevic
motiv@@
mourners
mous@@
mr
mr@@
munitions
nen@@
nikol@@
niksic
nity
northwestern
notion
novo
obstructing
occurs
organisational
osi
otto@@
outlawed
oy@@
panels
parad@@
pari@@
patriarch@@
penet@@
plamen
politika
poorly
post@@
potocari
printed
privatisations
proxima
qualification
recalled
repe@@
retailer
rises
rtrs
rushed
scen@@
scho@@
sec
seizure
shrink
sig@@
simovic
sional
sk
skating
slipped
sm@@
sorry
spaces
stan
stephan@@
strpce
suburbs
sus
swap
tackled
tain@@
throw
tire
travels
tsunami
unify
vals
vey
.bg
00km
0kg
16,000
1970s
750
acceler@@
ache
advising
agen@@
ambigu@@
ambo
andre@@
answ@@
anxiety
anxious
appearing
applicable
appropri@@
archaeologist
arise
arm@@
ashi
ath
baltic
basically
bear@@
berat
berlusconi
besimi
boycotting
bp
carlos
carmaker
catastrophe
catastrophic
cede
centralised
cessors
clu@@
concerted
concordia
congres@@
connects
consist
consolidated
cooper
critic
cuisine
defen@@
depor@@
derail
dervis@@
detected
dinal
disappointing
discriminatory
distur@@
domestically
dynamics
dzic
educate
encouragement
epide@@
ethno
execu@@
exhausted
experim@@
expres@@
filipovic
fishermen
flar@@
forci@@
forensic
fortun@@
functionality
geria
gonul
gray
guarantor
hussein
ide
identifying
imminent
impartial
impli@@
impor@@
inflationary
inflows
installation
inte@@
invi@@
iom
iro
itate
jahjaga
jeopardised
jevo
kck
kim
kong
kuzmanovic
landmines
lane
leasing
lebanese
lef@@
loaded
lob@@
logistical
loo@@
loved
magnitude
meas@@
mediating
menekse
mili@@
milliyet
modern@@
mus
naming
nationalistic
neces@@
nicknamed
nominate
normalise
oes
organ@@
oversight
parking
perfec@@
physically
physics
pist@@
plenary
plevneliev
polled
predictable
presen@@
presi@@
preventive
proba@@
protective
protectorate
provoke
public@@
publications
publisher
quota
racial
raided
rapprochement
reaches
realities
restraint
restructure
retali@@
reviews
revol@@
rov
ruins
sacked
saint
salt
samp@@
santa
sar
scholarships
scot@@
seemo
share@@
shell
shifts
sick
singapore
sluggish
sm
smuggled
soul
spectrum
spir@@
spo@@
spurred
srna
staging
states@@
staunch
stip
stran@@
surren@@
suspen@@
syri@@
taught
tay@@
tement
tents
thouse
throwing
tiles
tracking
tracks
transaction
translation
tsvetanov
underlying
underwent
unsuccessful
uring
victories
visions
wealthy
whenever
wire
workplace
yas@@
yl@@
zes
zo
zubin
1987
28@@
3.9
35m
450
650
abor@@
adjustments
advancement
advise
aks
ala
anne
antonis
anybody
arran@@
arsen@@
atric
attractions
austin
authentic
bala
barrot
battling
bbing
beds
beings
bias
bishops
blogs
bocevski
bogdan
brezovica
bulk
cadas@@
chronic
cle
clears
clothing
codes
coin
combine
compulsory
computer@@
confli@@
confrontation
conne@@
convene
corner@@
costing
creative
daskalaki
definition
dem@@
deta@@
dija
displayed
disturbing
dju@@
donate
efs
elaborate
elusive
ening
ensured
ethnicities
evaluated
exert
existent
fail@@
fajon
fatigue
fbi
feast
flew
flock
foca
fortune
gov
gover@@
governors
grenade
harbour
hatay
herself
hk
homeless
hrw
hygi@@
ifc
iftar
imen@@
imi
indic@@
influ@@
inger
invasion
ivaylo
jeopar@@
joe
jum@@
jumped
kelmendi
klan
kuneva
kuwait
lagumdzija
legija
lesson
leu
lighting
line@@
locating
lutfi
manages
mandated
manovic
mme@@
nul@@
outdoor
overturned
pavel
pavle
pessi@@
philip@@
postponing
premature
preval@@
procedural
provincial
proximity
radulovic
rational
reception
remembered
repa@@
riga
runners
rwe
scal@@
searches
serbians
shipyard
side@@
sided
sights
sky@@
slam@@
smel@@
sounds
speakers
sponsor@@
steinmeier
ston
strength@@
stret@@
stuck
suddenly
summoned
surely
swiftly
tar
teach@@
techniques
teodor
terr@@
thorny
thr@@
tis@@
todor@@
tokyay
traveling
troupes
tum@@
tycoon
unch
undergone
use@@
voj@@
voys
weaken
weakening
wild@@
xing
xture
zoo
17,000
4.6
5.2
abdul@@
abolishing
absorb
abstentions
adhere
adic
aer@@
aka
alan@@
alb@@
aleksander
alians
alsat
amateur
andric
apping
applau@@
arily
arranged
authoritarian
barrels
battles
bickering
blanka
blasts
bloodshed
brdo
bre
broad@@
broadcasters
brun@@
buffer
casting
cer
ceremon@@
ceric
cers
cev
climbed
clothes
coher@@
coins
compensate
confronting
congratu@@
contestants
contr@@
critic@@
ctor
curbing
custom
cut@@
david@@
decani
decisi@@
declar@@
declares
decor@@
deepen@@
defuse
delicate
democratically
dental
depri@@
deriv@@
dign@@
dinner
dir@@
disbursed
diver@@
dja
downgraded
downsizing
eigh@@
elev@@
elizabeth
embarked
encing
enemies
erol
excluding
exec@@
expedition
exploit
farming
fiercely
flor@@
flour@@
formidable
founders
freestyle
gin@@
globally
gostivar
gunmen
hak@@
hamza
harry
hinder
honour@@
hotline
hyper@@
ibra@@
ied
ify
ight
immun@@
inclu@@
incur@@
indefin@@
influences
ioan
ić
jelasic
junction
kaczynski
knowing
lacked
lav@@
lik
lila
ljubisa
ljubomir
mak
makedonija
marched
market@@
markos
massac@@
mater@@
mature
measured
memeti
milit@@
mill
minimise
mistre@@
morina
mosa@@
myster@@
natur@@
neutrality
nowadays
obe@@
observing
offs
og
omer
orban
oric
ota
owes
pak@@
paralymp@@
path@@
perpet@@
pieter
plur@@
polancec
politi@@
pursuit
rail@@
ration
recognitions
refuge
reluc@@
reopening
repression
restart
retained
rifle
roganovic
ru
rush@@
saddam
sations
savic
sc
scrap
securities
sentencing
simil@@
sko
slashed
somalia
spear@@
speeches
stamp@@
staunchly
stocks
stojanovski
suc@@
suits
sums
symposium
systemic
tale
team@@
tened
terrible
till
towers
tremendous
tunisia
unsustainable
vaccine
vasic
vent
verbal
vi
vul@@
vulner@@
weigh
wimbledon
wl
wr@@
xed
yellow
é@@
2.4
28.@@
30.@@
5.8
abdu@@
acute
ae@@
affirm
albena
allotted
amaz@@
anes
anska
appli@@
asing
attendees
attra@@
attri@@
avis
avni
balaj
bank@@
barrett
batic
begovic
ben
besim
betting
bilingual
bled
boards
bode
bora
cade
calen@@
cancellation
carnival
casts
cc
cev@@
cleaning
collaborated
commemorating
confidential
configur@@
containers
contempt
contests
copy
cultur@@
damascus
dani@@
decre@@
deme@@
demolition
deni@@
dest@@
destabilisation
diminish
dirty
disabilities
discourage
dismantling
distribute
distributors
diversification
dles
dling
doned
dop@@
drastic
draw@@
dreams
du
dun@@
eing
electing
emirates
enlar@@
eren
exer@@
facilitated
fantas@@
fasting
feu@@
fifteen
four@@
freight
gaz
gence
gli@@
gnant
hammer
haziri
herceg
hills
hire
hoods
hopefuls
hou@@
hsbc
ick
iii
inevitably
instances
instrumental
interoper@@
itation
jal@@
jerusalem
jkovic
juncker
koc
konstantin@@
lag@@
lasts
liberties
likelihood
lings
log
manu@@
margins
mep
meteor@@
millennium
mina
minors
mou@@
mov
nam
nam@@
navigation
novelist
offset
oid
olithic
ony
ores@@
ort
overhauling
painters
pantic
phar@@
phare
phenomen@@
pirated
pois@@
polje
poly@@
potok
power@@
praises
prof@@
progres@@
prosecu@@
pump
racism
racted
radiation
rains
ramp@@
reformed
regula@@
retailers
reviving
rus
sas@@
sci@@
scre@@
sculptor
semifinals
sensa@@
sewage
shame
shoe
slau@@
sor
stat
stockholm
struct
subscribers
substantive
sudden
suitable
superior
survi@@
swit@@
tless
tolerant
totaling
transporting
traveled
ud
ud@@
unsolved
usa
ust@@
uzan
vary
vlach
vuc@@
weakness
wines
wis@@
wol@@
wonderful
worrying
yearly
yon
zy
0mw
2.5m
29@@
35th
9.9
aba@@
accumula@@
aides
aligned
alija
alliances
angeles
angelopoulos
appreci@@
aps
archaeology
ardian
arising
assemb@@
assembled
assesses
assumes
asts
austr@@
barring
bears
beatings
believ@@
benefici@@
billboards
blind
boarding
body@@
bosses
boxing
brankovic
brink
btc
buhler
bujanovac
california
camp@@
cannabis
cative
channe@@
choir
chr@@
clin@@
comfor@@
compare
confiscation
coura@@
cov@@
criter@@
curricula
decorated
deeds
defender
defici@@
dispat@@
diverse
drina
dusko
eas@@
editors
efully
eled
emergence
emigration
enri@@
euros@@
excess
exchanged
exclusion
exercised
exhibited
faruk
fence
fenerbahce
finalising
footing
foresees
fou@@
gnite
griev@@
groundwork
guarding
guiding
haj
hardline
heres
hesitate
hooligans
horizon
horse
hotnews.ro
humili@@
ia@@
icals
ilazi
ili
ilinka
impacts
impede
innovations
inspect
inspections
inspectorate
inspiration
interviewed
intimi@@
intolerance
isola@@
ita@@
itely
itor
jack
jasenovac
javno.hr
jl@@
judged
jumping
kalinic
key@@
kic@@
killers
konjanovski
kot@@
lately
lawrence
lif@@
like@@
liqui@@
locally
low@@
luck
lucky
lung
mahmoud
mament
manipula@@
marble
meal
meglena
michalis
miliband
mingly
miro
miro@@
mobi@@
mor
mrk@@
multimedia
nek
nexhat
norac
objected
offence
oni
overly
ovica
palest@@
parthenon
pasha
peas@@
persecu@@
pharmac@@
pluralism
prilep
proceeding
promo@@
pronounced
provisionally
psychi@@
puppet
quic@@
rado@@
readmission
reconcile
ref@@
reinforced
relies
renew
reopened
restricting
ringas
rocky
sable
screenings
seismic
senator
set@@
setbacks
sh
shipyards
slan@@
slavica
spell
spre@@
straight
string
strumica
substan@@
succession
suff@@
surpass
systematically
tabled
tally
tants
telecom@@
tifying
tour@@
traikov
trim
trusted
turbulent
undant
undecided
underscored
unding
unfortunate
uniqu@@
valentina
vat@@
vekaric
vir@@
vlad
vladan
vlastimir
wers
wit@@
xen@@
yil@@
0.1
100km
1963
1981
300km
38.@@
4.1
4.7
46.@@
5.9
9.5
accur@@
ago@@
aida
alu@@
ans@@
anticip@@
anton
armo
atomstroyexport
ator@@
automotive
avoi@@
bad@@
benef@@
blogger
brasov
brnjak
buc@@
bug@@
bull@@
chry@@
chy
cker
click
comment@@
cript
dav@@
depo@@
desperate
dras@@
drc
drews
dru@@
elenovski
entr@@
eri
ert
ese
establish@@
farms
fet@@
foun@@
fting
ful@@
gau@@
geor@@
gerhard
gly
gyurcsany
hep@@
hid
histor@@
hus@@
i.@@
iaea
icu@@
infr@@
insi@@
istics
itarian
iy@@
jagodina
kalmeta
kanal
kens
lal@@
laos
laszlo
led@@
lesser
lock
lux@@
majko
mans
master@@
mechan@@
medo@@
merdare
meth@@
methodius
mtv
munk
naim
nings
offshore
ola@@
ong@@
ost
panay@@
papaconstantinou
patrick
penal@@
perfor@@
phorus
prede@@
prise
projec@@
pur
qui@@
rea
recipi@@
revi@@
rho@@
roll
ror
sanc@@
skeleton
slavko
slop@@
smallest
southwestern
specific@@
sphere
stere@@
stimul@@
stock@@
streamline
strides
struction
succeeds
swept
syntagma
tap
tav
tbilisi
teful
telegrafi
temperature
therapy
tica
tili@@
time@@
timeframe
tivat
tolimir
toronto
tortured
tos
tril@@
trium@@
troubles
turbul@@
uncover
upheld
uri
vassilis
verge
videanu
vlachs
von
weight@@
widening
worsen@@
xi@@
yacht
yielded
zvecan
zz@@
0.2
10,@@
3.1
4.3
6.7
ables
aches
ademi
adria
ag
alia
ane
ann@@
ant@@
aqu@@
arist@@
arning
arri@@
aut@@
azeri
bosna
brod
buff@@
campaig@@
cathol@@
cel
cengiz
cheney
cis
compet@@
condem@@
continental
copper
costa
cris@@
danilo
darik
defi@@
demo@@
devi@@
doha
dragis@@
dus@@
eag@@
elabor@@
emper@@
ems
enhan@@
environ@@
epp
esti@@
ethno@@
etrol
eurobarometer
eurobon@@
europa
ez
fair@@
frau@@
gaj
garbage
gel@@
gligorov
gos
guinness
handi@@
heed
hoti
illi@@
ira@@
ired
itable
jackson
jag@@
keys
kilo@@
king@@
kli@@
krst@@
lawed
ld@@
luk
lut@@
magic
materi@@
maz@@
mber
mikere@@
milica
moham@@
mon
monopol@@
motor
mour@@
nada
navig@@
niko
nordic
obser@@
omin@@
osman
pancevo
paravantes
patter@@
pedi@@
pek@@
pendarovski
plassnik
ponta
popov
proces@@
recover@@
rescu@@
ressing
rumen
rw@@
sandra
selmani
sert
sex@@
sighisoara
silvio
simultane@@
slavon@@
sol
soprano
spa
stem@@
stir@@
stolojan
tam@@
taner
tanovic
tari
tc
tea
tern
total@@
tp
trave@@
tudor
twitter
vecernji
vera
vola@@
watch@@
your@@
zek@@
30km
36@@
4.2
5.3
ab
absor@@
acce@@
aden
agerpres
agrafiotis
arte@@
bartholomew
bes@@
bog@@
bon
bondsteel
borisova
bosanski
braj@@
brian
cam
chrome
cine@@
classi@@
commer@@
consider@@
contrac@@
cyril@@
dair@@
dean
denkova
depar@@
destin@@
diff@@
dimitri@@
disbur@@
dral
dv@@
edita
egmont
ement
ensemble
exten@@
fas
fers
flow@@
frame
franz
galicnik
garde
gay
gement
giu
gor
gram
gyp@@
hans
haxhinasto
hir@@
hydro@@
igman
ila
illusion
inescu
inist
jat@@
kel
kinder@@
lateral
layer
lej@@
leposav@@
lions
louis
marc
mask
mentary
metro
mos
movski
muja@@
nific@@
olo
ony@@
outra@@
persu@@
peti@@
phr@@
pia
pod@@
princip@@
prvoslav
reap
rebel@@
recip@@
remain@@
riz@@
severin
signat@@
sipa
smiljanic
srbije
staviski
stead@@
tev
thal@@
theless
tk
transatlantic
transitions
trn@@
tyco@@
u2
udmr
ula@@
vassil@@
vijesti
virgil
vou@@
warded
wash@@
yiel@@
zen
zer@@
1945
1960
5.6
6.4
acta
agos
aming
angel@@
apos@@
appro@@
aspir@@
asy@@
avail@@
azerbai@@
bez@@
bid@@
bk
box@@
broadcas@@
bruno
bum@@
cani
cecilia
cek
certific@@
chiarini
cija
cling
comb@@
consum@@
contain@@
corri@@
cr
cuse
dacia
dare
diri@@
djordje
edward
elbasan
ened
entrepren@@
ever@@
exper@@
expo
ference
final@@
fusion
gm@@
gradu@@
haiti
hamper@@
hartmann
hax@@
hia
hns
iana
iden@@
inaugur@@
inski
insp@@
ions
istani
jin
jutarnji
karat@@
kovac@@
label@@
lia
ljupco
luis
mac@@
magaz@@
mam@@
mani@@
mart
maxim
medy
meg@@
mek@@
meli@@
mimoza
mineral
mole@@
nos@@
orange
ored
orig@@
pec
pes@@
ply
pren@@
program
rae
refor@@
refu@@
reuni@@
reven@@
rug@@
screen@@
seri@@
sey
sff
sil
simir
sin
sir@@
sme@@
sponsor
stara
stitut@@
stoy@@
strate@@
stre@@
sullivan
sures
taseva
telenor
tep@@
ticism
tle@@
trajko
tren@@
turer
turn@@
tzvetina
uka
unic@@
univer@@
urred
utrinski
veliko
vers@@
vesnik
vinc@@
vska
wah@@
wilson
wire@@
xavier
xhi
1982
360
8.5
aban@@
agri@@
alban@@
albtelecom
ang@@
anski
asa
atalay
athle@@
barri@@
bes
bien@@
bilgi
bilic
bis
bist@@
blaga
boj@@
bud@@
bunardzik
cernavoda
chs
cin
civil@@
competi@@
compla@@
control@@
davi@@
democra@@
dep@@
derly
detec@@
dn
drag
dubai
eagle
edmond
eller
emp@@
fatlum
faz@@
film@@
fon@@
formal@@
fu
gad@@
gar
geoffrey
ghly
gu
guca
gymn@@
hail
hang
homen
hoo@@
ilies
impres@@
iotis
ira
islami
jar@@
jeleva
journ@@
jovi@@
karad@@
kedev
kocijan@@
kole@@
konjic
korca
kun@@
lava
legiti@@
lence
liv@@
lucas
magyar
mani
megawatt
mercedes
micun@@
mila
milen@@
mira
mirsad
mly
mobilkom
mobiltel
mortgage
neighbour@@
nin@@
nominal
observ@@
oce@@
ovcara
paraly@@
partizan
pero
planet
plying
popova
prejudi@@
program@@
radikal
raf@@
rain@@
rauf
raznat@@
recommen@@
rem
rodriguez
rullahu
sabah
sat@@
school@@
seis@@
sej@@
serv@@
seven@@
sever
sos@@
stefanovski
stored
strauss
subs@@
susta@@
svetlana
tenor
tiff
trade@@
trp@@
ura
vak@@
verhagen
vesel@@
villa@@
wasted
yar@@
zani
zvornik
.org
00
112
1915
24@@
afrim
after@@
alie
ang
atan@@
atifete
ava
avi@@
bach
banca
bbb
bell
bio
bot
boucher
café
care@@
ciko@@
circum@@
conclu@@
confi@@
danis
depre@@
deterior@@
determin@@
diaconescu
diam@@
dish
distribut@@
dni@@
doboj
dog
ei@@
erup@@
excep@@
expl@@
fav@@
finci
fled@@
fyrom
gjakova
guaran@@
hep
hss
ich@@
inher@@
inti@@
ior
isa@@
iste@@
itions
itsa
jasna
johan@@
kac@@
kel@@
kenya
kok@@
konju@@
kost@@
kus@@
labor@@
lehtinen
lem@@
levski
ley@@
lit
log@@
lop@@
lur@@
marke@@
mato@@
max
milen
militar@@
mini@@
mira@@
mity
moldov@@
momir
nati@@
nel@@
nik@@
nikola@@
novin@@
omi@@
oth
otov
pardew
pas
pentagon
phe@@
pos
radis@@
ras
ropoulos
ruli
rust
sacrifi@@
sak
sand@@
sbih
scienti@@
seks
senti@@
shore
ske@@
skender@@
slo@@
sokol@@
spon@@
standar@@
ste
suppor@@
taliban
tane@@
tec
tels
theod@@
thin@@
tial
traj@@
treas@@
turin
ught
ume
unodc
upgra@@
vaclav
victoria
voda
vucin@@
wells
yers
zag@@
zban@@
zhe@@
ziv@@
ˈ@@
125
1967
27.@@
a.@@
achiev@@
ader
adi@@
affir@@
aki@@
almunia
althea
andrew
announ@@
appla@@
approxima@@
aro@@
artan
ayr@@
bac
bakoyanni
banker
bery
best@@
bogoljub
boos@@
bratunac
bursa
categor@@
chel@@
cola
confer@@
consolid@@
d.
dat
deep@@
dil
djer@@
doris
dp@@
dvor
ece@@
econo@@
eh
elek@@
emin@@
ericsson
ests
eties
ette
evac
ey
femin@@
gical
gir@@
gjilan
gjor@@
glavas
goati
greco
hay@@
hef@@
hein@@
ides
ified
ije
ikea
iki
ile@@
info
inging
inka
ioannis
iste
jahorina
janic
jin@@
just@@
kaz@@
kosov@@
koz@@
kryeziu
kum@@
lech
legisla@@
loz@@
ltd
lu
mana@@
mend
mental@@
mrt
muharrem
naumovski
nea
nel
olov
omir
organis@@
osmanag@@
oth@@
ovidiu
panag@@
peja
petrom
pharmaceuticals
picula
podravka
rai@@
rav@@
rence
resig@@
reski
ret
riso@@
rol
rosemary
roun@@
seiz@@
seyin
shrin@@
sibly
simon
sour@@
spas@@
teries
toral
tv@@
ue
uk@@
uncertain@@
uss
var
vlade
vuk@@
weal@@
wikipedia
williamson
yer@@
yi@@
yun@@
yur@@
š@@
.hr
1973
1985
1988
230
440
activis@@
adi
advis@@
albin
aliyev
alled
allow@@
anian
anov
ard@@
astronom@@
bela
belgra@@
besnik
boar@@
borrell
bratislava
burkay
cag@@
cess
christopher
compen@@
craft
dana
danas
dau@@
debar
dinejad
dir
dragu@@
egemen
ekathimerini
elefther@@
ende@@
enthusias@@
eucom
ey@@
filip@@
fox
friend@@
gaspar@@
georgi@@
georgieva
gior@@
golf
gotten
graph
hav@@
hn
hvar
icki
ilo
ilova
intel@@
introdu@@
ints
ipko
isted
itan
ith@@
ivanko
josep
jovanovska
jovica
kadir
kastrati
ket@@
kirin
kongra
kurt
kut@@
leka
lin
lupu
mehmed
monica
murati
nec@@
nut@@
ober@@
oprea
oslav
osmani
packaging
pal
paravac
pavlevski
pin
pira@@
placement
policy@@
pollu@@
prespa
prison@@
profes@@
push@@
radomir
radoslav
ral
raz@@
rcc
reconc@@
refra@@
rek
rivi@@
rosen
say@@
seb
selim@@
senad
serbi@@
siemens
simat@@
slam
slow@@
smederevo
sot@@
stadi@@
stavros
stitute
succee@@
tai@@
tent
timisoara
toler@@
tric
tus@@
tusup
unficyp
vancouver
vecdi
venezuela
vetvendosje
victor@@
vinko
vseki
wef
wei@@
xhi@@
yugo
zer
zing
zvezdan
1971
a.
advo@@
akes
alexei
alig@@
aliu
anda
ander@@
andjel@@
anja
apple
applican@@
appointing
argen@@
arifi
ariu
asse@@
atanasi@@
attica
avr@@
bal
bari
bekistan
benjamin
bir
blocka@@
bnr
bozo
bran
cac@@
caf@@
cant@@
catalin
ceca
cent@@
chec@@
cisco
ciu@@
colak
compati@@
cvi@@
dali
dari
desper@@
deter@@
dino
diz@@
douglas
dragisa
dragut@@
drenica
dumit@@
ebu
emil@@
enel
eping
esa
evros
exerc@@
faith@@
fic
fin
fing
forbes
gerdec
gol
gop@@
goti@@
grabar
ground@@
groz@@
hamas
haras@@
havel
icmp
ifa
ima
imam
inqu@@
internation@@
ishes
isla@@
jaeger
jeffrey
jo
jon@@
kara@@
kesi@@
kiev
kitar@@
kl@@
kne@@
kneze@@
kovo
krajisnik
kral@@
kremlin
lance
laun@@
lets
libera
lieberman
lier
ligence
ljubljanska
ljuboten
locher
macy
mali@@
mario
marri@@
matei
megawat@@
milevska
mmed
molyviatis
monaco
mont@@
monte
msnbc
muhamed
mut
nacional
nedz@@
nest@@
nez@@
nikolai
noble
novel@@
nun@@
ob
ognjen
oh@@
ohio
oi@@
olos
oph@@
ori
otp
plagu@@
pr
rad
raffi
raj@@
ral@@
ramadani
rar@@
reeker
reid
respec@@
resum@@
richter
rin
rul@@
sah@@
scra@@
sensi@@
sigh@@
sisak
sonja
spec@@
split@@
spo
suici@@
surroun@@
teenag@@
tek@@
theodoros
tionality
tling
tn@@
tum
universi@@
usted
uta
vac
vas
villa
vl@@
vor@@
waldner
wes@@
westerwelle
wh
yach@@
zuzul
acade@@
adam
adin
aio
aktar
aku
alexandros
allan
amsterdam
andrei
angelina
anim@@
archi@@
arre@@
arta
arthur
asso
ataka
attribu@@
avala
awar@@
barkey
barr
bat
bbb-
botsan
bulgargaz
challen@@
chicago
christi@@
citi@@
confis@@
cox
craiova
dah
dat@@
dc
decentral@@
dell
descri@@
dina
dominique
dtt
dublin
dul
ear
ech@@
eff@@
ej@@
endanger@@
ferenc
ferrero
frckovski
fta
g20
gabriela
gjergji
got@@
gry
gula@@
gunter
gymnasium
hamad
hamid
hays
het@@
heu
house@@
identi@@
inej
inning
itz
iuli@@
jaca
jonathan
josef
juli@@
kahn
kalet@@
ky
lal
ll
luc
maastricht
malev
malmstrom
massari
mates
mav@@
maxime
maz
mcv
mel
meto@@
milena
min
mirli
mist
nbg
nemanja
netanyahu
nostal@@
orien@@
ovich
piran
pol
pova
prm
psi
pup@@
puscas
rati@@
realitatea
resear@@
retros@@
robo@@
robot
rtcg
ry@@
saban@@
sars
sega
serda
setimes.com
sett@@
siz@@
skat@@
sot
stari
stipu@@
tary
tch
titude
topolanek
trage@@
trebinje
trifun@@
ulo@@
umn
ursula
valen@@
vb
veget@@
verdi
vet
ville
vilnius
viz@@
vojvo@@
volunte@@
wan
wre@@
wrest@@
yar
yiannis
yon@@
yusuf
zaj@@
zdrav@@
zogiani
1944
1948
1970
1978
adevarul
aes
ague
ahmed
akr
ald
alev@@
alties
ambul@@
andrej
antar@@
ao
aph@@
arch
aren@@
ari@@
aster@@
ature
badinter
bay@@
bayram
beg
belul
berger
bina
bl@@
blerim
blues
busat@@
bute
cameron
carri@@
certi@@
charac@@
chur@@
cines
collap@@
constantin
cove
cros@@
dane
davos
dec@@
deva
dless
dobro@@
dragana
eci
edu@@
electrica
emportal
eness
enka
ensem@@
erial
eurobank
even@@
facilit@@
famili@@
florence
florin
fti
get@@
goethe
gold@@
gorazde
gregory
harvard
haw@@
hem
hikmet
hrvat@@
ij
iku
inge
insig
istence
j.
jek@@
jer
jet@@
jka
jour@@
judg@@
kabul
kaidanow
kohavision
kokin@@
kolubara
kristi@@
ks@@
l.
laj
lakis
lary
lian
lithu@@
lja
matijas@@
matsuura
maurizio
menduh
metro@@
miguel
milovan
mirel
montana
morar
morris
mountain@@
mum@@
nac
nac@@
napoca
nasa
nba
near@@
nes@@
neza
nrc
onally
oral
oski
otto
peace@@
phor@@
podujevo
presse
privati@@
privile@@
prosecut@@
rada
raf
ramkovski
rectly
remov@@
ris
s.com
salzburg
saraj@@
sement
servi@@
sie
sios
skil@@
snp
solyom
srbijagas
stak@@
stamboliski
stur@@
tass
tect
teli@@
terror@@
travnik
traykov
treat@@
tres@@
trivan
tur
turkcell
ule
ultranation@@
versi@@
vest@@
web@@
ww@@
yards
yle
yol
yu
ziua
zman
zvonko
ë@@
145
1979
850
alex
andri@@
anul
appear@@
appoin@@
aracinovo
arul
assum@@
atlanta
av
baghdatis
banatski
becali
bentler
borko
bos
br
brahi@@
bregu
briga@@
carlo
cei
ceni
chevron
christina
chu@@
coca
cole
consist@@
corneliu
cp
cres@@
cvjet@@
dani
dedi@@
dim
discover@@
dragnea
dritan
duran
dynam@@
ei
energoinvest
enica
equip@@
erl
erz@@
fab@@
facul@@
fiba
filat
foreig@@
franco@@
francois
further@@
geli@@
gery
gevgeli@@
gia
gian@@
goj@@
har
hellas
hevski
himi
hler
hristo
incor@@
ingent
inovski
ional
isarescu
ishi
istina
italia
iwpr
iye
jab@@
johan
jung
karel
karzai
kati@@
kf@@
kostas
koto@@
kp
kranjcar
lama
lil@@
lim@@
lora
lugar
luk@@
mac
madonna
maili
mala
mali
manchevski
mato
matur@@
mccormack
mcelhaney
medve@@
mega
melbourne
milj@@
minim@@
miomir
miz@@
morgan
mou
muamer
musa
nag@@
nal
nex@@
nicholl
nuri
onur
ort@@
oswald
oted
otis
ought
ovci
p.
pante@@
petros
poriki
prag@@
prelec
primorac
progra@@
pron@@
ques
radoj@@
rat
rec
rehabil@@
reporter.gr
rex@@
rica
rit
salihu
samast
sapard
sax@@
sek
selo
shekulli
shq@@
sko@@
slobodanka
sls
sokol
sollaku
sors
stevan
stipula@@
tality
tevski
theat@@
thra@@
timo@@
tiri@@
tough@@
tov
tral
transgaz
tson@@
tsvetan
tti
tug@@
ues
unds
val
vandal@@
vranje
vuko@@
west@@
witnes@@
wolfowitz
yang
yev
zagrebdox
zam@@
zele@@
zerp
zvon@@
č@@
0,@@
116
12,@@
1946
1975
2016
agan
alevi
ana@@
aner
anin
ansip
apol@@
authen@@
bail@@
barac
bies
bihac
bill@@
bje@@
bry@@
bugojno
cana
cbbh
cd
cevo
ceyhan
chasa
chos@@
christo
cior@@
cis@@
coman@@
communic@@
corrup@@
dding
deha@@
demir@@
dently
dian
dicle
dimitrovgrad
distingu@@
dj
dm
documen@@
dows
dozer
drago
dzija
eld
elizabeta
elli
embezz@@
endi@@
engin
eurobond
europ@@
evgen@@
exclu@@
exha@@
expan@@
explor@@
face@@
fehmiu
fonet
fren@@
fro@@
func@@
gang@@
gardetto
gather@@
gianna
giotopoulos
gjana
glis@@
habsburg
hakan
hayssam
injur@@
irex
irina
isg
ispa
ivanis@@
ives
jacev
jen
js
jti
jub
justin
kad@@
kanceska
kastriot
kilome@@
kis
koh@@
kolinda
korac
ksenija
kuna
kw
lars
latifi
laure@@
leonard
liviu
ljum@@
ln@@
loncar
lot@@
marco
marri
marsicanin
mersin
millen@@
milli@@
minent
minist@@
mk
mlloja
mode@@
mont
mup
nano@@
neretva
nia
nick
obren@@
olaf
opol@@
oulos
our@@
ox
panathinaikos
paradi@@
paralle@@
pk@@
plas@@
portfol@@
prerequis@@
prol@@
recognis@@
remember@@
requ@@
resen
resor@@
resses
restruc@@
risto
rosatom
ruz@@
salon
sas
savo
secu@@
sep@@
sev
siderov
ske
skin
sliven
sman
societe
sofa
sorin
soros
sta
stjepan
strugg@@
stvo
sumo
surviv@@
tained
tara
tex
todor
tokes
tore
trajanov
trieste
trop@@
tsar@@
tsvet@@
tuncel
tz
ually
ub@@
uf@@
ulu@@
valotto
varazdin
vej@@
verica
versity
vised
voic@@
voz@@
vreme
wester@@
woo@@
yemen
zaev
zig
101
115
13,@@
1961
2017
210
260
abak@@
abol@@
acci@@
acknowled@@
acti@@
agence
agrokor
airbus
alco@@
aleksandra
alexandra
allah
andon@@
anno@@
appathurai
arkan
athanas@@
awlaki
balan@@
bankas@@
basa
benita
beris@@
bijeljina
bilkent
bish@@
bliznakov
bnt
bodrum
boro
boston
brin@@
bulgartabac
business@@
cacak
cak
cali@@
certain@@
cession
chap@@
cnsas
colum@@
contem@@
danova
dden
dei
depen@@
dinamo
diploma
dou
dro
dubra@@
duk
dumitru
eca@@
ele
ella
erbakan
erste
esma
examin@@
explan@@
faction
fen@@
flori@@
gal
gerald
ggle
gir
grbavica
haliti
henri
hibi@@
hidro@@
hion
hiro
hiz@@
horiz@@
humphreys
hut@@
idol
indu@@
intesa
investig@@
iro@@
iv
johannesburg
juris@@
jurisdi@@
kada
kali
karam@@
kather
kay@@
kemal@@
kid@@
krs@@
lak@@
ledra
legi@@
liapis
lica
limani
linden
ljak
luan
lul@@
mad@@
maritsa
marius
mehmeti
mg@@
mik
mladen@@
mort@@
mud
nab@@
nef@@
nen
nhqsa
nichol@@
oblig@@
oi
olympia
ome@@
orchest@@
oriz@@
oslobodjenje
osman@@
oulou
ovan@@
owski
oy
paramil@@
pat
perpetrat@@
phas@@
philos@@
planina
poli
por
porto
prepar@@
publi@@
punish@@
rah@@
rahman
reinfeldt
reka
rey
rible
rim
riz
rom@@
ruse
sap
satis@@
scep@@
schwarzenberg
scru@@
sekul@@
seller
sequ@@
sofianski
solo
sov
soy
spiegel
spy@@
stad@@
stoyanov
subotica
swim@@
sz@@
tarnovo
tec@@
techni@@
tek
tihomir
titu@@
toni
topal@@
transconflict
transnistria
tration
tro
tul@@
turers
uc@@
ulrich
usive
vahit
vassiliou
vaz@@
vela
velika
vena
vest
vica
viet@@
vio@@
vip
vm
vojin
vuke@@
wer@@
zaf@@
zafer
zapatero
zef
zlat@@
106
108
121
126
135
1957
340
367
aaron
abbas
accoun@@
acr
administrat@@
ado
afat
aga@@
akkuyu
alam@@
albtelekom
ale@@
alis@@
amer@@
anal@@
andrea
andris
anni@@
apo@@
arely
assment
astra
atanas@@
aug@@
aviv
bage
beau@@
bele@@
bey@@
bijel@@
biz@@
boeing
boja@@
braz@@
brid@@
brijuni
buke@@
bukov@@
caglavica
carreras
celebr@@
chal@@
citaku
compe@@
cvet@@
dali@@
dde@@
dea
degert
delo@@
die@@
dik@@
dimov@@
dobri@@
dokufest
dragomir
dri
drik
drum
eanu
eger
egyp@@
elghandour
emphas@@
ential
epcg
ern@@
escap@@
esra
etti
europe.bg
expul@@
fak@@
ferguson
fik@@
fili@@
freder@@
gac@@
gements
gene
genu@@
georgiou
gere
gf@@
gillian
giuseppe
glen@@
gorenje
gram@@
grub@@
guehenno
haber
hac@@
hadley
hatz@@
hectar@@
henry
ht@@
huruglica
hypo
icev@@
idc
ilham
indeb@@
infrastruc@@
inov
intern@@
ison
iver
jagnjenica
jim
joaquin
jol@@
jon
judi@@
kazak@@
keraterm
kiro
kola@@
konya
kosovareport
kro@@
kukan
kuz@@
lena
lex
lightly
liu
makedonski
maliki
manchester
mate@@
mbmd
memor@@
mezi
mihajl@@
milutin
minsk
mism
morning@@
muha@@
mures
nagy
nedim
negotino
news.bg
nikica
nin
nja
ods
orden
osto@@
ough
pad@@
pam@@
papadi@@
patras
petrovaradin
poin@@
pollo
ponos
rados@@
rajevac
rehabilit@@
relev@@
relja
rels
reput@@
rer@@
resol@@
revolu@@
robin@@
romtelecom
rotterdam
rying
salvador
sam
santek
schild
selim
selmo
sevi@@
sibility
sid
singh
siro@@
sole@@
sorensen
spart@@
spasov
sredoje
sri
stano@@
stevo
stut@@
tak
taton
techn@@
tees
telsim
tez@@
thre@@
tola
tonino
trabzon
transyl@@
tros@@
tsenkov
ulan@@
ularly
vardar
veljanovski
virgin@@
visoki
volks@@
vos@@
vukas@@
withers
wolf@@
yadis
yana
yav@@
ye
yev@@
zafer@@
zagre@@
ž@@
..
000
165
183
192
198@@
220
270
330
a-
ace
aco
aferdita
alum@@
antoniou
ariz@@
assist@@
athan@@
ather
atten@@
auth@@
b.
beyrle
bli@@
bogos@@
branimir
budge@@
bure@@
butrint
cade@@
cem
cere@@
cey@@
cg
chard
cht
consorti@@
constra@@
cross@@
deci@@
dee@@
defe@@
demos
detain@@
dini
distribu@@
dit
duka
dying
elen@@
enga@@
ental
exagger@@
fc
fo
fon
foren@@
franko
g.@@
gaf@@
gart
gji@@
grip
hak
hale
halis
hemo@@
hija
hr
hristov
humane
ice@@
ilane
indj@@
jad@@
jali
jelas@@
jeli@@
k.
kak@@
kilowatt
kings
kok
kolay
landsli@@
leigh
lek
lem
lum
maksim
mavi
medenica
mev@@
mgk
michel
mihal@@
milan@@
mitro@@
mond
mous
mullen
mur
naser
nedelj@@
nico@@
nicola@@
nier
nihat
nist@@
oliti@@
opoulou
ovina
oyan
ozbolt
palli
pandeli
percen@@
petersburg
petral@@
poposki
prac@@
predomin@@
prije@@
pt@@
put@@
ram
rect
salih
sans
scholar@@
sebastian
simp@@
sir
skare
slobodna
spaso@@
stratfor
subscri@@
sveti
tele2
tem
ternava
tho@@
tif@@
titov
tnews
topcag@@
toska
transi@@
trav@@
truc@@
trud
tura
tut@@
ude
ultima@@
ulting
uruguay
vadi@@
valya
vanhanen
vard
victi@@
vinci
vjetrenica
vlas@@
yal
yam@@
zerihoun
zoellick
zr@@
105
138
144
15,@@
abani
accum@@
affa@@
akkale
amo
annis
anon@@
antun@@
atas@@
aterally
atures
b-
beara
bek@@
beq@@
beri
berto
bh@@
bil
bine
bob
borovcanin
boun@@
boycot@@
casey
catas@@
cesses
cker@@
colon@@
cowen
crats
dants
dest
deut@@
dili@@
dimir
disban@@
disput@@
diu
dra
duk@@
easi@@
edin@@
electron@@
ell
emi@@
emin
emre
enerji
feller
fut@@
gali@@
gallach
generale
ghe@@
gible
glas@@
gnj@@
gsy@@
heli@@
high@@
hiri
hn@@
holi@@
ike
inci
inden
infan@@
integra@@
investi@@
isi
ision
isms
itis
itu
ive@@
janovski
john@@
jovan@@
judici@@
kale@@
kaplan@@
keepers
kerim
kev@@
kond@@
lands@@
langu@@
makar@@
manag@@
manship
markus
matache
maur@@
md
metin
mex@@
milo@@
mis
model@@
mote
nesses
ney
nit@@
nn
noon
oly@@
ops
ories
parliamentar@@
patron@@
phere
piebalgs
pire
pn@@
postpon@@
poz@@
precau@@
presti@@
procee@@
protes@@
puhal@@
reding
reh@@
rement
returne@@
rossin
rumyana
skun@@
smu@@
snez@@
sok
sov@@
spectac@@
sson
stac@@
stamen@@
stru@@
stry
sudan
sulej@@
svet@@
swoboda
tack@@
tay
tish
tray@@
tural
tus
ulos
vatan
will@@
yaz@@
yla
yn
yn@@
yo
zet@@
128
1930
acquis@@
adv@@
allevi@@
analiti@@
are@@
aspira@@
atta
bak
beli
blu@@
boy@@
broker@@
cay
cese@@
choos@@
ciornei
commission@@
consen@@
conserv@@
cou@@
coz@@
dai@@
deleg@@
devast@@
dict@@
dij@@
dio
dol
elektro@@
emma
entrepreneur@@
eter@@
eti
figu@@
fil
fis
geno@@
gez@@
gian
glav@@
had@@
halk@@
hellen@@
hin
hoolig@@
ignor@@
ikon
iliation
imar@@
inary
indepen@@
innov@@
ior@@
ipi
ire@@
ite@@
jankul@@
joble@@
kap
katar@@
kly
konstantin
konus@@
latif
leak@@
legen@@
lego
ljaj@@
lugg@@
mark@@
mentation
merci@@
mesut
mework
miche@@
milis@@
milos@@
mla@@
nai
nav@@
ney@@
nish
olympi@@
otopoulos
oz
pati@@
photograph@@
popul@@
popular@@
premis@@
priz@@
procu@@
protest@@
quanti@@
raff@@
reshuff@@
rot
saba@@
samar@@
selin
serge@@
sings
slan
sna@@
soti@@
spi@@
statisti@@
stitu@@
stum@@
suz@@
tablo@@
tage
taj@@
taries
teod@@
thes@@
tuz@@
udov@@
uris
uygu@@
uz
viso@@
youn@@
zan
zey@@
zim@@
ˈ
102
111
152
19,@@
280
320
380
aba
abi@@
afri@@
ake
ambassa@@
americ@@
anet
ange@@
ansa
artif@@
asov
aus@@
aziz@@
aç@@
battal@@
bbi
bek
bn@@
boris@@
bosn@@
brit@@
cancel@@
ceanu
central@@
christo@@
conc@@
concentr@@
contribut@@
ctable
cz@@
datab@@
dening
dialo@@
dita
doz@@
dum
ebe
electri@@
elle
enor@@
ester
ety
evi
festi@@
fik
fiz@@
geograph@@
gus@@
health@@
herzeg@@
igh
illing
imag@@
inters
kalan@@
kandil
klas@@
know@@
kris@@
kun
lak
lana
lara
layan
lemierre
leon@@
lest
lez@@
lick
lla
llo@@
lular
math
mations
meri
mevlana
mob@@
nan
neutr@@
news.@@
nick@@
numer@@
occu@@
ohi@@
oto@@
ouli@@
phan@@
philosoph@@
portal@@
poulos
quis@@
rau@@
rene
ret@@
rom
sacri@@
satur@@
separati@@
sies
sumed
svil@@
swis@@
tana
tepe
thur@@
unders
valu@@
verage
vete@@
vre@@
weap@@
wen
ya@@
yel
zil@@
zog@@
zor
*
117
17,@@
175
1950
20,@@
affor@@
alan
aleksan@@
antly
anxi@@
associ@@
bab@@
bana
bourg
bt
bu
canin
chen@@
cise
cky
commis@@
controversi@@
crai@@
daj
dec
deniz@@
dictat@@
dik
dimitri
dok@@
downgra@@
dt
ductions
ece
ede@@
elic
enem@@
fem@@
fini
fp
ggling
git@@
gjerg@@
glas
good@@
govern@@
gr
hass@@
herit@@
his@@
hrist@@
ices
icial
igno@@
ikov
imler
implic@@
ington
inian
invest@@
isra@@
ister
isti
ital
jah@@
kal
kale
kar
karak@@
kat
kere
kol
krsti@@
kup@@
lah@@
lam
lani
leum
lika
mace@@
mahmud
manch@@
massa@@
merc@@
mert
metri@@
micha@@
mies
mists
mitting
muammer
n1
nazar@@
novos@@
ombuds@@
oms
onar@@
opportun@@
optimis@@
oran
partner@@
paskal@@
pau@@
pek
phony
ree
reper@@
reu@@
ring@@
rober@@
rogan@@
sages
sey@@
sona
standart@@
state@@
sti
subjec@@
subur@@
taban@@
taci
taj
teen@@
telekom@@
temper@@
terim
testi
them@@
therap@@
through@@
tik@@
tuna
türkiye
ular
uli@@
umi
usuz
vendos@@
vene@@
w.@@
where@@
yannis
yen
zir@@
ë
190
abri@@
adil
afer@@
ahme@@
ahmet@@
ala@@
arbi@@
arly
assur@@
austri@@
aya
beton
blog@@
brus@@
bulgar@@
byty@@
candi@@
cath@@
cemal
cially
condol@@
conte@@
coup@@
dafi
destro@@
div
dne@@
doda
drak@@
edin
effici@@
engel
esti
eted
eti@@
fanati@@
feh@@
geliyor
genoci@@
gil
gn@@
grow@@
grup@@
gymnas@@
hitler
hur
ilgili
inen
inhabi@@
intro@@
iou
irregular@@
isen
istan
iter@@
ith
kilometre
kiril
krist@@
ktar
lat
leader@@
ljubi@@
lyu@@
macro@@
mediapo@@
mil
miz
mony
more@@
musli@@
myk
neys
nium
oku
onu
osa
paras@@
pce
phot@@
phy
phy@@
poet@@
produc@@
psy@@
ramazan@@
ranka
raz
resist@@
resolu@@
rodri@@
sabr@@
sana
santi@@
sculp@@
seli
sevo
silvi@@
sitesi
skal@@
skop@@
stic
stil
tag@@
tainment
taraf
teur
text@@
then@@
tir
tournam@@
tremen@@
tutu@@
vania
voi@@
withdraw@@
yak@@
yanov
zul@@
zve@@
özel
absten@@
aci
acquit@@
akla@@
alp
ami
aret@@
atively
aziz
bekiri
belon@@
blin@@
bloc@@
bur
buyu@@
candida@@
combin@@
comprehen@@
concentra@@
daf@@
dans
ddi@@
ddy
denkt@@
dere
derek
dev
dier
dinc@@
dine
dun
dup
economi@@
enjo@@
exter@@
facil@@
fax
fes@@
feth@@
fier@@
fred
galer@@
gidi@@
gis@@
happen@@
hev@@
iler
ince@@
isten@@
itza
juni@@
karadz@@
karas@@
kath@@
kayak
kazan@@
koc@@
kodra
laku
lic@@
lie@@
mec@@
micros@@
milest@@
mim
mula
nak
oco@@
oft
overwhel@@
paral@@
patr@@
pects
presiden@@
publish@@
rac
rahim
restor@@
restra@@
sche
schedul@@
scul@@
seri
siz
slovak@@
spirit@@
srp@@
stren@@
strom
summon@@
surve@@
syste@@
taki
technic@@
technolo@@
there@@
tiveness
tiz@@
tler
toptan
transpar@@
tte@@
ulou
unanim@@
unlaw@@
versary
wald
william@@
worl@@
worn
yen@@
yok
yugos@@
zem@@
çi
ack
afgh@@
aga
ail
almak
ambar@@
ania
arab@@
arya
assu@@
ate@@
avan@@
ax
bag@@
bedr@@
beha@@
bent
bler@@
bogdan@@
bombar@@
bray@@
brief@@
bureau@@
caz@@
cb@@
ceme@@
christop@@
cili
ciro
citizen@@
cleans@@
clo@@
commit@@
cover@@
croati@@
cumhuriyet
daha
ddi
dek
demar@@
derg@@
det
dl
durak@@
dz
eb@@
econ@@
eline
eri@@
espe@@
eval
fam@@
fat
fazla
finale
gazi
gece
general@@
gert
gey@@
gros@@
gure@@
gül
haftalarda
hal
hali
hec@@
hek@@
herze@@
hop
hua
iden
idi
imize
impas@@
inic
iqi
isations
ishness
isia
için
joz@@
karan@@
kayak@@
kere@@
kilo
konj@@
launder@@
lement
leng@@
lus
mara
meclis
mele@@
mete
mined
minu@@
muz@@
mv@@
nay@@
nei@@
nolo@@
nr@@
olan
olar@@
oran@@
overha@@
part@@
peter@@
port@@
prele@@
privre@@
prolifer@@
prom
promot@@
propag@@
pub@@
quot@@
rappor@@
reci@@
rell
rhet@@
sari
seek@@
sophisti@@
spokes@@
stants
steph@@
tability
temel@@
tika
torate
tow@@
transnist@@
vendosje
veterin@@
wide@@
world@@
yakında
yi
yiti@@
yment
yos@@
yse
yılmaz
ziyaret
zvez@@
à
çok
önümüzdeki
ć@@
б@@
.gr
14,@@
academic@@
accep@@
accomp@@
accor@@
ace@@
adequ@@
adop@@
agues
ait
alkal@@
alternati@@
amam
ameli@@
amin
annu@@
aslan
astri@@
aten
atom
avier
avro@@
ays
azi
baba
benin
bg
blood@@
bron@@
bulgarta@@
buz
cas
cee@@
cely
cesur
col
cum
danger@@
diku
disi
doje
duled
dur
dvd
eases
eder
eh@@
elef@@
ements
erg@@
ergen@@
esad
estima@@
fay@@
finan@@
gana
gele@@
gently
gev@@
giti@@
goraz@@
gration
gure
hab@@
haber@@
hart@@
help@@
herce@@
hey@@
holm
idly
iljana
ims
inet
insan@@
jaf@@
jug
kac
kadar
kah@@
kamp
kara
kik@@
kini
kom
kranj@@
kta
kurban
lahu
landal@@
libr@@
lider
lim
lish
lobb@@
mach@@
magist@@
makedon@@
mam
mbo
meni
mio@@
mk@@
nette
oc
orities
ovi@@
papadop@@
pazar@@
radul@@
rafi@@
rak
ramazan
rant
ray@@
refle@@
reserv@@
revski
risti@@
round@@
rud@@
rum
schol@@
situ@@
skan@@
soc@@
stef@@
suspec@@
sutan@@
tamp@@
tat
tators
televiz@@
tile@@
tip@@
tko
trak@@
treni
tually
tzvet@@
ukra@@
ulus
ulus@@
uman
umut
urai
ural
ured
vec@@
verg@@
vil
warran@@
yurt
zim
zira@@
ç@@
,@@
16,@@
advan@@
aleksandro@@
alem
andan
ander
ansi@@
arap@@
archa@@
ardz@@
arif@@
arzu
ase@@
atif
azer@@
bako@@
barometer
big@@
bratis@@
bul
cape
carni@@
ceau@@
cess@@
cham@@
champion@@
cial
coal@@
cre
decis@@
demon@@
dential
dez@@
diyarbakır
djan
dmit@@
dner
dt@@
earth@@
ech
editor@@
efa
elector@@
eler
elimin@@
endeav@@
enthusi@@
erdoğan
etary
etnik
feren@@
folkl@@
galla@@
gered
gest
gheorg@@
ghtening
giu@@
gligor@@
global@@
guide@@
hare@@
hend
holo@@
iba@@
ifa@@
ilers
imi@@
individu@@
ines@@
infla@@
inje
inska
inste@@
iry
itations
jik
kaf@@
kali@@
kamp@@
kes@@
kla@@
kot
kt
ktor
laki
lements
lemi@@
leri
lini
lows
macedon@@
mada
member@@
mens
meti
metin@@
mez@@
mihay@@
mitrov@@
moderniz@@
monas@@
muhammed
nated
naum@@
negoti@@
nh@@
noel
num@@
occupi@@
oda
oline
oranda
ordje
packa@@
partite
paz@@
pis@@
plen@@
potenti@@
prehen@@
pres
prov@@
purch@@
rami
reco@@
regular@@
rejec@@
renew@@
reso@@
rest@@
ross
rul
saat
sab@@
sabit
samu@@
sef
sein
sevil@@
sibil@@
sical
sine
skelet@@
ski@@
slobo@@
slugg@@
smeder@@
somali
spiri@@
stambol@@
staunch@@
suffici@@
supre@@
sure@@
tane
tari@@
taxpay@@
taz@@
tee
theodor@@
tiful
traffic@@
transpor@@
tribun@@
tron@@
ulu
und@@
uran@@
urk
varn@@
veda
verit@@
vili@@
whel@@
writ@@
wrong@@
yay@@
yel@@
yeni
yir@@
yt
zorlu
zv@@
ï@@
ö@@
đ@@
ık
1000
18,@@
199@@
\
absen@@
add@@
agre@@
agro@@
akdeniz
amer
aran@@
arda
atik
atomstro@@
atro@@
ayan
bahar
bastian
bekir
bern@@
bing@@
bliz@@
bol
bosni@@
brd
brez@@
brov@@
byzan@@
casu@@
cataly@@
cen
coast@@
compan@@
condole@@
coop@@
crack@@
croft
danka
dela@@
demonstr@@
dip
diploma@@
dispos@@
djor@@
dk
dous
echo@@
ege@@
eker
ekme@@
enfor@@
engen
enlarge@@
ete
eus@@
feld
fen
fias
fore
funda@@
gabri@@
galic@@
gane
gren@@
gymnasi@@
habi
haps
hede@@
hem@@
hil
hizbullah
hoca
honor@@
icient
ilan
ince
instr@@
invol@@
islav
jar
jim@@
jis@@
kele@@
kent
kent@@
kim@@
kler
kolo@@
kredi@@
ksen@@
kule@@
kulu
kuveyt
kuy@@
legis@@
lia@@
ljubo@@
machin@@
mano@@
maya
mensu@@
metz
milovan@@
mitre@@
modernis@@
moldav@@
montene@@
mro
mum
muse@@
mutlu
nakov
narco@@
nered
nezavis@@
olan@@
olma@@
organize
ority
orship
overhaul@@
popu@@
posav@@
proj@@
receiv@@
rej@@
repor@@
represen@@
rik
rokas@@
rop@@
rought
sali@@
sami@@
sburg
schwartz
sear@@
seli@@
sels
selves
serti@@
sini
slj@@
smugg@@
sofi@@
sten@@
subo@@
tances
teh@@
temiz@@
tese@@
test@@
thes
thew
tisation
tise
tral@@
transil@@
tür@@
uda
uf
umental
uy@@
vad@@
vag@@
vlah@@
voy@@
vse@@
vur@@
witz
xin@@
yat@@
yetkin
yugoslav@@
zap@@
zat
çek@@
í@@
ğlu
€
1500
=
@
_
aar@@
accompan@@
adam@@
administ@@
administra@@
affec@@
agement
akar@@
akti@@
aland
alar
alma
alma@@
anagnostop@@
anat@@
anke@@
anony@@
arg@@
ars@@
aslan@@
atam@@
atat@@
ateral
atle@@
baba@@
baghda@@
bankrup@@
bara
bayra@@
beat@@
beyon@@
bini
bi̇@@
bond@@
bren@@
bug
bujan@@
bı@@
cades
canadi@@
cease@@
cell@@
champ@@
cko
clamation
cohe@@
concer@@
conces@@
consequ@@
cro
csan@@
curri@@
cypri@@
cı
dals
das@@
davutoğlu
deliver@@
derne@@
deste@@
dimit@@
distri@@
dnevnik@@
dures
duy@@
ebe@@
eden
eder@@
ekonomi@@
engine@@
enin
eno@@
ente@@
eric@@
eser
esk@@
essen@@
ettes
expen@@
expos@@
fati@@
febru@@
fec@@
ferdi
feti@@
frank@@
gardi@@
generali
geti@@
ghazi
giz@@
gular
harm@@
hayal
hazi
heu@@
hol
hox@@
hri
hs@@
iade@@
idir
idity
imple@@
incum@@
inno@@
inovo
iski
ister@@
itals
jele@@
kala
kay
kaynak
kea
kefal@@
kemer
keri
kett
kilowat@@
klau@@
koman@@
koru@@
kran@@
krasni@@
laming
leh@@
lene
lice
lider@@
lish@@
lokomo@@
long@@
lup@@
luxem@@
macar@@
mahal@@
manja
matically
mendi
mesu@@
methodi@@
miras
miros@@
mmer@@
musev@@
neigh@@
offici@@
ofisi
okum@@
olymp@@
omi
onable
onik
ortho@@
oslo@@
other@@
ozone
panathin@@
papa@@
partisi
pect
peris@@
ph
pical
pici@@
plav@@
pler
polon@@
pret@@
profil@@
prolon@@
propos@@
prox@@
que@@
question@@
rast@@
recipro@@
reel
referans
repub@@
ried
ruc@@
satelli@@
sayg@@
schwarzen@@
secon@@
sek@@
septem@@
serg@@
servation
setimes@@
sez@@
siy@@
smooth@@
srbi@@
stati@@
stavro@@
sten
strat@@
stration
sugge@@
swif@@
tah@@
take@@
tam
tama@@
tarif@@
tekel
tesa
thres@@
thu@@
tici
til
tini
tiv
tments
toge@@
tories
tox@@
travel@@
trum
try@@
tsun@@
tü@@
ua
ular@@
uly
umbre@@
unes@@
uzun@@
vement
vite@@
vities
wedne@@
wim@@
yah@@
yap@@
yas
yol@@
zanis

â
ó@@
ı@@
ın
ş@@
α
ι@@
&@@
1800
acu@@
adaki
adalet
adet
aff@@
akro@@
alay@@
alg@@
anatol@@
anci@@
arka
arnav@@
asion
asker
asya
atina
atis
atly
atma
atmos@@
aza
bayrami
belar@@
belgi@@
bench@@
benz@@
beyaz
biri@@
bm@@
boda
bok@@
borov@@
bula@@
bulat@@
buna
bü@@
catal@@
censor@@
cetin@@
check@@
clash@@
coffe@@
courtro@@
cumhur@@
daki
dama@@
dans@@
deli
demonstra@@
denge@@
dented
depart@@
ders@@
det@@
dimitro@@
disab@@
dokuz@@
dole@@
dub@@
ducing
dyu@@
efe@@
egel
ekonomi
eks
elektri@@
emir@@
enced
envir@@
equival@@
erin
ermeni
erte@@
euv@@
evin
extre@@
favo@@
festiv@@
ffe@@
figh@@
finans@@
flexi@@
follow@@
frat@@
fy@@
füle
garanti
gawat@@
geopoliti@@
gere@@
gest@@
gue@@
hafi@@
hane
hane@@
harek@@
hata
henne@@
hey
hij@@
hiseni
hist@@
how@@
hürriyet
iae@@
ihti@@
iki@@
ild
imaj
imed
inan@@
ique
istent
izi
janov
jina
josip@@
jutarn@@
kafa
kamer@@
keli
kira@@
kli
klin@@
knowled@@
kod
konstan@@
kor
kore@@
kork@@
kostis
kova@@
kul
kum
kur
kuru
kyr@@
lari
liap@@
lieuten@@
ligi
lili@@
liz@@
madal@@
maf@@
makro@@
manas@@
marath@@
masum
memnun@@
memoran@@
mese
metho@@
metropol@@
mh@@
mimar@@
mings
mize
mod@@
moil
mold@@
muh@@
muhar@@
munition
neboj@@
ning@@
nite@@
nun
obrad@@
octo@@
opoliti@@
org@@
orman
osia
ote@@
paint@@
parame@@
parliamen@@
particul@@
pension@@
podrav@@
politici@@
politik
posta
prelimin@@
primar@@
produ@@
prosper@@
proto@@
racak
rap
rar
referen@@
reforma
republi@@
requi@@
resta@@
resul@@
reversible
rhy@@
riyet
roi
sahi@@
saran
seb@@
seker@@
sekiz
servis
shori
sibi@@
sie@@
sik@@
simi@@
sine@@
siste@@
siv@@
skor@@
slav
slov@@
somal@@
soy@@
spor
srebren@@
stjep@@
stras@@
swi@@
sym@@
taze
tela@@
tempor@@
tere
termo@@
therine
thessalon@@
tif
tik
tisa@@
tiv@@
tomis@@
tradi@@
tress
twel@@
türk
ulti@@
unil@@
usta
uten@@
utili@@
vade@@
vanya
vek@@
vere@@
vjet@@
ween
wonder@@
youtu@@
yum@@
yumurta
yük@@
yıldırım
zai
zay@@
zirve
ziy@@
zon
°
çak@@
çı
ül@@
κ@@
ο@@
а@@
г
г@@
#
aat
achi@@
acon@@
activ
acı@@
adan@@
ager@@
akova
alim@@
allot@@
alı
amatör
amin@@
anad@@
anese
angelos
architec@@
arı
asam@@
asses@@
atan
atlan@@
atlantik
attitu@@
ave
avlj@@
ayak@@
ayn@@
bai
barış
basit
bask@@
bayrak@@
bech@@
belde@@
belli
berman
biome@@
bizim
blue@@
bm
boj
bolog@@
bomb@@
bourne
brahim
bulg@@
bunardz@@
bureaucra@@
caine
cals
camii
campa@@
cara
cari
casus
ceeded
cently
cep
cesar@@
ceska
chev@@
chner
cigar@@
cil
civili@@
column@@
compu@@
compul@@
concor@@
consecu@@
consoli@@
conspira@@
cü@@
danu@@
davis@@
design@@
devlet
devri@@
devrim
dili
diz
dokuz
drav@@
edil@@
edip
efina
eful
elektrik
elektronik
emeklilik
enab@@
engel@@
enje
enna
entre@@
eper
eph
erdi
erini
erre
eupoliti@@
eus
evet
explos@@
eylül
fahri
fazil@@
feri@@
finans
gah@@
gay@@
gece@@
gergin
gge@@
gidiyor
gious
goog@@
gregor@@
guez
göl@@
gün
hali@@
halk
happ@@
hate@@
hayat
hayati
haz
helsin@@
hepi
hristos
hum
idar
iku@@
ileri
ileti@@
ilk@@
iller
ime
iming
imz@@
incen@@
inda
indir@@
ingu@@
inin
integr@@
isch@@
isin@@
itably
iyor
iç
iş@@
i̇@@
jacqu@@
jaga
jasen@@
joaqu@@
join@@
kalab@@
kalem@@
kalp
kamu
kanad@@
kanıt
karac@@
kart
keli@@
kender@@
kesi
keskin
keti
koci@@
koha@@
koka@@
kolu@@
komis@@
kondu
kont@@
kore
kostun@@
kragu@@
krem@@
kriz
kson
kula@@
kuran
kurt@@
landa
large@@
lavica
lendi
liman
liman@@
limi@@
limin@@
lises
ljup@@
logisti@@
lul
lü
mack
maden
madri@@
magnit@@
mahalle@@
malar@@
malm@@
mama
mast
mcel@@
mci
mean@@
medi
medya
mekan@@
memn@@
mesi@@
mija
mikro@@
militan@@
millet
milliyet@@
mimar
miran@@
mirol@@
miye
mler
mobil
moda
momc@@
month@@
mortg@@
mosco@@
mu
muaz@@
multin@@
munici@@
nadir
namic
napo@@
nedjel@@
negot@@
nejat
never@@
now@@
nu
oara
ocak
oin
oke
olas@@
olig@@
omic
omous
onews
opin@@
oppos@@
ord@@
org
orta
orta@@
ortak@@
oslobo@@
osse@@
ounced
ovan
papandre@@
parla@@
parma@@
parmak
parthen@@
pekin
percep@@
plev@@
podu@@
pomp@@
poster@@
poul@@
pover@@
primor@@
prising
pyra@@
qsa
questionna@@
raiffe@@
refah
religi@@
remi@@
repercus@@
reporter@@
require@@
restaur@@
ril
risk@@
sabah@@
sade@@
sage
salih@@
salon@@
sanayi
sayan
schi
schwar@@
sday
sds@@
secular@@
secur@@
sefer
sefer@@
seg@@
sence
seni
sergi
sesli
seti@@
sevin@@
seyre@@
shek@@
sibilities
silaj@@
sime@@
sistem
sius
sok@@
sopran@@
sory
speak@@
strum@@
sud@@
sula
sulli@@
suspici@@
swo@@
sön@@
tache
taksi@@
tale@@
tatlı@@
td
teac@@
ted@@
tekni@@
telefon@@
teme@@
tenance
tention
teral
terdam
terran@@
terranean
territ@@
tesi
tet@@
therlands
thous@@
thusi@@
ticari
tice
timet@@
tire@@
tivar
toplan@@
trab@@
trakya
trol@@
tsen@@
tues@@
turist
tuğ@@
türk@@
tüz@@
ufu@@
uld
unda
unfortun@@
usu@@
uyum@@
varma
vati@@
veri
veter@@
vidu@@
vukov@@
warn@@
wiki@@
wri@@
xima@@
xious
yakup
yalç@@
yaya
yor
yorgo
yut
yıldız
zagreb@@
zengin
zev@@
zora
zvor@@


½
á@@
ço@@
öl@@
öz@@
özkök
ø@@
ü@@
üm@@
ün@@
ı
р
т@@
у@@
я
�
1.000
3r@@
abd
abil@@
absolu@@
achim
acik@@
adar
adeta
aege@@
afet@@
afgan
ahtisa@@
aikos
akade@@
akl@@
akın
akın@@
alak@@
alexandrou@@
amada
amnest@@
anas@@
anay@@
ands
antal@@
arama
arap
argu@@
arini
ario
ark@@
arke@@
armen@@
arz
arz@@
arın@@
asker@@
asl@@
assas@@
astase
atar
atu@@
atı
auton@@
avl@@
aydın
ayla
bacon@@
bahar@@
bai@@
bama
bankrupt@@
baraj
baraj@@
barome@@
bartholome@@
baskın
belge
benedi@@
beni
beş@@
bicker@@
bilen
bilim
bire@@
biz
bizimle
bloom@@
bogar
bolu
bors@@
boru
bour
brat@@
bugün
burgaz
busines@@
büyük@@
calan
cali
cami
cay@@
ceed
cern@@
cerra@@
cerrah@@
cessive
cevap
cez@@
charest
cilik
cils
cioco@@
comings
confir@@
congr@@
consol@@
contri@@
convin@@
convinc@@
cormack
cra
cusing
cyp@@
dakika
damg@@
daskal@@
deba@@
dedi
dees
dek@@
delil@@
demokra@@
denk@@
devel@@
devrimci
diaspor@@
dikt@@
dimitrov@@
dina@@
dingly
discus@@
dispu@@
djan@@
djel@@
dnev@@
dney
doff
domesti@@
dox
doğ@@
doğan
doğdu
dua
dı@@
dır
ecker
ecz@@
ede
effec@@
effer
effor@@
ege
ekim
ekonomisti
elektron@@
elinden
elit
eliza@@
emek
emlak
encour@@
ender
enf@@
enfl@@
enk@@
entegre
equiv@@
erken
eroğlu
erse
eston@@
estyle
ethnic@@
etin
etleri
eurob@@
eurov@@
evers
every@@
evine
evler
examp@@
expor@@
fabrik@@
fabrika
fakat
feasi@@
fela@@
fenerbahçe
ferit
finansal
floo@@
form@@
forum@@
frang@@
frc@@
furt
galip
garanti@@
geci@@
gelen
geri
gesi
gezi
ghten@@
giani
gide
giden
gili
giz
goe@@
gracan@@
graf@@
gress
grubu
grup
guin@@
gök@@
gönül
gül@@
günter
gür@@
haft@@
hag
hagen
hast@@
hayat@@
headscar@@
hediye
hic@@
highligh@@
hile@@
hima@@
hizmetleri
hotnews.@@
huff@@
humph@@
hundre@@
huz@@
hür@@
i-
iade
ibar@@
ika@@
ikli
ilke
illi
implemen@@
imprison@@
imza
inanç
indjic
inese
inst
inye
ipl@@
isar@@
isoara
istian
istin
istis@@
istler
iyas
iyet
izler
içi
i̇brahim
i̇stanbul
jagas
jahor@@
javno@@
jep@@
jere@@
jola
jut@@
jür@@
kabul@@
kafe
kahra@@
kahraman@@
kaid@@
kanal@@
kanat@@
kanun
kapan@@
karada@@
karde@@
kariyer@@
kart@@
kastr@@
katlan@@
kend@@
kender
kendi@@
kez
kimi
kimya
kiral@@
klasik
klu
kolek@@
kolektif
kolon@@
konan
kontrol
kontrol@@
konut
korid@@
kosovare@@
koste@@
koç
krasniki
kredi
kriter
kriz@@
ktan
kuman@@
kural
kuru@@
kurum
kypri@@
kür@@
kıbrıs
kılı@@
kın
ladin
laka
leban@@
ledi
leme
lerin@@
linde
lise
loj@@
luko@@
lywood
lı@@
macı
madon@@
magu@@
mahmou@@
makedon
mamaya
marka
masa
mayan
mbol@@
meli
memur
menkul
mermer
mese@@
meydan@@
meye
mile@@
millet@@
milut@@
mle
mli
modernize
mois@@
momen@@
moni
monit@@
muci@@
mussen
muz
mül@@
nabuc@@
nce
nede@@
nei
neli@@
neti@@
neut@@
nicho@@
niture
nok@@
norwe@@
objek@@
obvi@@
ody
oec@@
offic@@
olog
olu
oluk
olun@@
ombud@@
opar@@
opulos
orad
osij@@
osu
otel
otomotiv
otor@@
otur@@
oulias
oun
ovei
oya
oyun@@
ozar
oğlu
pack@@
panath@@
papakon@@
para
park@@
parti
pazarlama
pazartesi
pea@@
performan@@
perman@@
pervasi@@
petrol@@
pey@@
pharmace@@
philharmon@@
pie@@
piece@@
pipel@@
piyade
platformu
podgor@@
polan@@
police@@
polis@@
poo@@
portugu@@
prised
proble@@
promis@@
proper@@
prosec@@
protokol@@
provi@@
provisi@@
prv@@
racks
radovan@@
rakip@@
rama@@
ramaz@@
rapor@@
raufo@@
realita@@
redin
redu@@
reinf@@
reklam@@
relation@@
reli
representati@@
resi
reta@@
rip
rle
rota
ruh
ruh@@
rıza
saat@@
sadak@@
saf
salar@@
sanat@@
saray
saray@@
satan
schro@@
seem@@
sem
senin
servan@@
sescu
shorta@@
sicil@@
sider@@
sif
sile
sinema
sizing
slogan@@
smal@@
soh@@
sokak
soldi@@
solu@@
sored
soren@@
sorti@@
southe@@
sover@@
sovere@@
sovereign@@
stale@@
stantinou
stay@@
stein@@
sudden@@
sur
sustain@@
suya
suyu
sympos@@
sırrı
tada
tagon
takvim
tarz@@
tatlıses
tef@@
tekar@@
teki
teknik
temas@@
temel
temiz
tepe@@
terminali
terz@@
tetik
thea
threat@@
thur
tially
tiho@@
tilla
ti̇@@
tli
todo@@
toprak
transa@@
trs
tuk
tul
turizm
turu
twen@@
twit@@
ucu
udi
ugli@@
ulan
ulli
umun
unac
uncu
undoub@@
unearth@@
unsur
unsur@@
unu
unut@@
uru@@
urugu@@
usu
uygun
uzak
uzat@@
uzu
vah@@
vehic@@
venezu@@
venkovski
verdi@@
veril@@
viz
vodina
voluntar@@
vot@@
vurg@@
wikipedi@@
yani
yaşar
yet@@
yex@@
yez@@
yüre@@
zam
zile@@
zira
zko
zuz@@
zynski
{
}

£
¦
©
±
º
¾
à@@
ã
ä@@
æ
ç
ça
çal@@
çe
çerç@@
çetin
çin
çiçek
è@@
ï
ñ@@
ömer
ör@@
özgür
öğre@@
üm
ür@@
üs@@
ý
ý@@
ır
ıs
ıs@@
ş
şah@@
şen@@
š
̇@@
α@@
ε
ε@@
ι
μ@@
а
е
и@@
л
л@@
м@@
о@@
р@@
х
ъ@@
‑
