, 214542
. 206907
&apos; 170426
ve 98884
&quot; 79243
bir 77760
da 37236
bu 31801
de 28600
için 27853
/ 26762
nin 18211
ab 17498
nın 16479
ın 16462
ile 15109
) 14925
( 14911
günü 14740
@-@ 14611
sırbistan 14580
kosova 14529
olarak 14032
in 13445
olan 12694
daha 12456
a 11897
- 11459
en 11437
dedi 11216
: 11191
avrupa 10920
yeni 10762
söyledi 10706
türkiye 9276
göre 8844
daki 8719
çok 8670
olduğunu 8638
sırp 8622
&#93; 8606
&#91; 8604
yer 8264
iki 8217
dan 8042
arasında 7625
tarafından 7603
büyük 7502
uluslararası 7458
makedonya 7359
son 7315
yıl 7206
bh 7049
devam 7031
etti 6890
ya 6867
ilgili 6725
kadar 6673
hırvatistan 6520
ancak 6313
diğer 6243
siyasi 6217
belgrad 6133
bakanı 6075
times 6027
yaptığı 5962
ye 5867
başkanı 5814
konusunda 5764
e 5734
arnavutluk 5688
üzere 5676
her 5551
ülkenin 5496
den 5462
eski 5377
un 5365
setimes 5329
abd 5328
olduğu 5326
european 5270
southeast 5237
karadağ 5221
bulgaristan 5167
cumhurbaşkanı 5129
önemli 5112
milyon 5104
karşı 5034
-- 5018
sonra 4982
i 4961
yunanistan 4887
ilk 4886
romanya 4885
gibi 4859
nato 4833
bm 4801
ta 4768
10 4750
fazla 4683
% 4584
haberi 4537
genel 4513
yüzde 4409
ise 4405
yılında 4352
verdiği 4343
ülke 4302
11 4292
iyi 4275
kabul 4264
şekilde 4093
ekonomik 4090
devlet 4063
birlikte 4056
olmak 4043
ler 4030
bosna 4005
önce 3977
leri 3959
türk 3926
dışişleri 3918
başbakan 3911
; 3908
lar 3877
nun 3865
üç 3848
te 3815
sahip 3783
savaş 3769
içinde 3758
ne 3723
sonrasında 3682
deki 3680
yüksek 3676
güvenlik 3668
yaklaşık 3662
ediyor 3568
ı 3534
pazartesi 3533
geçen 3527
yapılan 3513
veya 3510
12 3505
üzerinde 3505
bin 3460
şöyle 3455
oldu 3433
hersek 3414
hükümet 3409
gelen 3364
değil 3354
hırvat 3328
hafta 3318
söz 3316
açıklamada 3309
ayında 3285
bütün 3230
ları 3216
lerin 3212
başbakanı 3186
fakat 3161
kıbrıs 3144
bunun 3131
çarşamba 3065
polis 3039
ayrıca 3036
o 3033
özel 3013
belirtti 2997
ay 2993
eden 2978
yerel 2967
avro 2958
yol 2956
üyelik 2937
işbirliği 2917
aynı 2900
geri 2882
dünya 2875
09 2867
salı 2862
düzenlenen 2858
getty 2837
images 2832
geldi 2829
var 2828
ulusal 2828
inin 2819
yönelik 2818
07 2805
05 2800
bazı 2793
06 2773
yerine 2765
ların 2748
sıra 2748
priştine 2737
demeçte 2725
04 2724
03 2720
reuters 2716
08 2698
alıyor 2688
hakkında 2687
li 2681
ten 2669
verdi 2651
afp 2645
yeniden 2635
konusu 2632
yönünde 2628
partisi 2621
pek 2604
yanı 2595
karar 2593
biri 2592
yardım 2591
lerini 2585
arasındaki 2581
yana 2566
üyesi 2557
gerektiğini 2530
an 2511
ortak 2510
20 2497
la 2495
pazar 2490
enerji 2478
1 2476
tek 2475
ini 2473
hükümeti 2468
lerinin 2467
ının 2455
arnavut 2455
konuşan 2454
al@@ 2450
mart 2448
uzun 2434
alan 2433
olacak 2427
? 2419
iş 2414
sadece 2412
mayıs 2408
ekim 2406
haziran 2391
larını 2387
perşembe 2373
çeşitli 2370
ını 2363
tüm 2356
aralık 2353
yi 2335
parti 2315
ocak 2313
hükümetin 2302
amaçlı 2302
diyen 2300
aldı 2292
makedon 2268
le 2268
15 2266
anlaşma 2259
şu 2255
bulundu 2244
destek 2233
lere 2221
dört 2220
ak 2217
mücadele 2216
on 2215
yetkililer 2202
gün 2192
ma 2189
2 2187
u 2170
k@@ 2164
temmuz 2158
hem 2156
kasım 2147
etnik 2139
karşın 2136
lara 2120
açısından 2106
nisan 2104
üsküp 2103
barış 2098
bakanlığı 2097
30 2086
yunan 2082
yı 2075
balkan 2065
bulunuyor 2060
geçtiğimiz 2055
larının 2039
savunma 2033
iç 2027
az 2020
araya 2019
saraybosna 2016
ına 2013
ap 2005
dahil 2004
mevcut 2000
balkanlar 1999
kültür 1993
rağmen 1992
ana 1990
eylül 1989
bulgar 1985
tam 1980
zaman 1958
larına 1958
ziyaret 1957
yardımcısı 1957
me 1956
kamu 1948
komisyonu 1944
aldığı 1939
resmi 1935
şubat 1927
kendi 1923
sorumlu 1922
seçim 1921
kosovalı 1917
lerine 1907
yatırım 1904
ortaya 1895
ki 1893
25 1891
bekleniyor 1890
at@@ 1882
askeri 1874
olması 1866
gerekiyor 1866
konseyi 1864
lik 1863
ileri 1862
atina 1862
ine 1835
sırasında 1833
başka 1832
etmek 1818
yalnızca 1813
3 1812
yapılacak 1810
ikinci 1801
anda 1795
anlaşması 1794
para 1785
tadiç 1782
milyar 1779
diyerek 1775
ekonomi 1774
merkezi 1766
üye 1755
maya 1752
eğitim 1750
rusya 1743
yıllık 1741
dış 1739
mak 1730
kişi 1722
görev 1721
ekledi 1709
katılım 1708
altında 1706
17 1702
şey 1698
avroluk 1696
söylüyor 1690
cuma 1688
basın 1684
yakın 1683
kal@@ 1681
cumhuriyeti 1680
an@@ 1679
nedeniyle 1669
bulunan 1659
ayı 1654
sayıda 1643
ağustos 1639
beş 1634
insan 1627
16 1624
amacıyla 1615
ev 1611
hiçbir 1610
bankası 1610
ar@@ 1609
bunu 1609
bölgesel 1607
bosnalı 1607
üst 1600
edilen 1597
meye 1596
02 1596
e@@ 1589
13 1587
ciddi 1582
brüksel 1579
ilişkin 1577
açık 1574
kaynaklar 1569
tan 1562
dile 1558
teki 1552
lerinden 1546
-@@ 1540
18 1540
kısa 1538
oy 1531
gereken 1531
başladı 1529
6 1529
ç@@ 1526
ticaret 1525
kapsamında 1525
bakan 1523
sona 1517
14 1516
yönündeki 1514
ardından 1513
lerden 1506
sınır 1506
ilerleme 1505
haber 1503
altı 1495
inşa 1493
mali 1490
sc 1488
batı 1486
mahkemesi 1484
27 1484
larından 1482
5 1481
01 1479
suç 1477
sosyal 1476
mek 1471
di 1470
tiran 1468
bölge 1467
derece 1465
masına 1462
lahey 1459
meydana 1458
kuzey 1454
durumda 1452
önümüzdeki 1451
şeklinde 1449
güçlü 1446
mesi 1445
diyor 1445
4 1440
taki 1437
er@@ 1434
güneydoğu 1433
2004 1431
s@@ 1427
elde 1426
meclis 1422
demokrat 1422
bile 1421
ıyla 1420
adlı 1417
kararı 1417
gelecek 1415
z@@ 1415
ması 1409
21 1406
il@@ 1406
larla 1402
suçları 1395
ankara 1394
sözlerine 1391
demokratik 1390
imf 1390
i̇stanbul 1386
lardan 1385
7 1378
günkü 1372
sofya 1371
t@@ 1366
ülkede 1365
24 1362
toplam 1352
ifade 1349
mladiç 1347
farklı 1345
22 1345
erdoğan 1345
ında 1343
durum 1342
lerde 1342
yılın 1342
bükreş 1339
çoğu 1338
larda 1337
ün 1336
mesine 1333
8 1333
oviç 1333
düşük 1330
c@@ 1329
çözüm 1328
19 1326
ele 1322
almanya 1317
süre 1316
23 1315
küçük 1313
hale 1312
hazır 1303
yaşanan 1301
ından 1297
artık 1294
film 1294
lerle 1292
28 1292
üzerine 1285
gerekli 1284
el 1278
yargı 1278
aday 1272
ama 1270
le@@ 1270
lı 1267
ülkeleri 1266
yine 1265
yabancı 1265
lerinde 1265
adalet 1264
yolunda 1262
yap@@ 1258
düzey 1257
inde 1251
masını 1239
sağlık 1239
oluşan 1237
larında 1235
mesini 1231
ak@@ 1230
lideri 1229
26 1229
2007 1226
rum 1226
yaşındaki 1225
yok 1224
dairesi 1220
organize 1216
nde 1211
se 1210
ülkesinin 1203
edecek 1203
si 1200
y@@ 1198
birliği 1194
mayı 1193
meyi 1191
olmadığını 1189
sorun 1188
teslim 1187
göster@@ 1185
halinde 1184
katıldı 1182
ettiği 1180
ülkedeki 1180
günlük 1179
bilim 1177
2008 1176
etme 1175
in@@ 1173
iddia 1171
burada 1169
zorunda 1168
satın 1165
olumlu 1164
ver@@ 1162
kredi 1159
irak 1158
orta 1155
d@@ 1152
te@@ 1151
yugoslavya 1150
k 1145
sonunda 1144
başta 1144
bağlı 1144
zamanda 1142
mış 1141
i̇ki 1138
var@@ 1137
reform 1136
konuşmada 1135
toplum 1135
m@@ 1134
belediye 1134
icty 1131
lider 1130
ortaklık 1128
la@@ 1127
hakları 1127
ş@@ 1126
inden 1125
elektrik 1123
yasa 1122
merkez 1122
özellikle 1116
29 1115
dı 1113
boyunca 1113
birkaç 1112
9 1110
turizm 1110
zagreb 1109
dair 1108
de@@ 1108
buna 1106
leriyle 1106
ıyor 1105
unun 1105
bağımsız 1101
2006 1100
uygun 1098
çıkan 1096
acak 1096
i@@ 1093
miş 1092
bil@@ 1090
kazandı 1090
na 1088
ülkelerin 1086
herhangi 1081
manın 1078
2005 1074
kötü 1073
ma@@ 1071
nda 1069
arak 1065
açıkladı 1063
masının 1062
anayasa 1059
slovenya 1059
merkezli 1059
müdürü 1058
yüzünden 1057
hâlâ 1056
larıyla 1055
üyeliği 1053
sivil 1052
bilgi 1050
50 1049
yandan 1048
arada 1048
olacağını 1047
açtı 1047
getirdi 1047
g@@ 1047
maları 1047
yaptı 1047
h@@ 1043
yetkili 1040
lık 1040
bölgede 1039
serbest 1038
ü 1036
yolsuzluk 1035
adım 1035
kalkınma 1030
konulu 1029
unmik 1029
o@@ 1028
henüz 1027
çağırdı 1023
öne 1023
tarihi 1022
2009 1021
fransa 1021
unu 1021
muhalefet 1020
raporda 1020
bağımsızlık 1018
romen 1018
ülkeler 1017
yılı 1016
hakkındaki 1014
takdirde 1014
halk 1010
sahibi 1005
iste@@ 1005
bunların 1005
cumartesi 1005
ülkelerinin 1002
hükümetinin 1001
festivali 1000
l@@ 994
temel 992
boris 990
mümkün 988
süreci 987
nasıl 986
komisyon 980
yardımcı 979
yapan 978
kentinde 978
en@@ 977
p@@ 976
yolsuzlukla 975
gösteriyor 971
t 971
doğru 969
kaydetti 965
yayınlanan 964
grubu 962
100 961
bölgedeki 960
et@@ 960
küresel 960
2010 956
çalış@@ 955
türlü 955
kostunica 953
cumhurbaşkanlığı 952
gerçekleşti 952
er 951
ası 951
m 950
gerçek 949
izin 947
zor 945
şimdi 944
diğini 943
başlarında 943
açıdan 942
me@@ 942
mahkeme 941
geç@@ 941
rehn 939
doğrudan 939
sonuna 937
yaşayan 936
olduğuna 936
başkan 934
kar@@ 934
the 932
diği 931
kur@@ 931
temsil 930
çalışma 928
parlamento 927
haline 927
mi 925
menin 924
ca 924
n@@ 924
kurulu 923
suçu 923
f@@ 922
una 921
vergi 921
karşıya 921
altına 918
yıldır 918
koruma 918
yetkilileri 917
demokrasi 916
re@@ 914
süren 912
erken 909
parlamentosu 909
mesinin 909
ettiğini 908
verilen 906
spor 906
kazan@@ 903
ülkeden 902
görülüyor 900
mevkidaşı 900
s 898
edilmesi 897
önceki 897
üçüncü 896
veren 895
aralarında 895
petrol 894
sekreteri 893
başlıca 893
çıkar@@ 892
b92 891
üyeleri 889
as@@ 889
aları 889
proje 889
i̇talya 889
hala 888
u@@ 887
sözcüsü 886
ne@@ 884
beri 883
kfor 882
ay@@ 877
ötürü 877
politika 876
bulun@@ 876
ilişkileri 872
duyurdu 872
geliyor 871
etmesi 871
i̇nternet 871
agi̇t 871
gerçekleşen 869
grup 868
yönetim 867
dönemde 866
yle 866
b@@ 866
i̇ş 865
ti@@ 863
dünyanın 862
ilan 861
40 860
etmeye 859
kullan@@ 857
dığını 857
aş@@ 856
ol@@ 856
güney 856
2@@ 856
1995 855
kon@@ 853
oranında 850
genç 850
i̇ngiltere 850
şirketi 848
masından 847
ceza 844
ke@@ 844
olmasına 842
unda 841
neden 839
ek 839
kez 834
acağını 834
başarılı 833
ye@@ 833
hava 833
tür 831
2003 831
vize 830
mi@@ 830
washington 830
ahtisaari 829
li@@ 825
oldukça 825
işaret 824
doğu 824
alacak 823
akp 822
pkk 822
31 821
artış 821
hareket 818
bütçe 818
sırplar 816
başına 816
madan 815
teknik 815
rol 815
man@@ 814
aç@@ 812
zoran 812
önde 811
bugüne 811
ordu 810
şiddet 810
toplantısında 809
ka 808
v@@ 807
durumu 807
ajansı 807
ti 807
sağlayacak 805
kişinin 805
üzerindeki 802
eulex 802
bugün 801
makla 801
ediliyor 801
euro 800
3@@ 799
bbc 799
benzer 799
sorunu 798
rus 797
edil@@ 797
dışında 796
ederek 795
halkın 795
nikola 794
a@@ 792
be@@ 792
çık@@ 792
ülkeye 792
sözü 791
ıp 791
i̇@@ 790
geniş 790
ait 790
dığı 789
konuştu 789
dönem 788
çağrısında 788
sonraki 787
net 784
parçası 783
meleri 783
kadın 782
yedi 781
baş@@ 781
ulaş@@ 781
sahipliği 781
yılından 781
yeterli 781
önünde 780
medya 780
seçimleri 780
edildi 779
anlamına 779
böyle 779
bundan 779
örgütü 776
ıl@@ 776
j@@ 776
di@@ 776
anlaşmanın 774
ce@@ 774
kuruluşu 771
üniversitesi 771
konusundaki 770
sa@@ 770
sözlerinde 768
sekiz 767
su 765
kalan 765
gerektiği 762
sa 762
kriz 762
tekrar 760
maliye 759
iş@@ 758
kontrol 758
ilişkiler 758
si@@ 758
makta 757
liderleri 757
baş 757
boru 757
vurguladı 756
diye 755
sayısı 754
birinci 752
reformları 751
yılki 751
ikili 750
sağlamak 749
şirket 748
ek@@ 747
müzakerelerin 747
ünün 747
ülkeyi 745
tehdit 744
is@@ 744
ko@@ 743
yetkililerin 743
olmayan 742
belli 741
gör@@ 740
yasal 740
1999 740
alma 739
yüzden 738
r@@ 737
masıyla 736
istiyor 736
tamamen 736
dizi 736
gümrük 736
terör 735
adı 735
basescu 735
isi 734
konu 732
statü 732
i̇stikrar 732
sürekli 731
önem 731
giderek 731
bul@@ 731
almak 730
z 730
alman 730
alın@@ 728
statüsü 728
4@@ 728
umut 726
sanader 725
berişa 723
halkı 723
ettiler 722
gül 719
ülkesi 718
gsyi̇h 717
onun 716
hizmet 713
i̇çişleri 713
bulunduğu 713
nden 712
araştırma 711
nihai 709
işbirliğini 709
adet 709
mekle 709
mar@@ 709
çalışan 708
olmaya 708
mal 707
yapılması 707
neredeyse 705
rumen 703
bak@@ 703
müzakere 701
yılına 701
indeki 701
çağrıda 700
halkının 699
aşırı 699
avrupalı 698
bakış 698
uzlaşma 696
sistemi 696
kaynak 696
iler 694
bunlar 693
sun@@ 693
iyle 693
p 692
azınlık 692
katıl@@ 692
dur@@ 691
avroya 691
dikkat 690
doğal 689
ra@@ 689
nükleer 689
yoluyla 688
ba@@ 688
kürt 688
yasadışı 686
500 685
dpa 685
miloseviç 684
sürdü 684
altın 682
büyükelçisi 681
soruşturma 681
ar 681
karadziç 681
seçimler 681
mıştı 680
ın@@ 678
öncesinde 675
tarım 675
yılda 674
komutanı 674
başında 673
emekli 673
memnuniyetle 670
el@@ 669
büyüme 668
adayı 668
gel@@ 667
silahlı 667
ci 666
verildi 666
hemen 665
getir@@ 664
arası 664
toplumun 662
hiç 662
yaz 662
ı@@ 660
temsilcisi 660
undan 660
söylediler 660
atlantik 660
olsa 657
ön 657
olası 656
sırada 655
on@@ 654
sürecinin 653
programı 653
ila 652
ndan 650
olmadığı 650
giden 650
del 650
abilir 649
... 648
planı 647
ölçüde 647
talep 647
enstitüsü 645
r 645
düzenlediği 645
se@@ 644
gruevski 643
koalisyon 643
60 643
200 643
hukuk 643
ha@@ 642
recep 642
tı 641
kesin 641
bizim 640
jovanoviç 639
tut@@ 638
öner@@ 638
hedef 637
görevi 636
olabilir 636
ordusu 636
dini 636
oranı 635
1990 634
liderler 634
anlaşmaya 634
or@@ 633
güvence 633
gücü 633
desteği 633
stratejik 631
tayyip 631
un@@ 630
san@@ 630
ponte 630
çünkü 629
çalışıyor 629
istikrar 627
teşvik 627
baskı 627
am@@ 627
2002 626
uzmanlar 626
erek 625
yugoslav 624
sorunları 623
öte 623
zira 622
onu 622
uy@@ 620
ıldı 620
iç@@ 620
milletvekili 619
potansiyel 619
mekte 618
ırken 617
söyle@@ 616
siz 616
defa 616
çıktı 614
ik@@ 614
iktidar 614
isim 613
partinin 613
avusturya 613
sürüyor 612
im 612
ticari 612
banka 612
engel 611
partisinin 610
müslüman 610
kendisini 610
meden 610
olma 609
yaşam 608
sonuç 608
bölgenin 608
zarar 607
olup 607
gösteren 607
dil@@ 606
liği 606
ortadan 605
ediyorlar 605
lan@@ 605
sat@@ 604
geçiş 604
dılar 604
lığı 604
binlerce 603
alı 603
bırak@@ 603
im@@ 603
taraf 602
medi 601
mı 601
teknoloji 601
gerek 600
din@@ 599
ro@@ 598
olumsuz 597
alanında 596
2001 596
os 596
acağı 596
malı 595
sırpların 595
çevre 595
özelleştirme 594
artan 594
iye 594
ındaki 594
yarat@@ 593
ım 592
ul@@ 592
hızlı 591
ç 590
dava 590
çocuk 589
ser@@ 588
kesimi 587
civarında 587
maktadır 586
kültürel 586
planlıyor 586
sürecini 585
madı 585
yapıyor 585
kaçak 584
2011 583
yan@@ 583
general 583
5@@ 582
diler 582
kap@@ 582
gaz 581
bi@@ 581
üne 581
uygulama 579
birlik 577
elçisi 576
olimpiyat 576
temsilciler 575
ratko 574
çek@@ 574
üyeliğine 573
polisi 573
insanların 572
sinin 571
bölgesi 571
görüş@@ 570
ü@@ 570
ad@@ 570
karşılaş@@ 569
iz@@ 569
madalya 569
ısrar 568
yakında 568
dön@@ 567
kaldı 567
hattı 567
ni 567
mişti 566
günlerde 566
gir@@ 566
söyleyerek 565
silah 564
temsilci 564
gazetecilere 563
yapacak 563
madığını 563
yapmak 563
ali 563
geçici 563
uyuşturucu 563
mediğini 563
tepki 562
bekliyor 562
söylüyorlar 562
gotovina 562
teşkil 561
takım 561
i̇ngiliz 561
derneği 561
projenin 561
onayladı 560
asını 560
macaristan 560
ik 559
toplantı 559
ina 559
yanlısı 558
müzakereleri 555
dokuz 555
acil 555
partiler 555
görüşme 554
ev@@ 554
sosyalist 553
isteyen 553
faaliyet 552
sorunlar 552
yürürlüğe 551
göz 550
verdiler 550
protesto 550
bazıları 549
libya 549
solda 548
görüşmede 548
yönetimi 548
vadeli 547
destekle@@ 547
yaptıkları 547
yar@@ 546
uyardı 546
gerçekleş@@ 545
ılmış 545
ğ@@ 545
verme 544
olasılıkla 544
alınan 544
new 544
rapor 544
finans 544
işle@@ 542
par@@ 542
seç@@ 541
açıldı 541
üzerinden 541
değiş@@ 541
masında 541
solana 541
anlaşmayı 540
vojislav 540
ken 540
i̇ran 539
mesiç 538
yaş@@ 537
aylık 537
sel 537
ünü 537
duy@@ 537
yerli 536
toplantıda 536
gösterdi 536
liderliğindeki 536
mas@@ 536
ashdown 536
planlanan 535
beklenen 535
bar@@ 534
işbirliğinin 534
komitesi 534
maması 534
dir 533
it@@ 533
katılan 531
bakanları 531
1992 531
oluştur@@ 530
roman 530
geleceği 530
mer@@ 530
i̇nsan 530
ri@@ 529
konuda 529
cinciç 529
doğalgaz 529
kapat@@ 528
madığı 528
et 528
ilerin 527
ılması 527
raporunda 527
sonucunda 526
mediği 526
sert 524
etkili 524
asker 523
at 522
bağ@@ 522
veril@@ 522
rekabet 522
başar@@ 521
sağlan@@ 521
bildirildi 521
ip 521
komşu 521
malarını 520
lu@@ 520
analistler 520
koviç 520
tak@@ 520
bakanlar 520
tan@@ 519
yürütülen 519
çaba 519
kurulması 518
tarihli 518
olduklarını 518
har@@ 517
ihtiyaç 517
olli 516
edeceğini 516
d 516
miyor 516
slobodan 515
sonuçlar 515
gelecekte 514
ter@@ 514
kararını 513
davet 513
yolu 513
kat@@ 513
asına 513
n 513
da@@ 512
ab@@ 511
yak@@ 511
gönder@@ 511
boz@@ 511
tarihleri 510
hollanda 510
srebrenica 510
lar@@ 509
önüne 509
reformu 509
artır@@ 509
i̇srail 509
gelir 508
düşünüyor 508
görüşmeler 508
mu@@ 508
anın 508
git@@ 508
ılan 508
yaz@@ 508
2000 507
çerçevesinde 507
c 507
somut 507
cı 507
dek 507
man 506
seçimlerin 506
konuş@@ 506
is 506
uygulanması 506
güven@@ 506
alar 506
mesinden 505
bas@@ 505
70 505
meclisi 505
devletin 504
katkıda 504
ıyorlar 504
taşıyor 503
sonucu 503
fransız 503
sanat 502
ayın 501
ac@@ 501
tahmin 501
olmakla 501
siyaset 500
sar@@ 500
bekle@@ 500
arşiv 500
ku@@ 500
kendisine 499
alındı 499
yerini 499
güç 498
bin@@ 498
6@@ 497
alması 497
gözden 497
300 495
lu 495
ecek 494
kaldır@@ 494
yapmaya 494
ko 494
kan@@ 493
inan@@ 492
i̇lk 492
iade 492
ler@@ 491
haberlerinde 491
gerçekten 491
yapıl@@ 490
uygula@@ 490
ge@@ 490
karşılıklı 490
açıkça 490
seyahat 490
saa 490
hakkı 489
tur 489
mal@@ 489
hayata 489
35 488
övgüde 488
bir@@ 488
ayrı 487
yani 487
gizli 487
asının 486
teklif 486
tedbirler 486
der@@ 486
uygulan@@ 485
os@@ 485
mada 485
stk 485
h 485
veriyor 484
diplomasi 484
başkanlık 484
nüfus 484
şirketin 482
işsizlik 482
federasyonu 482
alınması 482
iyor 481
diyalog 481
ilerle@@ 481
görüşmelerde 481
kilit 480
tarihte 480
kenti 480
abileceğini 480
dır 480
yanıt 479
durumun 479
mesiyle 479
dışı 479
radikal 479
çalışmaları 479
sık 478
hapis 478
oranda 478
nitelendirdi 478
kurulan 478
futbol 478
19@@ 478
altyapı 478
sini 477
kesinlikle 477
ır 477
geliş@@ 477
mahkemesiyle 477
luka 477
ci@@ 477
diplomatik 476
saygı 475
anlaşmasının 475
verecek 474
l 474
kaydedilen 474
ov 474
müzakerelerinin 474
do@@ 474
düşün@@ 473
örgüt 473
oluşturuyor 473
seçimlerde 472
reformların 472
olma@@ 472
alanda 472
vermek 470
düzenle@@ 470
genişleme 470
aya 469
olmasını 469
değişiklik 469
ilerinin 469
yayınladığı 469
telekom 469
du@@ 468
uygulamaya 468
f 468
luk 467
dolar 467
sürecinde 467
ni@@ 466
ağır 466
bal@@ 466
dodik 466
iktidardaki 465
konuşmasında 465
esi 465
projesi 464
sine 464
york 463
toplumsal 463
olmadan 462
sağla@@ 462
müzakereler 462
meyeceğini 462
geleneksel 462
ortalama 462
onları 461
bağımsızlığını 461
yılındaki 461
başlattı 461
görülen 461
plan@@ 461
insanlar 461
ihtiyacı 460
i̇talyan 460
yönde 460
dayton 460
olanak 459
bu@@ 459
lük 459
düş@@ 458
g 458
tar@@ 458
malarına 458
genişlemeden 457
yıldan 457
podgorica 457
binden 457
zagrep 456
sız 456
göreve 456
mede 455
olacaktır 455
biz 455
yasanın 454
sağ 454
sal@@ 454
suçla 454
ce 453
istifa 452
reformlar 452
papandreu 452
sür@@ 451
enin 451
geçir@@ 451
ödülü 451
verilecek 451
seydiu 450
komünist 450
olay 450
anlar 450
annan 450
temsilcileri 450
örneğin 449
adımlar 449
len@@ 449
as 448
belirtiyor 448
kolay 447
kurma 447
inanıyor 447
radovan 447
endişe 447
edilmiş 447
sektörü 447
ur@@ 446
etkinlik 446
banja 446
oluyor 446
eyaletin 446
birliğe 445
girişimi 445
çiz@@ 444
meli 444
ziyareti 444
arnavutlar 444
ziyarette 444
makamları 443
az@@ 443
imzalanan 443
mesinde 443
çabalarını 442
to@@ 442
belirtildi 442
tartış@@ 442
kapsamlı 442
hatta 441
i̇slam 441
başkanlığını 440
ön@@ 440
olacağı 440
reddetti 440
bilir 440
başvur@@ 440
belirten 439
söyleyen 439
dünyasında 439
deniz 439
öz@@ 439
maktan 438
sözleri 438
sisteminin 438
80 438
birisi 437
çin 437
dıkları 437
scheffer 436
anlaş@@ 436
görün@@ 436
em@@ 436
kampanya 436
yol@@ 435
ladı 435
fil@@ 435
7@@ 435
b 435
vatandaşların 434
içindeki 434
başla@@ 434
hoop 433
televizyon 432
koy@@ 432
tarih 432
görevdeki 432
basında 432
aların 432
ortodoks 432
başa 432
imzaladı 431
milletvekilleri 430
almaya 430
ağı 429
idari 429
gerek@@ 429
biraz 429
ka@@ 429
kurumları 429
zamandır 428
üye@@ 428
alarını 428
haberlerde 428
politikası 428
imzaladılar 428
dönüş@@ 428
tomislav 427
birleş@@ 427
amerikan 427
den@@ 427
so@@ 427
istedi 427
uyarınca 427
i̇spanya 427
boşnak 427
i̇ş@@ 426
um@@ 426
inşaat 426
sorunun 426
tanınmış 425
şart 425
saat 425
savun@@ 425
yapma 424
öğretim 424
çabaları 424
ık 424
edilecek 424
sürecine 424
kazanan 424
hayatını 423
lardaki 423
durumunda 422
engelle@@ 422
heyeti 422
ban@@ 422
sürdür@@ 422
lerindeki 422
mayacağını 422
sayesinde 422
kararın 421
partilerin 421
hitaben 420
ilişkilerin 420
ımı 420
milliyetçi 420
alarının 419
analist 419
sor@@ 419
av@@ 418
abdullah 418
eylem 418
moskova 417
etmeyi 417
yu 417
hareketi 416
oldukları 416
mahkemenin 416
gi@@ 416
birliğin 415
savaşı 415
bize 414
bat@@ 414
partileri 414
yıllardır 413
90 413
mez 413
ilgi 413
borç 413
yıllarda 412
terk 412
değer 412
mücadelede 411
savaş@@ 411
aldığını 411
bölgesinde 411
dolarlık 411
erkek 410
haberlere 410
herkes 410
adil 409
müzakerelerini 409
istediğini 409
mil@@ 409
bo@@ 409
dragan 409
belgede 409
sürecin 407
paylaş@@ 407
mıştır 406
acağına 406
değişiklikler 405
getirmek 405
yarış@@ 405
zor@@ 405
suriye 405
yayın 404
ağ@@ 404
ilen 403
ş 403
kısmı 403
sev@@ 403
sağlama 403
gazeteci 402
ız 402
hal@@ 402
muş 402
ben 401
yen 401
başlayan 401
afganistan 401
taraflı 401
imzalandı 401
kaç@@ 400
şehir 400
getiren 400
geldiler 400
değerlendir@@ 399
sağda 399
hukukun 399
ödül 399
biçimde 399
toplantısı 399
aile 399
özgür 398
öngörülüyor 398
göz@@ 398
ov@@ 398
vardı 397
girişim 397
yapacağı 397
eşit 396
bunları 396
ihlal 396
uyla 396
davran@@ 395
memesi 395
kas@@ 395
voa 395
gitti 395
nikoliç 395
i̇gor 394
y 394
tü@@ 394
eceğini 394
çek 394
emin 394
af@@ 393
du 393
bildiride 393
geliştir@@ 393
fatmir 392
çi 391
doğ@@ 391
geldiğini 391
belirtiliyor 391
katılmak 391
imi 390
mo@@ 390
dünyası 390
etki 389
adriyatik 389
kol@@ 389
asında 389
sergi 389
ulaştırma 389
sundu 388
kamuoyu 388
sayısının 388
es@@ 388
yanında 388
bank 388
ola@@ 387
bütünleşme 387
ış@@ 387
gerçekleşecek 387
dağ@@ 387
larındaki 387
yıla 387
açıkla@@ 387
han@@ 387
değiştir@@ 386
güvenli 386
hedefi 386
ama@@ 386
görüşmek 386
içişleri 386
zamanı 386
toprak 386
gün@@ 385
krizin 385
yay@@ 385
.@@ 385
j 384
kurtarma 384
onlara 383
etme@@ 383
zrvenkovski 383
ülkelerine 383
sorumlusu 383
üretim 382
verdiğini 382
sali 382
grubun 382
pan@@ 382
şartları 382
yık@@ 382
1@@ 381
terörle 381
bildirdi 381
görüyor 381
eylem@@ 381
kararlı 381
üyelerinin 381
vladimir 381
yat@@ 381
röportajda 380
nüfusun 380
çoğunluğu 380
milli 380
abileceği 380
puan 380
görünüyor 379
uzak 379
tanı@@ 379
km 379
kay@@ 379
gazetesinin 379
yas@@ 378
birçok 378
ülkelere 378
bileceğini 378
pazar@@ 378
verilmesi 377
şeyi 377
sonu 377
dikleri 377
yaşan@@ 377
kalma 377
amacı 376
ımız 376
uygulanan 376
ru@@ 376
kişilerin 376
dık 376
siyle 375
us@@ 375
bakanlık 375
bununla 375
yla 374
dayalı 374
iy@@ 374
getiriyor 374
150 374
400 374
ilmiş 373
durumdaki 373
su@@ 373
olursa 373
misyonu 373
liğini 373
sonuçları 373
tiyatro 373
iler@@ 373
program 373
öğrenci 372
başkanlığı 372
ifadesi 372
viyana 372
gazetesine 372
liberal 372
mekten 371
olasılığı 371
ohri 371
ünden 371
başlat@@ 371
isinin 371
takımı 371
yönetmen 371
yazar 371
önceden 371
karamanlis 371
ft 370
ünlü 370
2012 370
ünde 370
yet@@ 369
oğlu 369
per@@ 369
uyarıda 369
müzik 369
kaçakçılığı 369
ban 369
karmaşık 368
dar@@ 368
tığı 368
hi@@ 368
açıklama 368
1991 368
başlayacak 368
goran 368
ederken 367
bölünmüş 367
layan 367
belge 367
koalisyonu 367
hak 367
kara 367
entegrasyon 366
ılıyor 366
bur@@ 366
din 366
dıktan 366
vuk 365
jeremiç 365
memnun 365
istikrarı 365
ün@@ 365
mitrovica 365
merkez@@ 365
tığını 364
süredir 364
isine 364
haberine 364
yayın@@ 364
görevden 364
raporu 364
uzman 363
güvenliği 363
düşünüyorum 363
etmekle 363
gez@@ 363
alarak 363
yakınlarındaki 363
bakan@@ 363
haşim 363
direktörü 362
alarına 362
düzeyde 362
birleşik 362
anlaşmasını 362
mektedir 361
yaşam@@ 361
rfe 361
ovski 361
adına 361
lerdeki 360
rl 360
devr@@ 359
top@@ 359
geçerli 359
bloğun 359
çoğunluk 359
sak@@ 358
firması 358
duyduğu 358
zorlu 358
toplu 358
polonya 358
ikna 358
sürece 358
oluş@@ 358
süreç 358
onların 357
derecede 357
barroso 357
uz@@ 357
görüş 357
sfor 357
bilgisayar 357
kurumsal 356
olsun 356
haberleşme 356
hayal 355
ıyordu 355
seçimlerinde 355
gıda 355
dü 354
güven 354
görül@@ 354
özgürlüğü 353
ot@@ 353
melerini 353
gerekse 353
döneminde 353
ber@@ 352
altındaki 352
1998 352
tasarruf 352
sigara 352
merkezinde 351
verici 351
filmi 351
sanayi 351
oyun@@ 351
kupası 351
yen@@ 351
elinde 351
altını 351
linda 350
itibaren 350
yıl@@ 350
yapmayı 350
abilecek 350
taş@@ 349
vermeye 349
ken@@ 349
askıya 349
ür@@ 348
moldova 348
yoğun 348
ılmasını 348
başsavcısı 348
ir@@ 347
konuyla 347
korunması 347
meyen 347
hükümete 347
yaygın 347
tanım@@ 347
ta@@ 347
sürecek 347
azalt@@ 347
fir@@ 346
başarı 346
may@@ 346
çekti 346
lay@@ 346
ada 346
muhalefetteki 345
bildiriliyor 345
görüşündeler 345
kan 345
referandum 345
ova 345
ja 344
eli 344
başlaması 344
milorad 344
dolu 344
lığa 344
asla 343
dayan@@ 343
maz 343
ö@@ 343
görevli 343
telefon 343
tedbirleri 343
mıyor 342
bölümü 342
yer@@ 342
yüz@@ 342
sağlayan 341
noel 341
öncesi 341
resmen 341
mü@@ 341
artırmak 341
taşıyan 340
hazırlanan 340
sonrası 340
tehlikeye 340
yüzlerce 340
kimse 339
rolü 339
traian 339
ülkelerde 338
siyasiler 338
hak@@ 338
i̇ttifak 338
ahmet 338
yorgo 338
sonlarında 338
noktası 337
ona 337
us 337
izle@@ 337
artırma 337
mahkemeye 337
art@@ 337
açılan 337
yetkililerle 337
tartışma 337
toplumu 336
ic@@ 336
önlemek 336
düzenlendi 336
şimdiye 336
ır@@ 335
bilecek 335
mamış 335
yerek 335
zaten 335
istikrarlı 335
ildi 334
tutuklan@@ 334
ulaştı 334
seçimlere 333
çağrısı 333
george 333
aldılar 333
yardımı 333
sınır@@ 333
cep 333
ayrıl@@ 332
lama 332
yetkilisi 332
ikisi 332
turist 332
paul 332
gelecekteki 332
düzenledi 332
bağış@@ 332
profesyonel 332
fikir 331
mayan 331
ica 331
ortak@@ 331
geçti 331
sorunların 331
derhal 331
kurul@@ 331
görmek 331
dav@@ 330
vi@@ 330
çağdaş 330
men@@ 330
uyar@@ 330
acaktır 330
köy@@ 330
gerçekleştirilen 330
vermesi 329
harekete 329
ilerle 329
tespit 329
ilerden 328
duyur@@ 328
birinin 328
yavaş 328
güç@@ 328
8@@ 328
gerçekleştir@@ 328
bölün@@ 327
seviyede 327
w@@ 327
pe@@ 327
şunları 326
kişisel 326
bakanlığının 326
georgi 326
hat@@ 326
etkile@@ 326
meyecek 326
büyü@@ 325
kişiler 325
ere 325
öğren@@ 325
gazetesi 325
9@@ 325
nı 325
kız@@ 325
getiril@@ 324
ze@@ 324
po@@ 324
çalışmaya 323
cez@@ 323
st@@ 323
bush 323
ülkelerden 323
açtığı 323
yapması 323
düşüş 323
işbirliğine 323
branko 322
ir 322
işe 322
polisin 322
hazır@@ 322
yasayı 322
zafer 322
yanlış 322
iyileş@@ 322
doğruladı 321
bulundular 321
aktif 321
tur@@ 321
sağlanması 321
tariceanu 321
malıdır 320
kendisi 320
rakam 320
belirle@@ 320
mahkemesinin 320
al 320
lajcak 320
üs@@ 319
um 319
bekleyen 319
antonio 319
parvanov 319
hdz 319
müzakerelerine 319
sektöründe 319
müzakerelere 319
popüler 318
yalı 318
tercih 318
operasyon 318
radiç 318
liğe 318
tatil 318
istiyoruz 318
görevini 317
tamamlan@@ 317
kuvvetleri 317
bula@@ 317
sıkı 317
kuş@@ 317
tiği 317
ve@@ 316
kor@@ 316
dik 316
ap@@ 316
alara 316
beta 316
piyas@@ 316
örnek 315
kıyasla 315
görüşmelerin 315
yeşil 315
i̇çin 315
siz@@ 315
eceği 315
temas 315
osu 314
üniversite 314
okul 314
antik 314
plan 314
ebrd 314
ihracat 313
yasası 313
mayacak 313
festival 313
katılma 312
geldiği 312
düzenlenecek 312
kişilik 312
kendilerini 312
isini 312
malarının 312
açıklamasında 311
indir@@ 311
düzenleme 311
olanağı 311
i̇sviçre 311
suçlu 310
duğu 310
duruş@@ 310
akdeniz 310
hav@@ 310
il 310
halka 310
dikkate 310
süresi 310
nehri 310
araştır@@ 310
mesele 309
iz 309
alanlarda 309
karşıtı 309
sağlam 309
karadağlı 309
eş@@ 309
fırsat 309
lığını 309
enflasyon 309
getirilmesi 308
edin@@ 308
tartışmalı 308
ıla@@ 308
karadaku 308
irken 308
ilerine 308
ara 308
000 308
krizi 308
spor@@ 308
ılacak 307
hazırla@@ 306
benim 306
45 306
sağlay@@ 306
dıklarını 306
yılının 306
öde@@ 306
kent 305
maaş 305
0,@@ 305
karşıladı 305
edip 304
sağ@@ 304
bileceği 304
v 304
tı@@ 304
bizi 304
i̇vo 304
tür@@ 304
alarda 304
programına 304
duğunu 303
sağladı 303
standartlarına 303
londra 303
amerika 303
sunduğu 303
fon@@ 303
dikten 302
çaplı 302
yılları 302
suçlanan 302
müzesi 302
tin 301
sözde 301
sloven 301
bölgeye 301
girdi 301
suç@@ 301
katılıyor 300
ım@@ 300
ia 300
müş 300
vatandaş@@ 300
üyeliğinin 300
schengen 300
tek@@ 299
durum@@ 299
aday@@ 299
ayındaki 299
atılmış 299
vatandaşları 299
na@@ 299
melerine 299
kalacak 299
mülteci 299
ukrayna 299
ankete 299
seçmenlerin 299
sel@@ 298
biliyor 298
mahkemesine 298
odaklan@@ 298
i̇yi 298
ter 298
tu@@ 298
sağlıyor 297
ekonominin 297
yasaları 297
vazgeç@@ 297
sinde 297
undaki 297
işi 297
ho@@ 297
karadeniz 297
ger@@ 297
gaz@@ 297
karşılığında 297
ede@@ 297
heyet 297
haberlerine 297
uyor 296
lo@@ 296
anayasal 296
belirgin 296
tarafı 296
go@@ 296
belge@@ 296
sen@@ 296
georgiev 295
kurumlar 295
rol@@ 295
zaman@@ 295
ile@@ 295
bilmesi 295
kanıt@@ 295
öngören 295
soruştur@@ 295
sorumluluk 295
savunuyor 294
milan 294
stipe 294
don@@ 294
yaklaş@@ 294
ilerini 293
çöz@@ 293
yapıldı 293
kaydettiği 293
sözlerini 293
can@@ 293
üstlen@@ 293
alarında 293
kentin 293
yasak@@ 293
dağıt@@ 293
seçmen 293
ekonomisi 293
göç 293
şartlar 293
devleti 293
öl@@ 293
eleştir@@ 292
üçte 292
çabalarına 292
fazlası 292
i̇şbirliği 292
alanlarında 292
açık@@ 292
olduğundan 292
gazeteciler 291
bulmak 291
çerçeve 291
kurumlarının 291
55 291
korumak 291
javier 291
dal@@ 291
acaklar 291
mesaj 291
eğlence 291
vatandaşlar 290
açıl@@ 290
tarihinde 290
önerilen 290
müdahale 290
ten@@ 290
ilere 290
etmiş 290
çözüme 290
dördüncü 290
nedeni 289
ıldığı 289
dığına 289
hesap@@ 289
sırasıyla 289
kleri 289
şeklindeki 289
seçil@@ 289
kaynağı 289
karşılan@@ 289
it 288
güçleri 288
birini 288
miz 288
bazda 288
nün 287
mak@@ 287
özgürlük 287
radyosu 287
beklediğini 287
kın@@ 287
çalışması 287
buckovski 287
işleri 286
etkinlikte 286
tarafın 286
geç 286
dönemi 286
tah@@ 286
insanları 286
katkı 285
korun@@ 285
euobserver 285
önünü 285
diğine 285
karış@@ 285
genişle@@ 285
taşı@@ 285
lanıyor 285
cu 285
lanan 285
soykırım 285
özelleştir@@ 284
diplomat 284
lenen 284
talat 284
ton 284
hizmetleri 284
artırılması 284
belirlen@@ 284
alı@@ 284
temaslarda 284
görev@@ 283
görüşmesi 283
içeren 283
kilometre 283
ortasında 283
planını 283
van@@ 283
novi 283
almayı 282
idare 282
onayla@@ 282
lik@@ 282
macar 282
kr@@ 282
martti 282
van 282
tamamlanması 281
ilmesi 281
minin 281
ödülünü 281
nüfusunun 281
kullanılacak 281
melidir 280
ivo 280
ortada 280
etmesini 280
geliştirme 280
duyulan 280
örgütün 280
kritik 280
birimi 280
sandalye 280
haklarını 279
yüksel@@ 279
suçladı 279
afrika 279
rapora 279
çapında 279
normal 279
ül@@ 279
yecek 279
kurmak 279
getirme 279
zayıf 279
lığın 279
toplum@@ 279
yaşıyor 278
genelinde 278
büyükelçiliği 278
selanik 278
to 278
yardım@@ 278
yetkililere 278
bulma 278
olabileceğini 278
dev 278
yaşadığı 278
önündeki 278
bulunduğunu 277
kaz@@ 277
miştir 277
eviç 277
açılış 277
gider@@ 277
toplan@@ 277
açan 277
kitap 277
ayrıntılı 277
şirketler 276
mensuplarına 276
girişim@@ 276
ciç 276
abil@@ 276
kostas 276
bankacılık 276
sin@@ 276
telefonu 276
petersen 276
şansı 275
vur@@ 275
götür@@ 275
parlamentonun 275
yolundaki 275
pat@@ 275
etmesine 275
ğine 275
tik 275
düzenli 275
sermaye 275
şüpheli 274
ndeki 274
siç 274
bilinen 274
verilere 274
teşkilatı 274
kut@@ 274
kabine 274
süre@@ 274
karşıla@@ 274
aki 274
1.@@ 273
incele@@ 273
alındığında 273
etkin 273
kim@@ 273
araç 273
dır@@ 273
öldür@@ 273
batılı 273
lı@@ 273
çocuklar 273
paris 273
katıldığı 273
iptal 273
adını 273
bhf 273
aylarda 272
pet@@ 272
tanık 272
ıydı 272
saldır@@ 272
örgüt@@ 272
tanın@@ 272
erdi 272
toplantıya 272
bağış 272
jessen 272
gecik@@ 272
hukuki 271
up 271
üz@@ 271
değildir 271
oran@@ 271
ğinin 271
he@@ 270
makamlarının 270
uzat@@ 270
çal@@ 270
can 270
seçildi 270
zengin 270
nokt@@ 270
duyuruda 270
gar@@ 269
ıdır 269
hasani 269
süreyle 269
alternatif 269
international 269
ılmasına 269
ekliyor 269
rugova 269
dur 268
olmayı 268
olur 268
acağız 268
of 268
dolayısıyla 268
acı 268
kır@@ 268
kısmını 268
gen@@ 268
aslında 268
news 268
ülkelerinde 268
ötesi 268
onlar 267
dım 267
reddet@@ 267
inanıyorum 267
hedefine 267
yan 267
yakalan@@ 267
metre 267
i̇sveç 267
edilemez 267
18@@ 267
ği 267
davanın 266
ışık 266
asya 266
gösterdiği 266
tuna 266
katı 266
sil@@ 266
kler 266
maruz 266
davutoğlu 266
radyo 266
etkisi 265
haber@@ 265
katılımı 265
75 265
etmişti 265
istihdam 265
sayısını 265
ülke@@ 265
ledi 265
merkel 265
üyeliğini 264
kı@@ 264
düşür@@ 264
alınacak 264
iliyor 264
op@@ 264
bana 264
yararlan@@ 264
malar 264
kaydedildi 264
120 264
çıkıyor 263
amadı 263
cezası 263
saldırı 263
parti@@ 263
belçika 263
kadınlar 263
kaydet@@ 263
elçi 263
res@@ 263
cukanoviç 263
kuzeydeki 263
kuruluş 263
satış@@ 262
etkilen@@ 262
ki@@ 262
faaliyetleri 262
planlarını 262
ziyaretinde 262
sahne 262
seçim@@ 262
dünyada 262
fon 262
yetki 262
sistem 262
osmanlı 262
kararının 261
dolaş@@ 261
yineledi 261
mayın 261
men 261
ilmesini 261
ilerinden 261
bulunarak 261
doğrultusunda 261
göre@@ 261
600 260
vmro 260
say@@ 260
sı 260
asıyla 260
tasar@@ 260
kat 260
komiseri 260
iletişim 260
edile@@ 260
mini 260
ag@@ 260
işlenen 260
onaylan@@ 260
şampiyonası 260
lanması 260
tv 260
ani 259
genelkurmay 259
çözül@@ 259
inşası 259
liderlerinin 259
konuşma 259
yerleştir@@ 259
güçlendir@@ 259
i̇kinci 259
ytd 259
öncelik 259
genelde 259
zam 259
aktarılan 258
gücünün 258
edilmesini 258
katılması 258
gösterdiğini 258
alarından 258
liderlerin 258
ihtilaf@@ 258
avusturyalı 258
fe@@ 258
psd 258
min 258
tir 257
cumhurbaşkanının 257
bulunması 257
bildir@@ 257
hızlandır@@ 257
gruplar 257
co@@ 257
santral@@ 257
sağlamaya 257
gelişme 257
ımızı 257
malara 257
sdp 256
tti 256
ıcı 256
yatırım@@ 256
ış 256
başı 256
firma 256
blic 256
kurulacak 256
borisov 256
ğinden 255
gda 255
çı 255
gal@@ 255
adanın 255
dığında 255
kalıyor 255
boykot 255
katılacak 255
ilgilen@@ 255
mezar@@ 255
kullanma 255
yapıcı 255
i̇l@@ 255
uyum 255
etkinliğe 255
ceviç 255
çıkardı 254
kanal@@ 254
ıldığını 254
durdur@@ 254
fırsatı 254
istihbarat 254
idi 254
ağır@@ 254
mayla 254
josipoviç 254
konular 254
derin 254
görüşünde 254
zirvesinde 253
konsey 253
bilmek 253
konferansı 253
lü 253
yor 253
kış 253
otur@@ 252
ediyoruz 252
standartları 252
250 252
gördüğü 252
leme 252
sorununun 252
yurtdışında 252
kentindeki 252
fonu 252
bit@@ 252
kö@@ 252
azal@@ 252
alanındaki 252
sofia 252
miroslav 252
tutuklandı 251
ihraç 251
verimli 251
hay@@ 251
kaybetti 251
asyon 251
fa@@ 251
berlin 251
der 251
euroluk 251
kaçır@@ 250
uyumlu 250
muştu 250
yapım@@ 250
tamamla@@ 250
hazırladığı 250
be 250
başlangıçta 250
başlatma 250
çalışmalarını 250
olmaları 250
kısmen 250
imza 250
tedbir 249
üçlü 249
şefi 249
edildiği 249
esinde 249
leş@@ 249
dimitris 249
dışındaki 249
uzmanları 249
bor@@ 248
kurumların 248
kaldırılması 248
açıklamaya 248
şampiyon@@ 248
yargılan@@ 248
hakim 248
diğinde 248
çekiyor 248
lamak 247
öğrenciler 247
karar@@ 247
sok@@ 247
yorum@@ 247
sektör@@ 247
halk@@ 247
adli 247
çekil@@ 247
kontrol@@ 247
lıyor 247
anların 247
ah@@ 247
sorununa 247
kilisesi 247
açığı 247
eleştirdi 247
madde@@ 246
cumhuriyet 246
ıyorum 246
erişim 246
belirli 246
yolda 246
darbe 246
val@@ 246
dinkiç 246
kurum 246
gu@@ 246
finanse 246
şirketleri 246
ekonomisinin 246
vatandaşlarının 246
cek 245
içer@@ 245
katılım@@ 245
şeyin 245
olağanüstü 245
gece 245
çoğunlukla 245
yorlar 245
fi@@ 245
memiş 245
gören 245
ene 245
yükümlülüklerini 244
savcılar 244
kullanılan 244
neler 244
yor@@ 244
sav@@ 244
eye 244
kaynakları 244
mecliste 244
liste@@ 244
kaybet@@ 244
kam@@ 244
suz 244
65 244
kendilerine 244
stefan 244
fer@@ 243
şeffaflık 243
umutları 243
aktar@@ 243
yaparak 243
ayır@@ 243
strateji 243
kadınların 243
olayları 243
yakın@@ 243
katılmaya 243
dpmne 243
ba 243
tavsiye 242
800 242
cu@@ 242
tıp 242
sandık 242
gençler 242
geleceğini 242
yapılanma 242
üreticisi 242
asyon@@ 242
sayısında 242
ayda 242
1,5 242
şirket@@ 241
başlay@@ 241
tutuklama 241
suçla@@ 241
yıldönümü 241
eşi 241
ayr@@ 241
finlandiya 241
kayıp 241
günleri 241
min@@ 241
olduğunda 241
laş@@ 241
asıl 240
kala 240
duruma 240
hedef@@ 240
değişiklikleri 240
gözaltına 240
laura 240
kosor 240
ğin 240
sınırları 240
dan@@ 240
cılar 240
dss 240
geçmişte 240
sabit 240
izni 240
mit@@ 240
güzel 239
abilmesi 239
şartlarını 239
cnn 239
kamp@@ 239
diklerini 239
zamanlar 239
emniyet 239
oyuncu 239
car@@ 239
eufor 239
işten 238
uzmanı 238
mahkum 238
meyeceği 238
amaç@@ 238
je@@ 238
kuzey@@ 238
müzakerelerde 238
arkadaş@@ 238
kötüye 238
carla 238
sorunlara 237
misyon@@ 237
kişiyi 237
gelerek 237
değişim 237
halen 237
kaçın@@ 237
ceku 237
planladığını 237
yorum 237
fiyat 237
söz@@ 237
mostar 237
ihtilafı 236
desteklemek 236
izleme 236
engel@@ 236
gor@@ 236
başarısız 236
tr@@ 236
üyor 236
olmasının 236
sürdürüyor 236
liyor 236
davası 236
anlamda 235
şimdiden 235
operasyonu 235
mehmet 235
maz@@ 235
gürcistan 235
laştır@@ 235
ız@@ 235
liğinin 235
yapısal 235
anla@@ 235
herkesin 235
sınırlı 235
slovakya 235
şirketlerin 234
geride 234
ulması 234
mez@@ 234
markoviç 234
koydu 234
her@@ 234
draskoviç 234
planlanıyor 234
idir 234
hazırlan@@ 234
ıyoruz 234
son@@ 234
belirttiler 234
çocukların 234
olimpiyatları 234
getirmesi 233
beklen@@ 233
önleme 233
tehlikeli 233
destekleme 233
üretimi 233
sürede 233
başlıklı 233
konser 233
konferans 233
faiz 233
beyaz 233
diğerleri 232
jose 232
çevre@@ 232
sürdürülebilir 232
ceği 232
met@@ 232
alırken 232
olduğunun 232
uş@@ 232
esine 232
esinin 232
satış 232
gazprom 232
silah@@ 231
6,@@ 231
avronun 231
ele@@ 231
görüldü 231
tutum@@ 231
takım@@ 231
paddy 231
giriş 231
kuruldu 231
sunulan 231
lenmesi 231
ilmesine 230
olasılığını 230
erkekler 230
demiryolu 230
maların 230
tılar 230
tim 230
kir@@ 230
gazete@@ 230
nak@@ 230
stanişev 230
fiyatları 230
olmaması 229
seçimlerden 229
madde 229
görüştü 229
kdv 229
i̇slamcı 229
liğine 229
gelmesi 229
kazandığı 229
malıyız 229
kampanyası 229
kayıt 229
kayıtlı 229
layacak 229
yaş 229
rama 229
belki 229
landı 229
fark 229
dim 229
vizesiz 229
karaciç 229
tabii 228
ydi 228
meler 228
vatandaşı 228
amaçlayan 228
vak@@ 228
tanınan 228
if@@ 228
personel 228
va 228
32 228
bloomberg 228
dnevnik 228
ski 228
oranının 228
pro@@ 228
süreç@@ 227
zanlısı 227
pasok 227
biri@@ 227
umuyor 227
dayanarak 227
daire 227
yakınlarında 227
entegrasyonu 226
jaap 226
za 226
aykırı 226
yon 226
tamamladı 226
içine 226
becer@@ 226
and 226
milo 226
iyorlar 226
döviz 226
düştü 226
arama 225
ıyı 225
danışmanlık 225
işler 225
bekliyoruz 225
mon@@ 225
değerlendirme 225
oranla 225
ordunun 225
karara 225
biraraya 225
giriş@@ 225
alardan 224
bence 224
rot@@ 224
ıma 224
yollarını 224
ch@@ 224
görevine 224
yapımı 224
gündeme 224
viç 224
ademi 224
kıbrıslı 224
meselesi 224
bulunmak 223
birinde 223
mayacağı 223
standartlarını 223
istediği 223
gerekçe 223
birleştir@@ 223
tiğini 223
yoksa 223
dönüş 223
vereceğini 222
kimlik 222
yaptığını 222
onaylanması 222
dik@@ 222
kıyı 222
vererek 222
japonya 222
oyunları 222
modern 222
internet 222
itiraz 222
9,@@ 222
çevir@@ 221
bağımsızlığı 221
önerdi 221
ebilir 221
dayanan 221
atan@@ 221
mamız 221
tepk@@ 221
iddiaları 221
bünyesinde 221
eli@@ 221
sınırı 221
getirdiği 221
anadolu 221
bayram 221
buradaki 221
leştir@@ 221
taçi 221
ndaki 220
görüşmeleri 220
umutlarını 220
artıyor 220
yayınladı 220
mediapool 220
tip 220
artması 220
bilişim 220
konuları 220
rejiminin 219
sahne@@ 219
olaylar 219
parlamentoda 219
karşılık 219
umduğunu 219
önemini 219
çoğunun 219
sanatçı 219
eri 219
saatlerde 219
kasabasında 219
günlüğü 219
katılımcılar 219
program@@ 219
yanıt@@ 219
tir@@ 219
demokratlar 219
ekibi 219
kurum@@ 219
suçlanıyor 219
ante 219
planının 219
yasaların 218
34 218
hangi 218
sürerek 218
belirt@@ 218
aranan 218
cumhuriyet@@ 218
çağır@@ 218
ılmasının 218
konferansta 218
dönemine 218
sektörünün 218
fuarı 218
nastase 218
iliği 217
maddi 217
zirvede 217
taraf@@ 217
sız@@ 217
gümüş 217
michael 217
cezalandır@@ 217
bakanlığından 217
split 217
yatırımcılar 217
marina 216
chp 216
onay@@ 216
elektronik 216
sitesi 216
yordu 216
düğünü 216
ses@@ 216
ilişkilerini 216
ds 216
düzenlen@@ 216
koş@@ 216
statüsünü 216
kâr 216
destek@@ 216
emlak 216
haradinay 216
yıllar 216
düzeyinde 216
oylama 215
mesele@@ 215
cezasına 215
paketi 215
ut@@ 215
grupları 215
planları 215
dünyasından 215
kiç 215
gerektiğine 215
getirdiler 215
ciocoiu 215
kapan@@ 215
almış 215
plana 215
iyimser 215
nabucco 215
yapı@@ 214
terörist 214
liman@@ 214
cısı 214
ülkelerinden 214
açıklanan 214
lenmiş 214
ciler 214
ke 214
fotoğraf 214
gelişmiş 214
görevlisi 214
ortamı 214
asından 214
azından 213
mah@@ 213
prosedür@@ 213
bağlantılı 213
sal 213
klerini 213
kaide 213
siyasilerin 213
hizmete 213
bölüm@@ 213
roman@@ 213
çalışmalarının 213
gelir@@ 213
alarla 213
denetim 213
larımız 213
yapmış 213
arnavutların 213
ili 213
sistemini 213
kaf@@ 213
avrodan 212
alar@@ 212
veriliyor 212
ren@@ 212
ad 212
olayı 212
unesco 212
maaş@@ 212
roma 212
katıla@@ 212
gerçekleştirdi 212
savcı 212
konser@@ 212
açıyor 212
nedenle 212
sektör 212
insanın 212
yasalar 212
teklif@@ 212
fiyat@@ 212
ime 211
süreli 211
kop@@ 211
yürüten 211
memuru 211
ren 211
kov 211
çalışmalar 211
açıklan@@ 211
bulunacak 211
yetersiz 211
kü@@ 211
oy@@ 211
ğe 210
sorununu 210
olmuş 210
alanı 210
tık 210
olmaktan 210
iddiasıyla 210
yerde 210
vatandaşlarına 210
ders 210
onay 210
düzen@@ 210
daciç 210
projeler 210
çift@@ 210
esini 210
ist@@ 210
kondu 210
ık@@ 210
larken 210
yaşında 210
iddi@@ 210
seviyesinde 210
açılması 210
ğini 209
36 209
mustafa 209
yoksul 209
arken 209
0 209
usu 209
şiddetli 209
diç 209
oluşuyor 209
zanlı 209
sergey 209
dahası 209
santrali 209
ljajiç 209
ankette 209
konumunda 209
destekleyen 208
tartışmalar 208
manuel 208
zirvesi 208
oyu 208
göstererek 208
alarıyla 208
kapsayan 208
til@@ 208
başlatılan 208
ışı 208
askerleri 208
çoktan 208
başkenti 208
ettikleri 208
memiz 207
idaresi 207
anlaşmazlık 207
güçlerinin 207
desteğini 207
dondur@@ 207
havayolu 207
olurken 207
hasar 207
dış@@ 207
projeleri 207
tarihinin 207
daire@@ 207
taci 207
alt 207
başkan@@ 206
ayına 206
ize 206
üstesinden 206
arap 206
gerekecek 206
şeyler 206
ist 206
doldur@@ 206
blerta 206
aleyhinde 206
pas@@ 206
babacan 206
hisse@@ 205
popescu 205
ırsa 205
ur 205
meclisin 205
alan@@ 205
taşın@@ 205
önerisini 205
tav@@ 205
ince 205
müdahal@@ 205
barışçı 205
arttı 205
ısına 205
geçirilmesi 205
olacağına 205
projeye 205
öden@@ 205
belediye@@ 205
undp 205
recepi 205
unut@@ 204
refah 204
değer@@ 204
hazırlık 204
eler 204
yoksulluk 204
sır@@ 204
ertelen@@ 204
ediyorum 204
koşul@@ 204
hattının 204
cinayet 204
ticareti 204
oluşturan 204
adam 204
çalışmalarına 204
hırvatlar 204
700 203
kurdu 203
ilecek 203
milletvekillerinin 203
ef@@ 203
dui 203
insani 203
hazırlanıyor 203
no@@ 203
kork@@ 203
rekor 203
let@@ 203
yapılmış 203
ha 203
euractiv 203
emeklilik 203
giy@@ 203
8,@@ 203
kaddafi 203
mir@@ 202
buldu 202
daveti 202
iyileştir@@ 202
kurtar@@ 202
anlaşmada 202
nikolovski 202
sol 202
kalıcı 202
paralel 202
acaklarını 202
öneri 202
idar@@ 202
kaçakçılık 202
üyle 201
neden@@ 201
lider@@ 201
kriterleri 201
destekliyor 201
anlaşmalar 201
ithal 201
geliştirilmesi 201
belirterek 201
birbirine 201
ürken 201
adalete 201
imiz 201
yapma@@ 201
daimi 201
avroyu 201
kavuş@@ 201
karşısında 201
ülkelerle 201
hizmet@@ 201
kaydedil@@ 201
işçi 200
siyas@@ 200
ilave 200
edi@@ 200
lendi 200
sürmekte 200
belirsiz 200
beş@@ 200
muamele 200
azınlıkların 200
müdür@@ 200
patla@@ 200
kent@@ 200
enler 200
mekaniz@@ 200
i̇lişkiler 200
uyorlar 200
birliğinin 200
hidroelektrik 200
kullanıl@@ 199
izlen@@ 199
abilmek 199
kararına 199
sizce 199
miktarda 199
itibarıyla 199
vakfı 199
bel@@ 199
has@@ 199
odası 199
yazarı 199
ulan 199
garanti 199
tutul@@ 199
stratejisi 199
toplumunun 199
görüşmelere 199
aracılığıyla 199
eti 199
eksikliği 199
pr@@ 199
referandum@@ 199
teknoloj@@ 199
hepsi 198
çözmek 198
2013 198
üstünlüğü 198
verdikleri 198
aile@@ 198
tutumunu 198
sözleşme 198
asındaki 198
sch@@ 198
ilerlemeyi 198
günde 198
kları 198
kurumlarına 198
makfax 198
güçlendirme 198
kesim@@ 198
ortağı 198
kanada 198
çözme 197
anlaşmazlığı 197
halkına 197
kuruluşları 197
bayanlar 197
yarı 197
olmadı 197
37 197
şirketinin 197
köprü 197
açacak 197
koru@@ 197
ici 196
bürosu 196
hayati 196
tekrar@@ 196
ısı 196
i̇ttifakın 196
desteklediğini 196
pu@@ 196
insan@@ 196
ilerletme 196
lıklar 196
ortam 196
sad 196
çözümü 196
yasaya 196
kutla@@ 196
meclise 196
ldk 196
i̇brahim 196
hükümetini 195
çab@@ 195
ge 195
anlaşmaları 195
haklarının 195
planla@@ 195
oran 195
bağlantı 195
planına 195
laik 195
geçmesi 195
çatış@@ 195
jiç 195
vere@@ 195
hedefliyor 195
dak@@ 195
ula@@ 195
bunlardan 195
bulunuluyor 195
skandal@@ 195
komuta 195
çizdi 195
bıraktı 194
mor@@ 194
arz@@ 194
seçimlerinin 194
i̇n@@ 194
geçiril@@ 194
yapılmasını 194
zamanlarda 194
ateş@@ 194
43 194
maç@@ 194
guardian 194
yöneti@@ 194
vuyanoviç 194
faaliyete 194
sol@@ 194
kırsal 194
zamanında 194
muhalefetin 194
kapalı 194
doğan 194
ör@@ 193
mu 193
gerçekçi 193
sonucuna 193
edilebilir 193
leniyor 193
kofi 193
ödeme 193
şikayet 193
malarda 193
pa@@ 193
gençlik 193
böylelikle 193
getirmeye 193
lığının 193
fena 193
sırplara 193
borcu 193
kökenli 193
yoldan 193
tavır 193
operatörü 193
üret@@ 193
33 192
ortaklaşa 192
getirecek 192
kültür@@ 192
planın 192
sergile@@ 192
vermiş 192
takip 192
edeceği 192
lıkla 192
kolaylaştır@@ 192
edeme@@ 192
dil 192
voyvodina 192
muhabiri 192
grup@@ 192
lüksemburg 192
ilerek 192
ermeni 192
gi 192
çıkması 191
toplantının 191
koşulları 191
şartı 191
sefer@@ 191
kullanımı 191
aj@@ 191
go 191
hızla 191
! 191
işsiz 191
ücret 191
bölgelerde 191
dolayı 191
olmayacak 191
dar 191
basına 191
len 191
otomobil 191
belgradlı 191
örne@@ 190
gazete 190
askerler 190
gidiyor 190
fayda 190
etmeleri 190
festivalde 190
yip 190
adan 190
oyla 190
konut 190
robert 190
önle@@ 189
ücret@@ 189
orada 189
gelişmeler 189
konuk 189
nis 189
ıs@@ 189
tesis 189
profesör 189
kamuoyuna 189
mutabakat 189
bronz 189
clinton 189
mesaj@@ 189
geçirme 189
kuruluş@@ 188
eminim 188
oyların 188
edici 188
şart@@ 188
acakları 188
rapor@@ 188
bakanlarının 188
danışmanı 188
ilerlemenin 188
kurul 188
talebi 188
20@@ 188
yolunu 188
imzalan@@ 188
br@@ 188
rüşvet 188
çocuk@@ 188
fi 188
nispeten 188
sayıl@@ 188
vadede 188
sorun@@ 188
büyükelçi 188
çıkarıldı 187
milososki 187
sahte 187
kad@@ 187
arı 187
likten 187
vatandaş 187
mis@@ 187
aleksandar 187
mısır 187
konularda 187
temiz@@ 187
sarkozy 187
putin 187
çözülmesi 187
sah@@ 187
dire@@ 187
1993 187
eurovision 187
kuzeyindeki 187
kısmının 187
kalan@@ 187
artış@@ 187
bloğa 187
örgütünün 187
eni 187
etk@@ 187
büyük@@ 187
aktardığına 187
bölgesindeki 186
yse 186
eğ@@ 186
geleceğe 186
çalışmak 186
giren 186
denet@@ 186
yönet@@ 186
gerçekleşmesi 186
yeri 186
rolünü 186
oynadığı 186
halde 186
davor 186
seçimlerine 186
kla 186
1996 186
mül@@ 186
ca@@ 186
yeceği 186
anket 186
aksi 185
çarptır@@ 185
va@@ 185
sisteminde 185
ziyaret@@ 185
hafif 185
güvenliğini 185
kurulmasını 185
hareketin 185
akademisi 185
şe@@ 185
sözleş@@ 185
igor 185
başbakan@@ 185
1,@@ 185
gan@@ 185
kimsenin 185
pen@@ 185
yoruz 185
etmekte 185
7,@@ 185
geçmiş@@ 184
hapse 184
duk 184
ifade@@ 184
14@@ 184
daniel 184
çabalarının 184
birleştirme 184
kurban 184
sistemine 184
iden 184
milovanoviç 184
kul@@ 184
şüphe@@ 184
istikrarın 184
proje@@ 184
doğru@@ 184
15@@ 184
gösteri 184
hina 184
fırsat@@ 183
izliyor 183
anayasaya 183
hükümetine 183
desteklemeye 183
plus 183
etkinliği 183
ede 183
varlığını 183
kıs@@ 183
diz@@ 183
yansıt@@ 183
dp 183
sistemin 183
göstermesi 183
stankoviç 183
kuvvet@@ 183
ip@@ 182
iydi 182
bakoyanni 182
sürdürdü 182
mükemmel 182
parç@@ 182
tal@@ 182
söyleniyor 182
sdsm 182
lerken 182
geçmiş 182
tutuklanması 182
yapıla@@ 182
yaşay@@ 182
krize 182
kurumu 182
ceğini 182
attı 182
uğraş@@ 182
değişikliği 182
etkinliklere 182
&amp; 182
caz 182
birleşme 182
uad 182
ılığı 182
kilise 182
oto@@ 181
vermeyi 181
amaz 181
fazlasını 181
topluma 181
saf@@ 181
federal 181
tıbbi 181
emek 181
üyesinin 181
tören@@ 181
çağr@@ 181
ıya 181
kasab@@ 181
gücünü 181
je 181
çabuk 181
eren 181
biçim@@ 181
ölüm 181
ça 181
edilmesine 181
not@@ 181
operasyon@@ 181
sağladığı 180
okul@@ 180
ihtilaf 180
tutukla@@ 180
bi 180
elden 180
ücretsiz 180
tem@@ 180
gözlemciler 180
lat@@ 180
dol@@ 180
kontrolü 180
önlemler 180
hakkına 180
cinayet@@ 180
şarkı 180
aleyhindeki 180
yatırımı 180
üreti@@ 180
faaliyetlerini 180
mizi 180
mülkiyet 180
madal@@ 180
miloşeviç 180
kanıt 180
durres 180
trafik 180
yürüt@@ 180
ödeme@@ 179
ac 179
ısının 179
tıkları 179
içi 179
bölgeyi 179
rice 179
yönetiminin 179
47 179
hizmeti 179
sak 179
yön@@ 179
zemin 179
projeyi 179
hassas 179
bildirdiğine 179
pasaport@@ 179
özerklik 179
misyon 179
gördü 179
ıları 179
dir@@ 179
performans 179
devlet@@ 179
yüz 179
imha 179
lefkoşe 179
sağlayacağını 178
komisyonun 178
ig@@ 178
konum@@ 178
olanlar 178
alacağı 178
beşinci 178
web 178
sinema 178
hissesini 178
lis@@ 178
suçlar 178
kazandır@@ 178
sindeki 178
aksine 178
site@@ 178
sonuçlara 178
malarında 177
ayından 177
teşkilat@@ 177
hayır 177
görevlendir@@ 177
ortadoğu 177
örgütleri 177
pol@@ 177
do 177
araştırmalar 177
yükseldi 177
festivalin 177
organ@@ 177
dost@@ 177
enlerin 177
böl@@ 177
eyalet 177
ihale 177
ilik 177
programın 177
ofisi 177
canlı 177
41 177
çe 177
çeken 177
oyun 177
müşter@@ 177
iyordu 176
anlaşmaz@@ 176
ülkelerini 176
öğrenim 176
karayolu 176
mia 176
sonuçlan@@ 176
51 176
daydı 176
lığına 176
aşırılık 176
sürdürme 176
fotoğraf@@ 176
ince@@ 176
gö@@ 176
tarih@@ 176
borç@@ 176
pfp 176
zivkoviç 176
echo 176
lendir@@ 176
ort@@ 176
yapacağını 176
çiler 175
yatırımlar 175
umuz 175
taraflar 175
doğum 175
pap@@ 175
varılan 175
gerekir 175
açma 175
göstermek 175
oynanan 175
42 175
edildiğini 175
seçilen 175
ıda 175
rejimi 175
kategor@@ 175
5,@@ 175
işkence 175
ilişk@@ 175
kullanarak 175
başından 175
karşılandı 175
katılımcı 175
i̇şçi 175
zanlının 175
obama 175
gelişimi 174
kurmaya 174
ulaşmak 174
kov@@ 174
hareket@@ 174
dra@@ 174
tas@@ 174
ateş 174
hürriyet 174
dayanıyor 174
kesinti@@ 174
his@@ 174
dağı 174
yazı 174
savaşın 174
kayak 174
moon 174
azaltma 174
usaid 174
yönetme@@ 174
toplandı 174
tiç 174
krasniki 173
deneyim@@ 173
kriterlerini 173
dığından 173
getirdiğini 173
geçirdi 173
araba 173
tır@@ 173
deutsche 173
eğilim@@ 173
muhtemelen 173
hedefleri 173
anlaştılar 173
pay@@ 173
yet 173
liğin 173
valentin 173
durumdan 173
cen@@ 173
sanayii 173
başkanlığındaki 173
nebojsa 173
milyonlarca 173
ati@@ 173
müdür 173
ilerlemeye 172
karşılamak 172
süreçte 172
sırpları 172
reform@@ 172
miktar 172
seviye@@ 172
durumunu 172
çözüm@@ 172
zi 172
evi 172
uç@@ 172
kesiminde 172
beni 172
bank@@ 172
topi 172
ili@@ 172
çıkarılması 172
döne@@ 172
upi 172
inzko 172
mut@@ 172
sıcak 172
konularında 172
bilimsel 172
artışla 172
yerinde 171
oku@@ 171
38 171
ürünleri 171
sürdürmeye 171
avustralya 171
sözcü 171
tü 171
1000 171
şimdilik 171
af 171
gençlerin 171
amaçlanıyor 171
hisset@@ 171
avantaj@@ 171
uğra@@ 171
kuş 171
pazarlık 170
maktır 170
bunlara 170
meseleler 170
bek@@ 170
olar@@ 170
grupların 170
cıların 170
mağlup 170
verilmiş 170
tanjug 170
edebiyat 170
bulundur@@ 170
kiş@@ 170
gazetesinde 170
sayı@@ 170
toprak@@ 170
nano 170
barışı 170
ayrımcılık 170
önemlidir 170
fakültesi 169
çabalar 169
belgeleri 169
deyişle 169
am 169
ok@@ 169
baltal@@ 169
dönüştür@@ 169
yon@@ 169
sunuyor 169
konferansa 169
dusan 169
yetkililerinin 169
getire@@ 169
hedefleniyor 169
nedir 169
raporun 169
ğı 169
ju@@ 169
uygulanmasını 168
başlangıç 168
değişikliklerin 168
olmayacağını 168
46 168
gönderdi 168
jean 168
açılışını 168
sunul@@ 168
haberler 168
başbakanın 168
petar 168
vereceği 168
asgari 168
göçmen 168
finansman 168
ra 168
microsoft 168
davada 168
sigorta 168
katliam@@ 168
elinden 168
yeterince 168
farkında 168
maden@@ 168
uygulamada 167
iyileştirme 167
acağından 167
düğü 167
ertele@@ 167
suçlan@@ 167
araç@@ 167
başlama 167
derne@@ 167
yasasını 167
cesaret 167
ikiye 167
mize 167
çatışmalar 167
ündeki 167
id@@ 167
13@@ 167
toplama 167
yıllarında 167
co 167
çevr@@ 167
komutan@@ 167
makroekonomik 167
birine 167
grubunun 167
kürdistan 167
başlatılması 167
eleri 167
tazminat 166
nerede 166
sonbaharda 166
kimin 166
ildiği 166
başardı 166
yayınlan@@ 166
eğitimi 166
aktardığı 166
geçecek 166
urken 166
almasına 166
merkezinin 166
net@@ 166
festivale 166
i̇statistik 166
ülkesinde 166
i̇s@@ 166
açıklaması 166
havaalanı 166
prlenda 166
by 166
tarafsız 166
kktc 166
gördüğünü 165
ste@@ 165
çözüle@@ 165
soru 165
ker@@ 165
manı 165
85 165
sağlaması 165
getirildi 165
moisiu 165
yolları 165
arkasında 165
mekan@@ 165
ide 165
ılar 165
töreninde 165
umu 165
luğu 165
aj 165
calin 165
2,5 165
bağlantı@@ 165
melere 164
kutladı 164
çe@@ 164
cağı 164
kes@@ 164
kar 164
kalması 164
söylediği 164
numaralı 164
ece@@ 164
gerçekleştirdiği 164
maroviç 164
kişiye 164
ekip 164
tırman@@ 164
belirleme 164
seçimlerini 164
muhamet 163
suçlamaları 163
yolsuzluğa 163
landığı 163
hükümet@@ 163
pahalı 163
ölç@@ 163
yaklaşım 163
kanun@@ 163
uydu 163
rak@@ 163
yaralan@@ 163
alacağını 163
kesil@@ 163
liman 163
projesinin 163
olmuştu 163
faaliyet@@ 163
x@@ 163
i̇lerleme 163
işini 163
dis@@ 163
tutuyor 163
yönetimindeki 163
gerçek@@ 163
las@@ 163
48 163
ğiz 163
jeviç 163
zorunlu 163
evet 163
ivan 163
turiz@@ 163
çalıştı 162
çalışanları 162
fikri 162
cumhurbaşkan@@ 162
tır 162
mine 162
tra@@ 162
turu 162
istiyorlar 162
müz@@ 162
gele@@ 162
tribune 162
hedefini 162
sanık 162
göstergesi 162
aldıkları 162
sergisi 162
ucu 162
tor@@ 162
bütünleş@@ 162
bankanın 162
çıkar 162
celiç 162
paranın 162
birden 162
pdk 162
sorunlarla 161
biliriz 161
re 161
ilke@@ 161
eline 161
gelmiş 161
yarg@@ 161
verme@@ 161
seçti 161
jan@@ 161
i̇spanyol 161
oluşturulması 161
natasa 161
atıl@@ 161
tavsiye@@ 161
noktada 161
sağlanacak 161
likle 161
gra@@ 161
mektupta 161
yere 161
büyüyen 161
tanıyan 161
itiraz@@ 161
iktidara 161
ec@@ 161
başlıyor 161
mensup 160
kaynaklanıyor 160
diğ@@ 160
kayıt@@ 160
gr@@ 160
tarafların 160
demokras@@ 160
tedbirlerin 160
üniversite@@ 160
akımı 160
no 160
seçmenler 160
çalıştığı 160
sabah 160
oluşturma 160
avukat 160
olduğumuz 160
taşıdığı 160
koşullar 160
mleri 160
fizibilite 160
laşma 160
kos@@ 160
yakından 160
vlado 160
hü@@ 160
dolara 160
uma 159
malarından 159
istikrara 159
ımızın 159
olmasından 159
w. 159
konuyu 159
sefer 159
john 159
reformlara 159
koordinatörü 159
yaşandı 159
bilgileri 159
profesyonel@@ 159
bölgesine 159
iti@@ 159
kesim 159
çift 159
ilaç 159
jo@@ 159
1997 159
başsavcı 159
g17 159
ilerde 159
for@@ 159
oyla@@ 159
törende 159
çılar 159
teşekkür 159
risk 159
pre@@ 159
zirve 159
asker@@ 159
abiliyor 159
0@@ 159
ülkelerindeki 159
lıklarını 159
gönderdiği 159
divanı 159
egemen 159
güvenilir 159
alışveriş 159
organ 159
zanlılarının 159
listesinde 159
sayımı 159
faydalan@@ 158
hız@@ 158
yetkisi 158
anlat@@ 158
baskın 158
düzenlediler 158
cıları 158
gire@@ 158
sayılı 158
tanıt@@ 158
kalk@@ 158
sektöründeki 158
amerikalı 158
saldırıları 158
eksik@@ 158
62 158
çocukları 158
yarak 158
doktor 158
katılmayı 158
zanlıları 158
tiğ@@ 158
anlaşmasına 158
facebook 158
kullanan 158
ga@@ 158
ber 158
bilgiler 158
kim 158
liderlik 158
ılı 158
sektörüne 158
bilgilere 158
türk@@ 158
boş@@ 157
çıkarıl@@ 157
öyle 157
böylece 157
hedeflerine 157
ihracat@@ 157
temsilc@@ 157
şiddetle 157
desteğiyle 157
i̇van 157
forumu 157
özel@@ 157
ğimiz 157
tarihten 157
olayların 157
lü@@ 157
gereğini 157
çı@@ 157
gu 157
haris 157
izledi 157
rüzgar 157
zam@@ 157
sto@@ 157
zan@@ 157
buraya 157
belir@@ 157
44 157
kavuştur@@ 157
yöntem@@ 157
ladığı 157
sp 157
vukovar 157
stratej@@ 157
göstermeye 157
eyalette 157
bini 157
yatırımları 157
oranları 157
şans@@ 157
kalmış 156
yatırımcı 156
i̇ktidardaki 156
17@@ 156
katıldılar 156
anlam@@ 156
hayat@@ 156
düşen 156
belirlenen 156
uygulanmasına 156
pla@@ 156
ucuz 156
karışık 156
filip 156
mirko 156
yanlar 156
öldürül@@ 156
tamam@@ 156
yanından 156
ağa 156
sırayı 156
davaları 156
yolsuzluğun 156
profesörü 156
etkinlik@@ 156
önemi 156
törenine 156
büyümenin 156
gönüllü 156
kuruluşlarının 155
diğimiz 155
sorunlarını 155
ettir@@ 155
yusuf 155
müştü 155
çifte 155
üyeli 155
53 155
verilmesini 155
sürdüğü 155
dığ@@ 155
sorumluluğunu 155
geoana 155
yardımıyla 155
kom@@ 155
unsur@@ 155
yasal@@ 155
savcılık 155
lığıyla 155
insanlara 155
meseleleri 155
dayat@@ 155
schilling 155
değişen 154
zeljko 154
kesi@@ 154
tihiç 154
sonuçlarını 154
harcam@@ 154
uzlaş@@ 154
iyileştirilmesi 154
bildiri 154
boyut@@ 154
çağ@@ 154
alexander 154
kaya 154
portekiz 154
piyasa 154
yu@@ 154
yaklaşım@@ 154
herald 154
ekonomist 154
ermesinden 154
bastır@@ 154
alım 154
eriş@@ 154
hastan@@ 154
muazzam 154
standartların 154
sergide 154
dubrovnik 154
suz@@ 153
koalisyon@@ 153
vergisi 153
kab@@ 153
insanlık 153
sü@@ 153
bahse@@ 153
misyonunun 153
zvetkoviç 153
dalında 153
buluş@@ 153
peter 153
zorla 153
aracı 153
dakika 153
blok 153
zanlıların 153
hepimiz 153
toplumlar 153
atı 153
kriz@@ 153
dü@@ 153
kendisinin 153
sahipleri 153
etmenin 153
4,@@ 153
sayıdaki 153
etmektedir 153
tahmin@@ 153
oyunu 153
lin@@ 153
alev@@ 152
tu 152
alanları 152
stojanovska 152
inde@@ 152
itiraf 152
bakanlığına 152
işbirliğiyle 152
uygulaması 152
çıkarlarını 152
yoktur 152
oluşturduğu 152
kaynaklanan 152
sekreter 152
iyileşme 152
pekin 152
üyelerinden 152
krizden 152
gelen@@ 152
fır@@ 152
video 152
siyaset@@ 152
adamları 152
haftalık 152
ham@@ 152
görevinden 152
güneş 152
nataşa 151
istekli 151
başkanları 151
tedbir@@ 151
sığınma 151
xinhua 151
sıradan 151
dev@@ 151
kil@@ 151
lemek 151
haklı 151
topraklarında 151
ska 151
yemek 151
memur@@ 151
th@@ 151
azaltmak 151
oloji 151
tiyatrosu 151
bireysel 151
geçiyor 151
ınız 151
günler 151
yıllarca 151
denizi 151
konjikusiç 151
dünyadaki 151
kırıklığına 151
hristofiyas 151
süresinin 151
jan 151
korsan@@ 151
yoluna 150
yola 150
polis@@ 150
işlet@@ 150
kovuştur@@ 150
yağ@@ 150
yararlı 150
üyelerine 150
performans@@ 150
görevde 150
mahkemesinde 150
önce@@ 150
turkish 150
adam@@ 150
taşımacılık 150
kaldığı 150
lıkların 150
ülkesinden 150
lanmış 150
payı 150
pazarına 150
ramazan 150
bölgesinin 150
dum 149
gereği 149
almasını 149
uzman@@ 149
sokak 149
yesi 149
bölge@@ 149
girmesi 149
yayınla@@ 149
anma 149
lam@@ 149
turizmi 149
derece@@ 149
ailesinin 149
agim 149
isim@@ 149
i̇ngilizce 149
yürüttüğü 149
ımıza 149
dahilinde 149
başkentinde 149
lim 149
kav@@ 149
ktan 149
harca@@ 149
ırklı 149
lerimiz 149
mevzu@@ 148
bine 148
veto 148
iniz 148
liğ@@ 148
nüfusu 148
çağırdılar 148
mücadele@@ 148
arkeologlar 148
katılanların 148
aydan 148
gönderil@@ 148
amacının 148
giz@@ 148
toplantısına 148
ton@@ 148
listesinin 148
yeceğini 148
kız 148
yatırımcıların 148
uz 148
uçak 148
aydır 148
türkler 148
medyanın 148
ran@@ 148
kovski 148
hiv 148
meta 148
yargıç 147
lübnan 147
ertesi 147
madaki 147
münasebetiyle 147
topla@@ 147
değerinde 147
taraftan 147
heykel@@ 147
projede 147
ordusunun 147
yarar@@ 147
şüphe 147
verece@@ 147
heyetinin 147
filmin 147
eşlik 147
laması 147
hayat 147
raporunu 147
kür@@ 147
belgenin 147
maliyeti 147
labus 147
bozidar 147
paktı 147
cağını 147
hüküm 146
yetk@@ 146
denetleme 146
minde 146
arkeoloji 146
vo@@ 146
çatışma 146
marko 146
rakibi 146
vu@@ 146
üç@@ 146
layık 146
gü@@ 146
ben@@ 146
or 146
izleyen 146
ödülünün 146
tenis 146
işleyen 146
olmalı 146
gerekçesiyle 146
ülkesine 146
koordine 146
mahkum@@ 146
i̇lgili 146
ku 146
brammertz 146
düler 146
koalisyonunun 146
tri@@ 146
vet@@ 146
norveç 146
kuvvetler 146
richard 146
hükümetler 146
barbutov 146
tatbikat@@ 146
ans@@ 146
asyonu 146
derecelendirme 146
yaralandı 145
soğuk 145
çalışacak 145
ga 145
malardan 145
çalıştığını 145
güçlendirilmesi 145
misyonun 145
planda 145
uları 145
nci 145
planladığı 145
ita 145
16@@ 145
artırdı 145
şey@@ 145
olayın 145
ıt@@ 145
otoyol 145
emri 145
mahkemeyle 145
değin 145
doları 145
girecek 145
pal@@ 145
kararları 145
arac@@ 145
artışı 145
standartlara 145
likler 145
mama 145
zamanın 144
devlete 144
parlamentoya 144
anayasanın 144
nimetz 144
yolcu 144
saldırılar 144
üretic@@ 144
projesine 144
likleri 144
açabilir 144
landığını 144
vaat@@ 144
başladığı 144
çıkarma 144
alanlar 144
araz@@ 144
bölgelerinde 144
büyükelç@@ 144
sürüldü 144
önerisi 144
hüküm@@ 144
öncelikli 144
döndü 144
partilerinin 144
of@@ 144
yasak 144
düzgün 144
raporuna 144
notunu 144
ktir 143
i̇vica 143
zamandan 143
yapım 143
ister 143
sağlanan 143
olan@@ 143
i̇ttifaka 143
kaybe@@ 143
kararlılığını 143
kuzeyde 143
düzeni 143
lerimizi 143
cur@@ 143
jankoviç 143
oldular 143
pratik 143
eğit@@ 143
kendini 143
sahip@@ 143
okulu 143
tutukladı 143
anne 143
başlatıldı 143
yollardan 143
rahat@@ 143
tesis@@ 143
sınıf@@ 143
maliyet@@ 143
mc@@ 143
10@@ 143
stan@@ 143
adaki 142
televizyonu 142
etkileri 142
yoğunlaş@@ 142
önemlisi 142
kilometrelik 142
makam@@ 142
bağımsızlığının 142
i̇vanoviç 142
adamı 142
sunan 142
uzlaşmaya 142
suretiyle 142
dene@@ 142
alınmış 142
bojana 142
arab@@ 142
54 142
mimar@@ 142
kaldırma 142
gemi 142
geliştirmek 142
şarap 142
ayakta 142
mat@@ 142
değildi 142
şansını 142
ithalat@@ 142
dağıtım 142
adrian 142
politikasının 142
füze 142
larsa 142
girişimin 142
dairesinin 142
sahası 142
komite 142
hükümetle 141
süleyman 141
politikasını 141
yoksun 141
yük@@ 141
ağının 141
ilişkilerde 141
kalabalık 141
polisinin 141
açığını 141
hindistan 141
x 141
burgaz 141
gidecek 141
belene 141
yatır@@ 141
tes@@ 141
dr@@ 141
alıyorlar 141
yazılım 141
politikaları 141
iyileştirmek 141
çileri 141
belediyesi 141
lıktan 141
müttefik@@ 141
seçenek 141
dimitrova 141
boyko 141
group 141
toplantıdan 141
tedavi 141
ılacağını 141
yaratmak 141
kilis@@ 141
1.000 141
kalkın@@ 140
kırmızı 140
bot@@ 140
layarak 140
haklarına 140
yece@@ 140
devletleri 140
yerleş@@ 140
sizlik 140
sek 140
otel 140
kullandı 140
silayciç 140
öncelikleri 140
geçerek 140
kademeli 140
dans 140
üm 140
bütçesi 140
hep 140
eyaletteki 140
ey@@ 140
klerine 140
destekli 140
şar@@ 140
desteğin 140
yo@@ 140
alınmasını 140
olanak@@ 140
rken 140
sakin@@ 140
biyo@@ 140
yazılı 140
diren@@ 140
ısını 139
çözümün 139
ithalat 139
yaptılar 139
politik@@ 139
ihlal@@ 139
amaçlıyor 139
pi@@ 139
yaklaşan 139
sine@@ 139
hıristiyan 139
atılan 139
yarısı 139
kurumlara 139
press 139
çekmek 139
davayı 139
benzeri 139
acağım 139
görevlerini 139
denge@@ 139
i̇rlanda 139
geril@@ 139
zengin@@ 139
bulunmadığını 139
tay@@ 139
koordinasyon 139
melerin 139
rakamın 139
geleni 139
tartışmaya 139
zi@@ 139
düşünce 138
,5 138
zayıf@@ 138
sadık 138
onaylanan 138
olabileceği 138
ılıp 138
66 138
ınca 138
sergilen@@ 138
desteklenmesi 138
binin 138
kullanıyor 138
hakkını 138
mahkeme@@ 138
festivalinde 138
i̇nsanlar 138
görüşlerini 138
kapsam@@ 138
iye@@ 138
lukiç 138
imzalanması 138
çerçev@@ 138
davaların 138
zar@@ 138
dığımız 138
sunuldu 138
od@@ 138
ekonomiyi 138
es 138
gece@@ 138
au@@ 138
ras@@ 138
nitelendir@@ 138
şebeke@@ 138
suçların 137
yasalara 137
savc@@ 137
harit@@ 137
başlamasından 137
köken@@ 137
programının 137
bankalar 137
sinden 137
yal@@ 137
yüksek@@ 137
yarısında 137
kre@@ 137
adım@@ 137
fabrikası 137
güneyindeki 137
yöneticisi 137
ilgisi 137
isinden 137
çıkart@@ 137
beklendiği 137
fikrini 137
kapasite@@ 137
amaması 137
yarım 137
49 137
korum@@ 137
taşıdığını 137
personeli 137
örneği 137
sektörünü 137
uğrat@@ 137
ülkeyle 137
kayb@@ 137
sen 137
işlev@@ 136
ulus@@ 136
milletvekillerine 136
hızlandırma 136
diğinden 136
askerlerinin 136
vatandaşlara 136
çalışıyorlar 136
melerinin 136
azalma 136
amayacağını 136
düşman@@ 136
şimşek 136
atıfta 136
tac@@ 136
taş 136
tarihe 136
tik@@ 136
diğer@@ 136
istiyorum 136
karşılayan 136
daily 136
doğur@@ 136
şeffaf 136
tütün 136
gündeminde 136
ara@@ 136
verheugen 136
danimarka 136
malarla 136
beklenti@@ 136
ailesi 136
soy@@ 136
film@@ 136
bağlan@@ 136
ker 136
0.000 136
hatır@@ 136
düzinelerce 136
gurur 136
sürpriz 136
bazılarının 136
deprem 136
getirerek 136
kostov 136
sizliği 135
eskiden 135
kanalı 135
ılabilir 135
pak@@ 135
dönemin 135
çıkarlarına 135
tarafının 135
işleme 135
bölümünü 135
fiziksel 135
david 135
akis 135
2.@@ 135
ayaklan@@ 135
tutmak 135
şampiyonu 135
tuttur@@ 135
kurucu 135
amaç 135
erecek 135
önem@@ 135
ilişki 135
rece@@ 135
suçun 135
kaldığını 135
dular 135
genç@@ 135
kabul@@ 135
belirlenmiş 135
ada@@ 135
kayıp@@ 135
malların 135
şarkıcı 135
gazetecilerin 135
kararda 135
sorunla 135
eşit@@ 135
felaket@@ 135
ez@@ 135
radio 135
56 135
bilece@@ 135
tutum 135
grev@@ 135
fonlar 135
öğrencilerin 135
gelişim 134
i̇ttifakı 134
anayasası 134
talebinde 134
haftalarda 134
tartışmalara 134
harici 134
kullanı@@ 134
çıkarmak 134
oturum 134
ou@@ 134
bol@@ 134
kemal 134
tehdidi 134
ayhan 134
gecesi 134
otel@@ 134
lardı 134
yapı 134
arasına 134
puanla 134
ğinde 134
listesine 134
uyordu 134
yasasının 134
öncelikle 134
endişelerini 134
koruy@@ 134
vardır 134
katılımını 134
ıy@@ 134
rum@@ 134
kurucusu 134
varan 134
azerbaycan 134
esindeki 134
orman 134
rezerv@@ 134
servis@@ 134
frattini 134
cusu 134
cezaev@@ 134
şikayet@@ 133
alma@@ 133
politi@@ 133
kurumlarını 133
donan@@ 133
sorumluluğu 133
suçlarıyla 133
kuvvetlerinin 133
tab@@ 133
39 133
inci 133
masa 133
mücadelenin 133
alıp 133
larımızı 133
kredisi 133
bar 133
and@@ 133
belgeyi 133
suikast@@ 133
dijital 133
yasada 133
nitelendiren 133
laştırma 133
turistler 133
meliyiz 133
arabuluculuk 133
sey@@ 133
biriydi 133
oynay@@ 133
hi 133
enerjisi 133
bazen 133
devi 133
çelik 133
çıkacak 133
reddedil@@ 133
sunulacak 133
geçersiz 133
ven@@ 133
soren 133
angela 133
52 132
liç 132
cefta 132
haklar 132
görülmemiş 132
sığın@@ 132
kaçak@@ 132
eleştirilere 132
inanıyorlar 132
polise 132
memurları 132
kurulmasına 132
zafer@@ 132
final@@ 132
ovo 132
nakil 132
almıştı 132
üyelerini 132
cam@@ 132
yetle 132
dejan 132
gününe 132
marija 132
geçirmek 132
başladığını 132
ihal@@ 132
yıldızı 132
makal@@ 132
sistem@@ 132
uldu 132
mler 132
tiri@@ 132
hayatta 132
aşağı 132
toplanan 132
derin@@ 132
soruna 132
papa 132
şi 132
adıyla 132
sürmesi 132
açıklamasına 132
programları 132
dı@@ 132
ılığın 131
televizyon@@ 131
tuzla 131
imizi 131
mizin 131
milletvekil@@ 131
dora 131
çıkarılan 131
jadranka 131
i̇ktidar 131
yürü@@ 131
üni@@ 131
olmasa 131
pazarı 131
ecektir 131
zarar@@ 131
anı 131
1989 131
çağıran 131
bombalı 131
fo@@ 131
müze 131
basınında 131
nihayet 131
karşılay@@ 131
prizren 131
dalg@@ 131
görü@@ 131
ük 131
ürün 131
gerb 131
bina 131
alandaki 131
fiyatı 131
şehir@@ 131
yebilir 130
sonuç@@ 130
istek@@ 130
adımları 130
layıp 130
işareti 130
ebileceğini 130
planlama 130
rus@@ 130
ikil@@ 130
ul 130
umut@@ 130
hoş@@ 130
ray@@ 130
evski 130
seviyesine 130
ileriyle 130
harcan@@ 130
yonu 130
çö@@ 130
bes@@ 130
riski 130
kurumun 130
uygulamak 130
receğini 130
gelirleri 130
meşru 130
imin 130
çıkardılar 130
sektörün 130
saatlik 130
subay@@ 130
cazip 130
ışığında 129
mevk@@ 129
kazanç 129
başkanının 129
çıkmaza 129
etkileyen 129
yazık 129
peki 129
ular@@ 129
hal 129
işlenmiş 129
zanlılarını 129
zanlı@@ 129
del@@ 129
gücüne 129
şartların 129
listesi 129
liğinde 129
konması 129
abilece@@ 129
ajansının 129
nobel 129
bulunuldu 129
rakip@@ 129
rohan 129
yakal@@ 129
lizbon 129
olabilecek 129
ılan@@ 129
bağımsız@@ 129
yükselen 129
kendine 129
esad 129
yeti 129
mek@@ 129
yerlerinden 129
str@@ 129
konusunu 129
duruldu 129
sta@@ 129
benimse@@ 129
dukları 128
sürdürülen 128
çoğunluğunun 128
irse 128
fikir@@ 128
zamanla 128
imz@@ 128
deme@@ 128
dikkatli 128
mektup 128
eser@@ 128
mladen 128
duklarını 128
rakip 128
kurmayı 128
konferansında 128
sekreter@@ 128
müzakerelerinde 128
tamamı 128
hız 128
sık@@ 128
ğının 128
birlikle 128
kitap@@ 128
lamaya 128
kot@@ 128
independent 128
suçlamalar 128
canlandır@@ 128
atma 128
küçül@@ 128
çıkarları 128
tutan 128
bankasının 128
ri 128
artırmaya 128
pic 128
yaşanıyor 128
cev@@ 128
anlaşmayla 128
harika 127
savundu 127
ihtiyacımız 127
açılacak 127
1244 127
siyon@@ 127
niyet 127
mirası 127
gözlem 127
ze 127
sap@@ 127
dönen 127
cinsel 127
organizasyon 127
edi 127
basketbol 127
ımın 127
ödül@@ 127
kararlar 127
gösterildi 127
mücadeleyi 127
operatör@@ 127
meyece@@ 127
i̇vanov 127
geli@@ 127
imzaladığı 127
hükümetten 127
uluyor 127
öngörüyor 127
harcamaları 127
fiyatlar 127
santral 127
dnevnik.bg 127
ılık@@ 127
programını 127
ayrılan 127
hükümetinden 127
üm@@ 126
dj@@ 126
güveni 126
katolik 126
eylemleri 126
edeceğiz 126
düzel@@ 126
üp 126
büyümeyi 126
iyorum 126
çete@@ 126
redde@@ 126
zulüm@@ 126
tığına 126
tro@@ 126
isinde 126
amadığı 126
takımının 126
kosteliç 126
haftaki 126
süz 126
tıra@@ 126
kıy@@ 126
suça 126
isimli 126
cılık 126
belde@@ 126
toplantı@@ 126
bah@@ 126
hikaye@@ 126
inter@@ 126
kardeş@@ 126
vizyon@@ 126
95 126
projelerin 126
işlerini 125
vel@@ 125
eksiksiz 125
öncesine 125
temas@@ 125
3,@@ 125
anketler 125
statüsünün 125
desteklenen 125
eğer 125
ülkelerdeki 125
görüyorlar 125
mik 125
kıyısındaki 125
birer 125
ayan 125
protestolar 125
duyduğunu 125
teklifi 125
imzalam@@ 125
diyaloğu 125
yönetic@@ 125
reddediyor 125
bölümünde 125
miyle 125
savcısı 125
kapısı 125
çabaların 125
sonuçlandı 125
han 125
sandalye@@ 125
kurbanların 125
turda 125
avukat@@ 125
öz 125
mış@@ 125
onayı 125
aklama 125
cumhurbaşkanlığının 124
1980 124
tabi 124
şekil@@ 124
merkezindeki 124
tehdit@@ 124
inanılan 124
işlem@@ 124
mde 124
gözlemci 124
kapasitesini 124
ılmıştı 124
bla@@ 124
binası 124
ans 124
geçirdiği 124
açı@@ 124
kimi 124
girmek 124
merkeziyet 124
seçimlerinden 124
programda 124
kuralları 124
hasta 124
meyle 124
mey@@ 124
değişim@@ 124
gerçekleştirildi 124
korumaya 124
ılarak 124
bakanlığın 124
diplomatlar 124
fiili 124
blo@@ 124
paket@@ 124
bütçe@@ 124
şiir 124
i̇slami 124
açıklandı 124
biti@@ 124
dps 124
denetimi 124
finansmanı 124
şirketlerinin 123
yaptırım@@ 123
ata 123
isten@@ 123
diğim 123
liğinden 123
bağlantısı 123
yolun 123
haberde 123
verirken 123
lıkları 123
cı@@ 123
estonya 123
kilo 123
sporcu 123
mağ@@ 123
değerli 123
öy@@ 123
euronews 123
getirilen 123
snsd 123
duyuyor 123
kulübü 123
gitmek 123
kasabası 123
demir 123
nite@@ 123
düzenleyen 123
ces@@ 123
işadamı 123
başbakanlık 123
özgürlüğünü 123
başladılar 123
oylamada 123
aşam@@ 123
tuğunu 123
iv@@ 123
etrafında 123
şiddete 123
askerlerin 123
müdürlüğü 123
holkeri 123
kapsamındaki 123
mücadeleye 123
cr@@ 123
ülmesi 123
işin 123
açtığını 122
sda 122
entegrasyon@@ 122
oluşturmak 122
belirti@@ 122
tehdi@@ 122
malze@@ 122
algılan@@ 122
hoşgörü 122
bilin@@ 122
luğun 122
uygulanacak 122
güney@@ 122
hamle@@ 122
72 122
seçimi 122
temiz 122
lığından 122
kalacağını 122
töreni 122
sanatçılar 122
kuz@@ 122
santralinin 122
sının 122
rasim 122
teşekküllü 122
inanıyoruz 122
salt 122
puan@@ 122
fonları 122
mir 122
azaltılması 122
bildiri@@ 122
bsp 122
ruh@@ 122
talep@@ 122
benzin 122
okula 122
telefon@@ 122
başkanlığına 122
tre@@ 122
suçlarla 122
schwarz 122
mağaz@@ 122
finansman@@ 122
ksf 122
durumlarda 121
gözardı 121
64 121
sunmak 121
tat@@ 121
tin@@ 121
makamların 121
derken 121
papadopulos 121
işlem 121
çekme 121
vatan@@ 121
yoksul@@ 121
kategorisinde 121
futbol@@ 121
konan 121
açmayı 121
boyu 121
lıkta 121
ırk@@ 121
mavi 121
vas@@ 121
çıkma 121
çeke@@ 121
.com 121
ilmesinin 121
ivica 121
kısıtla@@ 121
vermişti 121
edecektir 121
meseleyi 121
dönem@@ 121
ilişkiler@@ 121
hast@@ 121
dahi 121
dna 121
çocuklara 121
bilg@@ 121
dayanışma 121
78 121
isti@@ 121
terziç 121
kullanmak 121
tle 120
komşular@@ 120
bağlayan 120
artmasına 120
traykovski 120
niyet@@ 120
kurtul@@ 120
öldürülmesi 120
inanılıyor 120
ket@@ 120
tehlike 120
protesto@@ 120
cular@@ 120
siyasete 120
ı- 120
iraklı 120
bulg@@ 120
bağlamda 120
arıyor 120
sıcak@@ 120
resim 120
2014 120
devletinin 120
birliğine 120
kurulunun 120
intihar 120
fr@@ 120
haft@@ 120
lük@@ 120
leşti@@ 120
fayd@@ 120
tiler 120
analiz@@ 120
masaya 120
ekonomiler@@ 120
yetiş@@ 120
mültecilerin 120
yenlerin 120
ji 120
racan 120
gerçekleştirilecek 120
basit 120
fran@@ 120
yatırımın 120
görüyoruz 119
miktar@@ 119
değeri 119
sancak 119
istifasını 119
bileceğine 119
liderin 119
ılığa 119
desteklen@@ 119
güçlerin 119
nu 119
kapsayacak 119
belirtil@@ 119
uçur@@ 119
cak@@ 119
sahipler 119
bölgeden 119
gelecek@@ 119
ğını 119
kra@@ 119
dıra@@ 119
öneriyi 119
srs 119
ulacak 119
başvuru 119
değiller 119
olayda 119
istasyon@@ 119
57 119
foniki 119
standart 119
ks 119
bildirildiğine 119
seyir@@ 119
çabalarında 119
miş@@ 119
pamuk 119
çıktığı 119
etkinliğin 119
atın 119
ol 119
imzalay@@ 119
meslektaş@@ 119
değerlendirmek 119
anlara 119
hastalık@@ 119
63 119
uzak@@ 119
lılar 119
çalışan@@ 119
3,5 119
isiyle 119
ii 119
şarkı@@ 119
kova 119
ermenistan 119
ð@@ 119
geriye 118
amay@@ 118
lık@@ 118
tiyle 118
uzanan 118
tanınması 118
komşuluk 118
patlama 118
kapı 118
kapasitesi 118
cumhurbaşkanları 118
artıracak 118
gösteric@@ 118
journal 118
tersine 118
tümü 118
lak 118
pri@@ 118
hayran@@ 118
üre@@ 118
başlamasını 118
focus 118
siyasetçiler 118
düşünce@@ 118
liklerini 118
devletler 118
göç@@ 118
güçler 118
aylarında 118
öngörülen 118
siyasileri 118
ölüm@@ 118
şans 118
kaydettiğini 118
58 118
sh@@ 118
bü@@ 118
tıpkı 118
verg@@ 118
europe 118
gerginlik 118
sakin 118
görevleri 118
eceğine 118
kitabı 118
vit@@ 118
sitesinde 118
potansiyeli 118
bilirler 118
yurtdışındaki 117
dadır 117
acağ@@ 117
yarattığı 117
bık@@ 117
kaldırmak 117
predrag 117
welle 117
risk@@ 117
elverişli 117
tarihlerinde 117
olay@@ 117
ekonomisini 117
novak 117
başlattığı 117
kazanması 117
ege 117
ade@@ 117
kampany@@ 117
hedeflerini 117
bür@@ 117
met 117
rakam@@ 117
hisse 117
standart@@ 117
doktor@@ 117
hedefinin 117
toplumların 117
parayı 117
sıfır 117
tahsis 117
orta@@ 117
suçl@@ 117
ulara 117
onar@@ 117
başarıyla 117
stand 117
lüks 117
900 117
denk 117
aray@@ 117
olmadığına 117
görüştüler 117
araştırmaları 117
yönetimin 116
kapasitesine 116
kin@@ 116
ramazanoviç 116
yenler 116
cuların 116
cuları 116
i̇z@@ 116
leyen 116
ika 116
alanlarındaki 116
esinden 116
olmaz 116
yahudi 116
dokunulmaz@@ 116
boğ@@ 116
suikast 116
gazetecilik 116
dağıtım@@ 116
simeon 116
tel@@ 116
üyeliğe 116
bun@@ 116
döneme 116
ölümcül 116
merkezine 116
uçak@@ 116
ley 116
financial 116
seviyesi 116
makamlar 116
boc 116
msk 116
katılımının 116
ashton 116
parlamentosunun 116
gelip 116
sanat@@ 116
ergenekon 116
savcıları 116
durumunun 116
evlat 116
kesimindeki 115
temsilcilerinin 115
gidiş@@ 115
imkansız 115
görüşü 115
konudaki 115
simiç 115
başarısız@@ 115
müsteşarı 115
bekliyorlar 115
planlandığı 115
birim@@ 115
mağdur@@ 115
yazısında 115
krizle 115
uzaklaştır@@ 115
onur 115
katılımcıların 115
davranış@@ 115
yatırımcılara 115
ljubljana 115
350 115
ora 115
tahmini 115
örgütler 115
çekiş@@ 115
por@@ 115
başlamasına 115
finansal 115
alt@@ 115
fonların 115
altıncı 115
öğrencisi 115
atları 115
68 115
bağl@@ 115
uyarı 115
reformlarını 115
svetla 115
krediyi 115
top 115
bdp 115
tarihini 115
wisner 115
kaynaklarını 115
mobil 115
modernize 115
line 115
elerin 115
ail@@ 115
füle 115
atması 115
turistlerin 115
suçlarından 115
söyleye@@ 115
yürütül@@ 115
dünyaya 115
duvar@@ 115
vlora 115
işletme 114
komsiç 114
kaynak@@ 114
reformunun 114
lığ@@ 114
siniz 114
ödemek 114
çalışırken 114
dolaylı 114
james 114
cal@@ 114
perakende 114
konferansına 114
şek@@ 114
girişimleri 114
kadın@@ 114
iyet 114
ros@@ 114
yük 114
fin@@ 114
atık 114
tecek 114
işaret@@ 114
yunanlılar 114
ran 114
tanesi 114
w 114
ların@@ 114
svetozar 114
cor@@ 114
opera 114
komisyon@@ 114
ebeveyn@@ 114
taslak 114
fe 114
varlığı 114
dığının 114
spiriç 114
kullandığı 114
ayrılmış 114
unicef 114
arnavutça 114
tarihine 114
test 114
larımızın 114
yaşlı 114
kullanmaya 114
yenilenebilir 114
haciç 114
rücker 114
irade 113
ovska 113
önceliği 113
öğretmen 113
açmak 113
anlaşmaların 113
etmekten 113
rakamlar 113
1,2 113
bulmaya 113
mahkemede 113
eyi 113
gönderme 113
gol@@ 113
oda 113
alfred 113
patlak 113
gösteril@@ 113
çıkmak 113
tarz@@ 113
koalisyonun 113
dostluk 113
kuruluşunun 113
genellikle 113
veriler 113
özerk@@ 113
sonundan 113
çalışıyoruz 113
ses 113
yapılan@@ 113
belirlenmesi 113
yasasında 113
tutarında 113
tep@@ 113
hollandalı 113
festival@@ 113
exit 113
açacağını 113
evlerine 113
düzeyindeki 113
ihtiyatlı 113
sonuçların 113
ekip@@ 113
sağlamayı 113
ilişkilere 113
ularını 113
firmaları 113
savcıların 113
yurtdışına 113
sekerinska 113
og@@ 113
kaybeden 112
i̇m@@ 112
mpa 112
başk@@ 112
oturum@@ 112
nd 112
nitelikte 112
güvenini 112
ikisinin 112
bos@@ 112
maria 112
inoviç 112
takımın 112
sürüyorlar 112
tatil@@ 112
sunacak 112
bogdanoviç 112
analiz 112
brezilya 112
yatırımların 112
eş 112
sürdürmek 112
kaçakç@@ 112
ıyor@@ 112
gerisinde 112
yum@@ 112
ekibinin 112
ço@@ 112
imajını 112
bölümünün 112
i̇kili 112
tepe@@ 112
devamı 112
medi@@ 112
nüfusa 112
normale 112
farkla 112
tığ@@ 112
rad@@ 112
kalmayıp 112
gelmesini 112
üle@@ 112
firmanın 112
topladı 112
karakter@@ 112
sayım@@ 112
biljana 111
aylar 111
varlık 111
kararl@@ 111
duydukları 111
lerse 111
yıldönümünü 111
koridor 111
gos@@ 111
yapılıyor 111
post 111
yetkil@@ 111
sağladığını 111
başlatmak 111
kurulmuş 111
zirvesine 111
öldü 111
bitir@@ 111
saldırı@@ 111
bilgisayar@@ 111
jelena 111
saat@@ 111
final 111
törenle 111
olduğ@@ 111
caktır 111
ülkeleriyle 111
unsur 111
programında 111
tıyor 111
selimay 111
rock 111
nine 111
güçlendirmek 111
yazar@@ 111
ilerlet@@ 111
sayısız 111
kök@@ 111
başlamak 111
deniz@@ 111
yaratıyor 111
yaparken 111
hristofyas 111
tartışmak 111
süt 111
sürdürülmesi 111
kalmak 111
kalmaya 111
gül@@ 111
4. 111
kazanmak 111
kavram@@ 111
yangın@@ 111
burns 111
4,5 110
musunuz 110
tesi 110
düzey@@ 110
tane 110
mediklerini 110
konumunu 110
koyduğu 110
gösterilen 110
düzenlenmesi 110
bilen 110
eğitim@@ 110
if 110
1994 110
lis 110
ut 110
cının 110
kore 110
adaylar 110
oyuncusu 110
bildiriyor 110
bayan 110
gen 110
şair 110
kıl@@ 110
jak@@ 110
adayları 110
ham 110
çisi 110
bri@@ 110
kovaceviç 110
görüşlü 110
kum@@ 110
konuya 110
size 110
yerlerde 110
amaya 110
katılımın 110
ımını 110
alındığını 110
erlis 110
ekonomiye 110
rejim@@ 110
iktidarda 110
dinle@@ 110
ou 110
yapılandır@@ 110
çök@@ 110
kesintileri 110
takdir 110
istatistik 110
anket@@ 110
öğrenc@@ 110
müslümanlar 110
cari 110
bitola 110
almakla 110
kullanılması 110
kermabon 110
bozul@@ 109
hata 109
ismi 109
ettiğ@@ 109
katkı@@ 109
mayın@@ 109
hükümetleri 109
alıyordu 109
ziyade 109
yükselt@@ 109
öneme 109
itibariyle 109
bulunma 109
dele@@ 109
olmalıdır 109
analisti 109
leşme 109
güçlerini 109
alındığı 109
mes@@ 109
laik@@ 109
yıldız 109
zirveye 109
belgesel 109
sürecindeki 109
demir@@ 109
sağlığı 109
liğiyle 109
statüsüne 109
tel 109
etmesinden 109
arnavut@@ 109
rejim 109
hoş 109
kurtuluş 109
bulunuyorlar 109
doğumlu 109
klasik 109
yetecek 109
maaşları 109
operasyonun 109
güzel@@ 109
savunuyorlar 109
yardıma 109
gelişmekte 109
hükümetlerin 109
bulaş@@ 109
elektri@@ 109
dük@@ 109
euroya 109
nik 109
tirecek 109
luk@@ 108
uk 108
devraldı 108
tatmin 108
hedefleyen 108
anti@@ 108
devredil@@ 108
lardır 108
şimdilerde 108
huzur@@ 108
hapishan@@ 108
park 108
çinli 108
fu@@ 108
performansı 108
yürütme 108
bakanın 108
altyap@@ 108
yapmaları 108
keş@@ 108
gününde 108
veri 108
olaylarının 108
emek@@ 108
lo 108
görme 108
araştırmacı 108
ovac 108
taban@@ 108
belgeler 108
çekildi 108
engellemek 108
muadili 108
yeviç 108
aileleri 108
liyorlar 108
coe 108
federasyon@@ 108
beraat 108
biz@@ 108
edeceğine 108
kosumi 108
udur 108
oluşturul@@ 108
yönel@@ 108
sızlık 108
artıra@@ 108
yaşamını 108
etkisini 108
satışı 108
kontrolünü 108
unsuru 108
işç@@ 108
kathimerini 108
güçlükler 108
tüketi@@ 108
tüketici 108
cer@@ 108
steiner 108
luğunu 107
adı@@ 107
ezici 107
defalarca 107
bağımsızlığına 107
tutumu 107
ötesinde 107
balık@@ 107
şeker 107
street 107
boş 107
oyuncular 107
sübvansiyon@@ 107
fabri@@ 107
hedefle@@ 107
seçilmiş 107
mur@@ 107
yüzyıl 107
bulunul@@ 107
hizmetler 107
ivanoviç 107
bölgeleri 107
sorunlu 107
dimitrov 107
yolsuzluğu 107
sorunlardan 107
ölçekli 107
cel@@ 107
usunu 107
adımı 107
kolayca 107
geçtiğini 107
yaratma 107
doktorlar 107
teröre 107
özelleştirilmesi 107
malları 107
ılmasından 107
lacak 107
törene 107
geçmişi 107
atını 107
bakım 107
gerektiren 107
test@@ 107
rupel 107
robertson 107
67 107
savaştan 106
vetevendosje 106
medyada 106
inandığını 106
alama@@ 106
yaşadı 106
buçuk 106
mektir 106
ekle@@ 106
sizin 106
dün@@ 106
buluyor 106
katına 106
taşıyacak 106
iti 106
ğimizi 106
yazdı 106
sağlayarak 106
vurgulayan 106
yapıldığı 106
yenerek 106
ulaşım 106
ilişkilerinde 106
sınıf 106
doğalgaz@@ 106
dos@@ 106
sorumluluğ@@ 106
mişlerdi 106
bankaların 106
kanunu 106
kongresi 106
teşkilatının 106
ladığını 106
çetin 106
gidil@@ 106
başlatmaya 106
firmaların 106
ağını 106
eğitimli 106
liderlerle 106
lerdi 106
coğrafi 106
tehlike@@ 106
teknolojik 106
engeller 106
milyondan 106
nitelendirdiği 106
soruşturmanın 106
etkilenen 106
ihlali 106
cinsiyet 106
getirece@@ 106
almaları 106
meclisteki 106
balkan@@ 106
aids 106
olmay@@ 106
forum@@ 106
ğim 105
gösterge@@ 105
meydan 105
sezer 105
kullanıla@@ 105
hızlandırmaya 105
diyalog@@ 105
halkını 105
batısındaki 105
edebil@@ 105
tiğinde 105
sergil@@ 105
tif@@ 105
lıklara 105
heyet@@ 105
let 105
yun@@ 105
fabrika 105
ilişkilerinin 105
ük@@ 105
lenecek 105
platform@@ 105
aziz 105
ilerlemesi 105
sıkıntı@@ 105
130 105
milliyet@@ 105
acak@@ 105
çalışmalar@@ 105
reddeden 105
zamanının 105
tablo 105
protokol@@ 105
projelerine 105
özgürlük@@ 105
oranını 105
oranına 105
koruması 105
belediyeler 105
karıştır@@ 105
rasmussen 105
klarını 105
cağına 105
erteleme 105
münferit 105
siyasetçi 105
tikleri 105
hu@@ 105
tiyor 105
kazanma 105
ro 105
seyirci 105
ilerinde 105
yenilen@@ 105
bon@@ 105
koruyor 105
00 105
reaktör@@ 105
edebilir 105
muhalif 104
uların 104
demokrasinin 104
yiz 104
sahiptir 104
ahmeti 104
balıkçılık 104
mühimmat 104
gelmesine 104
düğ@@ 104
yaban@@ 104
çalışanların 104
eserleri 104
oğ@@ 104
iddiana@@ 104
çıkarak 104
pop 104
belirlemek 104
ularının 104
katılımıyla 104
ticaret@@ 104
tren 104
yeraltı 104
katledil@@ 104
kısıt@@ 104
politikalar 104
iu 104
vermesini 104
havaliman@@ 104
çilik 104
değişiklik@@ 104
parlamenterler 104
planında 104
uygulanmasında 104
tutuklanan 104
partili 104
tüm@@ 104
eyaleti 104
bariz 104
not 104
akaryakıt 104
kaybettiği 104
edece@@ 104
bulunmuyor 104
hızlandırmak 104
ih@@ 104
ğ 104
zarara 104
ch 104
kararlaştır@@ 104
masıdır 104
önlem@@ 104
grev 104
sanız 104
christian 104
köprü@@ 104
söylemek 104
düşünül@@ 104
oyunlar 104
ruhsat@@ 104
iklim 104
afet@@ 103
eksik 103
yok@@ 103
medikleri 103
ent 103
fasıl@@ 103
diyaloğun 103
attığı 103
olasılığının 103
anlaşmazlıklar 103
anlamı 103
mahalle@@ 103
fa 103
cesaret@@ 103
ışını 103
sezon@@ 103
emir 103
hükümetiyle 103
sayfalık 103
açığının 103
özür 103
işadam@@ 103
tez@@ 103
minden 103
kazanarak 103
yarışı 103
uyoruz 103
etkin@@ 103
şüphelenilen 103
rahatsız 103
memekle 103
turistik 103
iflas 103
özerk 103
bölünme 103
ör 103
klar 103
aktör 103
başkent@@ 103
hazırlanması 103
endişelen@@ 103
frank 103
djukanoviç 103
çekilmesi 103
nüfus@@ 103
gök@@ 103
tele@@ 103
düşünüyoruz 103
görüşme@@ 103
69 103
lov@@ 103
sürdürül@@ 103
st 103
vatandaşın 103
enerj@@ 103
askerlik 103
fatur@@ 103
artırmayı 103
vekili 103
japon 103
kin 102
partiden 102
etmemesi 102
ticaretin 102
bilimler 102
görevlileri 102
miyorum 102
escu 102
olun@@ 102
nica 102
mircea 102
yete 102
model 102
i̇mparatorluğu 102
kaynaklarının 102
beklendiğini 102
tetik@@ 102
uk@@ 102
gri@@ 102
dos 102
endişe@@ 102
temsilcileriyle 102
bilim@@ 102
â@@ 102
denetle@@ 102
pazarlama 102
ziyaretçi 102
def@@ 102
babası 102
herkese 102
akın 102
yi@@ 102
mesajı 102
mediafax 102
tito 102
partiye 102
ziyaretini 102
kapılarını 102
operasyonları 102
olurdu 102
2. 102
yaptı@@ 102
prag 102
gaşi 102
geçirilen 102
başarısı 102
hesap 102
romanlar 102
indi@@ 102
boskovski 102
kullanılıyor 101
bayrağı 101
destekç@@ 101
medyaya 101
istif@@ 101
darbe@@ 101
hazırlanmış 101
ali@@ 101
tepkiler 101
medeki 101
sayg@@ 101
haberinde 101
kaynaklardan 101
uyum@@ 101
aralarındaki 101
bay@@ 101
litvanya 101
pav@@ 101
imizin 101
turnuv@@ 101
tarafında 101
sti@@ 101
savunan 101
lığında 101
ümit 101
faaliyetlerinin 101
başvurusunu 101
mamakla 101
kuruluşun 101
çıkış 101
ceo 101
herşeyi 101
ihtilafının 101
mamak 101
komutan 101
hayvan@@ 101
59 101
bağlayıcı 101
dalar 101
sene 101
rompres 101
günün 101
hastane 101
sovyet 101
çağırıyor 101
orman@@ 101
hakaret 101
bra@@ 101
cenevre 101
ölü 101
fonlarının 101
110 101
bulunmuştu 101
i̇cra 100
ilerlemesini 100
reisi 100
gelmek 100
çabayı 100
kınadı 100
taşı 100
gösterisi 100
ion 100
karşılaştır@@ 100
oliver 100
sürdürdüğü 100
des@@ 100
imize 100
yedek 100
cilerin 100
amaz@@ 100
sıraya 100
temyiz 100
mültec@@ 100
çıktığını 100
riyor 100
sunum@@ 100
likte 100
komisyonunun 100
sonuçlanan 100
vaz@@ 100
altın@@ 100
tekstil 100
masraf@@ 100
gösterileri 100
iyoruz 100
i̇dari 100
memur 100
geçmesine 100
yapmakla 100
görüşmelerinin 100
büyüklükteki 100
ziyaretinin 100
emil 100
troy@@ 100
avukatı 100
standartlarının 100
müfettiş@@ 100
kuzeyinde 100
rekor@@ 100
olimpiyat@@ 100
saklan@@ 100
5. 100
anlatıyor 100
yarışması 100
amıyor 100
öğretmen@@ 100
öldürüldüğü 100
yaklaşmakta 100
danış@@ 100
isimler 100
83 100
uyguladığı 99
suçlardan 99
sağlandı 99
eylemi 99
istiyorsa 99
kanıtı 99
övgü 99
mam@@ 99
haz@@ 99
buldular 99
condoleezza 99
atan 99
şen@@ 99
üçü 99
döndür@@ 99
gösterecek 99
düşürdü 99
deyimiyle 99
festivalinin 99
diğinin 99
geleceğine 99
makul 99
bahset@@ 99
atmaya 99
ilerliyor 99
rast@@ 99
topraklarının 99
kopenhag 99
davasında 99
mevdu@@ 99
şiddetin 99
değ@@ 99
ifadesinin 99
söylen@@ 99
tamamlamak 99
ord@@ 99
vurguladılar 99
yarattı 99
dönüşü 99
büyükelçili@@ 99
ekonomisine 99
yurt@@ 99
tutulan 99
çözümler 99
gücün 99
i̇zleme 99
duyul@@ 99
kitle@@ 99
seçilmesi 99
aram@@ 99
fark@@ 99
i̇daresi 99
manastır@@ 99
merkezleri 99
yansıtıyor 99
yönetimini 99
söylerken 99
i- 98
muhalefeti 98
ayrıldı 98
çoğunluğunu 98
cisi 98
idam 98
ür 98
bomba 98
yapılmasına 98
demek 98
olmuştur 98
kart@@ 98
durumdalar 98
hel@@ 98
dri@@ 98
yayınladıkları 98
kazandılar 98
gre@@ 98
arasından 98
desteğine 98
boykot@@ 98
sürdürmesi 98
kapatma 98
edilmişti 98
çocuğun 98
vatandaşlık 98
yarışma 98
kapsıyor 98
topluluğu 98
ulustan 98
i̇sti@@ 98
yaşandığı 98
çıkarına 98
zamana 98
başlayacağını 98
projesini 98
makedonlar 98
ğa 98
simge@@ 98
lerimizin 98
bebek 98
yasalarını 98
gölge 98
üzer@@ 98
temel@@ 98
mw 98
usunun 98
zincir@@ 98
çalışanlarının 98
görüldüğü 98
değiştirmek 98
yaşadı@@ 98
katılanlar 98
ateşli 98
büyümesi 98
beklemek 98
cılara 98
değişiyor 98
nokta 98
listede 98
imi@@ 98
değerlendirdi 98
telekomünikasyon 98
bağlayacak 98
iddialı 98
ing 98
140 98
kup@@ 98
gelenek@@ 98
hayal@@ 98
sonuca 98
far@@ 98
bizler 98
tahliye 98
kitab@@ 98
katliamı 98
notu 98
andy 98
marat@@ 98
partiyi 97
hedefler 97
uygulamasının 97
faz@@ 97
semt@@ 97
gemil@@ 97
sin 97
ite 97
bizzat 97
ağına 97
başarısızlıkla 97
inc@@ 97
nov@@ 97
hakim@@ 97
bağlantıları 97
cokoviç 97
dernek 97
seçmen@@ 97
onlarca 97
tesisi 97
reklam 97
söylemişti 97
desteklediği 97
yavaş@@ 97
yatırımcıları 97
planlan@@ 97
yönetmeni 97
model@@ 97
prodi 97
tüzüğü 97
uzmanların 97
çoğunu 97
mden 97
yapısı 97
olayla 97
göçmen@@ 97
istikrarsız@@ 97
oyna@@ 97
geçiş@@ 97
emir@@ 97
yapılarına 97
yürütüyor 97
ayla 97
sayede 97
cemaati 97
bayramı 97
sanay@@ 97
miyorlar 97
sınav@@ 97
etkileyici 97
1,6 97
sp@@ 97
uğ@@ 96
ayrımc@@ 96
politikalarını 96
yandaş@@ 96
belirsiz@@ 96
üyeliğin 96
kapasiteye 96
bilecekler 96
çiğne@@ 96
adaylığı 96
yardımın 96
kısım@@ 96
yerleri 96
kapsa@@ 96
iri 96
kt@@ 96
faaliyetlerin 96
ellerinde 96
abilecekleri 96
kentte 96
görüntü@@ 96
temsilcilerin 96
adayların 96
icra 96
hakimler 96
devre@@ 96
filmleri 96
kariyer@@ 96
alıcı 96
inşasına 96
oluşturduğunu 96
bamir 96
ilerletmek 96
köy 96
lin 96
strazburg 96
atıyor 96
cas@@ 96
tasla@@ 96
döneminden 96
gereksiz 96
aren@@ 96
eder@@ 96
muh@@ 96
yöne@@ 96
madencilik 96
tık@@ 96
yolunun 96
cami@@ 96
şeyleri 96
kamuoyunda 96
depre@@ 96
nedenlerden 96
tıklarını 96
lazarova 96
partisine 96
yemek@@ 96
tahvil@@ 96
sınırsız 96
referandumu 96
standartlar 96
sın@@ 96
rejimini 96
başlamış 96
dink 96
sürdürece@@ 95
bulunmasına 95
yorsunuz 95
partilere 95
i̇stihbarat 95
istatisti@@ 95
klerin 95
milletvekilinin 95
firmalar 95
eroğlu 95
çev 95
binasının 95
kamer@@ 95
tuğ@@ 95
bta 95
zaferi 95
görüşünü 95
kalp 95
kapı@@ 95
resi 95
romanların 95
kayna@@ 95
sds 95
milyonluk 95
serbest@@ 95
mutlu 95
dayken 95
tiğine 95
başvuruda 95
duran 95
holding 95
yirmi 95
brajshori 95
yılmaz 95
cezalar 95
kimyasal 95
ortamda 95
noktasına 95
ettiklerini 95
cilik 95
sistemleri 95
öğre@@ 95
daianu 95
ılmasında 95
ciyi 95
kullanım 95
ılacağı 95
land 95
yakıt 95
ihtiyaçları 95
gelişmeleri 95
bilgiye 95
komut@@ 95
yararına 95
askerî 95
puanı 95
partisinden 94
gerekirse 94
ılmasıyla 94
görmüş 94
vurgula@@ 94
61 94
layacağını 94
makamlarını 94
kaçınılmaz 94
gösteriler 94
yüzyıldan 94
fabrik@@ 94
binanın 94
suçlamada 94
beth 94
izleyic@@ 94
yarışmasında 94
jur@@ 94
kapasite 94
hiçbiri 94
kış@@ 94
düzenleniyor 94
gelece@@ 94
durumla 94
tiriyor 94
san 94
dörtte 94
programlar 94
pe 94
karşılama 94
euro@@ 94
sınırın 94
faaliyetler 94
felaket 94
referandumda 94
st. 94
sarayı 94
oynam@@ 94
gitmesi 94
hersekli 94
gerekiyordu 94
davalar 94
açıkladılar 94
kendileri 94
mahkemeler 94
yasama 94
katılmasını 94
radovanoviç 94
kaybedil@@ 94
liste 94
bahar 94
ecekler 94
şok 94
kaliteli 94
mizde 94
arz 94
yangın 94
servis 94
diğeri 94
chi@@ 94
ılığına 94
bekliyorum 94
statü@@ 94
balık 94
i̇srailli 94
sonuçlarına 94
bakıldığında 93
üyeleriyle 93
bulunma@@ 93
sanmıyorum 93
hedeflere 93
çiçek 93
2,@@ 93
varsa 93
sis 93
açılmasını 93
üst@@ 93
ufak 93
sular 93
decek 93
azınlıklar 93
görünüm 93
birleşmiş 93
saldırının 93
işgal 93
kamyon@@ 93
alkol 93
wall 93
ölümüne 93
taraftar@@ 93
federasyon 93
haberleri 93
seselj 93
ger 93
ılığını 93
endişeler 93
mülk 93
kred@@ 93
kadınlara 93
edilmesinin 93
ner@@ 93
mülteciler 93
ümü 93
karş@@ 93
öğrencileri 93
ortakları 93
bre@@ 93
nu@@ 93
clock 93
çak@@ 93
saatler 93
üyeler 93
meselenin 93
fotoğraflar 93
şiş@@ 93
istikrarını 93
faktör@@ 93
fiyatlarının 93
liklere 93
sını 93
for 93
katılarak 93
metreküp 93
umuduyla 93
pazarının 93
yı@@ 93
hep@@ 93
kabinenin 93
sps 93
geçmek 93
hazırladı 93
çilerin 93
kabinesi 93
rejimin 93
rakamlara 93
erdir@@ 93
76 93
konumda 93
karşılaştığı 93
diyarbakır 93
zanlılar 93
politik 93
çocuğu 93
sembol@@ 93
gayrı 93
otomobil@@ 93
eib 93
insanı 92
istikrarsızlık 92
baskı@@ 92
yasağı 92
ivanov 92
makamlarına 92
gil@@ 92
geçe@@ 92
fazlasının 92
yum 92
82 92
nas@@ 92
eleme 92
yardımc@@ 92
anları 92
etmeyeceğini 92
iadesi 92
ışığına 92
yetiştir@@ 92
harc@@ 92
kadının 92
ısından 92
dolaşım 92
saxe 92
coburg 92
yeti@@ 92
jüri 92
pos@@ 92
brcko 92
anoviç 92
sınız 92
leşmesi 92
parçalan@@ 92
gas@@ 92
gazetec@@ 92
kaynaklara 92
gelin@@ 92
ğın 92
meclisinin 92
güdümlü 92
öneriler 92
birliğini 92
faaliyetlerine 92
mahkemelerin 92
ihracatı 92
potansiyeline 92
yiyecek 92
stat@@ 92
entegrasyonuna 92
yunanlı 92
plastik 92
kamuoyunun 92
duruşma 92
komş@@ 92
gru@@ 92
sürülüyor 92
lavrov 92
tüketim 92
lise 92
dr. 92
yakalanması 92
nik@@ 92
engelleri 92
statüsüyle 92
fiat 92
sembolik 91
gerçeği 91
misyonuna 91
dürüst 91
deneyim 91
devreye 91
fried 91
evde 91
bulundukları 91
sorunuyla 91
ati 91
bilecekleri 91
zorlan@@ 91
dükkan@@ 91
nevi 91
harek@@ 91
74 91
meydanı 91
bom@@ 91
eva 91
orijinal 91
komünizm 91
ittifak@@ 91
yaptır@@ 91
kriter@@ 91
1974 91
ciye 91
ıştı 91
televizyonuna 91
ailenin 91
world 91
eylemler 91
sos@@ 91
bekiri 91
ülkesini 91
tuttu 91
varlığının 91
ziyaretçiler 91
inşaatı 91
parlak 91
lenmesine 91
ısında 91
eve 91
bulunuyordu 91
uygulamasına 91
erişimi 91
dağ 91
değerlendiril@@ 91
yü 91
sendikalar 91
fonun 91
ulaşması 91
airlines 91
savunmasız 91
kru@@ 91
yapmakta 91
hakk@@ 91
nüfuz 91
gözlem@@ 91
rekabetçi 91
konunun 91
oybirliğiyle 91
hırvatların 91
sağlayama@@ 91
şirketlere 90
eleştiren 90
kaletoviç 90
soktu 90
day@@ 90
menfaat@@ 90
ülecek 90
atılması 90
filistin 90
landır@@ 90
yayla 90
tığında 90
sağladılar 90
dönüşüm 90
birbirinden 90
izlemek 90
caklar 90
yapacakları 90
odak 90
talebini 90
gönderilen 90
posta 90
değiştirmeye 90
komünizmin 90
yur@@ 90
gordana 90
yüzyılın 90
kaçakçılıkla 90
önerisinde 90
devralacak 90
açması 90
sayf@@ 90
enlere 90
ima@@ 90
soruml@@ 90
fikirde 90
beklediği 90
sırpça 90
aran@@ 90
coviç 90
bütçesini 90
bütün@@ 90
biliyoruz 90
fatos 90
çıkmaya 90
festivaline 90
oz@@ 90
meselelerin 90
atam@@ 90
uzan@@ 90
sutanovac 90
destekleyecek 90
gölü 90
kararlarını 90
tasarı 90
bütçesinin 90
mik@@ 90
enko 90
programa 90
yetkilinin 90
etkilerini 90
iddialarını 90
görüşmenin 90
koha 90
şiddet@@ 90
kişiden 90
ulu@@ 90
jat 90
vermesine 90
eriyor 90
84 90
artışa 90
2015 90
struga 90
ortamını 90
etkinlikler 90
2020 90
yolsuzluk@@ 90
simitis 90
danışman@@ 90
seviyeye 89
faal 89
mantıklı 89
sonrasındaki 89
kimliği 89
beyan 89
unuz 89
grad 89
tanınıyor 89
za@@ 89
cezaevi 89
81 89
ürün@@ 89
nikolay 89
köyü 89
başarı@@ 89
telegraph 89
edileceğini 89
ayar@@ 89
nitelendirerek 89
özelliğini 89
çev@@ 89
öldürüldü 89
popoviç 89
viz@@ 89
duruyor 89
kayg@@ 89
konuların 89
dam@@ 89
habere 89
inceleme 89
başlan@@ 89
entegre 89
diplo@@ 89
kayde@@ 89
oynayan 89
meslektaşı 89
ala@@ 89
kullanımını 89
aileler 89
krediler 89
yaşamı 89
dikkat@@ 89
bölgesinden 89
yapıyorlar 89
fas@@ 89
ayrılması 89
iktidar@@ 89
sanayi@@ 89
değin@@ 89
yaygın@@ 89
mışlardı 89
çözmeye 89
gabriel 89
kişileri 89
dina@@ 89
petroviç 89
konut@@ 89
kuvvet 89
73 89
yenileme 89
fuar@@ 89
liler 89
bekleye@@ 89
kesin@@ 89
liderlerini 89
icg 89
ardi 89
etmiyor 89
başbakanları 89
istediklerini 89
üss@@ 89
abilirler 89
standard 89
opulos 89
cezaları 89
eğitime 89
kurduğu 89
komutası 89
kültürü 89
seçmek 89
öldürülen 89
kaydeden 89
sanıkların 89
toplamda 89
i̇k@@ 89
uygun@@ 88
bedrana 88
yasalarına 88
işine 88
stefanoviç 88
gözaltında 88
hemfikir 88
ölümü 88
ısrar@@ 88
zih@@ 88
türkleri 88
kül@@ 88
lüler 88
hatırla@@ 88
yapmasına 88
taleplerini 88
stratejisini 88
kulüp@@ 88
üyordu 88
milliyetç@@ 88
üste 88
milos 88
radikal@@ 88
miting@@ 88
uyandır@@ 88
içeriyor 88
önlenmesi 88
30@@ 88
petrov 88
filmler 88
birey@@ 88
olmanın 88
modernizasyonu 88
yapıları 88
başkanlığında 88
liberal@@ 88
ğında 88
koşulların 88
kışkırt@@ 88
anne@@ 88
med@@ 88
devriye 88
olmalarına 88
raporunun 88
duğ@@ 88
uygu@@ 88
değişik@@ 88
1,3 88
açıklamalarda 88
suçluların 88
kapasitesinin 88
ımızda 88
mle 88
adnan 88
pulaj 88
kariç 88
vermekle 88
arşiv@@ 88
kanın 88
diplomat@@ 88
sayım 88
paketini 87
takv@@ 87
pekiştir@@ 87
ılıkla 87
gündemde 87
tasarıyı 87
akademik 87
bugün@@ 87
çarp@@ 87
dahil@@ 87
bulunurken 87
kapatılması 87
ondan 87
asi@@ 87
bilet 87
sava 87
cadde@@ 87
general@@ 87
aradaki 87
mali@@ 87
havaalan@@ 87
novosti 87
yoktu 87
layacağı 87
are 87
hissesi 87
çalışanı 87
yetkililerine 87
seminer@@ 87
tanımlan@@ 87
sonuçlarının 87
ihtiyaçlarını 87
tasarruf@@ 87
pace 87
şüphel@@ 87
uğradı 87
gösterme 87
çıkmasına 87
olasılık@@ 87
edebileceğini 87
görece@@ 87
konuk@@ 87
muhafazakâr 87
ters 87
yaşama 87
miktarı 87
atının 87
dost 87
ısın@@ 87
meclis@@ 87
kalmasını 87
hin@@ 87
perspektif@@ 87
i̇zmir 87
öğrencilere 87
çalışmaların 87
ilerleyen 87
sanık@@ 87
soykırım@@ 87
karşılıyor 87
güvenliğin 87
ine@@ 87
referandumun 87
bay 87
şube@@ 87
powell 87
ğına 87
180 87
temizleme 87
etmesinin 86
makedon@@ 86
cü@@ 86
mev@@ 86
savcılığı 86
forum 86
fakül@@ 86
silahlar 86
blair 86
nakit 86
amak 86
kaynaklı 86
elen@@ 86
direktör 86
.. 86
safhasında 86
kurt@@ 86
yıldız@@ 86
uğradığı 86
gerçekleştiril@@ 86
işbirliğinden 86
hükümette 86
umudunu 86
3. 86
başvurusunda 86
operasyonlar 86
geldiğinde 86
kri@@ 86
suçlamaların 86
koyuyor 86
sergiledi 86
hol@@ 86
sermaye@@ 86
araştırmaya 86
isyan 86
işadamları 86
kişilere 86
keskin 86
orhan 86
çoğunlukta 86
lıyorlar 86
ajansına 86
ramuş 86
ilerlemesine 86
genişlet@@ 86
şan@@ 86
otobüs@@ 86
önlemleri 86
kabashi 86
yakalay@@ 86
olas@@ 86
söylemekle 86
önerdiği 86
tasarısı 86
işbirliğinde 86
yöndeki 86
düzelt@@ 86
istekl@@ 86
mekanizması 86
olacaklar 86
türklerin 86
rahibe 86
mark 86
kentine 86
medvedev 86
verdik 86
eğilimi 86
pl@@ 86
şahıs 86
parça 86
adaletten 86
ömür 86
sokak@@ 86
mü 86
istemiyor 85
yükümlülük@@ 85
sidir 85
seçme 85
zorundayız 85
kararlılık 85
fatih 85
arttığını 85
yarar 85
kl@@ 85
isti 85
aydın@@ 85
girme 85
örgüte 85
dinin 85
yakınında 85
sandık@@ 85
soldan 85
fırsatlar 85
sözler 85
kutsal 85
mamasını 85
hızlandırılması 85
kalite@@ 85
gruba 85
barın@@ 85
albert 85
çekmeye 85
cin@@ 85
cileri 85
adaletin 85
olmamakla 85
çabalara 85
ızın 85
sim@@ 85
kongre 85
gerçekleşiyor 85
imini 85
hemşire@@ 85
konu@@ 85
peş@@ 85
bilirsiniz 85
reklam@@ 85
sürdürdüğünü 85
siyaseti 85
maçı 85
kral@@ 85
kullanımına 85
keşf@@ 85
dendi 85
muammer 85
person@@ 85
ret@@ 85
havayolları 85
kurban@@ 85
25@@ 85
kaçakçılığıyla 85
öngörül@@ 85
değerindeki 85
biç 85
sasa 85
referanduma 85
kos 85
iyimser@@ 85
psik@@ 85
des 85
bayram@@ 85
sundular 85
havacılık 85
yazdığı 85
eyalete 85
belirsizlik 85
kesh 85
endek@@ 85
sektörde 84
parlamentodaki 84
salon@@ 84
güvence@@ 84
yetkileri 84
rü@@ 84
hazırlık@@ 84
göstericiler 84
vic@@ 84
elç@@ 84
seyre@@ 84
verip 84
yendi 84
las 84
devret@@ 84
görünen 84
6. 84
sergilediği 84
budapeşte 84
bilgilendir@@ 84
isyan@@ 84
tedbirlerini 84
tamamını 84
alık 84
kampanyanın 84
ebilecek 84
egemenlik 84
nefret 84
birbirlerine 84
sis@@ 84
gelmiştir 84
karayol@@ 84
gönderildi 84
diğerlerinin 84
hissedar@@ 84
madrid 84
ziyaretin 84
yazıl@@ 84
ilki 84
konus@@ 84
hac@@ 84
metal 84
talimatı 84
şaşır@@ 84
biden 84
ant@@ 84
baskısı 84
miroljub 84
tül@@ 84
çat@@ 84
lanma 84
yayınlandı 84
artarak 84
dairenin 84
grubuna 84
noktaya 84
mallarının 84
sürü@@ 84
corceviç 84
miller 84
alanlardaki 84
seviyesini 84
geleneklerini 84
tırma 84
sivillere 84
proj@@ 84
ettiğine 84
i̇lişk@@ 84
göstermektedir 84
imkan@@ 84
caviç 84
ilebilir 84
iyet@@ 84
korgeneral 84
olaydan 84
sözünü 83
sağlayacaktır 83
şartlı 83
komiser 83
yapılacağını 83
aylarca 83
priştineli 83
eşsiz 83
lidir 83
sı@@ 83
duyg@@ 83
suzluk 83
türklerinin 83
razvan 83
miyoruz 83
kentsel 83
77 83
usta 83
hayatı 83
türban 83
jer@@ 83
denli 83
nakledil@@ 83
pasaport 83
ayının 83
ılığının 83
dünyasının 83
iyeti 83
sayıla@@ 83
çalışmalara 83
foruma 83
ellerinden 83
bulunacağını 83
atılacak 83
borçlarını 83
olağan 83
aç 83
bulunmaya 83
tarak 83
hoca 83
geleceğinin 83
okullar 83
kurbanı 83
vermedi 83
kadarki 83
akrab@@ 83
generali 83
dere 83
aak 83
görüle@@ 83
foniqi 83
çeyreğinde 83
artışın 83
termik 83
bırakıl@@ 83
cesur 83
sürerken 83
merkezin 83
çatışmaların 83
sağlamanın 83
kabaşi 83
servisi 83
öncelik@@ 83
tif 83
konsorsiyum 83
ilgisini 83
meşru@@ 83
verildiği 83
belirledi 83
eser 83
adının 83
arsa 83
tarafta 83
ladılar 83
rtk 83
poor 83
tatbikat 83
bölgeler 83
cil@@ 83
firmasının 83
serbestleştirme 83
radmanoviç 83
çalışanlar 82
kuruluşlar 82
çıkmaz 82
iliğin 82
piyasası 82
tılı 82
politikasına 82
tavr@@ 82
getirmeyi 82
umuyorum 82
cumhuriyetin 82
160 82
kararından 82
yetersiz@@ 82
kaldırmaya 82
karşıt@@ 82
kaygılarını 82
eğiti@@ 82
melerde 82
suya 82
çıkarmaya 82
atıldı 82
ayrılıkçı 82
nicolas 82
bombal@@ 82
konferansın 82
mlacan 82
reddederek 82
partisini 82
iddianame 82
yorgos 82
tutma 82
res 82
yürüyüş@@ 82
yöneltilen 82
açıkladığı 82
sporcular 82
vin@@ 82
3.@@ 82
tüken@@ 82
tavsiyede 82
aylardır 82
hazar 82
ljiljana 82
ilgilendiren 82
edecekler 82
yönettiği 82
tavır@@ 82
sınırında 82
getireceğini 82
hen@@ 82
see 82
monitor 82
gun 82
ilkelerine 82
hafifle@@ 82
geçirildi 82
belirleyici 82
imiyle 82
anısına 82
larımıza 82
hayvan 82
şansının 82
sıral@@ 82
havalimanı 82
düşünülen 82
sendikası 82
+ 82
dışına 82
ulaştır@@ 82
kalitesini 82
öncelikler 82
ihaleyi 82
konularını 82
slav@@ 82
yükümlü 82
biyolojik 82
yönetimine 82
dönüm 82
feith 82
konumu 82
yası 82
sevk 82
talepleri 82
pilot 82
zannier 82
uncu 82
geçtiği 82
plaj@@ 82
tamamlama 82
em 82
yetkilileriyle 82
bitiki 81
hareketinin 81
başkanlığının 81
oylamaya 81
değiştirilmesi 81
istan 81
verileceğini 81
muhalefet@@ 81
zirvenin 81
kati@@ 81
bet@@ 81
gelirken 81
patlayıcı 81
olamaz 81
jacques 81
uzmanlara 81
şah@@ 81
vasil@@ 81
we@@ 81
arkadaşı 81
saldırıya 81
ks@@ 81
köşe 81
kur 81
martin 81
günde@@ 81
turne@@ 81
mic@@ 81
azın@@ 81
nakli 81
üyorlar 81
çıkaran 81
hakimlerin 81
oylamanın 81
sunması 81
prosedürleri 81
protestocular 81
kalanı 81
toplumuna 81
eu@@ 81
değişimi 81
şartlarından 81
biyometrik 81
düşüne@@ 81
piyasaya 81
etkileyecek 81
one 81
98 81
kararla 81
kuyru@@ 81
sürülen 81
cus@@ 81
tren@@ 81
vermeleri 81
hük@@ 81
i̇skender 81
ımına 81
helikopter@@ 81
tesisleri 81
teşhis 81
sınav 81
tecrübe@@ 81
id 81
subay 81
subayı 81
bugünkü 81
̇@@ 81
ileride 81
döneminin 81
satışa 81
abiliriz 81
karolos 81
bildirilen 81
7. 81
derviş 81
yapılandırma 81
eki@@ 81
davasının 81
gözler 81
katar 81
günümüz 81
sorguya 81
araçları 81
harcanacak 81
gittiğini 81
1. 81
liklerin 81
gribi 81
konuşlandır@@ 81
nicholas 81
şiddeti 81
kokain 81
yapıldığını 81
çalıştır@@ 80
özgürlüğ@@ 80
ayrılık@@ 80
lehinde 80
stratejisinin 80
tanıma 80
maktı 80
sürdüler 80
durdurmak 80
nesil@@ 80
güce 80
tarafa 80
tassos 80
beraberinde 80
doların 80
haftada 80
zemun 80
indiri@@ 80
akşam 80
basını 80
gide@@ 80
kulak 80
olaylarına 80
işletmelerin 80
yalanladı 80
doğum@@ 80
saldırıların 80
öfke@@ 80
sıkış@@ 80
süs@@ 80
duyurdular 80
oluşturdu 80
senaryo 80
şampiyonasında 80
arttığı 80
olanakları 80
ekonomistler 80
resi@@ 80
röportaj@@ 80
belirleyecek 80
ıysa 80
üstü 80
lamış 80
kısıtlamalar 80
yetkilerini 80
altı@@ 80
sürdüren 80
ino 80
anlaşmalarının 80
çalışacağını 80
etkiliyor 80
liderlere 80
yıkıcı 80
lüğü 80
afet 80
bileceklerini 80
sr@@ 80
hane 80
kuru 80
günümüzde 80
gözle 80
güneydeki 80
bo 80
zorlaştır@@ 80
şartlarının 80
bütçenin 80
doğusundaki 80
ilişkisi 80
holbrooke 80
rompuy 80
sandalyeli 80
tedarik@@ 80
çocuklarının 80
şeye 80
askerin 80
geçirmesi 80
yılını 80
gelmesinden 80
silahların 80
arda 80
yargıç@@ 80
alınıyor 79
bedeli 79
a1 79
söylentiler 79
sunmaya 79
yapacağız 79
üldü 79
katılımına 79
lenme 79
uygulamaları 79
nedenleri 79
dediler 79
avrup@@ 79
baba 79
insight 79
kabines@@ 79
tutuk@@ 79
saha 79
gruplarının 79
parkı 79
kampschror 79
ck 79
tüz@@ 79
kurallar 79
pahor 79
mol@@ 79
değerleri 79
kalın@@ 79
zulüm 79
lüğünü 79
ari 79
ayak 79
istismar 79
vaatlerini 79
dergisi 79
time 79
fırsatları 79
deydi 79
miz@@ 79
nis@@ 79
maç 79
mitev 79
bakanlıkları 79
tecavüz 79
buz@@ 79
imkanı 79
amaca 79
çıkmış 79
dece@@ 79
düşmesi 79
ford 79
suçlandı 79
koyma 79
ot 79
borcunu 79
ano 79
-ki 79
joviç 79
birisinin 79
olmamasına 79
etrafındaki 79
çıkış@@ 79
kente 79
tersan@@ 79
cumhurbaşkanını 79
tesini 79
kürt@@ 79
tedarik 79
diplomas@@ 79
polisine 79
malar@@ 79
tesisin 79
ere@@ 79
yargı@@ 79
haksız 79
kalmadı 79
oyunların 79
ötesine 79
dairesinden 79
rit@@ 79
sanal 79
meselesinin 79
20. 79
katkılarıyla 79
oldu@@ 79
moody 79
soğ@@ 79
sorunlarının 79
beğen@@ 79
kıdemli 79
sınırlarını 79
masındaki 79
organı 79
yönetiminde 79
ecb 79
artırması 79
ılımlı 79
dağlık 79
veli@@ 78
haklarında 78
samimi 78
yoğunlaştır@@ 78
yakalamak 78
anlaştı 78
örgütlerinin 78
karşıladılar 78
işletmeler 78
yüzyılda 78
zal@@ 78
alıların 78
kentinin 78
ailesine 78
generalin 78
vesna 78
melerle 78
konseyinin 78
konseyin 78
kalacağı 78
pra@@ 78
vurularak 78
milenkoviç 78
yecektir 78
yenilikçi 78
açıktır 78
geleceğiyle 78
konsorsiyum@@ 78
değiştirme 78
alılar 78
ılığ@@ 78
bey@@ 78
ödülüne 78
ep@@ 78
müslüman@@ 78
kraliyet 78
yasaklan@@ 78
girmeye 78
ayak@@ 78
gösterilmesi 78
sanatçı@@ 78
bulunmuş 78
yetkililerden 78
bankaları 78
sandalyelik 78
kararında 78
yatan 78
civar@@ 78
itsa 78
müttefik 78
lıların 78
vade@@ 78
lak@@ 78
hazine 78
ruhsat 78
ilg@@ 78
bünyesindeki 78
düzenlemeler 78
ves@@ 78
eleştirilerine 78
srbija 78
olmayacağı 78
sürdüreceğini 78
harcamalarını 78
işlerin 78
uçuş@@ 78
bertaraf 78
gidi@@ 78
kredinin 78
kaldırdı 78
yükseli@@ 78
papuliyas 78
gidip 78
teşvi@@ 78
rak 78
mevkidaş@@ 78
sözc@@ 78
azaltı@@ 78
bih 78
ohrid 78
ete 78
eden@@ 78
izm 78
ısıyla 78
noktaları 78
tasarının 78
sendika 78
atmak 78
bulgarlar 78
ağ 78
kanıtlar 78
yalnız 77
alacak@@ 77
muamele@@ 77
veda 77
necdet 77
talimat@@ 77
matthew 77
farklılık@@ 77
meyecektir 77
istenen 77
sözlerinin 77
çevi@@ 77
yenil@@ 77
gol 77
sö@@ 77
ilanından 77
gergin 77
operasyonda 77
bira 77
beldesi 77
kemer 77
medikçe 77
olaya 77
uyorum 77
ulmuş 77
manzar@@ 77
içinde@@ 77
tarzı 77
emrini 77
kitabın 77
kutluyor 77
bayrak@@ 77
ahlaki 77
psikolojik 77
girdiği 77
işlevsel 77
pekusiç 77
klerinin 77
ayrıntı@@ 77
başındaki 77
adaylık 77
bildirge@@ 77
açıklıyor 77
reformlarda 77
aldık 77
önerileri 77
üş@@ 77
sürecinden 77
taşıy@@ 77
paketinin 77
lukoviç 77
daireleri 77
girişiminin 77
standard@@ 77
cılarının 77
yumuş@@ 77
saray 77
baz@@ 77
ister@@ 77
meyeceğiz 77
esnek 77
temizlik 77
üstünlüğünü 77
görüşleri 77
uyarısında 77
dö@@ 77
kurti 77
yaratacak 77
korkunç 77
yanlı@@ 77
herşey 77
nes@@ 77
taşıma 77
kürtlerin 77
iği 77
toplayan 77
dinamik 77
atmosfer@@ 77
7,5 77
olympic 77
yapmıştı 77
gecikme 77
teresa 77
saatlerinde 77
sonr@@ 77
ürünler 77
uçuş 77
1,4 77
trafiği 77
kuran 77
yanda 77
yitir@@ 77
hesab@@ 77
tarihin 77
raportörü 77
tahsil@@ 77
88 77
hastane@@ 77
libyalı 77
amadığını 77
tuğu 77
endişeyi 77
pir@@ 77
medyası 77
voy@@ 77
basit@@ 77
bulgar@@ 77
eleştirenler 76
abilir@@ 76
fat@@ 76
ciddi@@ 76
etkileye@@ 76
niteliği 76
çıların 76
samarciç 76
enklav@@ 76
baskıs@@ 76
açlık 76
uzlaşmanın 76
dille 76
alışverişi 76
teröriz@@ 76
füz@@ 76
cam 76
gazı 76
artırarak 76
kâr@@ 76
girmiş 76
dili 76
açmaya 76
tura 76
kü 76
oları 76
salonu 76
moda 76
yüzme 76
novinite 76
düzenlemeyi 76
bölüm 76
açılışı 76
dökül@@ 76
berg 76
sonuçta 76
engellen@@ 76
cevap 76
ian 76
deneti@@ 76
işlen@@ 76
uzu 76
ılığından 76
sakinleri 76
sek@@ 76
zastava 76
yeme@@ 76
petkoviç 76
orkestrası 76
konsey@@ 76
ale 76
1.500 76
toplantısının 76
ulaşma 76
düşürül@@ 76
maaşlarını 76
cular 76
house 76
koşul 76
onaylandı 76
12@@ 76
limanı 76
maaşlar 76
azaldı 76
çevresel 76
fuhuş 76
ebileceği 76
inanc@@ 76
ders@@ 76
evlerini 76
grubunda 76
sürdüre@@ 76
yakalama 76
taraftarlar 76
ilerlemeler 76
çapındaki 76
sürül@@ 76
karışık@@ 76
franco 76
thaci 76
heyetine 76
uyarıyor 76
geçmişteki 76
uyruklu 76
konsorsiyumu 76
getirilecek 76
yetini 76
geçme 76
serbestçe 76
proeski 76
konuma 76
genişlemesi 76
sunuz 76
zorun@@ 76
drazen 76
olduk@@ 76
hat 76
darko 76
oc@@ 76
yükseltti 76
suçluyor 76
inizi 76
vurguluyor 76
sınırının 76
tıktan 76
sıklıkla 76
işçiler 75
sonucun 75
özgürlüğüne 75
enver 75
alina 75
kendisiyle 75
hedefe 75
sisteme 75
erin 75
sahil 75
onaylaması 75
kurula@@ 75
atör@@ 75
rumları 75
almanın 75
uygulamasını 75
şimdiyse 75
abileceğine 75
pan 75
başlattılar 75
suyu 75
tarafları 75
letonya 75
fabrikanın 75
lav 75
almadan 75
ortalarında 75
ai@@ 75
vergileri 75
ciddiye 75
planlar 75
uluk 75
yerleşim 75
yetersizliği 75
gösterilecek 75
lıklarının 75
esk@@ 75
radmila 75
engelleyen 75
tekel@@ 75
ing@@ 75
gâ@@ 75
nat@@ 75
zorluklar 75
suudi 75
kada 75
ner 75
sevilen 75
oluşturmaya 75
sevin@@ 75
uyor@@ 75
sorunlarına 75
umuyoruz 75
sınırlar 75
gerile@@ 75
10,@@ 75
lüğ@@ 75
taze 75
lip@@ 75
sesi 75
metre@@ 75
trajkov 75
i̇ttifak@@ 75
ardında 75
bildi 75
doğrulan@@ 75
şi@@ 75
toplumla 75
evine 75
nü 75
arın 75
merak 75
kasaba 75
soruşturmayı 75
cihaz@@ 75
türünün 75
konusuna 75
engellerin 75
sessiz 75
görevler 75
aşağ@@ 75
gündem@@ 75
tanıy@@ 75
kaç 75
yapmasını 75
polisle 75
kalite 75
bakıyor 75
sosyalistler 75
üncü 75
popüler@@ 75
erte@@ 75
kasıtlı 75
kaynaklandığını 75
seçime 75
süresini 75
georgievski 75
konular@@ 75
şekl@@ 75
belediyenin 75
mahrum 75
engelli 75
sanatçının 75
başlandı 75
kaydederek 75
çiftçiler 75
tutuklamalar 75
kanser 75
modeli 75
yovanoviç 75
üstünde 74
victor 74
buradan 74
acağımız 74
ilgil@@ 74
kırıklığı 74
anlaşmazlığına 74
şüphelilerin 74
zararlı 74
demokrasiye 74
gesi 74
toplamak 74
anlayış@@ 74
gündem 74
opoulos 74
vide@@ 74
dükleri 74
miras 74
kaybı 74
bütünlüğü 74
gür@@ 74
kınayan 74
mesleki 74
çin@@ 74
muhafazakar 74
lamıştı 74
sıralam@@ 74
ortaçağ 74
mindeki 74
art 74
pozitif 74
karak@@ 74
çalışmasını 74
macı 74
iliğe 74
konferans@@ 74
reformlarının 74
helsinki 74
haftalar 74
lerce 74
simgesi 74
bakanların 74
yaratan 74
isimleri 74
olaylara 74
lıyoruz 74
olanların 74
kolu 74
bütçesinden 74
azınlıklara 74
oynuyor 74
dey@@ 74
dığım 74
mayacağına 74
arnavutlara 74
uygulanmasının 74
kullanım@@ 74
reddetmesi 74
engelleme 74
değiliz 74
barındır@@ 74
birlik@@ 74
kenara 74
i̇ddi@@ 74
ilk@@ 74
vurdu 74
baj@@ 74
liklerinin 74
bakımından 74
unsurlar 74
kurallarına 74
çoğ@@ 74
kürtçe 74
list 74
görüşmelerden 74
alabil@@ 74
mafya 74
alakbar 74
seecp 74
cezasını 74
dtp 74
ditore 74
i̇nşaat 74
modernizasyon 74
gününden 74
belirtilen 74
seçeneği 74
görevl@@ 74
acılar 74
ulacağını 74
pek@@ 74
dağıl@@ 74
hiseni 74
durumuna 74
abileceklerini 74
amayacağı 74
okullarda 74
görevlilerinin 74
savcı@@ 74
insanlığa 74
sanığın 74
naz@@ 74
rolünün 74
sınırına 74
leyic@@ 74
rahat 74
lan 74
stamboliç 74
akıl@@ 74
planlıyorlar 74
dalgası 74
evinin 74
karardan 74
gana 74
belirlendi 74
bütçesine 73
şu@@ 73
seçmenleri 73
şüphesiz 73
tutumlarını 73
meme 73
pazarında 73
sürücü@@ 73
istler 73
bat 73
tör@@ 73
pakistan 73
slogan@@ 73
bildiril@@ 73
taciz 73
i̇ç 73
isteği 73
gerginliği 73
sınırlarının 73
fabrikasının 73
kg 73
5.@@ 73
tamamlayan 73
direktör@@ 73
71 73
milit@@ 73
yunan@@ 73
duktan 73
örgütlerin 73
eleştiri 73
mar 73
bulan 73
eseri 73
alınmasına 73
çalışmada 73
saygı@@ 73
izi 73
önlemlerin 73
tire@@ 73
bağımsızlığa 73
sem@@ 73
umarım 73
lehine 73
temsilcilerle 73
dışarı 73
taj@@ 73
bulunmayan 73
istikrar@@ 73
sokul@@ 73
boy@@ 73
halini 73
harcama 73
soruşturması 73
meyeceğine 73
düşüşe 73
ilik@@ 73
gergin@@ 73
laşması 73
özgürlüğünün 73
kitle 73
sorumluluk@@ 73
görevinin 73
girişimini 73
yasalarının 73
etmediğini 73
düşünülüyor 73
bileş@@ 73
kaydı 73
köyünde 73
tal 73
bölgelerdeki 73
zanlıyı 73
destekçileri 73
olduğumuzu 73
nenad 73
wolfgang 73
müslümanların 73
itibarını 73
sağlayı@@ 73
fre@@ 73
ofis@@ 73
tutar@@ 73
gerginlikler 73
başkentin 73
petrescu 73
amayan 73
güc@@ 73
lojistik 73
kampanyasının 73
antonela 73
tesinden 73
rejimine 73
verileri 73
bulunmasını 73
rafiner@@ 73
galip 73
diniz 73
bro@@ 73
sistemlerinin 73
ılık 73
mamasına 73
öv@@ 73
cami 73
ayrıcal@@ 73
pa 73
hazırlıkları 73
mücadeledeki 73
svilanoviç 73
ddy 73
tilmesi 73
dro@@ 72
garanti@@ 72
sorum@@ 72
muyor 72
anna 72
soruya 72
girişimde 72
fik@@ 72
uc@@ 72
ladin 72
kule@@ 72
umudu 72
i̇şler 72
toplantılar 72
egemenliğini 72
yürütülecek 72
kızıl 72
hareketle 72
saydı 72
saldırısı 72
kral 72
arjantin 72
kulü@@ 72
tanıtım 72
olaylarını 72
trakya 72
ıların 72
ekonomileri 72
sorunsuz 72
alek@@ 72
unhcr 72
gereke@@ 72
lıdır 72
cina@@ 72
jovan 72
bakanının 72
ürünlerinin 72
ettik 72
kolay@@ 72
arkadaşları 72
etmeli 72
mem 72
savunarak 72
mezun 72
iliğini 72
kralı 72
değerlendiriyor 72
gerekçe@@ 72
maksızın 72
işbir@@ 72
meyiz 72
üğü 72
şeyden 72
yükümlülükleri 72
kural 72
biliyorum 72
davalarının 72
yaptırımlar 72
ortalamasının 72
avro@@ 72
verildiğini 72
grafik 72
sever@@ 72
ulaşan 72
kanlı 72
ermen@@ 72
cemaat@@ 72
avantaj 72
eta 72
güncel@@ 72
ec 72
ıyorlardı 72
şeylerin 72
nehir 72
lj@@ 72
ydu 72
sorularını 72
şaibeli 72
arş@@ 72
korku 72
düşüre@@ 72
ortasına 72
düzenlemek 72
lecek 72
gates 72
önerisinin 72
değilim 72
kürtler 72
eu 72
tesinde 72
bilgilerin 72
girişimler 72
zammı 72
sürdürüle@@ 72
mezse 72
sağlayacağı 72
ilir 72
bis@@ 72
dosy@@ 72
müzakerecisi 72
geçirmeye 72
motor@@ 72
cumhuriyetinin 72
satı@@ 72
liderinin 72
filistinli 72
davalarını 72
1984 72
7.@@ 72
ızda 72
dis 72
pnl 72
acı@@ 72
ima 72
kaynakların 72
açıklanmayan 72
geleneğ@@ 72
lıklarına 72
leakey 72
kağıt 71
yaptırım 71
içinse 71
lendirdi 71
ülkesindeki 71
kavg@@ 71
olur@@ 71
etiyle 71
kadar@@ 71
liderleriyle 71
çıları 71
gelmediğini 71
kararların 71
özet@@ 71
girişime 71
oper@@ 71
kartı 71
ımda 71
görüşler 71
erini 71
azalması 71
edebilecek 71
içinden 71
yaptık@@ 71
janoviç 71
karşılaşmasında 71
toplumları 71
ide@@ 71
muhtemel 71
basının 71
uluslu 71
dakikada 71
culara 71
giderken 71
imizde 71
ızı 71
ödüllü 71
google 71
i̇zlanda 71
passy 71
stefan@@ 71
cektir 71
niteledi 71
sorgula@@ 71
sanıklar 71
yarışmada 71
maddesi 71
vermenin 71
gençleri 71
yargının 71
stratejis@@ 71
dönüşüm@@ 71
tirip 71
bilir@@ 71
görüşmeye 71
rocen 71
kolaylaştırmak 71
duyan 71
şaşırtıcı 71
temsilcilik 71
müdahalesi 71
cinayeti 71
tım 71
listenin 71
biliyorlar 71
serge 71
dy 71
bran@@ 71
ley@@ 71
iade@@ 71
kosov@@ 71
esas 71
vardılar 71
toplumdan 71
geleceğin 71
farkına 71
yorlardı 71
özgürlükler 71
seniz 71
karargah@@ 71
che 71
ceğine 71
atatürk 71
ed@@ 71
sabahı 71
saldırıda 71
endişeli 71
yaşamak 71
fail@@ 71
varlıklarını 71
ulus 71
ster@@ 71
milis 71
paylaşıyor 71
mac@@ 71
devri@@ 71
anlayış 71
bağlılığını 71
önerisine 71
olmaksızın 71
ibaret 71
i̇dare 71
birimleri 71
miliç 71
kutup@@ 71
müyor 71
erhard 71
popovski 71
dık@@ 71
açmış 71
orgeneral 71
96 71
satan 71
temsilcinin 71
çap@@ 71
ade 71
kaçmasına 71
kesimlerinde 71
heyetin 71
alım@@ 71
yarışacak 71
sağlıklı 71
mallar 71
dolaşımı 71
mirasları 71
taviz 70
zlatko 70
anu 70
genelindeki 70
hus@@ 70
güvenliğe 70
iyse 70
terek 70
kaldırılmasını 70
izin@@ 70
gazetecinin 70
tutmaya 70
tehditler 70
dek@@ 70
hatları 70
baraj@@ 70
luğ@@ 70
boğaz@@ 70
çektiği 70
sorgulan@@ 70
ordusuna 70
gjorge 70
attılar 70
restoran 70
yazan 70
politikalarının 70
bombalama 70
hane@@ 70
tehditleri 70
nedenlerinden 70
başlarına 70
geçer@@ 70
cumhurbaşkanlığına 70
4.@@ 70
tartışmaların 70
teknolojisi 70
hükümetlerinin 70
yenilik@@ 70
temsil@@ 70
seyret@@ 70
kesinti 70
işver@@ 70
tamamlandı 70
firmalarının 70
giriyor 70
verilerine 70
mamaya 70
mann 70
gerçekleştirmek 70
engellemeye 70
barışın 70
ifadesine 70
luğa 70
yken 70
üstlendi 70
başlangıc@@ 70
tasarısını 70
leştirme 70
düşüş@@ 70
tasarım@@ 70
akademis@@ 70
ediyordu 70
açıklamalar 70
ödemeye 70
sınırdışı 70
etse 70
meni 70
devletten 70
getiriliyor 70
savcılığın 70
noktal@@ 70
jen 70
şim@@ 70
düzenliyor 70
evinde 70
seller 70
vi 70
luyorlar 70
açmıştı 70
free 70
gerektir@@ 70
gittikçe 70
değişti 70
hentbol 70
muhteşem 70
koltu@@ 70
göçmenlerin 70
uyardılar 70
amayacak 70
büyümeye 70
imaj@@ 70
lehne 70
sömür@@ 70
malarıyla 70
dördün@@ 70
önerge@@ 70
ulos 70
denktaş 70
dernekleri 70
kulis 70
getirmede 70
rts 70
barack 70
rahi@@ 70
yeteri 70
halkla 70
eleştiri@@ 70
arananlar 70
görmeye 70
safhada 70
liklerine 70
başbuğ 70
geliştirmeye 70
hizmetlerini 70
belediyelerin 70
lanacak 70
hedeflenen 70
mer 70
diyorlar 70
ie 70
koşullarının 69
diktatör@@ 69
ilanının 69
komşusu 69
kazanıyor 69
askerlerini 69
sonuçlandır@@ 69
nezaretinde 69
mp@@ 69
deniyor 69
pren@@ 69
yarısından 69
boşalt@@ 69
bizans 69
i̇şleri 69
ret 69
fouere 69
savaşta 69
geçmişe 69
krizinin 69
ardındaki 69
memurunun 69
davayla 69
mamalı 69
yedinci 69
sars@@ 69
etleri 69
tutuklu 69
ilanı 69
yapılacağı 69
92 69
deney@@ 69
iğ@@ 69
online 69
fest 69
bulması 69
güvenilir@@ 69
çözümüne 69
onlarla 69
lenmesini 69
ayırdı 69
azınlığın 69
imde 69
eyalet@@ 69
şirketine 69
lescu 69
nüfuzlu 69
mamaları 69
sıralan@@ 69
kalmasına 69
tecrit 69
şansına 69
avaz 69
ihtiyaç@@ 69
kele@@ 69
gidece@@ 69
ilgilendiğini 69
170 69
zel@@ 69
mark@@ 69
alış@@ 69
muhabir@@ 69
sun 69
suçundan 69
çöküş@@ 69
işsiz@@ 69
rs 69
yumuşak 69
edilip 69
yönetil@@ 69
kayıtdışı 69
komite@@ 69
adayın 69
çoklu 69
karakol@@ 69
ambar@@ 69
ofis 69
tiklerini 69
kend@@ 69
kalitesi 69
boşnaklar 69
kıt@@ 69
bırakıp 69
iliç 69
99 69
vize@@ 69
katılacağı 69
oyunun 69
şartıyla 69
belirtmekle 69
air 69
duyuruldu 69
alg@@ 69
he 69
oto 69
alternati@@ 69
seçimlerle 69
konserler 69
kanser@@ 69
çeliş@@ 69
kazandığını 69
olacağız 69
kardeşi 69
leyici 69
inşa@@ 69
kütüphan@@ 69
vakit 69
donald 69
başlangıcı 69
kali@@ 69
tutuklanmasının 69
iflas@@ 69
zer@@ 69
sıkıntısı 69
h5n1 69
adaylığını 68
siyasilere 68
devle@@ 68
korunmasına 68
üzüntü 68
bakım@@ 68
eşitliği 68
anlaşmazlığını 68
belgelerin 68
cü 68
eroin 68
dönemden 68
gel 68
obradoviç 68
dür 68
işte 68
mel@@ 68
setlerle 68
ioc 68
97 68
prestijli 68
listeye 68
vaadinde 68
meselesini 68
ria 68
adımdır 68
blog 68
etler 68
sınırındaki 68
denetimli 68
kaybetmiş 68
dz@@ 68
american 68
çıkıp 68
gösterdiler 68
parasal 68
kun@@ 68
i̇h@@ 68
sunma 68
yapıp 68
kalmayı 68
süper 68
reformcu 68
komşuları 68
düzine 68
müziği 68
edinme 68
aydı 68
stadyum@@ 68
alarındaki 68
çağrı@@ 68
yaptık 68
enflasyonun 68
fiyatlarını 68
fak@@ 68
olgun@@ 68
çiziyor 68
koz@@ 68
atandı 68
gelme 68
key@@ 68
oynadı 68
charles 68
fikrine 68
değişikliğin 68
ortamında 68
kutlamak 68
istemediğini 68
dönmek 68
bahar@@ 68
bölgelere 68
fin 68
uygulamayı 68
tesinin 68
ruhu 68
catherine 68
başlayıp 68
hr@@ 68
sizi 68
gh@@ 68
ürünü 68
ortaklığı 68
memurlarının 68
görüşmelerine 68
yakınındaki 68
yaklaşırken 68
bildt 68
muha@@ 68
getirilmesini 68
nedeninin 68
patri@@ 68
6.@@ 68
birinc@@ 68
kozloduy 68
eide 68
gelebilir 68
uyru@@ 68
ust@@ 68
sahiplerinin 68
yollar 68
kpc 68
işçilerin 67
onayladığı 67
yapılar 67
olursak 67
paket 67
ilkeleri 67
belirtirken 67
katılmasına 67
hazırız 67
ekipleri 67
delil 67
nitele@@ 67
mayacaktır 67
medyasına 67
ajan@@ 67
başlatılmasına 67
irade@@ 67
parçal@@ 67
sahipti 67
vergiler 67
86 67
eder 67
ry 67
üsü 67
oyuncuları 67
istifaya 67
çekim@@ 67
bildirgede 67
coş@@ 67
i̇sveçli 67
riç 67
ilerletilmesi 67
şe 67
dedeağaç 67
hatt@@ 67
taşımacılığı 67
tesislerin 67
atanması 67
gelince 67
gezi 67
tamamında 67
kaygı 67
ven 67
vadisi 67
kovac 67
kararıyla 67
alman@@ 67
pavkoviç 67
getirmesini 67
hesaba 67
değil@@ 67
oluşum@@ 67
riske 67
dnevni 67
hor@@ 67
dengeli 67
görecek 67
suçlama 67
kosanoviç 67
endüstr@@ 67
biç@@ 67
ölümünden 67
meslek 67
latin 67
arın@@ 67
antren@@ 67
gayet 67
seslenen 67
odak@@ 67
küçült@@ 67
çer@@ 67
düzenlemesi 67
grupta 67
ürdün 67
zedele@@ 67
seviyesinin 67
çan@@ 67
12,@@ 67
anlaşmasında 67
çalışmayı 67
pira@@ 67
vil@@ 67
edebileceği 67
ris@@ 67
dinar 67
korunmasını 67
sayıları 67
abilecekler 67
köklü 67
benz@@ 67
evleri 67
gereksin@@ 67
i̇liç 67
adığını 67
standby 67
olmazsa 67
okuma 67
doğusunda 67
taban 67
yaşadıkları 67
liydi 67
550 67
marty 67
ste 67
getireceği 67
avrasya 67
kus@@ 67
türü 67
yabancılar 67
yalan@@ 67
gent 67
ça@@ 67
kanal 67
üretiminin 67
benze@@ 67
restor@@ 67
fiyatların 67
esir@@ 67
transilvanya 67
endişeleri 67
yarattığını 67
klere 67
zinciri 67
jen@@ 67
projelerini 67
yargıla@@ 67
maliyetleri 67
dolayında 67
hibe 67
fırtına 67
çağrı 67
albü@@ 67
davasını 67
yemin 67
güler 67
idis 67
sürdüğünü 67
terörist@@ 67
dabilis 67
pler 67
sla@@ 66
dor@@ 66
deli@@ 66
engeli 66
hiç@@ 66
alabilmek 66
imzalayan 66
önemdeki 66
87 66
ayacak 66
tahiri 66
hedefimiz 66
katılıma 66
bulunmadığı 66
personelinin 66
gözlemc@@ 66
kurallara 66
kas 66
iciç 66
hediye 66
katılımcılara 66
olaylarda 66
kanton@@ 66
rütbeli 66
koyan 66
sergileniyor 66
sir@@ 66
bildirge 66
sağlanmasına 66
iddialar 66
hüseyin 66
çıkardığı 66
bildiğini 66
larca 66
hazırlama 66
kredis@@ 66
ij@@ 66
türkçe 66
polt 66
değiştire@@ 66
olabilmesi 66
mesidir 66
sam 66
ıza 66
yavaşlat@@ 66
hazırlamak 66
kesiminin 66
anlaşmadan 66
borçları 66
vatandaşının 66
nam 66
güvencesi 66
haftası 66
baharda 66
gittiği 66
gününü 66
arkeolojik 66
baskılar 66
yatırımcı@@ 66
bedel@@ 66
atarak 66
duyuruya 66
nesil 66
ekmek 66
çalışmalarında 66
kimileri 66
düşürülmesi 66
kademe@@ 66
yenilik 66
zen@@ 66
yanın 66
kalfin 66
sosyalist@@ 66
malta 66
sonsuza 66
jel@@ 66
gı@@ 66
tiş@@ 66
etmede 66
dimitri@@ 66
milanoviç 66
tepkilere 66
alana 66
ihmal 66
ilerleye@@ 66
beklenmedik 66
çoğunluğun 66
düğünde 66
safhas@@ 66
mail 66
lilik@@ 66
materyal@@ 66
i̇nsan@@ 66
hektarlık 66
vatandaşlarını 66
edeceklerini 66
iliescu 66
danışman 66
gordon 66
belirtmiş 66
lil@@ 66
philip 66
giç 66
donanım 66
albay 66
ekipman 66
sibenik 66
yang@@ 66
cep@@ 66
ura 65
anayasada 65
rim 65
yapıların 65
düşünü@@ 65
bırakıldı 65
borislav 65
herkesi 65
tamamlanacak 65
artı 65
gelmiyor 65
rat 65
rumlarının 65
istedikleri 65
makine@@ 65
heykel 65
müttefiki 65
köpek@@ 65
yoğunlukta 65
müzakerec@@ 65
yorumları 65
ofisinden 65
maçında 65
taz@@ 65
atmış 65
aktör@@ 65
eğil@@ 65
noktasında 65
tedbirlere 65
galerisi 65
mimari 65
vla@@ 65
role 65
lukoil 65
ula 65
alınarak 65
yıp 65
diyaloğa 65
asyona 65
bosn@@ 65
ödeye@@ 65
isterken 65
geçmişin 65
bahsedil@@ 65
çısı 65
9.@@ 65
tirece@@ 65
taahhü@@ 65
bulunmakla 65
dikkatle 65
klerinden 65
sonlarına 65
ılıktan 65
artırıyor 65
müzis@@ 65
gömül@@ 65
yukarı 65
çevirdi 65
skandal 65
borsası 65
projelere 65
gezisi 65
güneyinde 65
alam@@ 65
caf@@ 65
tıracak 65
faiz@@ 65
fal@@ 65
onur@@ 65
bilmiyorum 65
gerçekleştirdiler 65
çıkmasını 65
ener@@ 65
esm 65
saldırgan@@ 65
destekleyeceğini 65
ey 65
arayış@@ 65
değişikliklere 65
ifadesinde 65
240 65
plavsiç 65
emez 65
dem 65
mot@@ 65
mühendis@@ 65
liğimiz 65
kurulmasının 65
saraybosnalı 65
açığa 65
usulsüzlük@@ 65
jin@@ 65
teknolojileri 65
8. 65
nesovski 65
6,5 65
uçağı 65
fitch 65
oranlarını 65
topluluğ@@ 65
olsaydı 65
müfre@@ 65
başkent 65
umuzu 65
hızlandıra@@ 65
tose 65
zek@@ 65
sns 65
terörizm 65
lilerin 65
sözlerle 65
troyka 65
dıracak 64
sürdürecek 64
mensubu 64
istiyor@@ 64
crvenkovski 64
eyleme 64
ülkemizin 64
zorluk@@ 64
dy@@ 64
değiştirilmiş 64
sonbahar@@ 64
davet@@ 64
otomatik 64
önerilerini 64
ice 64
yürüyüş 64
kurdular 64
kötüleş@@ 64
bas 64
andı 64
çete 64
tis 64
ob@@ 64
haftadan 64
melerden 64
inanç@@ 64
kurallarını 64
lendiği 64
öğ@@ 64
editörü 64
mazsa 64
kariy@@ 64
galibi 64
forumda 64
uzlaşmacı 64
hazırlıyor 64
fet@@ 64
çekerek 64
gerçekleştirilmesi 64
ödülleri 64
aktris 64
anayasayı 64
lilik 64
biriminin 64
1,7 64
sindir@@ 64
madık 64
fikirler 64
oluşacak 64
derek 64
adımın 64
atlar 64
sur@@ 64
veriyorlar 64
içme 64
çalışarak 64
egemen@@ 64
hizmetlerinin 64
gevşek 64
korkul@@ 64
lehte 64
sovyetler 64
üstünlüğünün 64
araçlar 64
93 64
dönmeye 64
mun@@ 64
buz 64
bağımlılığını 64
yanıtlayan 64
kamusal 64
iminin 64
müf@@ 64
yapıyoruz 64
mekti 64
ılırken 64
rijeka 64
misyonunu 64
kaldılar 64
edilirken 64
ımızdan 64
eti@@ 64
sıralamasında 64
airways 64
yoğun@@ 64
yurtdışından 64
götü@@ 64
değişikliğe 64
yaklaşımı 64
hırsız@@ 64
yapabil@@ 64
spa@@ 64
karşılayacak 64
nes 64
pula 64
uzmanlık 64
sunuluyor 64
shkullaku 64
pel@@ 64
yaptığ@@ 64
uyan@@ 64
dikil@@ 64
nor@@ 64
düşündüğünü 64
650 64
yaşadığını 64
oysa 64
otobüs 64
cristian 64
açacağı 64
karşılayarak 64
güçlerine 64
paylaşımı 64
sayı 64
örgütlü 64
ermesi 64
topluluk@@ 64
endeksinde 64
hillary 64
imzalamak 64
soykırımla 64
reel 64
taksi 64
yaşın 64
cenaze 64
nms 64
kuruluşların 63
edenler 63
işlediği 63
düzen 63
kavuştu 63
gündeminin 63
pop@@ 63
trafi@@ 63
gj@@ 63
adımların 63
yaşamlarını 63
kalacaklar 63
düzenleyerek 63
protestolar@@ 63
hukuka 63
yenlere 63
eleştiriyor 63
pozisyon@@ 63
kötü@@ 63
seviyelerde 63
vaka 63
anlaşmazlığa 63
vukceviç 63
aydın 63
kasabasındaki 63
yasa@@ 63
önleyici 63
kaynaklarına 63
çıktılar 63
istemiyoruz 63
sıkma 63
tığımız 63
topar@@ 63
tartışmanın 63
gin 63
gösterirken 63
müfettişler 63
sözlü 63
yaşandığını 63
korkuyor 63
gın@@ 63
i̇vana 63
stratejinin 63
kadınları 63
yönetilen 63
sadiku 63
traykov 63
-ve 63
büyükelçilik@@ 63
kolaylaş@@ 63
trafiğe 63
kolaylaştırma 63
dak 63
i̇ç@@ 63
açarak 63
onlardan 63
azalıyor 63
erkek@@ 63
vski 63
iddianamede 63
balkanlarda 63
ulmasını 63
kargaş@@ 63
yatıyor 63
adası 63
görmesi 63
uyarıyorlar 63
enflasyon@@ 63
durgunluk 63
kullanımının 63
komitesinin 63
tasarlanmış 63
vermeden 63
saldırıyı 63
ori@@ 63
bırakan 63
çalışmanın 63
entegrasyonunun 63
desteklemeyi 63
tüketiciler 63
bab@@ 63
hap@@ 63
endeksi 63
küç@@ 63
podgor@@ 63
kaygılar 63
hile 63
eliç 63
memnuniyeti 63
avr@@ 63
ble@@ 63
naf@@ 63
bildirgeyi 63
era 63
destekledi 63
görmezden 63
kızı 63
tartıştılar 63
kuvvetlerin 63
üyeliğinden 63
üstün 63
koymak 63
kentteki 63
chev 63
şartlarda 63
kragujevac 63
uda 63
num@@ 63
pierre 63
riskli 63
tebrik 63
ihtilafından 63
0. 63
niş 63
io 63
düm 63
kanadalı 63
hali 63
batıdaki 63
0,5 63
körükle@@ 63
arm 63
ittifak 62
egemenliği 62
teröristlerin 62
faydalı 62
kutlama 62
bağımsızlıktan 62
üyelerin 62
teme@@ 62
üreten 62
kazı@@ 62
şahıs@@ 62
loviç 62
ressam 62
kullanıldığı 62
otori@@ 62
kasının 62
davaya 62
denge 62
uefa 62
nan@@ 62
fabrikas@@ 62
ümüz 62
filminin 62
normal@@ 62
toplumda 62
budva 62
etkil@@ 62
lev@@ 62
demokratların 62
yetkisine 62
vol@@ 62
kazanmıştı 62
sanatçıların 62
amadan 62
branislav 62
lular 62
diaspor@@ 62
aşamasında 62
uzun@@ 62
anal@@ 62
gelişmesi 62
udf 62
oyuncular@@ 62
menkul 62
yatırımlarının 62
bağları 62
gerektiriyor 62
hamle 62
bildirisinde 62
reformun 62
tavrı 62
birim 62
borcunun 62
mesafe 62
elbette 62
getiri@@ 62
şala 62
yargıçlar 62
hazırlanmasına 62
osman@@ 62
mo 62
jones 62
alardaki 62
müzi@@ 62
hırvat@@ 62
riskini 62
enflasyonu 62
muştur 62
müreffeh 62
freedom 62
haftanın 62
ic 62
bö@@ 62
diş@@ 62
konvansiyon@@ 62
stan 62
tildi 62
express 62
pazarındaki 62
endeks@@ 62
zenica 62
uygulamanın 62
bölgelerindeki 62
sunmayı 62
ucu@@ 62
ihtilafın 62
ilginç 62
gelirlerinin 62
beklentileri 62
düzene 62
karşılamaya 62
karşılanması 62
gördüğ@@ 62
uçağ@@ 62
projelerinin 62
başlatılmasını 62
milutinoviç 62
müstakbel 62
iken 62
telecom 62
bol 62
ayrılacak 62
şair@@ 62
raufoğlu 62
gündemi 62
the@@ 62
verilmesine 62
fedil@@ 62
ortalam@@ 62
saldırgan 62
yüzleş@@ 62
ailelerine 62
iloviç 62
kurumlarında 62
tipi 62
securitate 62
sağlam@@ 62
askere 62
belediyede 62
rehin 62
mezar 62
gerileme 62
aleksander 62
iba@@ 62
öcalan 62
cos@@ 62
müktese@@ 62
kalmıştı 62
i̇ddianamede 62
dyukanoviç 62
mekanizma 62
şoför@@ 62
yves 62
yaşanacak 62
tartışmaları 61
kovska 61
irades@@ 61
luğunun 61
gerçeğ@@ 61
sarf@@ 61
ortam@@ 61
oyn@@ 61
çalışmasının 61
köprüsü 61
kazanmaya 61
kısıtlamaları 61
davranış 61
kiler 61
mol 61
almasının 61
fifa 61
tahminler 61
kenar@@ 61
arayan 61
kuracak 61
üğünü 61
utanç 61
ederse 61
atletizm 61
19. 61
büyükelçileri 61
yetin 61
etraf@@ 61
endi@@ 61
koleksiyon@@ 61
ena 61
ikincisi 61
miha@@ 61
protokolü 61
niyeti 61
wi@@ 61
yayınlanacak 61
almakta 61
topiç 61
portal@@ 61
isterim 61
hu 61
blago@@ 61
planlarına 61
yapımına 61
büyükelçilik 61
çekilen 61
maden 61
cinin 61
yans@@ 61
haritası 61
koruyan 61
hissedil@@ 61
gerçekte 61
attığını 61
seçeneğ@@ 61
parası 61
çabalar@@ 61
sağa 61
olmadıklarını 61
başlamadan 61
kabinesinin 61
etkiledi 61
ettikten 61
pon@@ 61
huzurunda 61
iste 61
ilan@@ 61
raf@@ 61
mandiç 61
bileceğinden 61
değerlendirmesi 61
kasaba@@ 61
açılmasına 61
keşif 61
laştırmak 61
karanlık 61
anki 61
bölünmesi 61
göçmenler 61
talebiyle 61
şüphelen@@ 61
vlatko 61
koruyacak 61
nüfuz@@ 61
kiral@@ 61
steel 61
mücadelesi 61
reş@@ 61
ilaç@@ 61
genişletme 61
nam@@ 61
gerçekleştiği 61
önlem 61
galibi@@ 61
kanıtla@@ 61
müzakerelerindeki 61
bunda 61
alanların 61
anlattı 61
pol 61
takas 61
uzunluğundaki 61
milyon@@ 61
kıyısı 61
9. 61
park@@ 61
tamamlay@@ 61
biliyor@@ 61
dairesine 61
hastanede 61
meyve 61
sürdürülebilir@@ 61
pazarın 61
gösteriliyor 61
ayrıntıları 61
takviye 61
çar@@ 61
isaf 61
madıkları 61
katılacağını 61
yoksulluğu 61
sıraladı 61
yazarlar 61
tati@@ 61
sta 61
zirvesinin 61
olum@@ 61
şarap@@ 61
saha@@ 61
ilinde 61
bölücü 61
dal 61
meli@@ 61
lendirme 61
tatlıses 61
kaygı@@ 60
kesimler 60
akla@@ 60
çıkarmayı 60
fikr@@ 60
günden 60
riskler 60
duyuyorum 60
baran 60
karşı@@ 60
imiz@@ 60
baskın@@ 60
anlardan 60
reddettiği 60
tekne@@ 60
atına 60
geçmeye 60
damg@@ 60
les 60
tina 60
göl@@ 60
artıracağını 60
tanr@@ 60
bb 60
olimpiyatlar 60
alanına 60
duyuru 60
kırılgan 60
dönüştürme 60
gençlere 60
üyesini 60
faktör 60
nehir@@ 60
şirkete 60
tenisçi 60
yaklaşıyor 60
kampanyasını 60
tol@@ 60
kazı 60
çılık 60
maddeleri 60
ilmesinde 60
yecekler 60
hükümetinde 60
bor 60
anlamıyla 60
huzuruna 60
suçladılar 60
bnn 60
çilere 60
erke@@ 60
taleski 60
nel 60
belgesi 60
karşıladığını 60
nova 60
zan 60
metin 60
korsan 60
durdurma 60
lisans 60
bül@@ 60
dersler 60
olmamız 60
alışverişinde 60
gelişmelerin 60
sü 60
koşullarını 60
örgütlere 60
yayımlanan 60
lağvedil@@ 60
bağlılık 60
batının 60
toplumlarının 60
--@@ 60
toplantısını 60
hepimizin 60
gelişmelere 60
topluluk 60
burası 60
gösterdikleri 60
yn 60
uzatma 60
yaşamın 60
bildiği 60
kurbanları 60
kaçırma 60
ürünlerin 60
gerekmektedir 60
ekolojik 60
91 60
analistlere 60
yönetim@@ 60
ayrılma 60
kta 60
göstermeleri 60
uyrukl@@ 60
siyasetçilerin 60
halihazırda 60
kı 60
borissov 60
yürütecek 60
heye@@ 60
onunla 60
çekmeyi 60
suçlayan 60
keşfedil@@ 60
döv@@ 60
şehr@@ 60
konseri 60
reddettiler 60
zorluk 60
onayına 60
kalı 60
maaşlarına 60
farklılıkları 60
dokunulmazlık 60
böylesi 60
orduya 60
laboratuvar@@ 60
kaygıları 60
iyor@@ 60
hır@@ 60
dicarlo 60
kaldıra@@ 60
tahminlere 60
düzenledikleri 60
sul@@ 60
silahları 60
kaza 60
köprünün 60
media 60
ant 60
jansa 60
sarf 60
işletmeleri 60
sosyalistlerin 60
suçlular 60
venizelos 60
sağlayabilir 60
akış@@ 60
joachim 60
çağırıyorum 60
bet 60
domuz 60
antalya 60
komün@@ 60
limaj 60
becerilerini 59
protestolara 59
işbirlik@@ 59
anlaşmazlığın 59
siyon 59
dayız 59
hit 59
sahibiz 59
yaklaştır@@ 59
soruşturmada 59
hareketini 59
norm@@ 59
hur@@ 59
ülkesiyle 59
irish 59
havaya 59
başkanlarının 59
hazırlıklı 59
niyetinde 59
alışkan@@ 59
yarısını 59
arka 59
mos@@ 59
fer 59
şer@@ 59
yaptıklarını 59
cay@@ 59
yağmur@@ 59
çu@@ 59
yaptığımız 59
tip@@ 59
müzik@@ 59
kadare 59
getirilmesine 59
gerçekleştiğini 59
sorular 59
girmesini 59
genişletilmesi 59
vlasiç 59
siyasetin 59
blog@@ 59
mallarını 59
koridoru 59
manastırı 59
bağımsızlığın 59
vermekte 59
romano 59
79 59
şunu 59
belirleyen 59
gerçekleri 59
reformunu 59
başarıya 59
olacağından 59
macılar 59
yapmaktan 59
oranıyla 59
may 59
ileş@@ 59
adığı 59
yansı@@ 59
kongre@@ 59
birincilik 59
bayrak 59
gisine 59
damgasını 59
ildiğini 59
fiyatlarına 59
topalli 59
duğuna 59
bugünlerde 59
tümgeneral 59
krist@@ 59
görevinde 59
ıl 59
yeter@@ 59
eleştiriler 59
sivil@@ 59
müzakere@@ 59
masum 59
imine 59
sözleşmenin 59
açtılar 59
alabilir 59
hızı 59
ekonomilerinin 59
lerdir 59
konaklama 59
kimliğini 59
geçiriyor 59
suçlarının 59
sicil@@ 59
5,5 59
tanın 59
patten 59
trend@@ 59
tes 59
tetovo 59
ihalesini 59
ödülün 59
başarısını 59
mahke@@ 59
jik 59
projeyle 59
ideal 59
uzaklaş@@ 59
gelişinden 59
slovak 59
medyasında 59
seçenek@@ 59
mirasının 59
güçlüklerle 59
sezon 59
sistematik 59
i̇y@@ 59
yarışmaya 59
muhammed 59
vek@@ 59
avukatlar 59
vaat 59
21. 59
bil 59
santralin 59
şehri 59
adaya 59
bale 59
çıkarken 59
evin 59
ödeyecek 59
gelişen 59
emekliler 59
karşılanacak 59
set@@ 59
mess 59
ığı 59
memnuniyet@@ 59
ifşa 59
resim@@ 59
i̇sa 59
gerçekleşmesini 59
arabulucu 59
clark 59
derinleş@@ 58
mahkemelerde 58
kadan 58
yapmanın 58
kalırken 58
çoğunluğa 58
değerler 58
sözleşmesi 58
pahasına 58
daş@@ 58
bulunduğumuz 58
jandrokoviç 58
görüşmesinde 58
akti@@ 58
edileceği 58
istlerin 58
tey@@ 58
inisiy@@ 58
amaçlar 58
asa 58
çare 58
başlı@@ 58
sına 58
ılmaz 58
maddelik 58
gelebilecek 58
yunanlıların 58
anketine 58
miktarlarda 58
zaf@@ 58
cak 58
köş@@ 58
don 58
yanındaki 58
dönüştü 58
mese 58
ımının 58
ajans@@ 58
muş@@ 58
hil@@ 58
kural@@ 58
kayd@@ 58
city 58
ortal@@ 58
kalıntıları 58
yanıtı 58
esas@@ 58
ayrımcılığa 58
yarış 58
zarko 58
izol@@ 58
cm 58
kovuşturma 58
kazanırken 58
8.@@ 58
verenler 58
beyin 58
misko 58
beklenirken 58
imzalaması 58
sürtüş@@ 58
jov@@ 58
duğunda 58
borçlu 58
söyleşide 58
çerçevesi 58
eur@@ 58
suikastı 58
miodrag 58
besa 58
sınırların 58
hitap 58
fuele 58
başladığında 58
çalın@@ 58
kısıtlı 58
maaşlarının 58
rekabeti 58
sektördeki 58
olanları 58
işley@@ 58
tamamlaması 58
başlamaya 58
kredilerin 58
jociç 58
restore 58
i̇li@@ 58
öngör@@ 58
yuv@@ 58
asayiş 58
bağıml@@ 58
yeş@@ 58
farkı 58
jonilda 58
meş@@ 58
mari@@ 58
kapattı 58
gayrı@@ 58
yönetimiyle 58
yerlere 58
leştirmek 58
vermediğini 58
laşmış 58
kayda 58
suçlara 58
şüphesiyle 58
yenile@@ 58
kıyısında 58
geliyorlar 58
tamamının 58
devir@@ 58
anahtarı 58
barajını 58
seks 58
los 58
tedbirlerine 58
dergisinin 58
kentlerinde 58
artmasını 58
kısmi 58
sırplarla 58
çekici 58
düzenlemeleri 58
liğindeki 58
sponsorluğunda 58
tedbiri 58
haberdar 58
gencin 58
olog 58
gracanica 58
ico 58
farklılıklar 58
bilmeleri 58
ket 58
zorunl@@ 58
başsavc@@ 58
katılmaları 58
dükten 58
mediğine 58
ölen 58
koalisyona 58
kaçağın 58
1,1 58
belirlediği 58
üretilen 58
ptk 58
görülmesi 58
dokun@@ 58
performansını 58
yalılar 58
dönemdeki 58
örgütüne 58
rumsfeld 58
kaderini 57
değiştirdi 57
mutlak 57
nen@@ 57
adalet@@ 57
görüşlere 57
savaşa 57
etmelerine 57
doğrula@@ 57
üzüntüyü 57
kılav@@ 57
ticar@@ 57
edilerek 57
demokrasiyi 57
oylamayı 57
güne 57
mediler 57
manız 57
binaların 57
sağlamaları 57
budur 57
tesine 57
kapatmak 57
hasan 57
athan@@ 57
militan 57
aca 57
çağrılarına 57
ayı@@ 57
serg@@ 57
başkanını 57
uzlaşmayı 57
turnuvası 57
eserler 57
gelmektedir 57
imzalayarak 57
isimlerinden 57
ah 57
üme 57
sokaklara 57
ija 57
hakar@@ 57
atık@@ 57
imzala@@ 57
mirasını 57
venedik 57
madılar 57
memesini 57
tutuklanıp 57
memeleri 57
abilen 57
ithalatı 57
pazarlarına 57
kısıtlama 57
düşük@@ 57
kurumlarıyla 57
sezonu 57
dans@@ 57
gitmeye 57
bill 57
sözleriyle 57
hakkının 57
yelpaz@@ 57
sın 57
yöneten 57
imzalanacak 57
yaşa@@ 57
başarılar 57
oluşturulan 57
kurbanlar 57
insanlarla 57
geniş@@ 57
lüğünün 57
miras@@ 57
3,3 57
sorumluluklarını 57
koci 57
apart@@ 57
çöker@@ 57
amiral 57
ilkokul@@ 57
açabileceği 57
seyrediyor 57
leşmenin 57
ardı 57
anlaşmazlıkların 57
atılım 57
mihai 57
dönüştürül@@ 57
katma 57
muaf 57
ard@@ 57
mam 57
pliva 57
akşamı 57
dönüşleri 57
gereğinin 57
barbu 57
görüşmelerini 57
indirim 57
i̇şlet@@ 57
siber 57
çocuğunun 57
gerektiğinin 57
zev@@ 57
usunda 57
üstlendiği 57
1970 57
rip 57
taslağını 57
qu@@ 57
taraftarları 57
besle@@ 57
yah@@ 57
corporation 57
kullanmayı 57
anayasasına 57
hediye@@ 57
yakınlaş@@ 57
dolar@@ 57
çavuşesku 57
ılmaya 57
dünyas@@ 57
limay 57
diyoruz 57
önyarg@@ 57
güçlük 57
maf@@ 57
varşova 57
teftiş 57
toprakları 57
nic@@ 57
karac@@ 57
tümünü 57
ğu 57
etmediği 57
öyk@@ 57
sahada 57
papademos 57
hiçbirinin 57
sektörlerinde 57
1500 57
devletlerin 57
şahin 57
ağaç 57
devir 57
şef@@ 57
klinik 57
gerginliğin 56
reh@@ 56
ilkelerini 56
cumhurbaşkanına 56
prosedür 56
oğl@@ 56
imizden 56
ılabileceğini 56
çalışmakla 56
oynadığını 56
medeniyet@@ 56
spekülasyon@@ 56
istan@@ 56
gerçekleştire@@ 56
koordin@@ 56
scotsman 56
güvenin 56
vizyon 56
kart 56
gözlerini 56
edilmemesi 56
bulgular 56
zede@@ 56
maliyet 56
bütçeye 56
güreş@@ 56
sl@@ 56
i̇slam@@ 56
ürünlerini 56
açıklamaları 56
organizatör@@ 56
istediler 56
aması 56
graf@@ 56
kadını 56
yürütülüyor 56
parçaları 56
organizasyon@@ 56
gördükleri 56
seçmenlere 56
başlamasının 56
sigortası 56
yıldönümünde 56
tesisler 56
ileriye 56
eylemlerinin 56
okur@@ 56
eyle@@ 56
yeceklerini 56
otoyolun 56
are@@ 56
teye 56
bırakma 56
ıtı@@ 56
şüpheliler 56
ilerlemesinin 56
politikas@@ 56
suçluları 56
ödemesi 56
liliğini 56
yarışında 56
veles 56
ümün 56
serbestleştir@@ 56
tının 56
iktidarı 56
tutarlı 56
demokratikleşme 56
semin@@ 56
baskının 56
tica 56
platform 56
imzalanmasının 56
oturumunda 56
otuz 56
altyapının 56
birbiri@@ 56
istismar@@ 56
küre@@ 56
ligi 56
soruşturmaya 56
arabistan 56
kaynaklarından 56
kurması 56
çıkarıyor 56
anlay@@ 56
ilişkili 56
kendisinden 56
elere 56
kalkınmayı 56
sahil@@ 56
yaratılması 56
geçirilmesini 56
hasara 56
arazi 56
laştırılması 56
canlandırmak 56
bac@@ 56
metrekarelik 56
varlığına 56
rafa 56
ücreti 56
ilemez 56
ens 56
gözüyle 56
soruşturmalar 56
hakemlik 56
who 56
moldov@@ 56
kiril 56
lokomo@@ 56
birleştirilmesi 56
tedav@@ 56
oteller 56
andrija 56
petro@@ 56
kriterler 56
muaf@@ 56
kobi̇ 56
maddenin 56
ender 56
keti 56
ağında 56
mode@@ 56
yüze 56
varna 56
barikat@@ 56
göstere@@ 56
per 56
filmiyle 56
hıristi@@ 56
efsanevi 56
başlatıla@@ 56
edebilmek 56
halktan 56
görüşmelerinde 56
sektöre 56
rescu 56
altyapısını 56
dolandırıcılık 56
göze@@ 56
mesle@@ 56
liderlerinden 56
merkezini 56
altyapısı 56
çoğun@@ 56
gisinin 56
yayı 56
işçilere 56
atanan 56
daysa 56
yarıya 56
açıklayan 56
eğilim 56
colin 56
kristina 56
cuk 56
sebep@@ 56
piyasaları 56
mitreva 56
sigar@@ 56
daci 56
turunda 56
okuy@@ 56
pazarda 56
zbogar 56
nokia 56
schook 56
indi 55
doğudaki 55
yöntemleri 55
lüğüne 55
desteğe 55
asi 55
sayın 55
ismini 55
farkın@@ 55
larak 55
atama 55
anlatan 55
eylemlerine 55
hallet@@ 55
önlemeye 55
lüsü 55
oranın 55
tanıklık 55
eşitlik 55
vaatleri 55
kaçakçılığının 55
sırb@@ 55
zayıflat@@ 55
yürüte@@ 55
katlan@@ 55
gönül@@ 55
geçin@@ 55
evler 55
ombuds@@ 55
faaliyetlerde 55
osetya 55
milletler 55
kouchner 55
kentinden 55
mile 55
siyasetten 55
katil@@ 55
sponsor@@ 55
iptal@@ 55
düklerini 55
etkinlikleri 55
kısım 55
parlamentoyu 55
ımdan 55
niteliğinde 55
yaşları 55
stoy@@ 55
usulsüzlük 55
gerektiğinde 55
mahal@@ 55
metrajlı 55
velchev 55
başlı 55
tanja 55
tanımlanan 55
feci 55
po 55
tanıtmak 55
çıkıyorlar 55
shantek 55
luğuna 55
lisans@@ 55
telif 55
duyurduğu 55
tanık@@ 55
kandiç 55
dönme 55
ziç 55
anayas@@ 55
sibiu 55
haftasonu 55
ayrılmaz 55
kanı 55
hastanesi 55
döviz@@ 55
kalem@@ 55
yetenek@@ 55
oynamaya 55
birinden 55
taslağı 55
hayatlarını 55
iyiye 55
meclisten 55
dayandığını 55
karas@@ 55
3,2 55
amadılar 55
temin@@ 55
yöntem 55
komplek@@ 55
barındıran 55
soruyor 55
tedbirlerinin 55
aşan 55
www.@@ 55
alışver@@ 55
komutanlığı 55
politikasında 55
komitesine 55
ihtiyaçlarına 55
anlaşmazlığının 55
yeceğiz 55
geriledi 55
tis@@ 55
ailelerin 55
çoğunda 55
müş@@ 55
entegrasyonunu 55
adılar 55
sıkça 55
meto@@ 55
yaratmaya 55
yin@@ 55
yönün@@ 55
toplay@@ 55
sınırını 55
mobile 55
zukorliç 55
diyalogu 55
müttefikleri 55
recek 55
olduğun@@ 55
lerimize 55
kendimizi 55
nereye 55
çekmesi 55
önerinin 55
düzenlemenin 55
jev@@ 55
lılık 55
zamanlı 55
düzeyi 55
imzal@@ 55
doğa 55
koç 55
hari 55
cerra@@ 55
azami 55
atom 55
landırma 55
ilerletmeye 55
gördük 55
başarıs@@ 55
öf@@ 55
durdu 55
kuvvetlerine 55
oradaki 55
taksi@@ 55
vlahoviç 55
kumanovo 55
çağrıları 55
usuna 55
imleri 55
enleri 55
kazanmış 55
çözümünde 55
zanlısının 55
denetim@@ 55
disiplin@@ 55
işlemleri 55
yasaklayan 55
birbirlerini 55
parlamentos@@ 55
bulduğunu 55
biçimi 55
etkiler 55
ly 55
dediği 55
koşu@@ 55
kaçan 54
kod 54
memesine 54
genişletil@@ 54
hızlandırması 54
yetkililerinden 54
almasından 54
tarafça 54
planladıklarını 54
laz@@ 54
ette 54
sonuncusu 54
gazze 54
vis@@ 54
niş@@ 54
ceph@@ 54
global 54
çalışacağız 54
olasılıkları 54
usul@@ 54
kle@@ 54
biliniyor 54
önün@@ 54
yaşamış 54
tarafındaki 54
kopar@@ 54
anti 54
yenilg@@ 54
ela 54
olaylardan 54
işletmelere 54
ff 54
jana 54
gazetenin 54
oya 54
jimnastik 54
voleybol 54
2,3 54
lit@@ 54
kararlaştırılan 54
geçmesini 54
sürenin 54
lju@@ 54
con@@ 54
getirmeleri 54
fas 54
rolüne 54
hazırlayan 54
ilgilenen 54
petroleum 54
kusur@@ 54
değerlendiriyorsunuz 54
krediyle 54
ipa 54
i̇nsani 54
tanımaya 54
kredileri 54
sahiplerine 54
ulan@@ 54
günter 54
yerler 54
sorunlarıyla 54
ulaşmasını 54
tamamlanmış 54
görüşül@@ 54
tutarındaki 54
rej@@ 54
col@@ 54
fiyatlarında 54
aşır@@ 54
vatandaşlığı 54
alarm 54
yönetime 54
katılmış 54
tekrarlan@@ 54
ateşkes 54
indeydi 54
tanıyor 54
öğleden 54
alet 54
skandalı 54
düştüğünü 54
araştırmacılar 54
eylemlerin 54
olacağ@@ 54
mladenov 54
mayacaklarını 54
kalabilir 54
yavaşla@@ 54
mit 54
sahneye 54
medik 54
artarken 54
kullanmakla 54
batısında 54
canlan@@ 54
faktörler 54
değerlendiriliyor 54
kurumunun 54
jankulovska 54
tiren 54
telefonla 54
andan 54
rotası 54
mas 54
imtiyaz@@ 54
güz@@ 54
düzenleyecek 54
tıkan@@ 54
savunu@@ 54
3,6 54
ps 54
matiç 54
lili@@ 54
soruyu 54
riskine 54
izlediği 54
adada 54
sivillerin 54
yakalandı 54
şahısların 54
kli@@ 54
zamm@@ 54
ödemeyi 54
kaydedildiğini 54
sohbet 54
zdravko 54
sıradaki 54
uluslar 54
katkılarından 54
kendi@@ 54
kazanmasına 54
tazele@@ 54
heykeli 54
rt@@ 54
menler 54
bazı@@ 54
birlikleri 54
itenin 54
kutladılar 54
yoldaki 54
merci@@ 54
aldıklarını 54
bizlere 54
meyeceklerini 54
kurulun 54
kaynaklan@@ 54
abart@@ 54
disiplin 54
kalkınması 54
yoğ@@ 54
infaz 54
pazara 54
pd 54
verimlilik 53
özelleştirmenin 53
unsurların 53
dönmesi 53
ciya 53
elimizde 53
bilinc@@ 53
madıkça 53
onaylama 53
şüphelinin 53
tıyla 53
ate 53
gemisi 53
bürokratik 53
izlenmesi 53
yanısıra 53
tony 53
pur@@ 53
ımla 53
şikayette 53
kullanması 53
damir 53
yesinde 53
bayrağını 53
cılarından 53
dostu 53
gelirler 53
organizatörler 53
business 53
kti 53
vat@@ 53
balkanların 53
filmde 53
josip 53
çocuğa 53
haysi@@ 53
birincisi 53
hassasi@@ 53
süresince 53
dat 53
aşkın 53
toplandılar 53
beraber@@ 53
umutlar 53
uğrayan 53
sitesine 53
hektar 53
etmiştir 53
doğr@@ 53
istihdamı 53
teklifini 53
makamlara 53
düzenleyici 53
teknolojis@@ 53
isteğiyle 53
isteksiz 53
dimitar 53
başbakana 53
marian 53
dru@@ 53
reformunda 53
durgun@@ 53
alacaklar 53
çözümlen@@ 53
hazırlandı 53
oluşturacak 53
nazi 53
tüketicilerin 53
up@@ 53
ai̇hm 53
katliamının 53
ileştir@@ 53
jandar@@ 53
verimsiz 53
hissediyor 53
i̇nsanların 53
birliğinden 53
karşıt 53
biridir 53
kapıları 53
tüsü 53
fos@@ 53
getirip 53
filarmoni 53
fırtın@@ 53
rudoviç 53
olu 53
ola 53
ağaç@@ 53
barışçıl 53
yanlara 53
uzmanlarının 53
bölgelerine 53
çatısı 53
450 53
gönderdiğini 53
üretken@@ 53
zadar 53
olmas@@ 53
istifası 53
verebilir 53
politikanın 53
karşılamada 53
diyalogun 53
ansa 53
yapıyordu 53
işlerine 53
ihtiyac@@ 53
umutlarına 53
adır 53
izleyecek 53
kılıyor 53
haç 53
rer 53
temizle@@ 53
havaalanının 53
herman 53
yakınlardaki 53
kanat@@ 53
seçenekler 53
sıç@@ 53
ayaklanmalar 53
tanıdı 53
algıla@@ 53
zu@@ 53
cyprus 53
prote@@ 53
tereddüt 53
gelmeye 53
refahı 53
duruşmada 53
kesinleş@@ 53
lukla 53
leştirilmesi 53
hazırlanmıştır 53
çalıştıklarını 53
m.ö. 53
larım 53
ücretler 53
2,2 53
milyona 53
turizmin 53
yürütü@@ 53
suikasta 53
meblağ 53
işgücü 53
sayfa 53
süreceğini 53
kale@@ 53
nez@@ 53
downer 53
malzeme 53
joseph 53
madıklarını 53
13,@@ 53
tutuklandığını 53
organları 53
acağının 53
perakendec@@ 53
mus@@ 53
sof@@ 53
tüğünü 53
tutuklanmasını 53
atlet@@ 53
unutul@@ 53
üssü 53
turistlere 53
sam@@ 53
sky 53
görülmeye 53
arhin 53
uzay 53
sayımının 53
ff@@ 53
açılışında 53
altından 52
şahıslar 52
verimlili@@ 52
acele@@ 52
ron@@ 52
eksikliğinin 52
çarptırıldı 52
işleyişini 52
haklara 52
kaldırıldı 52
cezalarını 52
konulardaki 52
imler 52
hepsinin 52
ıc@@ 52
gelişimine 52
mallara 52
planlayan 52
karşıl@@ 52
lam 52
yokla@@ 52
ımlı 52
çıkmaz@@ 52
istatistiklere 52
saatten 52
göndermeyi 52
bernard 52
kaydettiler 52
kore@@ 52
askerinin 52
komple@@ 52
ateşe 52
olasılığına 52
görünüm@@ 52
şat@@ 52
bizden 52
okum@@ 52
galerisinde 52
parlamentosunda 52
ilişkilerine 52
i̇sviçreli 52
ef 52
canlandırma 52
radyo@@ 52
depolama 52
üstlenecek 52
bırakarak 52
yolculuğ@@ 52
ertelendi 52
ertelenmesi 52
ekoloji 52
amayız 52
tazmin@@ 52
imzalanmasından 52
yuvarlak 52
olanaklarını 52
süreciyle 52
nok@@ 52
hisselerinin 52
açıklamasını 52
başlatmayı 52
kolaylaştıracak 52
sas 52
kesimin 52
demokratik@@ 52
ayıran 52
borcun 52
yazın 52
yasını 52
sürü 52
ekibin 52
liderlerine 52
arifesinde 52
visegrad 52
düşünüyorlar 52
dıklarına 52
göstermiş 52
topluluğun 52
çoğul@@ 52
oranlarının 52
anders 52
gündemine 52
dönüyor 52
çalışmasına 52
uygunsuz 52
rezer@@ 52
protest@@ 52
görünmüyor 52
açarken 52
amacımız 52
dönemindeki 52
aniden 52
dikkatini 52
klin@@ 52
endişelere 52
tutulması 52
annesi 52
seçimin 52
etken@@ 52
gelişimini 52
belirtmişti 52
seçmenin 52
danışmanlarından 52
tabanlı 52
eurostat 52
dayanılarak 52
dile@@ 52
ettiğimiz 52
olmadığının 52
uygulay@@ 52
akın@@ 52
osijek 52
senar@@ 52
mustaf@@ 52
yetkililerini 52
mezun@@ 52
suriyeli 52
ranko 52
dick 52
donanımı 52
kurşun 52
leriniz 52
hazırlıklar 52
oş@@ 52
750 52
sistemde 52
hemşire 52
melerinden 52
kriterlerine 52
siyah 52
rolüyle 52
profesör@@ 52
keli@@ 52
dönemini 52
spe@@ 52
elena 52
eğlen@@ 52
kampında 52
adamın 52
sıralamada 52
gitme 52
ment@@ 52
tahsil 52
kuruluşundan 52
ekonomisinde 52
busek 52
so 52
yönlendir@@ 52
kablosuz 52
acente@@ 52
gensoru 52
daviniç 52
denis 52
üreticileri 52
santralleri 52
tutuluyor 52
bırakılması 52
sağlamasını 52
alp 52
kutlamalar 52
i̇van@@ 52
evn 52
malî 52
altyapısının 52
güçlükleri 52
kipriyanu 52
marin 52
ıklı 52
bors@@ 52
europol 52
jos@@ 52
kalkan@@ 52
numar@@ 52
okulların 52
star 52
sağlamada 52
incelemeye 51
almıyor 51
kurumlarından 51
umuzun 51
bulunuyoruz 51
dokuzuncu 51
tartışıl@@ 51
patlayı@@ 51
tuz@@ 51
idaresinin 51
plak@@ 51
aktiv@@ 51
gurur@@ 51
liderliğinde 51
duğumuz 51
olmayacaktır 51
devamında 51
büyüyor 51
romenler 51
bazılarını 51
demektir 51
yüzücü 51
çatışmalarda 51
yetkisini 51
çabalarından 51
gas 51
vermeyeceğini 51
fan@@ 51
alınacağını 51
tutuklayıp 51
lendiriyor 51
hazine@@ 51
eserlerinin 51
duyurusunda 51
imzalanmasını 51
hellenic 51
çetesi 51
mensupları 51
taşımac@@ 51
zorlaş@@ 51
ple@@ 51
işçileri 51
boşnak@@ 51
azınlığı 51
güçlendirmeye 51
sreten 51
yerlerini 51
veritaban@@ 51
curoviç 51
güçlük@@ 51
ekonomi@@ 51
kaydediyor 51
bulduğu 51
diktatör 51
ulu 51
sos 51
kai 51
acele 51
srebrenitsa 51
deleg@@ 51
analizi 51
memurlar 51
ölen@@ 51
lıydı 51
sar 51
dönemlerde 51
istendi 51
korumanın 51
satışları 51
alkalay 51
sunarak 51
siyasetç@@ 51
korkuyorlar 51
evlerinden 51
baştan 51
berab@@ 51
yaratacağı 51
yapının 51
kentlerde 51
söylenti@@ 51
tören 51
piyade 51
btv 51
yatı 51
scepanoviç 51
pomp@@ 51
memnunum 51
adlandır@@ 51
tezah@@ 51
bağdat 51
sinyallerini 51
harekatı 51
soğuk@@ 51
bölünmüş@@ 51
görmeyi 51
diş 51
imtiyaz 51
tahran 51
konuyor 51
uğraşan 51
ödemeleri 51
düz@@ 51
zo@@ 51
mühendisliği 51
lulzim 51
anlaşmalarını 51
tük@@ 51
zorunluluğu 51
seri 51
tile@@ 51
dakik@@ 51
enerjis@@ 51
şehrin 51
kazakistan 51
formül@@ 51
trablus 51
ortamın 51
fikrinin 51
destekten 51
sariç 51
üğ@@ 51
oslo 51
tesli@@ 51
cezbet@@ 51
th 51
maaşı 51
söyleyebilirim 51
konulardan 51
map 51
yapısını 51
ekonomide 51
simgele@@ 51
akıl 51
hatırlat@@ 51
bakanlıklar 51
mektu@@ 51
eg@@ 51
pres@@ 51
ilerletmenin 51
radyosuna 51
ılma 51
akşam@@ 51
şük@@ 51
geçirmeyi 51
çöze@@ 51
umutlarının 51
düzeydeki 51
emr@@ 51
avukatları 51
bırakıyor 51
anlaşmasıyla 51
engellerle 51
mhp 51
1,8 51
deklar@@ 51
acaklarına 51
önlen@@ 51
fuara 51
ser 51
usulsüzlükler 51
bolu 51
suçlarında 51
yüzyıla 51
imzalama 51
üs 51
hrant 51
açıklık 51
selimi 51
alkol@@ 51
özkök 51
yapay 51
güzellik 51
bancroft 51
ischinger 51
yakup 50
hem@@ 50
amamış 50
hatırlattı 50
tanıması 50
düzenlemeye 50
reddedildi 50
eylemin 50
koyduğunu 50
protestocu 50
imzalamış 50
10. 50
konseye 50
şemsi@@ 50
eşy@@ 50
cad@@ 50
verim@@ 50
vakası 50
samir 50
kou@@ 50
nişan@@ 50
etin 50
89 50
büy@@ 50
viktor 50
semp@@ 50
mamıza 50
sinyal 50
mladjan 50
oynayacak 50
krstiç 50
sever 50
kullanıldı 50
rüzgar@@ 50
eserlerin 50
tapın@@ 50
eklen@@ 50
hizmetlerin 50
makamlarıyla 50
faaliyetlere 50
beklemeye 50
amaçları 50
malılar 50
modernizasyon@@ 50
lıklardan 50
toplantıları 50
ayrım@@ 50
getirmesine 50
bulunup 50
başkentinin 50
durumlar 50
engelledi 50
cül@@ 50
güçlendi@@ 50
dilinde 50
kullandığını 50
14,@@ 50
sik@@ 50
lerek 50
ck@@ 50
yönetmen@@ 50
bağlıyor 50
kaybettiğini 50
çalıştıkları 50
seyahat@@ 50
pod@@ 50
yür@@ 50
kapanış 50
sorumlulukları 50
gittiler 50
vakıf@@ 50
çeş@@ 50
gruplara 50
senaryo@@ 50
provokas@@ 50
ziy@@ 50
vurgulayarak 50
duliç 50
harcamalarının 50
erkeklerin 50
anım@@ 50
anketin 50
kabulü 50
kökünü 50
zıt 50
ite@@ 50
civarındaki 50
sahnesinde 50
etken 50
denin 50
bı@@ 50
çıkan@@ 50
beklediklerini 50
işgal@@ 50
etmeden 50
luksiç 50
kamyon 50
talebin 50
kullanıcı 50
yurt 50
güvensizlik 50
ameli@@ 50
hava@@ 50
verilerin 50
beklentiler 50
protokol 50
görüldüğünü 50
yöntemi 50
kitapları 50
söylenen 50
krizini 50
hissesinin 50
düştüğü 50
imzalamayı 50
bakanlığında 50
hepsinden 50
karşılaması 50
olasılık 50
raz@@ 50
sipar@@ 50
alışveriş@@ 50
tahminlerine 50
ayarak 50
gsm 50
unsurları 50
doktora 50
generaller 50
ölçü@@ 50
aklan@@ 50
maliyetinin 50
com@@ 50
kıyı@@ 50
tari@@ 50
öngörüldüğü 50
kurmuş 50
hastaneye 50
çiftç@@ 50
öldürülmesiyle 50
rekabete 50
verimliliği 50
dayak 50
karargâhı 50
metohija 50
uluğ@@ 50
kesimleri 50
iradeye 50
gide 50
uya 50
isa 50
.net 50
yaktı 50
şehit 50
olmalarını 50
onayını 50
kurumlardan 50
piy@@ 50
edebi@@ 50
fuar 50
yas 50
suçlarını 50
politikaların 50
kesintiler 50
efsanesi 50
matik 50
adındaki 50
bankas@@ 50
yükse@@ 50
felake@@ 50
janez 50
militan@@ 50
sistemindeki 50
gemis@@ 50
başkanlığından 50
şebe@@ 50
rekabet@@ 50
tablo@@ 50
teor@@ 50
diya 50
cd 50
ezya 50
öldürülmesinin 50
tahvil 50
remikoviç 50
olduktan 50
2,9 50
nar@@ 50
bh@@ 50
kısm@@ 50
becerileri 50
gri 50
katıldığını 50
prosedürü 50
bilirdi 50
ayları 50
temeli 50
imzalanmış 50
tarafını 50
yaralandığı 50
ecz@@ 50
anıt@@ 50
likidi@@ 50
15. 50
prosper 50
harcamalar 49
fes@@ 49
28. 49
destekçisi 49
gelişim@@ 49
artacak 49
miye 49
verecektir 49
belçikalı 49
brifin@@ 49
öncülük 49
hafiflet@@ 49
platformu 49
kurtarmak 49
meydan@@ 49
memelidir 49
yarışan 49
müzesinde 49
hattına 49
saldırılara 49
than@@ 49
bazılarına 49
stadyumu 49
maçın 49
milen@@ 49
memleketi 49
konuşmasını 49
tanımlayan 49
getirmenin 49
tasarım 49
adeta 49
sonuçsuz 49
topu 49
verdiklerini 49
ölümünün 49
aradan 49
kapısında 49
şarkıs@@ 49
bilgilendirme 49
cularından 49
lilere 49
barik@@ 49
inşasının 49
işinin 49
objek@@ 49
hükümeti@@ 49
siyonu 49
vir@@ 49
çıkarılmasını 49
kutlamaları 49
bağışta 49
öneriyor 49
okulun 49
tamamlanmasını 49
odihr 49
ofisinin 49
vurul@@ 49
kazançlı 49
faaliyetlerinde 49
kuru@@ 49
yayım@@ 49
suçlamalarla 49
kararsız 49
umuza 49
aşı 49
olduklarına 49
adis 49
ettik@@ 49
yükünü 49
kanundan 49
mec@@ 49
düşünmeye 49
ımlar 49
tanıkların 49
sıralanıyor 49
yükseliş@@ 49
tesla 49
jener@@ 49
ato 49
domin@@ 49
yatırıma 49
saldırılarda 49
hariç 49
çeşit@@ 49
vulgarakis 49
kutlandı 49
amada 49
sre@@ 49
çıkabilecek 49
barikatların 49
belediyesinin 49
operasyonunu 49
sahipken 49
piyasasında 49
girişi 49
kaldırılmasına 49
memeli 49
etmelerini 49
demiryolları 49
olaylarla 49
geçişi 49
amacını 49
elimizden 49
dağları 49
meşhur 49
körfe@@ 49
ici@@ 49
kapısını 49
amac@@ 49
komşularıyla 49
10.@@ 49
miranda 49
pekiş@@ 49
çelenk 49
diğiniz 49
uzunluğunda 49
birbiriyle 49
işaretler 49
basınına 49
hir 49
15,@@ 49
üretimin 49
teşkilatlarının 49
kanseri 49
kurarak 49
zaferini 49
edilmesinden 49
binalar 49
engelliyor 49
hizmetlerine 49
tutacak 49
1960 49
laiklik 49
düşünen 49
baykal 49
üstün@@ 49
doğdu 49
ilerlediğini 49
sergiler 49
birbirleriyle 49
tehlikesi 49
girmeyi 49
başpiskopos 49
binde 49
evska 49
dimitrij 49
çocuğ@@ 49
stratejiyi 49
tudjman 49
aradığı 49
frankfurt 49
öneride 49
zil@@ 49
kanıtlamak 49
ulmasına 49
gönderilecek 49
veselin 49
savcılarının 49
gelmişti 49
ever@@ 49
benzersiz 49
kapital@@ 49
tutula@@ 49
est 49
araştırmada 49
oloj@@ 49
gönderiyor 49
gümrük@@ 49
piş@@ 49
kilisenin 49
olmasıdır 49
harekâ@@ 49
cannes 49
çevrimiçi 49
brayşori 48
hidro@@ 48
sendikaları 48
kuruluşlarına 48
anahtar@@ 48
çalkan@@ 48
operasyonlarına 48
memnuniyet 48
yö@@ 48
tazeledi 48
anlaşmalara 48
temsilcilerinden 48
lıklarından 48
dört@@ 48
güzer@@ 48
istanlı 48
tanımla@@ 48
hacmi 48
destekleniyor 48
değiştiril@@ 48
sunulması 48
trend 48
paral@@ 48
tör 48
çu 48
lıklı 48
jas@@ 48
beh@@ 48
atölye@@ 48
operasyona 48
kafa 48
savcının 48
dağıtmak 48
mamalıdır 48
üstlenen 48
olayının 48
lıları 48
taraftar 48
lez@@ 48
yıkılan 48
tçe 48
güreş 48
taşımak 48
i̇smail 48
onurlandır@@ 48
trans@@ 48
teklifinde 48
seçilecek 48
girmesine 48
başbakanının 48
yükü 48
çıkarılacak 48
rota 48
yardımcıları 48
düğüne 48
olabiliyor 48
mesajlar 48
ıyorsunuz 48
ekonomisti 48
yollarının 48
iyileştirmeye 48
mikro@@ 48
dip 48
hisselerini 48
görevin 48
sırasındaki 48
miyor@@ 48
kaydetmek 48
security 48
ılabilecek 48
lej@@ 48
î 48
eşliğinde 48
sokaklarda 48
lov 48
kanun 48
ünite@@ 48
zem@@ 48
suçlamalarıyla 48
ulaştığını 48
bürokras@@ 48
hir@@ 48
ıt 48
tarihsel 48
fogh 48
karadağ@@ 48
momcilo 48
olmadıkları 48
kalarak 48
zehirli 48
yos@@ 48
siyasette 48
lüğe 48
mazken 48
istediğimiz 48
yanıl@@ 48
küçümse@@ 48
istasyonu 48
yüzde@@ 48
yükselerek 48
sloganı 48
ücretleri 48
ceriç 48
dengele@@ 48
olmuyor 48
adres@@ 48
çıkardığını 48
uluslar@@ 48
harri 48
tom@@ 48
açabilecek 48
bayrami 48
hazırdır 48
trajik 48
kuzeydoğusundaki 48
larımız@@ 48
inanan 48
vurgulandı 48
işyeri 48
farklılık 48
şok@@ 48
uyguluyor 48
hayatına 48
zararı 48
uyu 48
bölgelerinin 48
hacı@@ 48
ular 48
barikatları 48
vet 48
suçsuz 48
beli 48
kın 48
meden@@ 48
dolardan 48
memnun@@ 48
bulunmayı 48
traje@@ 48
gan 48
telaffuz 48
gran@@ 48
geçiri@@ 48
tikten 48
bekay 48
ufukta 48
çeyrek 48
belediyesinde 48
kapısının 48
94 48
dezavantaj@@ 48
tabur@@ 48
dilde 48
dördü 48
terör@@ 48
dde@@ 48
sanatçısı 48
efsan@@ 48
metro 48
kullanırken 48
set 48
babasının 48
saç@@ 48
herseğin 48
tanımlanıyor 48
mensuplarının 48
refah@@ 48
paylaştı 48
eurozone 48
cenaz@@ 48
göstermesine 48
atlet 48
anlatılıyor 48
berisha 48
vermiştir 48
kazanacak 48
fikirleri 48
genişlemesinin 48
tuğgeneral 48
büyüt@@ 48
zorluklarla 48
depos@@ 48
i̇zetbegoviç 48
stanis@@ 48
tüketimi 48
krivokapiç 48
market 48
youtube 48
icc 48
görevlerinden 47
gun@@ 47
karşıy@@ 47
çoğunluğ@@ 47
öğretmenler 47
ilke 47
değişikliklerini 47
mahkemeleri 47
alanının 47
uğraşıyor 47
tutulacak 47
tarihinden 47
uyg@@ 47
tzanis 47
ardılı 47
voice 47
amariei 47
konumuna 47
baraj 47
stoj@@ 47
ediler 47
sutopu 47
vr@@ 47
verilirken 47
milliyet 47
kok@@ 47
cunun 47
alabilecek 47
i̇lir@@ 47
i̇le 47
yapmaması 47
elle 47
kütüphanesi 47
niyetli 47
bel 47
gelecekler 47
borut 47
ahşap 47
metal@@ 47
dökü@@ 47
gündemin 47
pul@@ 47
kimseye 47
ayacağını 47
sergiliyor 47
safhası 47
fonlarından 47
duyar@@ 47
oyuncuların 47
vermekten 47
kandır@@ 47
liliği 47
tap@@ 47
statüs@@ 47
2,7 47
ciliği 47
birbir@@ 47
tavrını 47
hikayesi 47
lazareviç 47
ödüle 47
ısındaki 47
asız 47
koşulu 47
devasa 47
cum@@ 47
vekil@@ 47
söylenebilir 47
bölgelerinden 47
grafi 47
geliri 47
belirtiyorlar 47
eleştirerek 47
ihtimal@@ 47
inanç 47
taraflara 47
yanların 47
surroi 47
sonradan 47
evrensel 47
pasaportlar 47
sistemi@@ 47
edilmesinde 47
kaydedilmesi 47
q@@ 47
ya- 47
istem@@ 47
sop@@ 47
anayasasının 47
ılmaması 47
alanlara 47
şeffaf@@ 47
almadığını 47
çıkarması 47
çatışmada 47
ödenmemiş 47
halklarının 47
mektubu 47
ıyız 47
yat 47
jko 47
kazanç@@ 47
zla@@ 47
miktarın 47
geçire@@ 47
pay 47
kuruluşlarından 47
varış 47
ydü 47
durma 47
4,4 47
sıv@@ 47
sınırla@@ 47
ihtimali 47
halkları 47
mesi@@ 47
ülkemiz 47
ros 47
chris 47
uymak 47
olacak@@ 47
parasını 47
tanımayan 47
edilmek 47
jela@@ 47
kah@@ 47
suçlamasıyla 47
geçirilmiş 47
zul@@ 47
şimdiki 47
üretiminde 47
kuşat@@ 47
zupljanin 47
statük@@ 47
gur@@ 47
uyarı@@ 47
karşılamakla 47
zamları 47
verdim 47
centre 47
özgürce 47
sinyal@@ 47
karargâh@@ 47
yazıyor 47
packett 47
atlat@@ 47
ısıtma 47
butler 47
cağından 47
çeşit 47
bilinmiyor 47
pdl 47
ikisini 47
profil@@ 47
sanatçıları 47
marshall 47
vatikan 47
kotor 47
gönüllü@@ 47
vodafone 47
orkestr@@ 47
kade@@ 47
traj@@ 47
arkeolog 47
yim 47
kaldırarak 47
şartına 47
mahkemesince 47
değerlendirmede 47
anlaşmazlıkları 47
körük@@ 47
wa@@ 47
ulusun 47
interpol 47
c. 47
tüfek 47
yaratması 47
piyanist 47
ağları 47
srpske 47
izlemeye 47
alkış@@ 47
sayısındaki 47
kuraklık 47
saklandığına 47
koştunitsa 47
poş@@ 47
teröristler 47
kömür 47
müteah@@ 47
ote 47
tutu@@ 47
samaras 47
tercihli 47
0.@@ 47
i̇r@@ 47
cluj 47
başpiskop@@ 47
bütünlüğünü 47
pack 47
gisinde 47
þ@@ 47
bölgesini 46
satmak 46
taraflardan 46
ğiyle 46
nitelikteki 46
teçhizat 46
ürünlerine 46
tanımayı 46
adasında 46
boyun 46
zirve@@ 46
öneminin 46
çeşitlilik 46
zey@@ 46
kucak@@ 46
aramaya 46
garan@@ 46
british 46
milyarlarca 46
koordinasyon@@ 46
ağın 46
camii 46
ilerlemeden 46
kalaş@@ 46
dükkan 46
ins@@ 46
öncesindeki 46
sahasında 46
yönlü 46
i̇şletmeleri 46
kpt 46
diklerinde 46
bakana 46
saygın 46
maçta 46
kampanyaları 46
maj@@ 46
seviyedeki 46
yazarlarından 46
hollywood 46
havada 46
evenimentul 46
bütünlüğüne 46
yoğunluklu 46
çizgi 46
eğitimin 46
claude 46
limanına 46
hattını 46
dziç 46
yebileceği 46
kaybetme 46
enformasyon 46
kontrolündeki 46
karayolları 46
koridor@@ 46
yaratacağını 46
1,9 46
istişareler 46
yönetiliyor 46
adaları 46
moratinos 46
koltuğ@@ 46
sekizinci 46
ımları 46
sanılıyor 46
kurs@@ 46
grubundan 46
piyasasına 46
araçların 46
kardeşler 46
teması 46
genişlemenin 46
almalarını 46
marmara 46
lon@@ 46
öne@@ 46
mevzuatı 46
binaları 46
ulduğu 46
3,8 46
davetlisi 46
bonn 46
yetkilerinin 46
kurut@@ 46
ktaki 46
eşgüdüm 46
sonuçlanması 46
has 46
butmir 46
revize 46
osuna 46
mevki@@ 46
değerlendirilmesi 46
vergisini 46
renkli 46
sarı 46
geçi@@ 46
gecikmeler 46
değerinin 46
görmüyor 46
eleştiriliyor 46
mesindeki 46
niçin 46
düşman 46
süregelen 46
koyu 46
tartışılan 46
hrt 46
lakaplı 46
ich 46
arena 46
kazanmayı 46
hastalığın 46
biriyle 46
yolların 46
kafe 46
parlament@@ 46
2,6 46
sektörleri 46
nedjeljko 46
umun 46
yıldızlı 46
uğramış 46
teşkilatları 46
başkentine 46
oruç 46
christie 46
misyonlarına 46
barışa 46
dilek@@ 46
şiir@@ 46
sanatları 46
istemeyen 46
iddialarıyla 46
değerlendirmeye 46
dınız 46
aldığımız 46
çeşitlendir@@ 46
tolere 46
ümüz@@ 46
çeşitlili@@ 46
inti@@ 46
bingazi 46
üz 46
durak@@ 46
memesinin 46
kimliklerini 46
varlıklarına 46
acikla@@ 46
okulda 46
operasyonel 46
yansıyan 46
görüştüğü 46
bileceğ@@ 46
getirmiş 46
kısmında 46
cüsü 46
vergilendir@@ 46
operasyonlarda 46
benzer@@ 46
yaşar 46
büyükanıt 46
arzı 46
eleştirdiler 46
omv 46
tler 46
yıldönüm@@ 46
ö 46
üretecek 46
stein 46
red 46
azaltmaya 46
markac 46
sigort@@ 46
şubesi 46
sistemli 46
keyfini 46
oli@@ 46
vukoviç 46
dov 46
gerileyerek 46
hilmi 46
piyasasının 46
anketlerde 46
senato 46
vran@@ 46
ürse 46
etkisiz 46
süper@@ 46
perisiç 46
sljivancanin 46
meh@@ 46
og 46
djo@@ 46
imajı 46
asay@@ 46
zana 46
vermektedir 46
zeri 46
hizbullah 46
tercih@@ 46
jna 46
sayımına 46
gavr@@ 46
sat 45
baba@@ 45
suistimal 45
anton@@ 45
meslek@@ 45
felsefe 45
felç 45
varıldı 45
fikre 45
gerçekleşeceğini 45
onaylanmış 45
kilise@@ 45
mitiç 45
sitenin 45
arayışında 45
kaçakçılığına 45
maddeler 45
yüklü 45
saldırılarına 45
yerden 45
ait@@ 45
bölünmüşlüğüne 45
herşeyin 45
2,1 45
inesi 45
istik 45
azalan 45
ihtilaflar 45
iyimserliğini 45
seviyeleri 45
çıkaracak 45
jak 45
thal@@ 45
polonyalı 45
kapılarının 45
banın 45
belgelerini 45
veljoviç 45
yaşartıcı 45
çevres@@ 45
ihtilafları 45
janica 45
zilei 45
jor@@ 45
koşullarda 45
özelliği 45
değindi 45
erdiği 45
mav@@ 45
adlarını 45
aynısını 45
gla@@ 45
energy 45
asıl@@ 45
korkut@@ 45
cel 45
ard 45
ularına 45
elçinin 45
stavrevski 45
karadağlılar 45
com 45
istemiyorum 45
yönetici 45
varken 45
inşaatın 45
bağımlı 45
turunun 45
çekiliyor 45
besteci 45
tamamlamış 45
yükümlülüklerin 45
hareketleri 45
yetenekli 45
üçün@@ 45
başkalarının 45
lum@@ 45
işletim 45
programlarına 45
operasyonunda 45
hukuku 45
tanımlanmış 45
sunacağı 45
borçlarının 45
dırıcı 45
bulunduğ@@ 45
gerçeğini 45
düşüşün 45
döngü@@ 45
gerçekleştirme 45
tığından 45
görevlerine 45
topraklarındaki 45
arşivi 45
yardımda 45
görüşmeyi 45
balkanlardaki 45
ıldığında 45
ifadede 45
okun@@ 45
tiyatros@@ 45
okuyan 45
dünyaca 45
kalkınmanın 45
nikos 45
anastas@@ 45
televizyonda 45
220 45
delta 45
ceset@@ 45
toptan 45
cav@@ 45
personelin 45
ts 45
sayısına 45
çökert@@ 45
ud@@ 45
oylaması 45
kaybına 45
eylemlerini 45
yorumcu 45
yenleri 45
cıya 45
teceğini 45
3,4 45
motiv@@ 45
mazer@@ 45
insana 45
avljeviç 45
bilinmeyen 45
jeopolitik 45
telafi 45
alpha 45
sn@@ 45
hasar@@ 45
olo@@ 45
bütçesinde 45
evlerin 45
seçtiler 45
hücre@@ 45
aldıktan 45
yarısının 45
daireler 45
belirsizliğini 45
müzakerelerdeki 45
kalmayacak 45
terminal@@ 45
kukes 45
onayladılar 45
kilinin 45
karşısına 45
etkileyebilir 45
tireceğini 45
rekabetin 45
üniversi@@ 45
matematik 45
övgüyle 45
snezana 45
buluşma 45
nüfuslu 45
aat@@ 45
sinyaller 45
yorumlarında 45
sk@@ 45
güne@@ 45
düşüşle 45
tüler 45
olabilmek 45
yebileceğini 45
yetkililer@@ 45
ayki 45
acilen 45
başvurusu 45
parayla 45
tanınma 45
50@@ 45
tarihçi 45
kaçınmaya 45
kamp 45
tutukl@@ 45
aşağıla@@ 45
düşüncelerini 45
ilerlemek 45
ekibine 45
kültürünün 45
düşürme 45
oni 45
topluyor 45
imli 45
inkar 45
bitiminden 45
yinelediler 45
sekiz@@ 45
gora 45
şerid@@ 45
oturma 45
ülerek 45
ihale@@ 45
yön 45
masi 45
ılabileceği 45
iddianameyi 45
kızgın 45
çocuklarına 45
değerlendirmesini 45
br 45
gelmedi 45
oecd 45
danimarkalı 45
abildi 45
lal@@ 45
girit 45
etik 45
komitenin 45
johnson 45
wto 45
büyüklüğü 45
adin@@ 45
lon 45
cards 45
bebek@@ 45
itfaiye 45
kağ@@ 45
babiç 45
küçük@@ 45
tarama 45
güvenliğine 44
patr@@ 44
fiyata 44
işlemler 44
safet 44
taşımaktadır 44
liyoruz 44
dıkça 44
devamını 44
meselelerde 44
osunu 44
arabulu@@ 44
yayınlayarak 44
özgü 44
dani 44
mimar 44
uyuşturucu@@ 44
başkanına 44
aza 44
yarın 44
politikalarına 44
adasının 44
trak@@ 44
göndermeye 44
pot@@ 44
yenildi 44
eceğiz 44
girdiğini 44
arkasındaki 44
panay@@ 44
sami 44
mahkemesinden 44
çevresinde 44
atp 44
cedomir 44
rastlan@@ 44
kentleri 44
ala 44
gözetiminde 44
ziyarete 44
maddelerin 44
sunmaları 44
organlarının 44
tutması 44
dağıtılacak 44
kosovo 44
yarışmasını 44
hazırlandığı 44
smil@@ 44
sağlamakla 44
verir 44
ziyaretçilerin 44
itibar@@ 44
geciktir@@ 44
pazarlara 44
ekipman@@ 44
toplanması 44
i̇ste@@ 44
etmedi 44
veritabanı 44
seçenekleri 44
sonuçlardan 44
divac 44
yal 44
ly@@ 44
grossman 44
imzaladı@@ 44
anahtar 44
inda 44
bekli@@ 44
i̇statisti@@ 44
kırıl@@ 44
çıkarlarının 44
karşısındaki 44
verilmedi 44
bloğu 44
tanış@@ 44
evlen@@ 44
demo@@ 44
ediğini 44
gayri@@ 44
eleştirel 44
dalgalan@@ 44
ast@@ 44
reformlarla 44
çokuluslu 44
tanımak 44
mekte@@ 44
çöp 44
farkındayız 44
harekat 44
karam@@ 44
göstermiştir 44
raporlar 44
william 44
tesislerinin 44
onuruna 44
sven 44
cna 44
sandalyeye 44
nihayetinde 44
los@@ 44
reformuna 44
çağrısını 44
nöbet 44
vermesinden 44
makine 44
safhasına 44
bilgisi 44
sağlayıcısı 44
dok@@ 44
mariç 44
nadiren 44
yasasına 44
ulaştığı 44
gelirlerin 44
imal@@ 44
yanına 44
güçlendirecek 44
1.200 44
bütçede 44
i̇şsizlik 44
istikrarsız 44
tipik 44
varlıkları 44
izler 44
gerçeğe 44
üretken 44
murat 44
gecede 44
gelmeleri 44
ameliyat 44
gay@@ 44
yardımları 44
gecikmeden 44
schröder 44
mahkemelere 44
iddiası 44
delege@@ 44
kurtulmak 44
savunucuları 44
transfer@@ 44
görüşmesinin 44
masıydı 44
koymaya 44
parlamentodan 44
indirdi 44
mediu 44
pit@@ 44
restoranlar 44
pas 44
eci 44
my 44
ulaşacak 44
yapıya 44
rev@@ 44
kapatmaya 44
şartını 44
kuruluna 44
dengesiz@@ 44
bant 44
alıyoruz 44
sokmak 44
andreas 44
aylığı 44
bütçeyi 44
düşüyor 44
kalmıyor 44
okulları 44
lazar@@ 44
çiç@@ 44
çığ@@ 44
şekli 44
sıkıntı 44
nen 44
işaretleri 44
hastaların 44
gon@@ 44
kararlılığı 44
kargaşa 44
inşasında 44
adanmış 44
birn 44
inş@@ 44
uzakta 44
evangelos 44
ödüller 44
birleştiren 44
açığın 44
alışıl@@ 44
kolaylığı 44
sydney 44
kalitesinin 44
demokrat@@ 44
vujanoviç 44
geleneği 44
ungureanu 44
popülist 44
güçleriyle 44
lah 44
seçkin 44
bağladı 44
edilmesiyle 44
getirirken 44
müşteri 44
memurların 44
mağaza 44
gheorghe 44
yaşlılar 44
kafkas@@ 44
yılların 44
bomb@@ 44
gazetecileri 44
pacolli 44
çıkacağını 44
görüşüne 44
ny 44
bia 44
oscar 44
kesini 44
atmosfer 44
cezai 44
marin@@ 44
baconschi 44
etkilediğini 43
kapatıldı 43
nitelik@@ 43
yeceğine 43
i̇htila@@ 43
yükümlülüğü 43
girişiminde 43
tay 43
fasıl 43
gerekeceğini 43
istişare@@ 43
temasa 43
istih@@ 43
kurulduğu 43
üniversiteler 43
yürürlükte 43
eleştirileri 43
katılmıyor 43
barajı 43
potansiyelinin 43
çatışmalara 43
verimliliğini 43
tun@@ 43
kaldırılmasının 43
muci@@ 43
merkezinden 43
vurgulan@@ 43
yargılanmakta 43
ayakkabı 43
mli 43
katlı 43
nitelendiriyor 43
günümüz@@ 43
incisi 43
karikat@@ 43
finansmanına 43
ortaklar 43
bitki 43
aka 43
şarkısı 43
kahra@@ 43
yönü 43
açısı 43
ulaşarak 43
yerlerinde 43
dama@@ 43
sim 43
beklentilerini 43
sattı 43
satma 43
genişletmek 43
azınlığa 43
lendiri@@ 43
deste@@ 43
ihtiyacının 43
takdir@@ 43
ikinc@@ 43
vukotiç 43
leva 43
nitelendirilen 43
düre@@ 43
imtiyazlı 43
tedbirin 43
mekanizmaları 43
içerisinde 43
değişik 43
yansıttığını 43
yargılanması 43
motor 43
daires@@ 43
seçe@@ 43
nüfuzunu 43
sonbahar 43
eleştirmenler 43
düzelme 43
halindeki 43
öldüğü 43
kurumlarla 43
lerince 43
beyan@@ 43
arn@@ 43
dünyayı 43
star@@ 43
uş 43
yineleyen 43
pahalıya 43
sac 43
uğray@@ 43
akla 43
sivilin 43
karşıtlar 43
sebe@@ 43
şike 43
yolsuzluktan 43
yaşıyorlar 43
ünifor@@ 43
ortamına 43
denildi 43
burg 43
öncülü 43
paylaşan 43
yenin 43
hukuk@@ 43
benedikt 43
müşterek 43
gın 43
amerik@@ 43
direniş 43
etle 43
satmayı 43
geçirmesini 43
yağmur 43
karıştığı 43
âr@@ 43
macovei 43
muhas@@ 43
politikayı 43
uygulamalar 43
yapılandırılması 43
duyuyoruz 43
bazında 43
cili 43
bru@@ 43
basın@@ 43
süreçleri 43
dizgin@@ 43
uygulanıyor 43
kinden 43
aracılığında 43
recom 43
lerim 43
nette 43
operasyonunun 43
geçeceğini 43
bal 43
sınıflandır@@ 43
ailelerinin 43
konuşmak 43
önder@@ 43
devralan 43
om@@ 43
yaratıcı 43
deneyimli 43
konferansının 43
rin@@ 43
saranda 43
toplulu@@ 43
thomas 43
eşzamanlı 43
olimpiyatlarının 43
ettim 43
tutuklanarak 43
bombardı@@ 43
televizyondan 43
korkar@@ 43
ulur 43
süreleri 43
azalmaya 43
kadek 43
kalesi 43
çesi 43
sırf 43
2,8 43
memleket@@ 43
planlarının 43
mışken 43
ifadesini 43
kampı 43
kahraman@@ 43
mihayloviç 43
dokunulmazlığı 43
koyarak 43
şahsen 43
sistemlerini 43
rekabetçilik 43
yüzü 43
ekonomiler 43
fischer 43
kimlikleri 43
kuveyt 43
antonescu 43
muhafız 43
dayandır@@ 43
i̇nter@@ 43
125 43
şa 43
resmî 43
ithalatına 43
yakalanan 43
vergilerini 43
beşte 43
gerektirdiği 43
görüşülen 43
sübvansiyon 43
çiftçi 43
mili@@ 43
cermak 43
bert 43
karşılaştı 43
ilçe@@ 43
öğrenmek 43
i̇letişim 43
fuarına 43
gönül 43
işlemlerini 43
safhaya 43
aliç 43
şampiyon 43
hevesli 43
ljube 43
yetkilisinin 43
trandafir 43
sahasını 43
ihalesi 43
kins 43
sebep 43
caddesi 43
eleştirildi 43
antiç 43
bizimle 43
kullanıcıları 43
seviyelere 43
marnhac 43
tanrı 43
saatte 43
lerin@@ 43
papandreou 43
fili@@ 43
mitroviç 43
itfaiye@@ 43
jolie 43
salar 42
bırakmak 42
yapısının 42
lılara 42
mallarına 42
ihanet 42
tomiç 42
radu 42
serbestleştirilmesi 42
parlamenter 42
gordan 42
bombası 42
eşyalar 42
heyetleri 42
ayn@@ 42
olduk 42
tanınmasına 42
akademisyen 42
oturumda 42
rektör@@ 42
sesli 42
genc 42
uyuştur@@ 42
usame 42
saldırılarının 42
sonucunu 42
derg@@ 42
bankasından 42
kartları 42
emsal 42
eller 42
kesi 42
misil@@ 42
dilen@@ 42
yel@@ 42
kusturica 42
binasına 42
yönetiminden 42
binasında 42
bakanlığa 42
personel@@ 42
kalıp 42
çöküşünden 42
kanton 42
andriç 42
ortaçağ@@ 42
oylamadan 42
duyuran 42
ja@@ 42
kolon@@ 42
elik 42
,@@ 42
kampanyada 42
bojan 42
atör 42
yolculuk 42
bilme 42
petkov 42
janiç 42
yargılanan 42
şunlar 42
alfabe@@ 42
herşeyden 42
üyesinden 42
sahi@@ 42
otoyolu 42
yöneticileri 42
imalat 42
teminat 42
odaklanması 42
meselelere 42
dostane 42
zaferle 42
artırmanın 42
bus@@ 42
hudut 42
pür@@ 42
adları 42
yayılmasını 42
belgele@@ 42
lek 42
hazırlayacak 42
mr@@ 42
giderleri 42
azaltması 42
baskıya 42
bulatoviç 42
çözmesi 42
uğradığını 42
abilmiş 42
abilmeleri 42
ikamet 42
baskılara 42
duvarı 42
ödenecek 42
oynan@@ 42
gazeteler 42
hima@@ 42
bilimleri 42
2,4 42
kurbanlarının 42
carl 42
bankalarının 42
misyonları 42
harekât@@ 42
alınıp 42
akı@@ 42
allah 42
organizasyonu 42
kullanıldığını 42
kullanılmasını 42
kenin 42
meksizin 42
sit@@ 42
tokyo 42
kıtas@@ 42
müzisyenler 42
göndererek 42
deceğini 42
etkisinin 42
iller 42
incelen@@ 42
başarıları 42
üsküplü 42
bakılıyor 42
prosedürler 42
luyor 42
küresel@@ 42
taleplerine 42
kole@@ 42
oranından 42
değerlerini 42
sandalyenin 42
adamlarının 42
lıklarla 42
kriterlerin 42
njak 42
yüzüne 42
çerçevenin 42
koruyucu 42
araştırma@@ 42
memek 42
kaydıyla 42
gereğine 42
kampanyasına 42
kapasiteli 42
görünür 42
mükellef@@ 42
les@@ 42
hadziç 42
mamıştır 42
sk 42
geçmeden 42
oturup 42
hâ@@ 42
muhalefetle 42
işlerinden 42
sahasına 42
euronun 42
ifadeleri 42
partilerle 42
gitmeyi 42
uzmanlardan 42
dow 42
türkmenistan 42
söndür@@ 42
destekliyoruz 42
birleşmesi 42
saray@@ 42
raduloviç 42
hit@@ 42
çıkarı 42
belgelere 42
kilisesinin 42
kere 42
edemeyiz 42
meclisinde 42
artmaya 42
hızlandıracak 42
ğın@@ 42
soykırımı 42
cn@@ 42
bayla 42
olmasıyla 42
girişimiyle 42
makamı 42
değerlendirecek 42
konularla 42
projesinde 42
başarmış 42
desteğinin 42
devredilmesi 42
finalde 42
grand 42
dul 42
başlarken 42
360 42
girişimine 42
göze 42
gölge@@ 42
anciç 42
düzenini 42
kentini 42
santralı 42
meşal@@ 42
hâlen 42
müvek@@ 42
çalışmış 42
vo 42
yapacağına 42
puanını 42
onaylanmasını 42
oluşturulmasını 42
kontey@@ 42
tasarıda 42
uluğu 42
tarculovski 42
tezgah@@ 42
meron 42
katılmasından 42
raporları 42
tedar@@ 42
davis 42
puanları 42
markos 42
kek 42
göl 42
arabulucusu 42
muay@@ 42
turistleri 42
şartlara 42
norveçli 42
stephen 42
yapacaklar 42
cez 42
trans 42
ea 42
romania 42
gözaltı 42
olimpiyatlara 42
301 42
bilanç@@ 42
hasat 42
dönüp 41
kayır@@ 41
birleştirmek 41
verileceği 41
sağlamaktadır 41
korumayı 41
demeç 41
kaybol@@ 41
anayasasını 41
cemil 41
eupolitix 41
planladıkları 41
bırakması 41
haftadır 41
grigor@@ 41
oyları 41
argüman@@ 41
besleyen 41
endiş@@ 41
chirac 41
yineleyerek 41
yanlış@@ 41
anlaşmalarına 41
aracılık 41
klaus 41
tikte 41
karşılaşmada 41
ram 41
yürütmekte 41
tular 41
etmesiyle 41
patlaması 41
öte@@ 41
takımını 41
stad@@ 41
nehrin 41
seler 41
racak 41
vekiller 41
kalabalığa 41
turnuvada 41
kullanılarak 41
anketinde 41
kendimi 41
ihracatının 41
suikastın 41
sosyolog 41
srdjan 41
yükseltmek 41
modern@@ 41
düzeye 41
tecrü@@ 41
kıyas@@ 41
düzenlenmiş 41
gurbet@@ 41
diklerine 41
lüğün 41
nikol@@ 41
toplumunu 41
cılarına 41
doğrulandı 41
normalde 41
işlemi 41
satılan 41
angel 41
ayarla@@ 41
cevski 41
life 41
receği 41
adımlara 41
tıracağını 41
çıkmıştı 41
adal@@ 41
lenin 41
işleyişi 41
madalyası 41
çözülmemiş 41
arben 41
etkilerinin 41
yıcı 41
jso 41
başarısızlığa 41
manjola 41
yoloji 41
rakamı 41
talimat 41
onaylandığı 41
stal@@ 41
sahtekar@@ 41
iadesini 41
belirttiği 41
acaktı 41
beste@@ 41
artıran 41
gölgelen@@ 41
200@@ 41
enerjinin 41
lendiren 41
geldik 41
yetkin 41
idaresinde 41
toprağa 41
olamayacağını 41
devletini 41
umutlu 41
takımları 41
davasıyla 41
genelkur@@ 41
kanalizasyon 41
peres 41
kullanmaktan 41
lefkoşa 41
zaferin 41
söylendi 41
yaşından 41
mjaft 41
aylıkları 41
takın@@ 41
barış@@ 41
yorumcusu 41
tutumunun 41
çekilme 41
arabuluculuğ@@ 41
hedefin 41
nefre@@ 41
çocuklarını 41
tatbikatı 41
tüke@@ 41
turnuva 41
yayınlanması 41
eğilimler 41
hedeflerin 41
acağımızı 41
yar 41
savaşından 41
veterinerlik 41
ulaşmış 41
gelu 41
fiyatlara 41
dağıtımı 41
company 41
restoran@@ 41
sağlanıyor 41
limit@@ 41
yl@@ 41
kula@@ 41
felse@@ 41
olanlara 41
gideceğini 41
irtibat 41
cha@@ 41
restorasyon 41
lendire@@ 41
muadil@@ 41
nitelik 41
mitroviça 41
şere@@ 41
gereksinim 41
faydalar 41
irim 41
oturan 41
niyetini 41
mışlar 41
açabileceğini 41
zanlısını 41
iyetin 41
elit 41
sağlandığını 41
güneş@@ 41
elindeki 41
konusunun 41
mum@@ 41
kev@@ 41
poster@@ 41
b. 41
madığına 41
talih@@ 41
kademe 41
değerlendiren 41
kurulmasından 41
romanları 41
evlerinde 41
sistemiyle 41
tale@@ 41
çalışmakta 41
rız@@ 41
icin 41
eri@@ 41
defter@@ 41
kalıntılarını 41
sahasının 41
vefat 41
meksika 41
tutumuna 41
frans@@ 41
ilkokul 41
yaşıyoruz 41
sağlanmış 41
etkenler 41
musliu 41
görüyorum 41
ram@@ 41
gelirin 41
müzakereci 41
megawatt 41
davalarında 41
kırdı 41
fizik 41
otomotiv 41
krajina 41
tümünün 41
yarışmanın 41
diğimizi 41
yetişkin@@ 41
lus@@ 41
tutuldu 41
büro 41
çatışması 41
yönelt@@ 41
cankov 41
plevneliev 41
iletişim@@ 41
litre 41
kütüphane 41
ukraynalı 41
kârlı 41
bez@@ 41
güneydoğusundaki 41
askerlere 41
mes 41
sus@@ 41
ödemeler 41
kanıtları 41
iddianame@@ 41
medyayı 41
çağdaş@@ 41
bi̇@@ 41
raporlarını 41
ortamının 41
huz@@ 41
isiç 41
yürür@@ 41
köstence 41
yokluğu 41
temsilcilerini 41
dalmaçya 41
programlarının 41
konstantin@@ 41
kras@@ 41
yetene@@ 41
corce 41
fiyatlarındaki 41
testi 41
ansı 41
mühendislik 41
3g 41
cern 41
mungiu 41
lutovska 40
kanıtlan@@ 40
stur@@ 40
yardımcılığı 40
etmemiz 40
gibi@@ 40
liyordu 40
katılmasının 40
yaratabilir 40
tartışması 40
kararlılıkla 40
sunacağını 40
kusari 40
ilkesi 40
iddiaların 40
kalar 40
analist@@ 40
hristos 40
avu@@ 40
linin 40
yürütülmesi 40
önü 40
güvenliğinin 40
olar 40
kırıklığını 40
̇ 40
aralı@@ 40
rehberlik 40
ifadeler 40
ombudsman 40
ilkesini 40
savunmak 40
bürosunun 40
halter@@ 40
imal 40
liye@@ 40
dışarıda 40
ekler 40
patlamada 40
turuna 40
eceğinden 40
sekizi 40
seydi 40
kadros@@ 40
ok 40
gelenek 40
gönderilmesi 40
kimse@@ 40
finale 40
turnuvasında 40
tartışıyor 40
medim 40
tar 40
neft 40
ulemek 40
atlama 40
makamının 40
mizdeki 40
anan 40
tedavis@@ 40
yararı 40
yorumlan@@ 40
öneriye 40
süz@@ 40
tekeli 40
serma@@ 40
sunduğunu 40
ödemesiz 40
taleplerinin 40
iyileştirmeler 40
kaj 40
sicil 40
nadir 40
stojan@@ 40
vecernje 40
öğret@@ 40
vanı 40
dun 40
kompleksi 40
hazırlaması 40
stratejide 40
anlama 40
muğ@@ 40
yapmamız 40
bileceğinin 40
hızlan@@ 40
cana 40
yardımlar 40
cazibe@@ 40
folklor 40
kanadı 40
bekleniyordu 40
rica 40
hev@@ 40
morina 40
i̇bra@@ 40
kışkırtıcı 40
sürük@@ 40
hastalık 40
gruplardan 40
oraya 40
veton 40
gl@@ 40
kılan 40
devletlerinin 40
alınmasının 40
imkânsız 40
huku@@ 40
istis@@ 40
çıl@@ 40
ört@@ 40
kostiç 40
payını 40
tayin 40
ereceği 40
kirlilik 40
lah@@ 40
sendi@@ 40
turnuvanın 40
sayan 40
işverenler 40
bölgelerin 40
rat@@ 40
destekleyenler 40
mid@@ 40
siyasetinde 40
soruları 40
oturumu 40
seferler 40
alay 40
sözcülerinden 40
cum 40
üdür 40
indirmek 40
ihtiyacını 40
konulara 40
atörü 40
broz 40
aş 40
kullanılmak 40
nad@@ 40
medy@@ 40
aştı 40
erdiren 40
ebe 40
pakt@@ 40
açıklamıştı 40
yakaladı 40
pey@@ 40
avrupalılar 40
bs 40
adadaki 40
ülebilir 40
haf@@ 40
int 40
kuralların 40
koyması 40
arasındaydı 40
yazma 40
kesimde 40
marie 40
tabana 40
sna 40
s. 40
izniyle 40
dosya 40
şahsın 40
geçiren 40
pragmatik 40
yarıştı 40
iyimserlik 40
çağırıyoruz 40
mamıştı 40
dana 40
gösteride 40
ntv 40
gidilmesi 40
müzisyen 40
azılı 40
sorumsuz 40
steinberg 40
lisansüstü 40
referans 40
pdp 40
digi 40
şeydir 40
karde@@ 40
ressam@@ 40
miyordu 40
yapılmadı 40
heyetler 40
dinler 40
bulletin 40
çağırarak 40
değinen 40
maktay@@ 40
sem 40
göndermesi 40
suçlularının 40
iyorsa 40
hikaye 40
odaları 40
propaganda 40
mısırlı 40
alınmıştı 40
kararlarının 40
birliklerinin 40
müştür 40
ansi@@ 40
konmasını 40
değerlendiri@@ 40
salih 40
form@@ 40
hızlandırdı 40
mektubunda 40
püs@@ 40
tli 40
başkentte 40
heyecan 40
mantık@@ 40
ızca 40
akl@@ 40
baskıyı 40
temelini 40
iliğinin 40
romen@@ 40
imzalamaya 40
steven 40
açılış@@ 40
sivilleri 40
yetiyle 40
şaş@@ 40
ms 40
cezbe@@ 40
brüt 40
novine 40
zihin@@ 40
tedarikçisi 40
srebren@@ 40
tüketic@@ 40
ihracatını 40
bütçeden 40
eksi@@ 40
larınız 40
broş@@ 40
harcanan 40
dizel 40
hedefinde 40
slalom 40
yüklen@@ 40
olaylarından 40
engelin 40
dayım 40
ulaşılması 40
ilikten 40
devri 40
akışı 40
becerisini 40
nel@@ 40
göreceğiz 40
i̇şlerinden 40
koman@@ 40
miletiç 40
sebze 40
paskalya 40
kullanacak 40
röportaj 40
yargıya 40
dürüst@@ 40
artırıcı 40
siydi 40
cirokastra 40
ifa 40
talepte 40
todor@@ 40
nezaret 40
au 40
rolünden 40
radikaller 40
büyümesinin 40
most 40
sektörlerde 40
teletıp 40
konsolid@@ 40
kampanyasında 40
athoc 40
dre@@ 40
azaltacak 40
özelleştiril@@ 39
kanıtladığını 39
yoksullukla 39
tehdidinde 39
sorumluluğun 39
alır 39
çatışmaya 39
değerlere 39
maddesinin 39
göstereceğini 39
hedeflerinin 39
kazasında 39
tutumları 39
yapılmasının 39
çalışıyordu 39
şeridi 39
osunun 39
göndermek 39
forumun 39
sürekl@@ 39
başlık 39
bulacak 39
kültürler 39
gelişmenin 39
kararlılıklarını 39
taahhüt 39
beklenenden 39
varmak 39
hükümdar@@ 39
deler 39
ihlalleri 39
erwan 39
mağdur 39
geldiğine 39
piyasasını 39
melerinde 39
yerinden 39
formü@@ 39
ihtilafında 39
kaldırmayı 39
iddianamenin 39
yenilgi 39
ziyaretç@@ 39
katılımcıları 39
yalan 39
todoroviç 39
yapabilece@@ 39
anagnostopoulos 39
lığındaki 39
yüzyıllar 39
ihalenin 39
div@@ 39
ster 39
değişikliklerle 39
bekir 39
alınacağı 39
tikçe 39
iyice 39
filipoviç 39
abı 39
korkusuyla 39
çekir@@ 39
inanmıyorum 39
yorumlar 39
ilerlemeleri 39
önceliklerini 39
görüştük@@ 39
ihaleye 39
kavş@@ 39
duyurulan 39
konse@@ 39
istihdam@@ 39
presevo 39
girişimci 39
layıcı 39
kalacaktır 39
bulunacağı 39
anov 39
götürül@@ 39
edin 39
çalışmalarından 39
yumdu 39
makedonca 39
ideoloj@@ 39
halledil@@ 39
amatör 39
kurmanın 39
oynayacağı 39
başlayacağı 39
ai 39
kökleri 39
çatışmaları 39
rar 39
düşüşü 39
ihtimalle 39
merc@@ 39
neti@@ 39
asıllı 39
yiti@@ 39
itibar 39
doğrultuda 39
olog@@ 39
arap@@ 39
brown 39
öğrencinin 39
beklenmiyor 39
faali@@ 39
mirjana 39
katılmakla 39
meyve@@ 39
aksa@@ 39
edemez 39
france 39
atacağı 39
çabası 39
sit 39
ota 39
yarışıyor 39
sağlanmasını 39
yerleşti 39
ilkesinin 39
rec@@ 39
temsilcilerine 39
yağış@@ 39
bahçesi 39
şist 39
bırakacak 39
ılı@@ 39
kli 39
dağılmış 39
konvansiyonu 39
gov@@ 39
dersleri 39
namaz@@ 39
afrikalı 39
sükun@@ 39
akademi 39
gözlemev@@ 39
silin@@ 39
bechtel 39
etkiye 39
birimin 39
düşündüğü 39
raiffeisen 39
uyul@@ 39
memişti 39
verebileceği 39
yinele@@ 39
ulaşıla@@ 39
prensipte 39
taksit@@ 39
gin@@ 39
sahnede 39
üyeden 39
çalıntı 39
kesimine 39
tehlikede 39
tası 39
ruhsatı 39
kalkındır@@ 39
adaylığına 39
isteniyor 39
south 39
ihtimal 39
seviyesinden 39
kişilerden 39
atölye 39
akıllıca 39
mese@@ 39
kaydede@@ 39
sempoz@@ 39
tutuklamak 39
bağlantılar 39
katkıları 39
ende@@ 39
dilekçe@@ 39
oylarını 39
goviç 39
tüzüğ@@ 39
görüşecek 39
tedavisi 39
ldp 39
güvenlikle 39
konsolosluk 39
edenlerin 39
andre@@ 39
benziyor 39
yahyaga 39
mem@@ 39
tesiste 39
verilmemesi 39
müfredat@@ 39
aleyh@@ 39
fullani 39
meniz 39
cezaevinde 39
mühimmat@@ 39
abilirsiniz 39
keli 39
güvende 39
vermiyor 39
sıkıntılar 39
olmaz@@ 39
lazar 39
tarafsız@@ 39
hazırlanırken 39
başlığı 39
mektup@@ 39
muhalefete 39
katkıs@@ 39
şantaj 39
dağıtı@@ 39
atadı 39
katkısı 39
i̇l 39
aktaran 39
dağıtmaya 39
silahsızlanma 39
bağlamında 39
değiştirecek 39
kazanmasından 39
ole 39
kit@@ 39
cit@@ 39
sokakta 39
korkusu 39
temsili 39
sistemlerine 39
ebilmesi 39
kanıtlay@@ 39
tutuklamaya 39
ciden 39
kaçakların 39
tutuklamaların 39
blokla 39
arttır@@ 39
yükseltme 39
geçmeyi 39
adi@@ 39
mıyoruz 39
gregorian 39
niteliğindeki 39
sözleşmeyi 39
kurgu 39
cilere 39
çalışıp 39
tom 39
şüpheyle 39
eksiklikleri 39
köylü 39
margar@@ 39
yargıçları 39
anayasasında 39
aw@@ 39
etkileş@@ 39
bekleme 39
mla@@ 39
gallup 39
yü@@ 39
mutfa@@ 39
pavle 39
listesini 39
durağan 39
onarım 39
cooper 39
janjiç 39
rogge 39
galası 39
nitelendirdiler 39
mücahit 39
gelmeden 39
yaklaştı 39
sebebiyle 39
alo@@ 39
yönetmenliğini 39
fajon 39
eyaletinin 39
şüph@@ 39
üsünün 39
çekince@@ 39
mrf 39
kun 39
mücadelesinde 39
pukaniç 39
bankalara 38
ikli 38
sırt@@ 38
mevcut@@ 38
sokma 38
etmeliyiz 38
bedelini 38
bakacak 38
tanımlanması 38
isteyeceğini 38
kullanıma 38
akları 38
aşamada 38
rahatsız@@ 38
izlenecek 38
a- 38
suçlayarak 38
derinden 38
saygılı 38
girişimlerine 38
hatalı 38
yetkilerin 38
zur@@ 38
grubunu 38
duyguları 38
haklarıyla 38
vergis@@ 38
kategoride 38
girmesinden 38
sinyalini 38
devletine 38
yasaklama 38
olayını 38
olaysız 38
kayı 38
kayak@@ 38
14. 38
kocas@@ 38
avustral@@ 38
ızlık 38
solomon 38
göğüs@@ 38
önemine 38
sandalyesi 38
konseyine 38
sığınmacı 38
olasılığıyla 38
asyonuna 38
olsalar 38
vasiç 38
kulüp 38
girip 38
şirketlerini 38
rastlanan 38
gişe 38
gelişiminin 38
macarlar 38
pantiç 38
ödün 38
fonlarını 38
i̇rlandalı 38
gashi 38
güveniyor 38
ödüyor 38
ihracata 38
oradan 38
bildirdiler 38
avan@@ 38
şüpheler 38
trö@@ 38
ihtiyati 38
teşebbü@@ 38
tanığın 38
dokuz@@ 38
azı 38
edildikten 38
tescil 38
davalarda 38
abd@@ 38
fiilen 38
gayri 38
yaratarak 38
konuşuyor 38
ermesinin 38
kuvvetlerini 38
kaybede@@ 38
geçişin 38
düşerek 38
197@@ 38
yarıdan 38
enstitüs@@ 38
hile@@ 38
görevi@@ 38
belarus 38
reforma 38
ölçekte 38
yemeği 38
esneklik 38
hoşnutsuz@@ 38
satranç 38
öfkeli 38
avroyla 38
laj@@ 38
birik@@ 38
uzaklıktaki 38
arıyorlar 38
yazarları 38
koydular 38
üzücü 38
ihracatın 38
ira@@ 38
gerçekleştiren 38
istedik 38
vrs 38
kısalt@@ 38
rafinerisi 38
disipl@@ 38
sorulan 38
ish@@ 38
azaldığını 38
başlatacak 38
evsiz 38
daralt@@ 38
bilinci 38
şahsi 38
lazım 38
almaktadır 38
rekabetç@@ 38
ifc 38
rov 38
ns 38
kriterlerinin 38
standardı 38
alımı 38
karışan 38
kurbanlara 38
edildiler 38
masız 38
indirimi 38
yakalam@@ 38
gönderecek 38
teşkilatını 38
sayının 38
ınızı 38
bakanlığını 38
gündemini 38
görüp 38
memiştir 38
sergiye 38
dönük 38
i̇şte 38
savunmasını 38
tutuklandığı 38
desteklemesi 38
yoklamaları 38
oyunlarının 38
cağız 38
şan 38
sorgu@@ 38
çeva 38
çelişkili 38
gelecektir 38
kimya 38
fiyatının 38
gelişmede 38
teh@@ 38
trav@@ 38
jes@@ 38
zimmete 38
kelmendi 38
paşa 38
versi@@ 38
paraya 38
sorg@@ 38
marş@@ 38
işsizliğin 38
university 38
hocay 38
alanlarının 38
açılmış 38
tutukluların 38
liy@@ 38
ılmak 38
görülebilir 38
yapmadığını 38
ivana 38
kapılarında 38
kaydır@@ 38
maddesini 38
toplayarak 38
tilen 38
mobtel 38
euroyu 38
meteor@@ 38
eksiklikler 38
epey 38
cese@@ 38
tarife@@ 38
srcan 38
luktan 38
sorunlarından 38
yarışa 38
feth@@ 38
elektroprivreda 38
sultan 38
lası 38
bedel 38
vasile 38
özetliyor 38
kefal@@ 38
alogoskufis 38
ordu@@ 38
başlamasıyla 38
amacına 38
20,@@ 38
enden 38
açıklamayı 38
itham 38
saklandığı 38
duk@@ 38
bağlılığı 38
kanalları 38
lıyorum 38
gelişi 38
kronik 38
teşhisi 38
gunu 38
perspektifi 38
i̇vaniç 38
naylon 38
yorumcular 38
oğlan 38
bilincini 38
velimir 38
güneydoğusunda 38
icalı 38
hard 38
örgütü@@ 38
dondurdu 38
böbrek 38
dramatik 38
diana 38
çıkmazın 38
karşılıklılık 38
yonun 38
çekimser 38
i̇yon 38
yn@@ 38
hastalar 38
nbs 38
adri@@ 38
katılıp 38
çözümleri 38
şö@@ 38
lisansı 38
şüpheleri 38
kel@@ 38
atla@@ 38
sinag@@ 38
manlık 38
getirmişti 38
nelerdir 38
borsa 38
kısıtlamaların 38
komşusunun 38
straw 38
samuel 38
bm@@ 38
tz@@ 38
ödüllendir@@ 38
bakmak 38
basiç 38
dsb 38
boyutu 37
ava 37
sendikaların 37
alacaktır 37
dilekçe 37
çiğ@@ 37
getirebilir 37
kararlıyız 37
cezasının 37
tamamlayıp 37
iddialara 37
tümüyle 37
çevreleri 37
durdurdu 37
pire 37
yerleşik 37
si- 37
cia 37
sağlamış 37
söylemesine 37
parametre@@ 37
kıyaslan@@ 37
mün@@ 37
merkezde 37
güreşçi 37
laka 37
karan@@ 37
kilo@@ 37
ilikle 37
ath@@ 37
güçlere 37
kere@@ 37
girişimlere 37
arnavutları 37
favor@@ 37
kazanılan 37
bek 37
mamızı 37
işlemekle 37
diledi 37
kirli 37
galer@@ 37
adlandırılan 37
fil 37
kızdırdı 37
üstüne 37
kadına 37
yansıtan 37
sineması 37
dua 37
çalıştılar 37
piyasada 37
bisik@@ 37
düşünmüyorum 37
geçit 37
tot@@ 37
kuruluşlarını 37
det 37
turk 37
belediyeleri 37
tadan 37
gisini 37
manev@@ 37
nj@@ 37
yatırımlarını 37
maja 37
yakındaki 37
mağdurları 37
faillerin 37
konularındaki 37
inski 37
him@@ 37
temellerini 37
aramak 37
paramiliter 37
gıyaben 37
rade 37
imlerini 37
bulup 37
gene@@ 37
stat 37
klinik@@ 37
gözlemcilerin 37
şirketlerine 37
yargılandığı 37
dönüşünü 37
portf@@ 37
ındaydı 37
durağı 37
u- 37
musev@@ 37
gazeteye 37
toplanacak 37
kirliliği 37
üri@@ 37
dj 37
walter 37
olduğumu 37
tüp 37
stojan 37
başsav@@ 37
katliam 37
mecbur 37
otoriter 37
jozefina 37
savaşının 37
mücev@@ 37
misiniz 37
partilerden 37
sarsın@@ 37
sularında 37
deneme 37
olojik 37
stü@@ 37
tartışmayı 37
jinal@@ 37
farklılıkların 37
i̇stihdam 37
nap@@ 37
krizine 37
manoviç 37
cılarla 37
turistin 37
askerden 37
kamu@@ 37
bağlıdır 37
ideolojik 37
kamuya 37
donanma 37
lal 37
ti̇@@ 37
engellemekle 37
kavur@@ 37
sey 37
krizde 37
zorundalar 37
iştir@@ 37
meydanında 37
manastır 37
koalisyonuna 37
kurt 37
operasyonlarını 37
reformlardan 37
i̇bar 37
agron 37
şkodra 37
mahmud 37
kalkış@@ 37
eğilimleri 37
leh@@ 37
depart@@ 37
erteledi 37
şebekesi 37
yev 37
şartlardan 37
akredi@@ 37
başarılara 37
yüksele@@ 37
win 37
nazar@@ 37
kurucularından 37
ilmesinden 37
gayrimenkul 37
yabancıların 37
yatıştır@@ 37
girişini 37
asam@@ 37
bilgilerini 37
moldav@@ 37
geçerken 37
olimpiyatların 37
yorumda 37
liyle 37
çabalıyor 37
manzara 37
fazlasına 37
öğle 37
kötüm@@ 37
fahri 37
potansiyelini 37
parçasıdır 37
zim@@ 37
partizan 37
franjo 37
voje 37
severlik 37
ebu 37
mişler 37
boşa 37
kararlara 37
akoviç 37
rıza 37
asselborn 37
sevkıy@@ 37
üsünde 37
samar@@ 37
lılığı 37
maalesef 37
sıfatıyla 37
getirildiği 37
sözcük@@ 37
belediyelerde 37
109 37
türklüğe 37
çöp@@ 37
laboratuvar 37
küreselleşme 37
sloven@@ 37
ehli@@ 37
ğindeki 37
mutluluk 37
roland 37
kongresinde 37
yayınevi 37
austria 37
renault 37
satışından 37
klan 37
demişti 37
tleri 37
sokaklarında 37
yapilan 37
8,5 37
güneydoğ@@ 37
ortasından 37
ambo 37
tama@@ 37
gereğ@@ 37
nezavisne 37
pişir@@ 37
geci@@ 37
şarttır 37
lig@@ 37
müdürleri 37
mayacağız 37
failleri 37
sitel 37
i̇kincisi 37
itirazları 37
denetimini 37
caminin 37
kaybetmişti 37
pri̇şti̇ne 37
atacak 37
schwartz 37
zarfında 37
oluşturması 37
dig@@ 37
glo@@ 37
theodor 37
riskleri 37
menkul@@ 37
kümes 37
metrekare 37
karısı 37
eşinin 37
fonlarına 37
lari 37
futbolcu 37
lim@@ 37
ore 37
merkezlerinde 37
bulmanın 37
sansür 37
batıya 37
layın 37
çıkabilir 37
ljubiciç 37
engelliler 37
başlayarak 37
başarıyı 37
ron 37
bahsetti 37
sokaktaki 37
over 37
çevreyi 37
ruhani 37
taraftarı 37
almadığı 37
gösterici 37
azalmasına 37
piskop@@ 37
sizliğin 37
16. 37
güneydoğudaki 37
zelanda 37
kovaçeviç 37
kupas@@ 37
hek@@ 37
etmeme 36
popülari@@ 36
hareketler 36
frak@@ 36
liğimizi 36
aramızda 36
değişikliklerinin 36
takvim 36
lila 36
değerini 36
sürücü 36
kader@@ 36
grevi 36
başlıklar 36
atif@@ 36
birlikte@@ 36
güçlüklerin 36
afgan 36
örgütlerle 36
otor@@ 36
ilmişti 36
lıyordu 36
tunus 36
bayrakları 36
memektedir 36
tarafına 36
3,7 36
elektrik@@ 36
sera@@ 36
madeni 36
bocevski 36
memeti 36
kullanılabilecek 36
hong 36
sahnele@@ 36
askerlerine 36
komis@@ 36
bask@@ 36
hissediyorum 36
edileceğine 36
rou@@ 36
düz 36
yaşamına 36
orban 36
altyapıyı 36
plo@@ 36
ziyaretçilere 36
masasına 36
propag@@ 36
temsilen 36
temelleri 36
doğmasına 36
saddam 36
suikas@@ 36
parmak@@ 36
kaplan@@ 36
görmesine 36
seferber 36
ilgis@@ 36
muhalif@@ 36
göçü 36
sınırda 36
müjde@@ 36
korkan 36
oluşturuldu 36
mod@@ 36
deprem@@ 36
hisseleri 36
kale 36
marka 36
girerek 36
paralarını 36
kampan@@ 36
şeffaflığı 36
omuz@@ 36
i̇hracat 36
bora 36
culuk 36
değişime 36
lütfi 36
institute 36
vurg@@ 36
yt 36
parlamentosuna 36
ülken@@ 36
pilot@@ 36
katliamında 36
konuştular 36
1800 36
abilme 36
önderliğindeki 36
bütünüyle 36
kaybetmesi 36
tekel 36
mütevazı 36
birisini 36
gerçekleştirmeye 36
olgunluk 36
sir 36
hayatının 36
miktarının 36
car 36
aku 36
gizle@@ 36
güvenilirlik 36
edilme 36
mesafede 36
düşmesine 36
sondaj 36
protestoların 36
roket 36
dergisine 36
memeye 36
ümüzü 36
jelasiç 36
harcıyor 36
nin@@ 36
sertifik@@ 36
riyle 36
havaalanında 36
18,@@ 36
kulüb@@ 36
akıllı 36
mişlerdir 36
kola@@ 36
ikramiye@@ 36
plamen 36
meyeceğim 36
okullara 36
üstlenmeye 36
varlıklarının 36
gelmesinin 36
yanaş@@ 36
olaca@@ 36
azaltmayı 36
tartışmada 36
begoviç 36
çadır@@ 36
ilebilecek 36
tugayı 36
firmasına 36
petrol@@ 36
gerçekler 36
kaçakçılığını 36
elli 36
temerrü@@ 36
vizyonu 36
tanı 36
sebebi 36
tamamlamayı 36
odaklı 36
hizmetine 36
imkan 36
key 36
kabinede 36
görmediğini 36
yapar@@ 36
birikmiş 36
çarpış@@ 36
girece@@ 36
iyisini 36
pazarlar 36
dmitry 36
numarası 36
tanınmasını 36
larımızla 36
vuran 36
tireceği 36
patrik 36
akrabaları 36
uni@@ 36
koşuluyla 36
söylediğini 36
stav@@ 36
söylentileri 36
cılardan 36
yerleşti@@ 36
ustu 36
yaklaşımın 36
götürecek 36
yağ 36
iniz@@ 36
tepkisi 36
blogcular 36
gardi@@ 36
yaşına 36
sanığı 36
istenmeyen 36
benimsen@@ 36
merkezlerinden 36
örnekler 36
sırplardan 36
mina 36
besimi 36
yorsa 36
sön@@ 36
kazanmasını 36
tutarak 36
gündür 36
konsolos@@ 36
nek 36
savunmaya 36
ayrılmasına 36
akar@@ 36
konuşması 36
lamberto 36
kaliniç 36
kaydedile@@ 36
ulardan 36
göstermekle 36
tehditlerle 36
mücadelesini 36
favori 36
dilimi 36
yarısına 36
işlendiği 36
üstelik 36
umlu 36
cea 36
akos 36
katından 36
açmasını 36
ıf@@ 36
görevlerinde 36
i̇zzetbegoviç 36
rtrs 36
toler@@ 36
tre 36
desteklenecek 36
görülür 36
ailelere 36
mağduru 36
ihracatçısı 36
helikopter 36
işlemiş 36
dayanış@@ 36
hakem@@ 36
bozuk 36
evi@@ 36
meşr@@ 36
dür@@ 36
imir 36
bisiklet 36
halter 36
lukları 36
olmadığından 36
mıyorlar 36
şube 36
milletvekillerini 36
yardımını 36
50. 36
teodor 36
diaspora 36
ral@@ 36
unifil 36
eğitil@@ 36
gösterge 36
çarpıcı 36
satmaya 36
şarkıcının 36
anı@@ 36
16,@@ 36
gerçekleşeceği 36
elektrikli 36
düşünmek 36
negatif 36
yavaşlama 36
gayrımenkul 36
inse 36
gerginliklerin 36
sabır@@ 36
seslendi 36
cengiz 36
ğlu 36
mobilya 36
cap@@ 36
kalkınmaya 36
rakamların 36
mür@@ 36
amayı 36
katliamıyla 36
faslının 36
küler 36
kırg@@ 36
vergilendirme 36
daskalaki 36
rest@@ 36
ıtı 36
eupm 36
saviç 36
risti@@ 36
ulah 36
kel 35
toplumlara 35
kavra@@ 35
getirmediği 35
imle 35
aşması 35
belirlemiş 35
önümüzde 35
istatistikler 35
sorusuna 35
aksak@@ 35
mürette@@ 35
durdurul@@ 35
gitmekte 35
övgü@@ 35
oluşturulmasına 35
-arnavutluk 35
mert 35
istihbar@@ 35
cs 35
zayıfla@@ 35
ıldığına 35
çabanın 35
göstermesini 35
çevrec@@ 35
yo 35
etmeyen 35
miliband 35
izole 35
toplantıyı 35
ömer 35
derecesiyle 35
kong 35
ilişkinin 35
tanımasını 35
üniversitelerde 35
satışını 35
devrimci 35
taziye@@ 35
kalıntı@@ 35
radyosunun 35
sy@@ 35
novo 35
sitesinin 35
kestir@@ 35
önceliklerinden 35
ital@@ 35
ığa 35
nada 35
raki@@ 35
iyelik 35
bp 35
research 35
anmak 35
linde 35
parmağı 35
suçlamalara 35
verecekler 35
başsavcının 35
kampanyalar 35
barikatlar 35
atların 35
azınlıkları 35
eskisi 35
bekim 35
kariyer 35
düşündüğ@@ 35
poz 35
mebla@@ 35
raj@@ 35
depremde 35
sahibi@@ 35
ong 35
mutluyum 35
saçma 35
prensi@@ 35
tuttuğu 35
safhalarında 35
ex@@ 35
mut 35
kolaylaştırılması 35
yalar 35
19,@@ 35
aleyhte 35
hırsızlık 35
yaşayanlar 35
olimp@@ 35
ilmez 35
bela 35
millet 35
elini 35
tamamlayarak 35
britanya 35
ırsak 35
aki@@ 35
momentum 35
söylem@@ 35
riskiyle 35
mülk@@ 35
menekşe 35
iftira 35
karışıklık 35
içecek 35
meselelerle 35
steinmeier 35
ayrılarak 35
oynamak 35
uydur@@ 35
ayrılmak 35
sıfır@@ 35
yaşamaya 35
büyüğü 35
potocari 35
verilmesinin 35
kırık@@ 35
sesleri 35
beklerken 35
culuğu 35
berat 35
ilanını 35
tanıklar 35
fırsatını 35
meclisine 35
gram 35
deneyimi 35
girmeden 35
daveti@@ 35
manş@@ 35
hayvanat 35
deyken 35
yapılabilir 35
devriye@@ 35
endişelendi@@ 35
ars@@ 35
bey 35
channel 35
akım 35
kültürünü 35
okullarında 35
cema@@ 35
sığınma@@ 35
jac@@ 35
yakalanıp 35
gruptan 35
generallerin 35
karmaşık@@ 35
kanaat 35
durumları 35
edilmedi 35
ziyaretine 35
ston 35
ekonomis@@ 35
açıklamalarına 35
eşiğinde 35
440 35
şeklindedir 35
pi 35
kilere 35
cephe@@ 35
verilmişti 35
mesajları 35
iniş 35
4,3 35
barrot 35
lem@@ 35
1987 35
sez@@ 35
savaşan 35
ılığında 35
borçlan@@ 35
çalışanlarına 35
fazladan 35
papulyas 35
virüs 35
srna 35
sahipliğinde 35
tüğ@@ 35
gördüğümüz 35
kalabalık@@ 35
boşnakların 35
nef@@ 35
diploma@@ 35
kabineye 35
berlusconi 35
sesine 35
realite@@ 35
liderlerden 35
diyaloğ@@ 35
başlatılacak 35
itirazlarını 35
yüzünü 35
takımında 35
çıkmayı 35
hanın 35
temelinde 35
delen 35
enlerden 35
cinayetleri 35
başlattığını 35
çeşitliliği 35
leşmiş 35
imden 35
söylü@@ 35
üretimini 35
hip 35
amacın 35
bulunmaması 35
ödediği 35
göğüs 35
yönetecek 35
haziri 35
suçladığı 35
hiu 35
hoşgörüs@@ 35
lendiğini 35
lib@@ 35
bırakın 35
tatillerini 35
prijedor 35
ımızla 35
gelenekleri 35
inşaatına 35
doğruluyor 35
reformdan 35
yakalamaya 35
.bg 35
baskıları 35
yurtiçi 35
korkuları 35
mevki 35
duvar 35
suçuyla 35
ödenen 35
evo 35
tanımladı 35
çıkarlar 35
subayları 35
simoviç 35
avlyeviç 35
imzalanmasına 35
hüs@@ 35
açılmasının 35
inen 35
şartlarına 35
kesine 35
1986 35
eğitimine 35
dizüstü 35
yarışmayı 35
yurtiçinde 35
tatbikatın 35
değiştirerek 35
sanılan 35
leştirilmiş 35
nce 35
lap@@ 35
bakoyannis 35
insanlarının 35
fine 35
fbi 35
cinsi@@ 35
eğitimini 35
yakıt@@ 35
komi@@ 35
teknolojiye 35
elerde 35
haberlerin 35
gereklilik@@ 35
pankart@@ 35
alamadı 35
unvanını 35
vakıf 35
hastalığı 35
bilinç@@ 35
gane 35
ilçe 35
krizinden 35
da- 35
devamına 35
kendilerinin 35
ihtilafa 35
arkeolog@@ 35
suy@@ 35
termoelektrik 35
kredisinin 35
üyenin 35
sözleşmesini 35
bologna 35
durumuyla 35
soruşturulması 35
yecekleri 35
mevsim@@ 35
müdahalede 35
otobü@@ 35
esin 35
wil@@ 35
değiştirmesi 35
bıraktığını 35
ion@@ 35
komplo 35
isteyenler 35
voda 35
matik@@ 35
17,@@ 35
evini 35
göstermekte 35
brankoviç 35
uygulandı 35
yıldırım 35
çıkararak 35
severin 35
bloğ@@ 35
kısa@@ 35
ıslah 35
akciğ@@ 35
maaşın 35
ızdan 35
eurobond 35
dragisiç 35
yatırımlara 35
curiç 35
teş@@ 35
kılıç@@ 35
gribinin 35
stojanovski 35
hayatın 35
vekariç 35
halkından 35
caz@@ 35
faş@@ 35
zubin 35
isa@@ 35
tahminleri 35
uzan 35
strpce 35
national 35
yerinin 35
wel@@ 35
satıyor 34
tekni@@ 34
düşürüldü 34
hareketine 34
klaudija 34
duğum 34
istikrarına 34
diğerinin 34
edilmemiş 34
vergisinin 34
girerken 34
sürün@@ 34
trajkoviç 34
ire 34
dairelerin 34
ordusundan 34
yükseltilmesi 34
turunu 34
edemeyeceğini 34
ludur 34
anlayışı 34
vermemesi 34
kadarı 34
önleyecek 34
bürokrasi 34
mesafedeki 34
tici 34
kaydediliyor 34
şeref 34
ash@@ 34
üzül@@ 34
lamayı 34
ıştır@@ 34
katılabilmesi 34
etmektir 34
antika 34
jür@@ 34
esin@@ 34
yansıması 34
tia 34
kros 34
müzenin 34
düzeyine 34
terörün 34
çerçevede 34
rakipleri 34
ljub@@ 34
hakimleri 34
kalkandere 34
stip 34
değerlendi@@ 34
ambargos@@ 34
çetesinin 34
dünyadan 34
kuneva 34
zo 34
örnekleri 34
6,7 34
ilişkilerden 34
sağlanmasında 34
vurgulamak 34
capital 34
fiyatını 34
nüfusuna 34
rom 34
fikirlerini 34
ekonomiden 34
katılacak@@ 34
şehirde 34
ys@@ 34
tekliflerini 34
deneyimlerini 34
lünün 34
yükümlülükler 34
söyledim 34
artistik 34
flor@@ 34
von 34
meslektaşları 34
tum 34
ita@@ 34
ediliyordu 34
ika@@ 34
çiç 34
sanırım 34
maliyetli 34
medeni 34
üstünlüğüne 34
gözlemcileri 34
tilecek 34
av 34
bayı 34
nitelikli 34
evlilik 34
sında 34
otoritesini 34
11. 34
joe 34
tokyay 34
hastaneler 34
yargıtay 34
gruplarına 34
çıkmazı 34
kızgın@@ 34
nitelendiri@@ 34
anlamak 34
kılacak 34
sabırsız@@ 34
görüşe 34
komisyonuna 34
mk 34
gelirli 34
taşım@@ 34
gerekirken 34
bağım@@ 34
yanaki 34
toplumlarına 34
ruh 34
vermesinin 34
sindirme 34
market@@ 34
ıdan 34
açıp 34
liderliğini 34
gazi 34
özgürlükleri 34
klerdir 34
anketlere 34
elizabeth 34
mep 34
sorulara 34
yardımının 34
diğeriyse 34
sevi@@ 34
mesafe@@ 34
üçüncüsü 34
konj@@ 34
kocası 34
voyvo@@ 34
harry 34
diplomatın 34
i̇vanovski 34
bilgisayara 34
dine 34
yaşadığımız 34
dönüştü@@ 34
muhaf@@ 34
itici 34
austin 34
acıların 34
konjanovski 34
sayılıyor 34
senatör 34
sf 34
uzatılması 34
açıklanması 34
sektörler 34
güçlendirilmesine 34
uştur@@ 34
ilçesinde 34
engellerden 34
bük@@ 34
baya 34
erz@@ 34
lamıştır 34
ılıklarını 34
i̇ranlı 34
etkilendi 34
bankaya 34
vergilerin 34
montenegro 34
yönleri 34
iyileşmesi 34
programından 34
örü 34
şaşırt@@ 34
sıkışırken 34
kaderi 34
tasarısının 34
ünüz 34
kolo@@ 34
bakanlıklarının 34
rı@@ 34
vü@@ 34
hatalar 34
maloviç 34
sabr@@ 34
şevo 34
ayaklanma 34
sanatı 34
konularına 34
otoyolunun 34
geçmişten 34
ittifakın 34
geliştirdi 34
filip@@ 34
kâ@@ 34
içeriği 34
adap@@ 34
mayarak 34
eceklerini 34
gördüklerini 34
vul@@ 34
hijyen 34
söylemesi 34
tam@@ 34
değişmesi 34
ilgilendiklerini 34
ilgileniyor 34
değişikliğinin 34
partilerini 34
önleye@@ 34
macer@@ 34
üretimine 34
algı@@ 34
kısmına 34
farket@@ 34
cere@@ 34
yorumlarda 34
yaşta 34
kapılar 34
4,7 34
görülüyorlar 34
kasabanın 34
suçunu 34
memija 34
kanalın 34
aldat@@ 34
war@@ 34
cil 34
ordudan 34
görüşte 34
dani@@ 34
kuruluşuna 34
alanlarını 34
grevler 34
ekonomil@@ 34
geçirecek 34
ivedi 34
soruşturmaları 34
soruşturmaların 34
ölümüyle 34
tüf@@ 34
göründüğünü 34
i̇stiyor 34
bulunduğuna 34
tanındı 34
bogdan 34
ücretin 34
zamanların 34
elebaş@@ 34
hareketli 34
teşek@@ 34
one@@ 34
gözünü 34
acen@@ 34
zorlukları 34
kurumlarda 34
nefes 34
kazandırma 34
kira@@ 34
görünümünü 34
uygulandığı 34
kararlılığının 34
kanununun 34
antonis 34
terfi 34
anması 34
tanıtım@@ 34
başlatan 34
credit 34
3,9 34
yaya 34
onda 34
sponsor 34
tutuklamaları 34
korudu 34
merhum 34
ilerdeki 34
kurbanın 34
ote@@ 34
wood 34
kesti 34
kayakçı 34
janin 34
i̇kö 34
230 34
hapiste 34
tutuklanmıştı 34
atıcılık 34
diplomatların 34
çiftçilerin 34
est@@ 34
kaldıran 34
şarkıları 34
rüşvet@@ 34
riga 34
adi 34
haricinde 34
luklar 34
ilişkilendir@@ 34
cephe 34
yasayla 34
arkadaşlarının 34
arzını 34
pusul@@ 34
kriter 34
gelmekte 34
konstantin 34
selam@@ 34
alabileceğini 34
drina 34
genişleyen 34
sanatsal 34
5,8 34
yarımadası 34
7,3 34
meblağın 34
isimlerin 34
lor@@ 34
ilç@@ 34
radar 34
dönüştürmek 34
hrw 34
astronomi 34
yayınlayacak 34
değiştirmeyi 34
kararlarına 34
aba@@ 34
rado@@ 34
şafak 34
onaylayarak 34
öğrenme 34
enstitü 34
drama 34
açılışına 34
lerinizi 34
singapur 34
görsel 34
açıkları 34
saate 34
4,6 34
tepe 34
davalarına 34
indir 34
stolojan 34
kap 34
tırken 34
yenilenen 34
ias 34
feribot 34
greve 34
op 34
hatırlıyor 34
müsteşar 34
i̇.ö. 34
patron@@ 33
beceri 33
i̇fa@@ 33
kapasitede 33
ulaşılabilir 33
konmasına 33
istişarelerde 33
şam 33
hazırlanmasında 33
devam@@ 33
yasağın 33
hk 33
ero@@ 33
cö@@ 33
girişimle 33
alsat 33
kaçırılan 33
gemileri 33
seyah@@ 33
kaydettikleri 33
dışarıdan 33
hızda 33
atifi 33
gösteriyorlar 33
işkence@@ 33
hayredin 33
kuki 33
vakaları 33
tos@@ 33
gov 33
klasman@@ 33
bok@@ 33
ışık@@ 33
çevrildi 33
adında 33
gerekip 33
dum@@ 33
çıkarsa 33
seçilmesini 33
eşya 33
benim@@ 33
söyledikleri 33
duygusal 33
kuzmanoviç 33
süreçlerini 33
wimbledon 33
emniyetli 33
karşılanıyor 33
multi@@ 33
saygıs@@ 33
i̇lişkin 33
metrelik 33
başlanması 33
osto@@ 33
başarılarını 33
reddetmişti 33
liye 33
aleksandro@@ 33
tonluk 33
mihajloviç 33
değişimin 33
nejat 33
kaydetmesi 33
meselesine 33
yönetmelikler 33
kablolu 33
kadastro 33
zeytin 33
ticarete 33
süreçlerine 33
sahibinin 33
topraklarından 33
tahsilat 33
birisine 33
lukta 33
yenilenmesi 33
kuvvetli 33
göstergeler 33
tru@@ 33
decani 33
kalp@@ 33
oyuna 33
aslan 33
meseleye 33
fazlasıyla 33
hakların 33
menşeli 33
yorgun@@ 33
tec@@ 33
kolektif 33
ulduğunda 33
öngördüğü 33
med 33
merkeziyet@@ 33
almada 33
yanıtlar 33
çeşitlilik@@ 33
zirvesinden 33
çıkarıldığı 33
ayrıntı 33
sıradışı 33
anlaşıl@@ 33
ertelemeye 33
izleyerek 33
kraliçesi 33
i̇lerle@@ 33
denizcilik 33
gezisinin 33
ziyaretinden 33
yetim@@ 33
senat@@ 33
ımız@@ 33
sınırlama 33
tehditlere 33
shi@@ 33
yapacaklarını 33
yönlerini 33
mirror 33
hepsini 33
başlatıldığını 33
uluyorlar 33
ısınma 33
kurşun@@ 33
belgeye 33
mrk@@ 33
onaylayan 33
iddialarına 33
hon@@ 33
gev@@ 33
çizen 33
elek@@ 33
çekin@@ 33
programlarını 33
mitro@@ 33
pahal@@ 33
selin 33
düşerken 33
tutuklamanın 33
nedenler 33
ed 33
olmasın 33
protestoları 33
alay@@ 33
taki@@ 33
yarinye 33
müzakerelerden 33
vah@@ 33
yapmadı 33
duygusu 33
tecavüz@@ 33
süreyi 33
düzenlemelerin 33
fik 33
hızını 33
protokolün 33
tamamlandığında 33
evlerinin 33
suçlamalarını 33
eusr 33
juncker 33
cher 33
safh@@ 33
büyüye@@ 33
halinde@@ 33
i̇vaylo 33
kurulmasında 33
vuciç 33
kazandırdı 33
yataklık 33
rumlar 33
köle@@ 33
kardi@@ 33
işliyor 33
mamasının 33
gücünde 33
yolcular 33
tef@@ 33
tetik 33
arzının 33
içeriğini 33
hayali 33
kaydedildiği 33
dinlen@@ 33
kullanımıyla 33
artırdığını 33
belirlenecek 33
alüminyum 33
rehabilitasyon 33
gitmesini 33
vakf@@ 33
ordusunu 33
tatbikata 33
adımlardan 33
kurallarının 33
stream 33
hrist@@ 33
operasyonlarının 33
850 33
mikereviç 33
i̇çinde 33
zırhlı 33
carlos 33
yararlanma 33
talebinin 33
uzmanlarından 33
dikkati 33
kaçtı 33
ivme 33
disiplini 33
gürül@@ 33
rakamları 33
öğretmeni 33
muamelesi 33
partilerinden 33
pale 33
duyurusu 33
birarada 33
oylar 33
erol 33
taktik 33
komşularının 33
selmani 33
fres@@ 33
sınıfı 33
pieter 33
milosavlyeviç 33
erişimini 33
cıyı 33
uygulayarak 33
tanıdığı 33
olayında 33
eşiğine 33
örler 33
üğe 33
sko 33
öldürmek 33
zanlılardan 33
uluğunu 33
gayret@@ 33
ıcılık 33
zet@@ 33
saldırılarını 33
çarş@@ 33
görebilir 33
gezisinde 33
gostivar 33
çeyre@@ 33
güçlüklere 33
gerçekleştirecek 33
durumundaki 33
ilgiyi 33
endüstriyel 33
gayret 33
ortalaması 33
yönete@@ 33
sonucudur 33
gidişatı 33
mağar@@ 33
inizde 33
muz@@ 33
transit 33
alanını 33
köpr@@ 33
tra 33
kabineyi 33
kulübünün 33
içki 33
112 33
sunumu 33
istemişti 33
burs 33
duruşması 33
piç 33
ores@@ 33
çevreci 33
girişimlerin 33
gsmh 33
dilimini 33
sından 33
yazarın 33
yönetmelikleri 33
tug@@ 33
eleştirmen@@ 33
çektiler 33
istisna 33
dba 33
genişletilmiş 33
manipül@@ 33
düzineden 33
saatlerce 33
tavsiyelerde 33
başlanacak 33
baskınlar 33
brdo 33
tudor 33
islav 33
oturt@@ 33
üretime 33
ilkesine 33
osi 33
kül 33
sevkiyat@@ 33
9,5 33
performansının 33
seemo 33
kullanıyorlar 33
har 33
konuşlan@@ 33
desteklemektedir 33
sevkedil@@ 33
cl@@ 33
sürtüşme 33
gevşe@@ 33
yumuşat@@ 33
koalisyonunda 33
5,2 33
ljubomir 33
söy@@ 33
lüyor 33
ıyorsa 33
zagrepli 33
yapılarının 33
kabil@@ 33
kalabalığı 33
ömür@@ 33
suçlaması 33
buğday 33
tüketicilere 33
dıklarında 33
aklamayla 33
valisi 33
neyin 33
kaba@@ 33
ana@@ 33
durduruldu 33
mobi@@ 33
polancec 33
kaczynski 33
kurup 33
iyileştirilmesine 33
sayımında 33
aff@@ 33
çifti 33
lini 33
kck 33
büro@@ 33
raçan 33
alarma 33
i̇lazi 33
yıkıl@@ 33
giu 33
iom 33
antlaş@@ 33
özelleştirmeden 32
kötüsü 32
ayrımcı 32
edeceğim 32
başlatacağını 32
baskında 32
cihazları 32
yürütüldü 32
imzaladıkları 32
uğruna 32
resep@@ 32
toplantılarda 32
halklar 32
kaçakçı@@ 32
uçakları 32
benin 32
sular@@ 32
makin@@ 32
5,3 32
diğerleriyse 32
barajın 32
yöre 32
korunmuş 32
kavga 32
i̇lir 32
operasyonlara 32
ayrıntılarını 32
jet@@ 32
idaresini 32
adliye 32
konvo@@ 32
besim 32
bahç@@ 32
yuz 32
yalç@@ 32
sürdürmesini 32
şampiyonluğu 32
göreceğini 32
beton 32
site 32
açılacağını 32
tartıştı 32
jon@@ 32
mühendis 32
hissi 32
durduğu 32
i̇nşa@@ 32
önceliğin 32
geçirilmesine 32
haftas@@ 32
kazası 32
blanka 32
kutlayan 32
nav@@ 32
duruluyor 32
onuncu 32
gezisini 32
heyete 32
usa 32
barrett 32
inşasını 32
modernizasyonuna 32
belgelerinin 32
izlediğini 32
dillerinde 32
başlangıç@@ 32
kuruyor 32
kaybediyor 32
bırakmaya 32
trayko 32
ator 32
etmeyeceği 32
jimnastik@@ 32
liklerle 32
droutsas 32
varılması 32
sonunu 32
vuckoviç 32
istek 32
birbirini 32
pun@@ 32
siv@@ 32
bala 32
etmelidir 32
sınırlandır@@ 32
şirketlerinden 32
kızdır@@ 32
beli@@ 32
durdurulması 32
gizlice 32
danın 32
ame@@ 32
dünyasına 32
adaylarının 32
jeleva 32
yönden 32
cemaat 32
cesinde 32
almaktan 32
derecesi 32
uri 32
alanın 32
tabanı 32
desteklendi 32
iletişimi 32
[...]
