<pad>
<eos>
<unk>
,
.
&apos;
ve
&quot;
bir
da
bu
de
için
/
nin
ab
nın
ın
ile
)
(
günü
@-@
sırbistan
kosova
olarak
in
olan
daha
a
-
en
dedi
:
avrupa
yeni
söyledi
türkiye
göre
daki
çok
olduğunu
sırp
&#93;
&#91;
yer
iki
dan
arasında
tarafından
büyük
uluslararası
makedonya
son
yıl
bh
devam
etti
ya
ilgili
kadar
hırvatistan
ancak
diğer
siyasi
belgrad
bakanı
times
yaptığı
ye
başkanı
konusunda
e
arnavutluk
üzere
her
ülkenin
den
eski
un
setimes
abd
olduğu
european
southeast
karadağ
bulgaristan
cumhurbaşkanı
önemli
milyon
karşı
--
sonra
i
yunanistan
ilk
romanya
gibi
nato
bm
ta
10
fazla
%
haberi
genel
yüzde
ise
yılında
verdiği
ülke
11
iyi
kabul
şekilde
ekonomik
devlet
birlikte
olmak
ler
bosna
önce
leri
türk
dışişleri
başbakan
;
lar
nun
üç
te
sahip
savaş
içinde
ne
sonrasında
deki
yüksek
güvenlik
yaklaşık
ediyor
ı
pazartesi
geçen
yapılan
veya
12
üzerinde
bin
şöyle
oldu
hersek
hükümet
gelen
değil
hırvat
hafta
söz
açıklamada
ayında
bütün
ları
lerin
başbakanı
fakat
kıbrıs
bunun
çarşamba
polis
ayrıca
o
özel
belirtti
ay
eden
yerel
avro
yol
üyelik
işbirliği
aynı
geri
dünya
09
salı
düzenlenen
getty
images
geldi
ulusal
var
inin
yönelik
07
05
bazı
06
yerine
ların
sıra
priştine
demeçte
04
03
reuters
08
alıyor
hakkında
li
ten
verdi
afp
yeniden
konusu
yönünde
partisi
pek
yanı
karar
biri
yardım
lerini
arasındaki
yana
üyesi
gerektiğini
an
ortak
20
la
pazar
enerji
1
tek
ini
hükümeti
lerinin
arnavut
ının
konuşan
al@@
mart
uzun
alan
olacak
?
iş
sadece
mayıs
ekim
haziran
larını
perşembe
çeşitli
ını
tüm
aralık
yi
parti
ocak
amaçlı
hükümetin
diyen
aldı
le
makedon
15
anlaşma
şu
bulundu
destek
lere
dört
ak
mücadele
on
yetkililer
gün
ma
2
u
k@@
temmuz
hem
kasım
etnik
karşın
lara
açısından
nisan
üsküp
barış
bakanlığı
30
yunan
yı
balkan
bulunuyor
geçtiğimiz
larının
savunma
iç
az
araya
saraybosna
ına
ap
dahil
mevcut
balkanlar
kültür
rağmen
ana
eylül
bulgar
tam
larına
zaman
yardımcısı
ziyaret
me
kamu
komisyonu
aldığı
resmi
şubat
kendi
sorumlu
seçim
kosovalı
lerine
yatırım
ortaya
ki
25
bekleniyor
at@@
askeri
gerekiyor
olması
konseyi
lik
atina
ileri
ine
sırasında
başka
etmek
yalnızca
3
yapılacak
ikinci
anda
anlaşması
para
tadiç
milyar
diyerek
ekonomi
merkezi
üye
maya
eğitim
rusya
yıllık
dış
mak
kişi
görev
ekledi
katılım
altında
17
şey
avroluk
söylüyor
cuma
basın
yakın
kal@@
cumhuriyeti
an@@
nedeniyle
bulunan
ayı
sayıda
ağustos
beş
insan
16
amacıyla
ev
bankası
hiçbir
ar@@
bunu
bosnalı
bölgesel
üst
edilen
02
meye
e@@
13
ciddi
brüksel
ilişkin
açık
kaynaklar
tan
dile
teki
lerinden
-@@
18
kısa
gereken
oy
6
başladı
ç@@
kapsamında
ticaret
bakan
sona
14
yönündeki
ardından
lerden
sınır
ilerleme
haber
altı
inşa
mali
sc
batı
27
mahkemesi
larından
5
01
suç
sosyal
mek
di
tiran
bölge
derece
masına
lahey
meydana
kuzey
durumda
önümüzdeki
şeklinde
güçlü
diyor
mesi
4
taki
er@@
güneydoğu
2004
s@@
elde
demokrat
meclis
bile
ıyla
adlı
kararı
gelecek
z@@
ması
21
il@@
larla
suçları
ankara
sözlerine
demokratik
imf
i̇stanbul
lardan
7
günkü
sofya
t@@
ülkede
24
toplam
ifade
mladiç
22
erdoğan
farklı
ında
durum
lerde
yılın
bükreş
çoğu
larda
ün
8
mesine
oviç
düşük
c@@
çözüm
19
ele
almanya
süre
23
küçük
hale
hazır
yaşanan
ından
artık
film
28
lerle
üzerine
gerekli
el
yargı
aday
ama
le@@
lı
ülkeleri
lerinde
yabancı
yine
adalet
yolunda
yap@@
düzey
inde
masını
sağlık
oluşan
larında
mesini
ak@@
26
lideri
2007
rum
yaşındaki
yok
dairesi
organize
nde
se
edecek
ülkesinin
si
y@@
birliği
mayı
meyi
olmadığını
sorun
teslim
göster@@
halinde
katıldı
ettiği
ülkedeki
günlük
bilim
2008
etme
in@@
iddia
burada
zorunda
satın
olumlu
ver@@
kredi
irak
orta
d@@
te@@
yugoslavya
k
bağlı
başta
sonunda
zamanda
mış
i̇ki
var@@
reform
konuşmada
toplum
belediye
m@@
icty
lider
ortaklık
hakları
la@@
ş@@
inden
elektrik
merkez
yasa
özellikle
29
boyunca
dı
birkaç
9
turizm
zagreb
dair
de@@
buna
leriyle
unun
ıyor
bağımsız
2006
uygun
acak
çıkan
i@@
miş
bil@@
kazandı
na
ülkelerin
herhangi
manın
2005
kötü
ma@@
nda
arak
açıkladı
masının
anayasa
merkezli
slovenya
müdürü
yüzünden
hâlâ
larıyla
üyeliği
sivil
bilgi
50
arada
yandan
açtı
g@@
getirdi
maları
olacağını
yaptı
h@@
lık
yetkili
bölgede
serbest
ü
adım
yolsuzluk
kalkınma
konulu
unmik
o@@
henüz
çağırdı
öne
tarihi
2009
fransa
unu
muhalefet
raporda
bağımsızlık
romen
ülkeler
yılı
hakkındaki
takdirde
halk
bunların
cumartesi
iste@@
sahibi
ülkelerinin
hükümetinin
festivali
l@@
temel
boris
mümkün
süreci
nasıl
komisyon
yardımcı
kentinde
yapan
en@@
p@@
yolsuzlukla
gösteriyor
t
doğru
kaydetti
yayınlanan
grubu
100
bölgedeki
et@@
küresel
2010
türlü
çalış@@
kostunica
cumhurbaşkanlığı
gerçekleşti
ası
er
m
gerçek
izin
zor
şimdi
başlarında
diğini
açıdan
me@@
geç@@
mahkeme
doğrudan
rehn
sonuna
olduğuna
yaşayan
başkan
kar@@
the
diği
kur@@
temsil
çalışma
haline
parlamento
mi
ca
menin
n@@
kurulu
suçu
f@@
karşıya
una
vergi
altına
koruma
yıldır
yetkilileri
demokrasi
re@@
süren
erken
mesinin
parlamentosu
ettiğini
spor
verilen
kazan@@
ülkeden
görülüyor
mevkidaşı
s
edilmesi
önceki
üçüncü
aralarında
veren
petrol
başlıca
sekreteri
çıkar@@
b92
aları
as@@
i̇talya
proje
üyeleri
hala
u@@
sözcüsü
ne@@
beri
kfor
ay@@
ötürü
bulun@@
politika
duyurdu
ilişkileri
agi̇t
etmesi
geliyor
i̇nternet
gerçekleşen
grup
yönetim
b@@
dönemde
yle
i̇ş
ti@@
dünyanın
ilan
40
etmeye
dığını
kullan@@
2@@
aş@@
güney
ol@@
1995
kon@@
genç
i̇ngiltere
oranında
şirketi
masından
ceza
ke@@
olmasına
unda
ek
neden
acağını
kez
başarılı
hava
ye@@
2003
tür
mi@@
vize
washington
ahtisaari
li@@
oldukça
doğu
işaret
alacak
akp
pkk
31
artış
bütçe
hareket
başına
sırplar
madan
rol
teknik
man@@
aç@@
zoran
bugüne
önde
ordu
şiddet
toplantısında
ka
ajansı
durumu
ti
v@@
kişinin
sağlayacak
eulex
üzerindeki
bugün
ediliyor
makla
euro
3@@
bbc
benzer
sorunu
edil@@
rus
dışında
ederek
halkın
nikola
a@@
be@@
çık@@
ülkeye
sözü
ıp
ait
geniş
i̇@@
dığı
konuştu
dönem
çağrısında
sonraki
net
meleri
parçası
kadın
baş@@
sahipliği
ulaş@@
yedi
yeterli
yılından
medya
seçimleri
önünde
anlamına
bundan
böyle
edildi
di@@
j@@
örgütü
ıl@@
anlaşmanın
ce@@
kuruluşu
üniversitesi
konusundaki
sa@@
sözlerinde
sekiz
kalan
su
gerektiği
kriz
sa
tekrar
maliye
ilişkiler
iş@@
kontrol
si@@
baş
boru
liderleri
makta
vurguladı
diye
sayısı
birinci
reformları
yılki
ikili
sağlamak
şirket
ek@@
müzakerelerin
ünün
ülkeyi
is@@
tehdit
ko@@
yetkililerin
olmayan
belli
1999
gör@@
yasal
alma
yüzden
r@@
dizi
gümrük
istiyor
masıyla
tamamen
adı
basescu
terör
isi
i̇stikrar
konu
statü
bul@@
giderek
sürekli
önem
almak
alman
z
4@@
alın@@
statüsü
umut
sanader
berişa
halkı
ettiler
gül
ülkesi
gsyi̇h
onun
bulunduğu
hizmet
i̇çişleri
nden
araştırma
adet
işbirliğini
mar@@
mekle
nihai
olmaya
çalışan
mal
yapılması
neredeyse
bak@@
rumen
indeki
müzakere
yılına
çağrıda
aşırı
halkının
avrupalı
bakış
kaynak
sistemi
uzlaşma
iler
bunlar
iyle
sun@@
azınlık
katıl@@
p
avroya
dur@@
dikkat
doğal
nükleer
ra@@
ba@@
kürt
yoluyla
yasadışı
500
dpa
miloseviç
sürdü
altın
ar
büyükelçisi
karadziç
seçimler
soruşturma
mıştı
ın@@
tarım
öncesinde
komutanı
yılda
başında
emekli
memnuniyetle
el@@
adayı
büyüme
gel@@
silahlı
ci
verildi
hemen
arası
getir@@
hiç
toplumun
yaz
atlantik
söylediler
temsilcisi
undan
ı@@
olsa
ön
olası
sırada
on@@
programı
sürecinin
ila
del
giden
ndan
olmadığı
abilir
...
planı
talep
ölçüde
düzenlediği
enstitüsü
r
se@@
200
60
gruevski
hukuk
koalisyon
ha@@
recep
kesin
tı
bizim
jovanoviç
tut@@
öner@@
hedef
dini
görevi
olabilir
ordusu
oranı
1990
anlaşmaya
liderler
desteği
gücü
güvence
or@@
stratejik
tayyip
ponte
san@@
un@@
çalışıyor
çünkü
am@@
baskı
istikrar
teşvik
2002
uzmanlar
erek
yugoslav
sorunları
öte
onu
zira
iç@@
uy@@
ıldı
milletvekili
potansiyel
mekte
ırken
defa
siz
söyle@@
ik@@
iktidar
çıktı
avusturya
isim
partinin
banka
im
sürüyor
ticari
engel
kendisini
meden
müslüman
partisinin
olma
bölgenin
sonuç
yaşam
gösteren
olup
zarar
dil@@
liği
ediyorlar
lan@@
ortadan
dılar
geçiş
lığı
sat@@
alı
binlerce
bırak@@
im@@
taraf
medi
mı
teknoloji
gerek
din@@
ro@@
olumsuz
2001
acağı
alanında
os
malı
sırpların
çevre
artan
iye
özelleştirme
ındaki
yarat@@
ul@@
ım
hızlı
dava
ç
çocuk
ser@@
civarında
kesimi
kültürel
maktadır
planlıyor
madı
sürecini
yapıyor
kaçak
2011
general
yan@@
5@@
diler
kap@@
bi@@
gaz
üne
uygulama
birlik
elçisi
olimpiyat
temsilciler
ratko
çek@@
polisi
üyeliğine
insanların
bölgesi
sinin
ad@@
görüş@@
ü@@
iz@@
karşılaş@@
madalya
yakında
ısrar
dön@@
hattı
kaldı
ni
gir@@
günlerde
mişti
söyleyerek
silah
temsilci
ali
gazetecilere
geçici
madığını
mediğini
uyuşturucu
yapacak
yapmak
bekliyor
gotovina
söylüyorlar
tepki
derneği
i̇ngiliz
projenin
takım
teşkil
asını
macaristan
onayladı
ik
ina
toplantı
yanlısı
acil
dokuz
müzakereleri
partiler
ev@@
görüşme
isteyen
sosyalist
faaliyet
sorunlar
yürürlüğe
göz
protesto
verdiler
bazıları
libya
görüşmede
solda
yönetimi
destekle@@
vadeli
yaptıkları
uyardı
yar@@
gerçekleş@@
ğ@@
ılmış
alınan
finans
new
olasılıkla
rapor
verme
işle@@
par@@
açıldı
değiş@@
masında
seç@@
solana
üzerinden
anlaşmayı
ken
vojislav
i̇ran
mesiç
aylık
duy@@
sel
yaş@@
ünü
ashdown
gösterdi
liderliğindeki
mas@@
toplantıda
yerli
beklenen
planlanan
bar@@
işbirliğinin
komitesi
maması
dir
it@@
1992
bakanları
katılan
geleceği
i̇nsan
mer@@
oluştur@@
roman
cinciç
doğalgaz
konuda
ri@@
et
kapat@@
madığı
ilerin
raporunda
ılması
mediği
sonucunda
etkili
sert
asker
at
bağ@@
rekabet
veril@@
başar@@
bildirildi
ip
komşu
sağlan@@
analistler
bakanlar
koviç
lu@@
malarını
tak@@
tan@@
yürütülen
çaba
kurulması
olduklarını
tarihli
har@@
ihtiyaç
d
edeceğini
miyor
olli
slobodan
sonuçlar
gelecekte
ter@@
asına
davet
kararını
kat@@
n
yolu
da@@
ab@@
boz@@
gönder@@
yak@@
hollanda
srebrenica
tarihleri
artır@@
i̇srail
lar@@
reformu
önüne
anın
düşünüyor
gelir
git@@
görüşmeler
mu@@
yaz@@
ılan
2000
c
cı
dek
somut
çerçevesinde
alar
güven@@
is
konuş@@
man
seçimlerin
uygulanması
70
bas@@
meclisi
mesinden
devletin
katkıda
ıyorlar
fransız
sonucu
taşıyor
sanat
ac@@
ayın
olmakla
tahmin
arşiv
bekle@@
ku@@
sar@@
siyaset
alındı
kendisine
yerini
bin@@
güç
6@@
alması
gözden
300
lu
ecek
kaldır@@
ko
yapmaya
kan@@
iade
inan@@
i̇lk
gerçekten
haberlerinde
ler@@
açıkça
ge@@
karşılıklı
saa
seyahat
uygula@@
yapıl@@
hakkı
hayata
mal@@
tur
35
bir@@
övgüde
ayrı
gizli
yani
asının
der@@
tedbirler
teklif
h
mada
os@@
stk
uygulan@@
başkanlık
diplomasi
nüfus
veriyor
alınması
federasyonu
işsizlik
şirketin
diyalog
görüşmelerde
ilerle@@
iyor
abileceğini
dır
kenti
kilit
tarihte
durumun
dışı
mesiyle
radikal
yanıt
çalışmaları
19@@
altyapı
futbol
hapis
kurulan
nitelendirdi
oranda
sık
ci@@
geliş@@
kesinlikle
luka
mahkemesiyle
sini
ır
diplomatik
anlaşmasının
saygı
do@@
kaydedilen
l
müzakerelerinin
ov
verecek
düşün@@
oluşturuyor
örgüt
alanda
olma@@
reformların
seçimlerde
düzenle@@
genişleme
vermek
aya
değişiklik
ilerinin
olmasını
telekom
yayınladığı
du@@
f
uygulamaya
dolar
luk
sürecinde
ağır
bal@@
dodik
ni@@
esi
iktidardaki
konuşmasında
projesi
sine
toplumsal
york
geleneksel
meyeceğini
müzakereler
olmadan
ortalama
sağla@@
bağımsızlığını
başlattı
görülen
insanlar
onları
plan@@
yılındaki
dayton
ihtiyacı
i̇talyan
yönde
bu@@
lük
olanak
düş@@
g
malarına
tar@@
binden
genişlemeden
podgorica
yıldan
göreve
sız
zagrep
biz
mede
olacaktır
sal@@
sağ
suçla
yasanın
ce
istifa
papandreu
reformlar
enin
geçir@@
sür@@
verilecek
ödülü
anlar
annan
komünist
olay
seydiu
temsilcileri
adımlar
len@@
örneğin
as
belirtiyor
edilmiş
endişe
inanıyor
kolay
kurma
radovan
sektörü
banja
etkinlik
eyaletin
oluyor
ur@@
birliğe
girişimi
arnavutlar
meli
ziyareti
ziyarette
çiz@@
az@@
imzalanan
makamları
mesinde
belirtildi
kapsamlı
tartış@@
to@@
çabalarını
hatta
i̇slam
başkanlığını
başvur@@
bilir
olacağı
reddetti
ön@@
belirten
deniz
dünyasında
söyleyen
öz@@
80
maktan
sisteminin
sözleri
birisi
dıkları
çin
anlaş@@
em@@
görün@@
kampanya
scheffer
7@@
b
fil@@
ladı
yol@@
başla@@
içindeki
vatandaşların
hoop
aların
basında
başa
görevdeki
koy@@
ortodoks
tarih
televizyon
imzaladı
almaya
milletvekilleri
ağı
biraz
gerek@@
idari
ka@@
kurumları
alarını
dönüş@@
haberlerde
imzaladılar
politikası
zamandır
üye@@
amerikan
birleş@@
boşnak
den@@
istedi
i̇spanya
so@@
tomislav
uyarınca
inşaat
i̇ş@@
sorunun
um@@
saat
savun@@
tanınmış
şart
edilecek
kazanan
sürecine
yapma
çabaları
öğretim
ık
hayatını
lardaki
ban@@
durumunda
engelle@@
heyeti
lerindeki
mayacağını
sayesinde
sürdür@@
kararın
partilerin
hitaben
ilişkilerin
milliyetçi
ımı
alarının
analist
sor@@
abdullah
av@@
eylem
etmeyi
moskova
yu
gi@@
hareketi
mahkemenin
oldukları
birliğin
savaşı
bat@@
bize
partileri
90
borç
ilgi
mez
yıllardır
değer
terk
yıllarda
aldığını
bölgesinde
dolarlık
mücadelede
savaş@@
erkek
haberlere
herkes
adil
belgede
bo@@
dragan
istediğini
mil@@
müzakerelerini
paylaş@@
sürecin
acağına
mıştır
değişiklikler
getirmek
suriye
yarış@@
zor@@
ağ@@
yayın
ilen
kısmı
sağlama
sev@@
ş
gazeteci
hal@@
muş
ız
afganistan
başlayan
ben
imzalandı
taraflı
yen
geldiler
getiren
kaç@@
şehir
aile
biçimde
değerlendir@@
hukukun
sağda
toplantısı
ödül
göz@@
ov@@
öngörülüyor
özgür
girişim
vardı
yapacağı
bunları
eşit
ihlal
uyla
davran@@
gitti
kas@@
memesi
nikoliç
voa
eceğini
emin
i̇gor
tü@@
y
çek
af@@
bildiride
du
geliştir@@
fatmir
belirtiliyor
doğ@@
geldiğini
katılmak
çi
dünyası
imi
mo@@
adriyatik
asında
etki
kol@@
sergi
ulaştırma
bank
es@@
kamuoyu
sayısının
sundu
yanında
açıkla@@
bütünleşme
dağ@@
gerçekleşecek
han@@
larındaki
ola@@
yıla
ış@@
ama@@
değiştir@@
görüşmek
güvenli
hedefi
içişleri
toprak
zamanı
.@@
gün@@
krizin
yay@@
j
kurtarma
etme@@
onlara
sorumlusu
zrvenkovski
ülkelerine
grubun
pan@@
sali
verdiğini
yık@@
üretim
şartları
1@@
bildirdi
eylem@@
görüyor
kararlı
terörle
vladimir
yat@@
üyelerinin
abileceği
milli
nüfusun
puan
röportajda
çoğunluğu
gazetesinin
görünüyor
kay@@
km
tanı@@
uzak
bileceğini
birçok
pazar@@
yas@@
ülkelere
dikleri
kalma
sonu
verilmesi
yaşan@@
şeyi
amacı
dık
kişilerin
ru@@
uygulanan
ımız
bakanlık
bununla
siyle
us@@
150
400
dayalı
getiriyor
iy@@
yla
durumdaki
iler@@
ilmiş
liğini
misyonu
olursa
program
sonuçları
su@@
tiyatro
başkanlığı
gazetesine
ifadesi
liberal
viyana
öğrenci
başlat@@
isinin
karamanlis
mekten
ohri
olasılığı
takımı
yazar
yönetmen
önceden
ünden
2012
ft
ünde
ünlü
ban
kaçakçılığı
müzik
oğlu
per@@
uyarıda
yet@@
1991
açıklama
başlayacak
dar@@
goran
hi@@
karmaşık
tığı
belge
bölünmüş
ederken
hak
kara
koalisyonu
layan
bur@@
din
dıktan
entegrasyon
ılıyor
istikrarı
jeremiç
memnun
merkez@@
mitrovica
vuk
ün@@
görevden
haberine
isine
raporu
süredir
tığını
yayın@@
alarak
bakan@@
düşünüyorum
etmekle
gez@@
güvenliği
haşim
uzman
yakınlarındaki
alarına
anlaşmasını
birleşik
direktörü
düzeyde
adına
mektedir
ovski
rfe
yaşam@@
lerdeki
rl
bloğun
devr@@
geçerli
top@@
çoğunluk
duyduğu
firması
ikna
oluş@@
polonya
sak@@
sürece
süreç
toplu
zorlu
barroso
bilgisayar
derecede
görüş
onların
sfor
uz@@
haberleşme
kurumsal
olsun
gıda
hayal
seçimlerinde
ıyordu
dü
görül@@
güven
döneminde
gerekse
melerini
ot@@
özgürlüğü
1998
altındaki
ber@@
sigara
tasarruf
altını
elinde
filmi
kupası
merkezinde
oyun@@
sanayi
verici
yen@@
abilecek
itibaren
linda
yapmayı
yıl@@
askıya
ken@@
taş@@
vermeye
başsavcısı
moldova
yoğun
ür@@
ılmasını
azalt@@
hükümete
ir@@
konuyla
korunması
meyen
sürecek
ta@@
tanım@@
yaygın
ada
başarı
fir@@
lay@@
may@@
çekti
bildiriliyor
görüşündeler
kan
muhalefetteki
ova
referandum
başlaması
dolu
eli
ja
lığa
milorad
asla
dayan@@
görevli
maz
tedbirleri
telefon
ö@@
bölümü
mıyor
yer@@
yüz@@
artırmak
mü@@
noel
resmen
sağlayan
öncesi
hazırlanan
sonrası
taşıyan
tehlikeye
yüzlerce
kimse
rolü
traian
ahmet
hak@@
i̇ttifak
siyasiler
sonlarında
yorgo
ülkelerde
art@@
artırma
açılan
izle@@
mahkemeye
noktası
ona
tartışma
us
yetkililerle
düzenlendi
ic@@
toplumu
önlemek
şimdiye
bilecek
istikrarlı
mamış
yerek
zaten
ır@@
ildi
tutuklan@@
ulaştı
aldılar
cep
george
seçimlere
sınır@@
yardımı
çağrısı
ayrıl@@
bağış@@
düzenledi
gelecekteki
ikisi
lama
paul
profesyonel
turist
yetkilisi
derhal
fikir
geçti
görmek
ica
kurul@@
mayan
ortak@@
sorunların
acaktır
dav@@
gerçekleştirilen
köy@@
men@@
uyar@@
vi@@
çağdaş
harekete
ilerle
tespit
vermesi
8@@
birinin
duyur@@
gerçekleştir@@
güç@@
ilerden
yavaş
bölün@@
pe@@
seviyede
w@@
bakanlığının
etkile@@
georgi
hat@@
kişisel
meyecek
şunları
9@@
büyü@@
ere
gazetesi
kişiler
kız@@
nı
öğren@@
getiril@@
po@@
ze@@
açtığı
bush
cez@@
düşüş
işbirliğine
st@@
yapması
çalışmaya
ülkelerden
branko
hazır@@
ir
iyileş@@
işe
polisin
yanlış
yasayı
zafer
aktif
bulundular
doğruladı
sağlanması
tariceanu
tur@@
al
belirle@@
kendisi
lajcak
mahkemesinin
malıdır
rakam
antonio
bekleyen
hdz
müzakerelere
müzakerelerine
parvanov
sektöründe
um
üs@@
istiyoruz
liğe
operasyon
popüler
radiç
tatil
tercih
yalı
bula@@
görevini
kuvvetleri
kuş@@
sıkı
tamamlan@@
tiği
alara
ap@@
beta
dik
kor@@
piyas@@
ve@@
eceği
görüşmelerin
i̇çin
kıyasla
siz@@
temas
yeşil
örnek
antik
ebrd
okul
osu
plan
üniversite
festival
ihracat
mayacak
yasası
düzenlenecek
geldiği
isini
katılma
kendilerini
kişilik
malarının
açıklamasında
düzenleme
indir@@
i̇sviçre
olanağı
akdeniz
araştır@@
dikkate
duruş@@
duğu
halka
hav@@
il
nehri
suçlu
süresi
alanlarda
enflasyon
eş@@
fırsat
iz
karadağlı
karşıtı
lığını
mesele
sağlam
000
ara
edin@@
getirilmesi
ilerine
irken
karadaku
krizi
spor@@
tartışmalı
ıla@@
ılacak
45
benim
dıklarını
hazırla@@
sağlay@@
yılının
öde@@
0,@@
karşıladı
kent
maaş
alarda
bileceği
bizi
edip
i̇vo
programına
sağ@@
tür@@
tı@@
v
amerika
duğunu
fon@@
londra
sağladı
standartlarına
sunduğu
dikten
müzesi
suçlanan
yılları
çaplı
bölgeye
girdi
sloven
suç@@
sözde
tin
ia
katılıyor
müş
schengen
vatandaş@@
üyeliğinin
ım@@
aday@@
ankete
atılmış
ayındaki
durum@@
kalacak
melerine
mülteci
na@@
seçmenlerin
tek@@
ukrayna
vatandaşları
biliyor
i̇yi
mahkemesine
odaklan@@
sel@@
ter
tu@@
ede@@
ekonominin
gaz@@
ger@@
haberlerine
heyet
ho@@
işi
karadeniz
karşılığında
sağlıyor
sinde
undaki
vazgeç@@
yasaları
anayasal
belge@@
belirgin
go@@
lo@@
sen@@
tarafı
uyor
bilmesi
georgiev
ile@@
kanıt@@
kurumlar
rol@@
sorumluluk
soruştur@@
zaman@@
öngören
don@@
milan
savunuyor
stipe
yaklaş@@
alarında
can@@
dağıt@@
devleti
ekonomisi
göç
ilerini
kaydettiği
kentin
seçmen
sözlerini
yapıldı
yasak@@
çöz@@
öl@@
üstlen@@
şartlar
alanlarında
açık@@
eleştir@@
fazlası
i̇şbirliği
olduğundan
çabalarına
üçte
55
acaklar
bulmak
dal@@
eğlence
gazeteciler
javier
korumak
kurumlarının
mesaj
çerçeve
açıl@@
dördüncü
etmiş
ilere
müdahale
tarihinde
ten@@
vatandaşlar
çözüme
önerilen
dığına
hesap@@
karşılan@@
kaynağı
kleri
nedeni
seçil@@
sırasıyla
ıldığı
şeklindeki
bazda
birini
güçleri
it
miz
beklediğini
buckovski
kın@@
mak@@
nün
radyosu
çalışması
özgürlük
dönemi
etkinlikte
geç
insanları
işleri
tah@@
tarafın
cu
diğine
euobserver
genişle@@
karış@@
katkı
korun@@
lanan
lanıyor
soykırım
taşı@@
önünü
alı@@
artırılması
belirlen@@
diplomat
hizmetleri
lenen
talat
temaslarda
ton
özelleştir@@
görev@@
görüşmesi
içeren
kilometre
novi
ortasında
planını
van@@
almayı
idare
kr@@
lik@@
macar
martti
onayla@@
van
ilmesi
kullanılacak
minin
nüfusunun
tamamlanması
ödülünü
birimi
duyulan
etmesini
geliştirme
ivo
kritik
melidir
ortada
sandalye
örgütün
afrika
getirme
haklarını
kurmak
lığın
normal
rapora
suçladı
toplum@@
yecek
yüksel@@
zayıf
çapında
ül@@
bulma
büyükelçiliği
dev
genelinde
olabileceğini
selanik
to
yardım@@
yaşadığı
yaşıyor
yetkililere
önündeki
ayrıntılı
açan
açılış
bulunduğunu
eviç
gider@@
kaz@@
kitap
miştir
toplan@@
abil@@
bankacılık
ciç
girişim@@
kostas
mensuplarına
petersen
sin@@
telefonu
şirketler
düzenli
etmesine
götür@@
parlamentonun
pat@@
sermaye
tik
vur@@
yolundaki
ğine
şansı
aki
bilinen
kabine
karşıla@@
kut@@
ndeki
siç
süre@@
teşkilatı
verilere
şüpheli
1.@@
adını
alındığında
araç
batılı
bhf
dır@@
etkin
incele@@
iptal
katıldığı
kim@@
lı@@
paris
çocuklar
öldür@@
aylarda
bağış
erdi
gecik@@
jessen
pet@@
saldır@@
tanık
tanın@@
toplantıya
örgüt@@
ıydı
değildir
hukuki
oran@@
up
üz@@
ğinin
can
duyuruda
he@@
makamlarının
nokt@@
seçildi
uzat@@
zengin
çal@@
alternatif
ekliyor
gar@@
hasani
international
rugova
süreyle
ıdır
ılmasına
acağız
acı
aslında
dolayısıyla
dur
gen@@
kır@@
kısmını
news
of
olmayı
olur
ötesi
ülkelerinde
18@@
dım
edilemez
hedefine
inanıyorum
i̇sveç
metre
onlar
reddet@@
yakalan@@
yan
ği
asya
davanın
davutoğlu
gösterdiği
katı
kler
maruz
radyo
sil@@
tuna
ışık
75
etkisi
etmişti
haber@@
istihdam
katılımı
ledi
merkel
sayısını
ülke@@
120
alınacak
bana
düşür@@
iliyor
kaydedildi
kı@@
malar
op@@
yararlan@@
üyeliğini
amadı
belçika
cezası
cukanoviç
elçi
kadınlar
kaydet@@
kuruluş
kuzeydeki
parti@@
res@@
saldırı
çıkıyor
dünyada
etkilen@@
faaliyetleri
fon
ki@@
osmanlı
planlarını
sahne
satış@@
seçim@@
sistem
yetki
ziyaretinde
bulunarak
dolaş@@
doğrultusunda
göre@@
ilerinden
ilmesini
kararının
mayın
men
yineledi
600
ag@@
asıyla
edile@@
iletişim
işlenen
kat
komiseri
lanması
mini
onaylan@@
say@@
sı
tasar@@
tv
vmro
şampiyonası
ani
genelde
genelkurmay
güçlendir@@
inşası
i̇kinci
konuşma
liderlerinin
yerleştir@@
ytd
zam
çözül@@
öncelik
aktarılan
alarından
avusturyalı
edilmesini
fe@@
gösterdiğini
gücünün
ihtilaf@@
katılması
liderlerin
min
psd
bildir@@
bulunması
co@@
cumhurbaşkanının
gelişme
gruplar
hızlandır@@
malara
santral@@
sağlamaya
tir
ımızı
başı
blic
borisov
firma
kurulacak
sdp
tti
yatırım@@
ıcı
ış
adanın
boykot
ceviç
dığında
etkinliğe
gal@@
gda
ilgilen@@
i̇l@@
kalıyor
katılacak
kullanma
mezar@@
uyum
yapıcı
çı
ğinden
ağır@@
derin
durdur@@
fırsatı
görüşünde
idi
istihbarat
josipoviç
kanal@@
konular
mayla
çıkardı
ıldığını
bilmek
konferansı
konsey
kış
lü
yor
zirvesinde
250
alanındaki
azal@@
bit@@
ediyoruz
fonu
gördüğü
kentindeki
kö@@
leme
miroslav
otur@@
sofia
sorununun
standartları
yurtdışında
asyon
berlin
der
euroluk
fa@@
hay@@
ihraç
kaybetti
tutuklandı
verimli
başlangıçta
başlatma
be
hazırladığı
imza
kaçır@@
kısmen
muştu
olmaları
tamamla@@
uyumlu
yapım@@
çalışmalarını
dimitris
dışındaki
edildiği
esinde
leş@@
tedbir
uzmanları
üçlü
şefi
açıklamaya
bor@@
diğinde
hakim
kaldırılması
kurumların
yargılan@@
çekiyor
şampiyon@@
adli
ah@@
anların
açığı
eleştirdi
halk@@
karar@@
kilisesi
kontrol@@
lamak
lıyor
sektör@@
sok@@
sorununa
yorum@@
çekil@@
öğrenciler
belirli
cumhuriyet
darbe
dinkiç
ekonomisinin
erişim
finanse
gu@@
kurum
madde@@
val@@
vatandaşlarının
yolda
ıyorum
şirketleri
cek
ene
fi@@
gece
gören
içer@@
katılım@@
memiş
olağanüstü
yorlar
çoğunlukla
şeyin
65
eye
kam@@
kaybet@@
kaynakları
kendilerine
kullanılan
liste@@
mecliste
neler
sav@@
savcılar
stefan
suz
yor@@
yükümlülüklerini
aktar@@
ayır@@
ba
dpmne
fer@@
kadınların
katılmaya
olayları
strateji
umutları
yakın@@
yaparak
şeffaflık
1,5
800
asyon@@
ayda
cu@@
geleceğini
gençler
sandık
sayısında
tavsiye
tıp
yapılanma
üreticisi
ayr@@
başlay@@
eşi
finlandiya
günleri
kayıp
laş@@
min@@
olduğunda
suçla@@
tutuklama
yıldönümü
şirket@@
asıl
cılar
dan@@
değişiklikleri
dss
duruma
geçmişte
gözaltına
hedef@@
izni
kala
kosor
laura
mit@@
sabit
sınırları
ğin
abilmesi
car@@
cnn
diklerini
emniyet
eufor
güzel
kamp@@
oyuncu
zamanlar
şartlarını
amaç@@
arkadaş@@
carla
işten
je@@
kuzey@@
kötüye
mahkum
meyeceği
müzakerelerde
uzmanı
ceku
değişim
fiyat
gelerek
halen
kaçın@@
kişiyi
misyon@@
mostar
planladığını
sorunlara
söz@@
yorum
başarısız
davası
desteklemek
engel@@
gor@@
ihtilafı
izleme
liyor
olmasının
sürdürüyor
tr@@
üyor
anla@@
anlamda
gürcistan
herkesin
laştır@@
liğinin
maz@@
mehmet
operasyonu
slovakya
sınırlı
yapısal
ız@@
şimdiden
belirttiler
draskoviç
geride
hazırlan@@
her@@
idir
koydu
markoviç
mez@@
olimpiyatları
planlanıyor
son@@
ulması
çocukların
ıyoruz
şirketlerin
başlıklı
beklen@@
beyaz
destekleme
faiz
getirmesi
konferans
konser
sürede
tehlikeli
önleme
üretimi
alırken
ceği
diğerleri
esine
esinin
gazprom
jose
met@@
olduğunun
satış
sürdürülebilir
uş@@
çevre@@
6,@@
avronun
ele@@
giriş
görüldü
kuruldu
lenmesi
paddy
silah@@
sunulan
takım@@
tutum@@
demiryolu
erkekler
fiyatları
gazete@@
ilmesine
kir@@
maların
nak@@
olasılığını
stanişev
tim
tılar
belki
dim
fark
gelmesi
görüştü
i̇slamcı
kampanyası
karaciç
kayıt
kayıtlı
kazandığı
kdv
landı
layacak
liğine
madde
malıyız
olmaması
rama
seçimlerden
vizesiz
yaş
32
amaçlayan
bloomberg
dnevnik
if@@
meler
oranının
personel
pro@@
ski
tabii
tanınan
va
vak@@
vatandaşı
ydi
biri@@
daire
dayanarak
pasok
süreç@@
umuyor
yakınlarında
zanlısı
and
aykırı
becer@@
döviz
düştü
entegrasyonu
iyorlar
içine
jaap
milo
tamamladı
yon
za
arama
bekliyoruz
biraraya
danışmanlık
değerlendirme
giriş@@
işler
karara
mon@@
oranla
ordunun
ıyı
ademi
alardan
bence
ch@@
görevine
gündeme
kıbrıslı
meselesi
rot@@
viç
yapımı
yollarını
ıma
birinde
birleştir@@
bulunmak
dönüş
gerekçe
istediği
mayacağı
standartlarını
tiğini
yoksa
9,@@
dik@@
internet
itiraz
japonya
kimlik
kıyı
modern
onaylanması
oyunları
vereceğini
vererek
yaptığını
anadolu
atan@@
bayram
bağımsızlığı
buradaki
bünyesinde
dayanan
ebilir
eli@@
getirdiği
iddiaları
leştir@@
mamız
sınırı
taçi
tepk@@
çevir@@
önerdi
artması
artıyor
bilişim
görüşmeleri
konuları
mediapool
ndaki
tip
umutlarını
yayınladı
ante
demokratlar
ekibi
eri
günlüğü
karşılık
kasabasında
katılımcılar
kurum@@
olaylar
parlamentoda
planının
program@@
rejiminin
saatlerde
sahne@@
sanatçı
suçlanıyor
tir@@
umduğunu
yanıt@@
çoğunun
önemini
34
aranan
belirt@@
cumhuriyet@@
dönemine
fuarı
hangi
konferansta
nastase
sektörünün
sürerek
yasaların
çağır@@
ılmasının
bakanlığından
cezalandır@@
gümüş
iliği
maddi
michael
split
sız@@
taraf@@
yatırımcılar
zirvede
chp
destek@@
ds
düzenlen@@
düzeyinde
düğünü
elektronik
emlak
haradinay
ilişkilerini
koş@@
kâr
marina
onay@@
ses@@
sitesi
statüsünü
yordu
yıllar
almış
cezasına
ciocoiu
dünyasından
gerektiğine
getirdiler
grupları
iyimser
kapan@@
kiç
mesele@@
nabucco
oylama
paketi
plana
planları
ut@@
asından
açıklanan
ciler
cısı
fotoğraf
gelişmiş
görevlisi
ke
lenmiş
liman@@
ortamı
terörist
yapı@@
ülkelerinden
alarla
arnavutların
azından
bağlantılı
bölüm@@
denetim
gelir@@
hizmete
ili
kaf@@
kaide
klerini
larımız
mah@@
prosedür@@
roman@@
sal
sistemini
siyasilerin
yapmış
çalışmalarının
ad
alar@@
avrodan
açıyor
fiyat@@
gerçekleştirdi
insanın
katıla@@
konser@@
maaş@@
nedenle
olayı
ren@@
roma
savcı
sektör
teklif@@
unesco
veriliyor
yasalar
açıklan@@
bulunacak
ime
kop@@
kov
kü@@
memuru
oy@@
ren
süreli
yetersiz
yürüten
çalışmalar
alanı
açılması
daciç
ders
düzen@@
esini
iddi@@
iddiasıyla
ist@@
kondu
larken
olmaktan
olmuş
onay
projeler
seviyesinde
sorununu
tık
vatandaşlarına
yaşında
yerde
çift@@
ğe
ık@@
0
36
ankette
arken
dahası
diç
konumunda
ljajiç
mustafa
oluşuyor
santrali
sergey
usu
yoksul
zanlı
ğini
şiddetli
alarıyla
askerleri
başkenti
başlatılan
destekleyen
ettikleri
göstererek
kapsayan
manuel
oyu
tartışmalar
til@@
zirvesi
çoktan
ışı
alt
anlaşmazlık
daire@@
desteğini
dondur@@
dış@@
güçlerinin
hasar
havayolu
idaresi
memiz
olurken
projeleri
taci
tarihinin
aleyhinde
arap
ayına
babacan
başkan@@
blerta
doldur@@
gerekecek
ist
ize
pas@@
üstesinden
şeyler
alan@@
arttı
barışçı
belediye@@
geçirilmesi
hisse@@
ince
meclisin
müdahal@@
olacağına
popescu
projeye
recepi
tav@@
taşın@@
undp
ur
öden@@
önerisini
ırsa
ısına
adam
cinayet
değer@@
ediyorum
eler
ertelen@@
hattının
hazırlık
hırvatlar
koşul@@
oluşturan
refah
sır@@
ticareti
unut@@
yoksulluk
çalışmalarına
700
8,@@
dui
ef@@
emeklilik
euractiv
giy@@
ha
hazırlanıyor
ilecek
insani
kaddafi
kork@@
kurdu
let@@
milletvekillerinin
no@@
rekor
yapılmış
acaklarını
anlaşmada
buldu
daveti
idar@@
iyileştir@@
kalıcı
kaçakçılık
kurtar@@
mir@@
nikolovski
paralel
sol
öneri
adalete
anlaşmalar
avroyu
belirterek
birbirine
daimi
destekliyor
geliştirilmesi
hizmet@@
imiz
ithal
karşısında
kavuş@@
kaydedil@@
kriterleri
lider@@
neden@@
yapma@@
ülkelerle
ürken
üyle
azınlıkların
belirsiz
beş@@
birliğinin
edi@@
enler
hidroelektrik
ilave
işçi
i̇lişkiler
kent@@
lendi
mekaniz@@
muamele
müdür@@
patla@@
siyas@@
sürmekte
uyorlar
abilmek
aracılığıyla
bel@@
eksikliği
eti
garanti
görüşmelere
has@@
itibarıyla
izlen@@
kararına
kullanıl@@
miktarda
odası
pr@@
referandum@@
sizce
stratejisi
teknoloj@@
toplumunun
tutul@@
ulan
vakfı
yazarı
2013
aile@@
asındaki
günde
güçlendirme
hepsi
ilerlemeyi
kanada
kesim@@
kları
kurumlarına
makfax
ortağı
sch@@
sözleşme
tutumunu
verdikleri
çözmek
üstünlüğü
37
anlaşmazlığı
açacak
bayanlar
halkına
koru@@
kuruluşları
köprü
olmadı
yarı
çözme
şirketinin
bürosu
desteklediğini
hayati
ici
ilerletme
insan@@
i̇brahim
i̇ttifakın
kutla@@
ldk
lıklar
meclise
ortam
pu@@
sad
tekrar@@
yasaya
çözümü
ısı
anlaşmaları
bağlantı
bulunuluyor
bunlardan
dak@@
ge
geçmesi
haklarının
hedefliyor
hükümetini
jiç
komuta
laik
oran
planla@@
planına
skandal@@
ula@@
vere@@
çab@@
çatış@@
çizdi
43
arz@@
ateş@@
bıraktı
doğan
faaliyete
geçiril@@
guardian
i̇n@@
kapalı
kırsal
maç@@
mor@@
muhalefetin
seçimlerinin
sol@@
vuyanoviç
yapılmasını
yöneti@@
zamanlarda
zamanında
borcu
böylelikle
edilebilir
fena
gençlik
gerçekçi
getirmeye
kofi
kökenli
leniyor
lığının
malarda
mu
operatörü
pa@@
sonucuna
sırplara
tavır
yoldan
ödeme
ör@@
üret@@
şikayet
33
dil
edeceği
edeme@@
ermeni
getirecek
gi
grup@@
ilerek
kolaylaştır@@
kültür@@
lüksemburg
lıkla
muhabiri
ortaklaşa
planın
sergile@@
takip
vermiş
voyvodina
!
aj@@
basına
belgradlı
bölgelerde
dar
dolayı
go
hızla
işsiz
koşulları
kullanımı
len
olmayacak
otomobil
sefer@@
toplantının
çıkması
ücret
şartı
adan
askerler
etmeleri
fayda
festivalde
gazete
gidiyor
konut
oyla
robert
yip
örne@@
bronz
clinton
gelişmeler
geçirme
kamuoyuna
konuk
mesaj@@
mutabakat
nis
orada
profesör
tesis
önle@@
ücret@@
ıs@@
20@@
acakları
bakanlarının
br@@
büyükelçi
danışmanı
edici
eminim
fi
ilerlemenin
imzalan@@
kurul
kuruluş@@
nispeten
oyların
rapor@@
rüşvet
sayıl@@
sorun@@
talebi
vadede
yolunu
çocuk@@
şart@@
1993
aktardığına
aleksandar
artış@@
arı
bloğa
büyük@@
dire@@
eni
etk@@
eurovision
kad@@
kalan@@
konularda
kuzeyindeki
kısmının
likten
milososki
mis@@
mısır
putin
sah@@
sahte
sarkozy
temiz@@
vatandaş
çözülmesi
çıkarıldı
örgütünün
1996
anket
bölgesindeki
ca@@
davor
denet@@
eğ@@
geleceğe
gerçekleşmesi
giren
halde
kla
mül@@
oynadığı
rolünü
seçimlerine
yeceği
yeri
yse
yönet@@
çalışmak
1,@@
7,@@
akademisi
aksi
başbakan@@
etmekte
gan@@
güvenliğini
hafif
hareketin
igor
kimsenin
kurulmasını
pen@@
sisteminde
sözleş@@
va@@
yoruz
ziyaret@@
çarptır@@
şe@@
14@@
15@@
birleştirme
daniel
doğru@@
duk
geçmiş@@
gösteri
hapse
hina
iden
ifade@@
istikrarın
kul@@
kurban
milovanoviç
proje@@
sistemine
çabalarının
şüphe@@
anayasaya
desteklemeye
diz@@
dp
ede
etkinliği
fırsat@@
göstermesi
hükümetine
izliyor
kuvvet@@
kıs@@
plus
sistemin
stankoviç
varlığını
yansıt@@
&amp;
attı
bakoyanni
birleşme
caz
ceğini
değişikliği
etkinliklere
geçmiş
ip@@
iydi
kilise
krize
kurumu
lerken
mükemmel
parç@@
sdsm
söyleniyor
sürdürdü
tal@@
tutuklanması
uad
uğraş@@
yapıla@@
yaşay@@
ılığı
amaz
biçim@@
edilmesine
emek
eren
fazlasını
federal
gücünü
je
kasab@@
not@@
operasyon@@
oto@@
saf@@
topluma
tören@@
tıbbi
vermeyi
ça
çabuk
çağr@@
ölüm
üyesinin
ıya
aleyhindeki
bi
cinayet@@
dol@@
durres
elden
faaliyetlerini
gözlemciler
hakkına
ihtilaf
kanıt
kontrolü
lat@@
madal@@
miloşeviç
mizi
mülkiyet
okul@@
sağladığı
tem@@
trafik
tutukla@@
yatırımı
yürüt@@
önlemler
ücretsiz
üreti@@
şarkı
47
ac
bildirdiğine
bölgeyi
devlet@@
dir@@
gördü
hassas
hizmeti
imha
içi
lefkoşe
misyon
pasaport@@
performans
projeyi
rice
sak
tıkları
yön@@
yönetiminin
yüz
zemin
ödeme@@
özerklik
ıları
ısının
aksine
alacağı
beşinci
hissesini
ig@@
kazandır@@
komisyonun
konum@@
lis@@
olanlar
sağlayacağını
sindeki
sinema
site@@
sonuçlara
suçlar
web
41
araştırmalar
ayından
böl@@
canlı
do
dost@@
enlerin
eyalet
festivalin
görevlendir@@
hayır
ihale
ilik
malarında
müşter@@
ofisi
organ@@
ortadoğu
oyun
pol@@
programın
teşkilat@@
yükseldi
çe
çeken
örgütleri
51
anlaşmaz@@
aşırılık
borç@@
daydı
echo
fotoğraf@@
gö@@
ince@@
iyordu
karayolu
lendir@@
lığına
mia
ort@@
pfp
sonuçlan@@
sürdürme
tarih@@
yapacağını
zivkoviç
öğrenim
ülkelerini
42
5,@@
açma
başından
doğum
edildiğini
gerekir
göstermek
ilişk@@
işkence
i̇şçi
karşılandı
kategor@@
katılımcı
kullanarak
obama
oynanan
pap@@
rejimi
seçilen
taraflar
umuz
varılan
yatırımlar
zanlının
çiler
ıda
ateş
azaltma
dayanıyor
dağı
dra@@
gelişimi
hareket@@
his@@
hürriyet
kayak
kesinti@@
kov@@
kurmaya
moon
savaşın
tas@@
tiç
toplandı
ulaşmak
usaid
yazı
yönetme@@
anlaştılar
araba
ati@@
başkanlığındaki
cen@@
deneyim@@
deutsche
durumdan
dığından
eğilim@@
getirdiğini
geçirdi
hedefleri
krasniki
kriterlerini
liğin
milyonlarca
muhtemelen
müdür
nebojsa
pay@@
sanayii
tır@@
valentin
yet
artışla
bank@@
beni
bilimsel
durumunu
döne@@
evi
ilerlemeye
ili@@
inzko
karşılamak
kesiminde
konularında
miktar
mut@@
reform@@
seviye@@
süreçte
sıcak
sırpları
topi
upi
uç@@
zi
çözüm@@
çıkarılması
1000
38
af
amaçlanıyor
avantaj@@
avustralya
gençlerin
hisset@@
kuş
oku@@
sözcü
sürdürmeye
tü
uğra@@
yerinde
ürünleri
şimdilik
ayrımcılık
barışı
bek@@
bulundur@@
bunlara
cıların
edebiyat
gazetesinde
grupların
kiş@@
maktır
mağlup
meseleler
nano
olar@@
pazarlık
sayı@@
tanjug
toprak@@
verilmiş
önemlidir
am
baltal@@
belgeleri
deyişle
dusan
dönüştür@@
fakültesi
getire@@
hedefleniyor
ju@@
konferansa
nedir
ok@@
raporun
sunuyor
yetkililerinin
yon@@
çabalar
ğı
46
asgari
açılışını
başbakanın
başlangıç
davada
değişikliklerin
elinden
farkında
finansman
gönderdi
göçmen
haberler
jean
katliam@@
maden@@
microsoft
olmayacağını
petar
ra
sigorta
sunul@@
uygulanmasını
vereceği
yeterince
13@@
acağından
araç@@
başlama
başlatılması
birine
cesaret
co
derne@@
düğü
eleri
ertele@@
grubunun
id@@
ikiye
iyileştirme
komutan@@
kürdistan
makroekonomik
mize
suçlan@@
toplama
uygulamada
yasasını
yıllarında
çatışmalar
çevr@@
ündeki
aktardığı
almasına
açıklaması
başardı
by
eğitimi
festivale
geçecek
havaalanı
ildiği
i̇s@@
i̇statistik
kimin
kktc
merkezinin
nerede
net@@
prlenda
sonbaharda
tarafsız
tazminat
urken
yayınlan@@
ülkesinde
2,5
85
aj
arkasında
bağlantı@@
calin
getirildi
gördüğünü
ide
ker@@
luğu
manı
mekan@@
moisiu
sağlaması
soru
ste@@
töreninde
umu
yolları
çözüle@@
ılar
belirleme
cağı
ece@@
ekip
gerçekleştirdiği
kalması
kar
kes@@
kişiye
kutladı
maroviç
melere
numaralı
seçimlerini
söylediği
tırman@@
çe@@
48
alacağını
dis@@
evet
faaliyet@@
gerçek@@
hükümet@@
ivan
işini
i̇lerleme
jeviç
kanun@@
kesil@@
landığı
las@@
liman
muhamet
olmuştu
pahalı
projesinin
rak@@
suçlamaları
turiz@@
tutuyor
uydu
x@@
yaklaşım
yaralan@@
yolsuzluğa
yönetimindeki
zorunlu
ölç@@
ğiz
aldıkları
bankanın
birden
bütünleş@@
celiç
cumhurbaşkan@@
fikri
gele@@
göstergesi
hedefini
istiyorlar
mine
müz@@
paranın
pdk
sanık
sergisi
tor@@
tra@@
tribune
turu
tır
ucu
çalışanları
çalıştı
çıkar
atıl@@
başlıyor
biliriz
büyüyen
ec@@
eline
gelmiş
gra@@
iktidara
ilke@@
itiraz@@
i̇spanyol
jan@@
likle
mektupta
natasa
noktada
oluşturulması
re
sağlanacak
seçti
sorunlarla
tanıyan
tavsiye@@
verme@@
yarg@@
yere
akımı
avukat
demokras@@
diğ@@
dolara
fizibilite
gr@@
hü@@
kaynaklanıyor
kayıt@@
kos@@
koşullar
laşma
mensup
mleri
no
olduğumuz
oluşturma
sabah
seçmenler
tarafların
taşıdığı
tedbirlerin
vlado
yakından
çalıştığı
üniversite@@
0@@
1997
abiliyor
alışveriş
asker@@
başsavcı
bilgileri
bölgesine
divanı
egemen
for@@
g17
gönderdiği
güvenilir
ilaç
ilerde
istikrara
iti@@
jo@@
john
kesim
konuyu
koordinatörü
listesinde
lıklarını
malarından
olmasından
organ
oyla@@
pre@@
profesyonel@@
reformlara
risk
sayımı
sefer
teşekkür
törende
uma
w.
yaşandı
zanlılarının
zirve
çift
çılar
ülkelerindeki
ımızın
62
amerikalı
anlat@@
anlaşmasına
baskın
ber
bilgiler
bilgilere
cıları
doktor
düzenlediler
eksik@@
facebook
faydalan@@
ga@@
gire@@
hız@@
kalk@@
katılmayı
kim
kullanan
liderlik
saldırıları
sayılı
sektöründeki
sektörüne
tanıt@@
tiğ@@
türk@@
yarak
yetkisi
zanlıları
çocukları
ılı
44
belir@@
bini
boş@@
buraya
böylece
desteğiyle
eyalette
forumu
gereğini
gu
göstermeye
haris
hedeflerine
ihracat@@
izledi
i̇van
kavuştur@@
ladığı
lü@@
olayların
oranları
rüzgar
sp
sto@@
stratej@@
tarihten
temsilc@@
vukovar
yatırımları
yöntem@@
zam@@
zan@@
çı@@
çıkarıl@@
öyle
özel@@
ğimiz
şans@@
şiddetle
17@@
anlam@@
ağa
belirlenen
büyümenin
davaları
düşen
etkinlik@@
filip
gönüllü
hayat@@
i̇ktidardaki
kalmış
karışık
katıldılar
mirko
pla@@
profesörü
sırayı
tamam@@
törenine
ucuz
uygulanmasına
yanlar
yanından
yatırımcı
yolsuzluğun
öldürül@@
önemi
53
dayat@@
diğimiz
dığ@@
ettir@@
geoana
insanlara
kom@@
kuruluşlarının
lığıyla
meseleleri
müştü
savcılık
schilling
sorumluluğunu
sorunlarını
sürdüğü
unsur@@
verilmesini
yardımıyla
yasal@@
yusuf
çifte
üyeli
alexander
alım
bastır@@
bildiri
boyut@@
değişen
dubrovnik
ekonomist
eriş@@
ermesinden
harcam@@
hastan@@
herald
iyileştirilmesi
kaya
kesi@@
muazzam
piyasa
portekiz
sergide
sonuçlarını
standartların
tihiç
uzlaş@@
yaklaşım@@
yu@@
zeljko
çağ@@
4,@@
aracı
atı
bahse@@
blok
buluş@@
dakika
dalında
dü@@
etmektedir
etmenin
hepimiz
insanlık
kab@@
kendisinin
koalisyon@@
kriz@@
lin@@
misyonunun
oyunu
peter
sahipleri
sayıdaki
suz@@
sü@@
tahmin@@
toplumlar
vergisi
zanlıların
zorla
zvetkoviç
adamları
alanları
alev@@
bakanlığına
fır@@
gelen@@
görevinden
güneş
haftalık
ham@@
inde@@
itiraf
iyileşme
işbirliğiyle
kaynaklanan
krizden
oluşturduğu
pekin
sekreter
siyaset@@
stojanovska
tu
uygulaması
video
yoktur
çıkarlarını
üyelerinden
azaltmak
başkanları
bireysel
denizi
dev@@
dünyadaki
geçiyor
günler
haklı
hristofiyas
istekli
jan
kil@@
konjikusiç
korsan@@
kırıklığına
lemek
memur@@
nataşa
oloji
ska
süresinin
sıradan
sığınma
tedbir@@
th@@
tiyatrosu
topraklarında
xinhua
yemek
yıllarca
ınız
adam@@
bölgesinin
görevde
işlet@@
kaldığı
kovuştur@@
lanmış
lıkların
mahkemesinde
payı
pazarına
performans@@
polis@@
ramazan
taşımacılık
turkish
yararlı
yağ@@
yola
yoluna
önce@@
ülkesinden
üyelerine
agim
ailesinin
almasını
anma
başkentinde
bölge@@
dahilinde
derece@@
dum
gereği
girmesi
harca@@
isim@@
i̇ngilizce
kav@@
ktan
lam@@
lerimiz
lim
sokak
turizmi
uzman@@
yayınla@@
yesi
yürüttüğü
ımıza
ırklı
amacının
arkeologlar
aydan
aydır
bine
giz@@
gönderil@@
hiv
iniz
katılanların
kovski
kız
listesinin
liğ@@
medyanın
meta
mevzu@@
mücadele@@
nüfusu
ran@@
ton@@
toplantısına
türkler
uz
uçak
veto
yatırımcıların
yeceğini
çağırdılar
belgenin
bozidar
cağını
değerinde
ertesi
eşlik
filmin
hayat
heyetinin
heykel@@
kür@@
labus
laması
lübnan
madaki
maliyeti
münasebetiyle
ordusunun
paktı
projede
raporunu
taraftan
topla@@
verece@@
yarar@@
yargıç
şüphe
ans@@
arkeoloji
asyonu
barbutov
ben@@
brammertz
denetleme
derecelendirme
düler
gerekçesiyle
gü@@
hüküm
hükümetler
izleyen
işleyen
i̇lgili
koalisyonunun
koordine
ku
kuvvetler
layık
mahkum@@
marko
minde
norveç
olmalı
or
rakibi
richard
tatbikat@@
tenis
tri@@
vet@@
vo@@
vu@@
yetk@@
çatışma
ödülünün
ülkesine
üç@@
16@@
arac@@
artırdı
artışı
değin
doları
emri
ga
girecek
güçlendirilmesi
ita
kararları
likler
mahkemeyle
malardan
mama
misyonun
nci
olayın
otoyol
pal@@
planda
planladığı
soğuk
standartlara
uları
yaralandı
çalışacak
çalıştığını
ıt@@
şey@@
alanlar
anayasanın
araz@@
açabilir
başladığı
bölgelerinde
büyükelç@@
devlete
döndü
düzgün
hüküm@@
landığını
likleri
nimetz
notunu
of@@
parlamentoya
partilerinin
projesine
raporuna
saldırılar
sürüldü
vaat@@
yasak
yolcu
zamanın
çıkarma
öncelikli
önerisi
üretic@@
10@@
anne
başlatıldı
cur@@
düzeni
eğit@@
ister
i̇ttifaka
i̇vica
jankoviç
kararlılığını
kaybe@@
kendini
ktir
kuzeyde
lerimizi
maliyet@@
mc@@
okulu
olan@@
oldular
pratik
rahat@@
sahip@@
sağlanan
stan@@
sınıf@@
tesis@@
tutukladı
yapım
yollardan
zamandan
54
adaki
adamı
adrian
alınmış
arab@@
ayakta
bağımsızlığının
bojana
dairesinin
dağıtım
dene@@
değildi
etkileri
füze
geliştirmek
gemi
girişimin
ithalat@@
i̇vanoviç
kaldırma
kilometrelik
komite
larsa
makam@@
mat@@
mimar@@
politikasının
sahası
sunan
suretiyle
televizyonu
uzlaşmaya
yoğunlaş@@
önemlisi
şansını
şarap
1.000
alıyorlar
açığını
ağının
belediyesi
belene
boyko
burgaz
dimitrova
dr@@
gidecek
group
hindistan
hükümetle
ilişkilerde
iyileştirmek
kalabalık
kilis@@
lıktan
müttefik@@
polisinin
politikaları
politikasını
seçenek
süleyman
tedavi
tes@@
toplantıdan
x
yaratmak
yatır@@
yazılım
yoksun
yük@@
çileri
ılacağını
alınmasını
biyo@@
bot@@
bütçesi
dans
destekli
desteğin
devletleri
diren@@
ey@@
eyaletteki
geçerek
haklarına
hep
kademeli
kalkın@@
klerine
kullandı
kırmızı
layarak
olanak@@
otel
rken
sakin@@
sek
silayciç
sizlik
yazılı
yece@@
yerleş@@
yo@@
öncelikleri
üm
şar@@
acağım
amaçlıyor
atılan
benzeri
bulunmadığını
davayı
denge@@
geleni
geril@@
görevlerini
hıristiyan
ihlal@@
ithalat
i̇rlanda
koordinasyon
kurumlara
melerin
pi@@
politik@@
press
rakamın
sine@@
tartışmaya
tay@@
yaklaşan
yaptılar
yarısı
zengin@@
zi@@
çekmek
çözümün
ısını
,5
66
au@@
binin
davaların
desteklenmesi
düşünce
dığımız
ekonomiyi
es
festivalinde
gece@@
görüşlerini
hakkını
imzalanması
iye@@
i̇nsanlar
kapsam@@
kullanıyor
lukiç
mahkeme@@
nitelendir@@
od@@
olabileceği
onaylanan
ras@@
sadık
sergilen@@
sunuldu
zar@@
zayıf@@
çerçev@@
ılıp
ınca
şebeke@@
49
adım@@
amaması
bankalar
başlamasından
beklendiği
fabrikası
fikrini
güneyindeki
harit@@
ilgisi
isinden
kapasite@@
kayb@@
korum@@
kre@@
köken@@
personeli
programının
savc@@
sektörünü
sen
sinden
suçların
taşıdığını
uğrat@@
yal@@
yarım
yarısında
yasalara
yöneticisi
yüksek@@
çıkart@@
örneği
ülkeyle
0.000
ailesi
amayacağını
ara@@
askerlerinin
atıfta
azalma
bazılarının
bağlan@@
beklenti@@
daily
danimarka
deprem
diğer@@
diğinden
doğur@@
düzinelerce
düşman@@
film@@
getirerek
gurur
gündeminde
hatır@@
hızlandırma
istiyorum
işlev@@
karşılayan
ker
kostov
malarla
melerinin
milletvekillerine
soy@@
sürpriz
tac@@
tarihe
taş
tik@@
tütün
ulus@@
vatandaşlara
verheugen
çalışıyorlar
şeffaf
şimşek
2.@@
56
ada@@
akis
amaç
ayaklan@@
belirlenmiş
bilece@@
bölümünü
david
dular
dönemin
erecek
eskiden
ez@@
eşit@@
felaket@@
fiziksel
fonlar
gazetecilerin
genç@@
grev@@
ilişki
işleme
kabul@@
kaldığını
kanalı
kararda
kayıp@@
kurucu
malların
pak@@
radio
rece@@
sizliği
sorunla
suçun
tarafının
tutmak
tuttur@@
tutum
çıkarlarına
önem@@
öğrencilerin
ılabilir
şampiyonu
şarkıcı
anayasası
arasına
ayhan
azerbaycan
bol@@
cezaev@@
cusu
endişelerini
esindeki
frattini
gecesi
gelişim
haftalarda
harici
i̇ttifakı
katılımını
kemal
koruy@@
kullanı@@
kurucusu
lardı
listesine
orman
otel@@
oturum
ou@@
puanla
rezerv@@
rum@@
servis@@
talebinde
tartışmalara
tehdidi
uyordu
varan
vardır
yapı
yasasının
çıkarmak
öncelikle
ğinde
ıy@@
39
alma@@
alıp
and@@
angela
arabuluculuk
bar
bazen
belgeyi
biriydi
devi
dijital
donan@@
enerjisi
geçersiz
hi
inci
kredisi
kurumlarını
kuvvetlerinin
larımızı
laştırma
masa
meliyiz
mücadelenin
nitelendiren
oynay@@
politi@@
reddedil@@
sey@@
soren
sorumluluğu
suikast@@
sunulacak
suçlarıyla
tab@@
turistler
ven@@
yasada
çelik
çıkacak
şikayet@@
52
adıyla
almıştı
açıklamasına
aşağı
başladığını
cam@@
cefta
dejan
derin@@
dı@@
eleştirilere
final@@
geçirmek
görülmemiş
gününe
haklar
hayatta
ihal@@
inanıyorlar
kaçak@@
kurulmasına
liç
makal@@
marija
memurları
mler
nakil
ovo
papa
polise
programları
sistem@@
soruna
sürmesi
sığın@@
tiri@@
toplanan
uldu
yetle
yıldızı
zafer@@
üyelerini
şi
1989
alandaki
anı
basınında
bina
bombalı
dalg@@
dora
ecektir
fiyatı
fo@@
gerb
görü@@
imizi
i̇ktidar
jadranka
karşılay@@
milletvekil@@
mizin
müze
nihayet
olmasa
pazarı
prizren
televizyon@@
tuzla
yürü@@
zarar@@
çağıran
çıkarılan
ük
üni@@
ürün
ılığın
şehir@@
adımları
bes@@
cazip
ebileceğini
evski
gelirleri
harcan@@
hoş@@
ikil@@
ileriyle
imin
istek@@
işareti
kurumun
layıp
meşru
planlama
ray@@
receğini
riski
rus@@
saatlik
sektörün
seviyesine
sonuç@@
subay@@
ul
umut@@
uygulamak
yebilir
yonu
çö@@
çıkardılar
abilece@@
ajansının
bağımsız@@
başkanının
benimse@@
bulunuldu
del@@
duruldu
esad
etkileyen
gücüne
hal
işlenmiş
kazanç
kendine
konması
konusunu
listesi
lizbon
liğinde
mek@@
mevk@@
nobel
olabilecek
peki
rakip@@
rohan
sta@@
str@@
ular@@
yakal@@
yazık
yerlerinden
yeti
yükselen
zanlı@@
zanlılarını
çıkmaza
ılan@@
ışığında
şartların
anlaşmayla
artırmaya
atma
bankasının
birlikle
canlandır@@
cev@@
deme@@
dikkatli
dukları
duklarını
eser@@
fikir@@
hız
imz@@
independent
irse
kitap@@
konferansında
kot@@
kurmayı
küçül@@
lamaya
mektup
mladen
müzakerelerinde
pic
rakip
ri
sekreter@@
suçlamalar
sürdürülen
sık@@
tamamı
tutan
yaşanıyor
zamanla
çoğunluğunun
çıkarları
ğının
1244
ayrılan
açılacak
basketbol
cinsel
dnevnik.bg
dönen
edi
fiyatlar
geli@@
gösterildi
gözlem
harcamaları
harika
hükümetinden
hükümetten
ihtiyacımız
imzaladığı
i̇vanov
kararlar
meyece@@
mirası
mücadeleyi
niyet
operatör@@
organizasyon
programını
santral
sap@@
savundu
siyon@@
uluyor
ze
ödül@@
öngörüyor
ılık@@
ımın
95
amadığı
bah@@
belde@@
büyümeyi
cılık
dj@@
düzel@@
edeceğiz
eylemleri
güveni
haftaki
hikaye@@
inter@@
isimli
isinde
iyorum
kardeş@@
katolik
kosteliç
kıy@@
projelerin
redde@@
suça
süz
takımının
toplantı@@
tro@@
tıra@@
tığına
vizyon@@
zulüm@@
çete@@
üm@@
üp
3,@@
aklama
anketler
avukat@@
ayan
birer
bölümünde
desteklenen
diyaloğu
duyduğunu
eksiksiz
eğer
görüyorlar
han
imzalam@@
işlerini
kapısı
kurbanların
kıyısındaki
mik
miyle
mış@@
onayı
protestolar
reddediyor
sandalye@@
savcısı
sonuçlandı
statüsünün
teklifi
temas@@
turda
vel@@
yönetic@@
çabaların
öncesine
öz
ülkelerdeki
1980
ans
açı@@
açıklandı
bakanlığın
binası
biti@@
bla@@
blo@@
bütçe@@
cumhurbaşkanlığının
denetimi
değişim@@
diplomatlar
dps
fiili
finansmanı
gerçekleştirildi
geçirdiği
girmek
gözlemci
hasta
inanılan
işlem@@
i̇slami
kapasitesini
kimi
korumaya
kuralları
mde
merkezindeki
merkeziyet
mey@@
meyle
paket@@
programda
seçimlerinden
tabi
tehdit@@
ılarak
ılmıştı
şekil@@
şiir
askerlerin
ata
aşam@@
bağlantısı
başbakanlık
başladılar
ces@@
cr@@
cı@@
demir
değerli
diğim
duyuyor
düzenleyen
estonya
etrafında
euronews
getirilen
gitmek
haberde
holkeri
isten@@
iv@@
işadamı
işin
kapsamındaki
kasabası
kilo
kulübü
liğinden
lıkları
mağ@@
mücadeleye
müdürlüğü
nite@@
oylamada
snsd
sporcu
tuğunu
verirken
yaptırım@@
yolun
öy@@
özgürlüğünü
ülmesi
şiddete
şirketlerinin
72
algılan@@
azaltılması
açtığını
başkanlığına
belirti@@
benzin
bildiri@@
bilin@@
bsp
entegrasyon@@
finansman@@
fonları
güney@@
hamle@@
hoşgörü
inanıyoruz
kalacağını
ksf
kuz@@
luğun
lığından
malze@@
mağaz@@
mir
okula
oluşturmak
puan@@
rasim
ruh@@
salt
sanatçılar
santralinin
schwarz
sda
seçimi
suçlarla
sının
talep@@
tehdi@@
telefon@@
temiz
teşekküllü
tre@@
töreni
uygulanacak
.com
64
78
açmayı
bilg@@
boyu
dahi
dayanışma
derken
dna
durumlarda
dönem@@
edecektir
futbol@@
gözardı
hast@@
ilişkiler@@
ilmesinin
isti@@
ivica
işlem
kategorisinde
konan
kullanmak
kısıtla@@
lıkta
makamların
mavi
meseleyi
papadopulos
sunmak
tat@@
terziç
tin@@
vas@@
vatan@@
vermişti
yoksul@@
çeke@@
çekme
çocuklara
çıkma
ırk@@
2014
analiz@@
artmasına
arıyor
basit
bağlamda
bağlayan
birliğine
bulg@@
cular@@
devletinin
ekonomiler@@
fayd@@
fr@@
fran@@
gerçekleştirilecek
haft@@
inanılıyor
intihar
iraklı
ji
ket@@
komşular@@
kurtul@@
kurulunun
leşti@@
lük@@
masaya
mültecilerin
niyet@@
protesto@@
racan
resim
siyasete
sıcak@@
tehlike
tiler
tle
traykovski
yatırımın
yenlerin
yetiş@@
öldürülmesi
ı-
3,5
57
63
anlara
atın
başvuru
belirtil@@
bildirildiğine
bileceğine
bölgeden
cak@@
desteklen@@
değeri
değerlendirmek
değiller
dıra@@
ermenistan
etkinliğin
foniki
gelecek@@
görüyoruz
güçlerin
hastalık@@
ii
imzalay@@
isiyle
istasyon@@
istifasını
kapsayacak
kova
kra@@
ks
liderin
lılar
meslektaş@@
miktar@@
miş@@
nu
ol
olayda
pamuk
sahipler
sancak
seyir@@
srs
standart
ulacak
uzak@@
uçur@@
çabalarında
çalışan@@
çıktığı
ð@@
öneriyi
ğını
ılığa
şarkı@@
58
amay@@
artıracak
aylarında
başlamasını
bilirler
bü@@
cumhurbaşkanları
devletler
düşünce@@
eceğine
europe
focus
gerginlik
geriye
görevleri
gösteric@@
göç@@
güçler
hayran@@
journal
kapasitesi
kapı
kaydettiğini
kitabı
komşuluk
lak
liklerini
lık@@
patlama
potansiyeli
pri@@
sakin
sh@@
sitesinde
siyasetçiler
siyasileri
tanınması
tersine
tiyle
tümü
tıpkı
uzanan
verg@@
vit@@
ölüm@@
öngörülen
üre@@
şans
900
acağ@@
ade@@
aray@@
araştırmaları
başarıyla
başlattığı
bür@@
bık@@
dadır
denk
doktor@@
ege
ekonomisini
elverişli
görüştüler
hedefinin
hedeflerini
hisse
kaldırmak
kampany@@
kazanması
lüks
met
novak
olay@@
olmadığına
onar@@
orta@@
parayı
predrag
rakam@@
risk@@
stand
standart@@
suçl@@
sıfır
tahsis
tarihlerinde
toplumların
ulara
welle
yarattığı
yurtdışındaki
alanlarındaki
ashton
boc
boğ@@
bun@@
cuları
cuların
dağıtım@@
dokunulmaz@@
durumunun
döneme
ergenekon
esinden
evlat
financial
gazetecilik
gelip
ika
i̇z@@
kapasitesine
katılımının
kin@@
ley
leyen
makamlar
merkezine
msk
olmaz
parlamentosunun
ramazanoviç
sanat@@
savcıları
seviyesi
simeon
suikast
tel@@
uçak@@
yahudi
yenler
yönetimin
ölümcül
üyeliğe
350
68
ail@@
alt@@
altıncı
atları
atması
bağl@@
başarısız@@
başlamasına
bdp
bekliyorlar
birim@@
davranış@@
duvar@@
dünyaya
elerin
finansal
fonların
füle
gidiş@@
görüşü
imkansız
katılımcıların
kaynaklarını
kesimindeki
konudaki
krediyi
krizle
line
ljubljana
mağdur@@
mobil
modernize
müsteşarı
onur
ora
planlandığı
por@@
reformlarını
simiç
suçlarından
svetla
söyleye@@
tahmini
tarihini
temsilcilerinin
top
turistlerin
uyarı
uzaklaştır@@
vlora
wisner
yatırımcılara
yazısında
yürütül@@
çekiş@@
örgütler
öğrencisi
arnavutça
atık
ayrılmış
cal@@
cor@@
dolaylı
dığının
ebeveyn@@
fe
fin@@
girişimleri
haciç
iyet
işaret@@
işletme
james
kadın@@
kaynak@@
komisyon@@
komsiç
konferansına
kullandığı
kullanmaya
larımızın
ların@@
lığ@@
opera
perakende
ran
reformunun
ros@@
rücker
siniz
spiriç
svetozar
tanesi
tarihine
taslak
tecek
test
unicef
varlığı
w
yaşlı
yenilenebilir
yunanlılar
yük
çalışırken
ödemek
şek@@
1,2
alfred
anlaşmaların
açacağını
açmak
belirlenmesi
bulmaya
dostluk
düzeyindeki
ekip@@
etmekten
evlerine
exit
eyi
festival@@
firmaları
genellikle
gol@@
gönderme
gösteril@@
hollandalı
ihtiyatlı
ilişkilere
irade
koalisyonun
kuruluşunun
mahkemede
oda
og@@
ovska
patlak
rakamlar
savcıların
sağlamayı
sekerinska
ses
sonundan
sonuçların
tarz@@
tep@@
tutarında
ularını
veriler
yapılan@@
yasasında
yurtdışına
çalışıyoruz
çıkmak
önceliği
özerk@@
öğretmen
analiz
başk@@
bogdanoviç
bos@@
brezilya
bölümünün
devamı
ekibinin
eş
farkla
firmanın
gelmesini
gerisinde
güvenini
ikisinin
imajını
inoviç
i̇kili
i̇m@@
kalmayıp
karakter@@
kaybeden
kaçakç@@
maria
medi@@
mpa
nd
nitelikte
normale
nüfusa
oturum@@
rad@@
sayım@@
sunacak
sürdürmek
sürüyorlar
takımın
tatil@@
tepe@@
topladı
tığ@@
yatırımların
yum@@
ço@@
üle@@
ıyor@@
4.
aylar
başlamak
başlatmak
bilgisayar@@
biljana
bitir@@
burns
caktır
deniz@@
duydukları
final
gos@@
gül@@
güçlendirmek
hristofyas
ilerlet@@
jelena
kalmak
kalmaya
kararl@@
kavram@@
kazanmak
koridor
kurulmuş
kök@@
lerse
nine
olduğ@@
post
programında
rock
saat@@
saldırı@@
sayısız
sağladığını
selimay
sürdürülmesi
süt
tartışmak
törenle
tıyor
unsur
varlık
yangın@@
yaparken
yapılıyor
yaratıyor
yazar@@
yetkil@@
yıldönümünü
zirvesine
öldü
ülkeleriyle
1994
4,5
adaylar
adayları
almakla
alındığını
amaya
anket@@
bayan
bildiriyor
bilen
bitola
bri@@
cari
cının
dinle@@
düzenlenmesi
düzey@@
ekonomiye
erlis
eğitim@@
gen
görüşlü
gösterilen
ham
if
iktidarda
istatistik
jak@@
katılımın
kermabon
kesintileri
konumunu
konuya
kore
kovaceviç
koyduğu
kullanılması
kum@@
kıl@@
lis
mediklerini
musunuz
müslümanlar
ou
oyuncusu
rejim@@
size
takdir
tane
tesi
ut
yapılandır@@
yerlerde
çisi
çök@@
öğrenc@@
ımını
şair
alındığı
alıyordu
analisti
arnavut@@
belgesel
bozul@@
bulaş@@
bulunma
bulunuyorlar
dele@@
demir@@
doğumlu
dük@@
elektri@@
etmesinden
ettiğ@@
euroya
gelişmekte
güzel@@
güçlerini
hata
hoş
hükümetleri
hükümetlerin
ismi
itibariyle
katkı@@
klasik
kurtuluş
laik@@
leşme
liğiyle
maaşları
mayın@@
mes@@
nik
olmalıdır
operasyonun
rejim
savunuyorlar
sağlığı
statüsüne
sürecindeki
tel
tirecek
yardıma
yetecek
yükselt@@
yıldız
zirveye
ziyade
öneme
aileleri
altyap@@
anti@@
araştırmacı
artıra@@
bakanın
belgeler
beraat
biz@@
cer@@
coe
devraldı
devredil@@
edeceğine
emek@@
engellemek
etkisini
federasyon@@
fu@@
görme
gününde
güçlükler
hapishan@@
hedefleyen
huzur@@
işç@@
kathimerini
keş@@
kontrolünü
kosumi
lardır
liyorlar
lo
luk@@
muadili
olaylarının
oluşturul@@
ovac
park
performansı
satışı
steiner
sızlık
taban@@
tatmin
tüketi@@
tüketici
udur
uk
unsuru
veri
yapmaları
yaşamını
yeviç
yönel@@
yürütme
çekildi
çinli
şimdilerde
67
adı@@
adımı
atını
bakım
balık@@
bağımsızlığına
boş
bulunul@@
bölgeleri
cel@@
defalarca
dimitrov
doktorlar
ezici
fabri@@
gerektiren
geçmişi
geçtiğini
hedefle@@
hizmetler
ivanoviç
kolayca
lacak
luğunu
malları
mur@@
oyuncular
robertson
rupel
seçilmiş
sorunlardan
sorunlu
street
sübvansiyon@@
teröre
test@@
tutumu
törene
usunu
yaratma
yolsuzluğu
yüzyıl
ölçekli
ötesinde
özelleştirilmesi
ılmasından
şeker
aids
alama@@
almaları
ağını
balkan@@
bankaların
başlatmaya
buluyor
buçuk
cinsiyet
coğrafi
dos@@
doğalgaz@@
dün@@
ekle@@
engeller
etkilenen
eğitimli
firmaların
forum@@
getirece@@
gidil@@
ihlali
ilişkilerinde
inandığını
iti
kanunu
katına
kongresi
ladığını
lerdi
liderlerle
meclisteki
medyada
mektir
milyondan
mişlerdi
nitelendirdiği
olmay@@
savaştan
sağlayarak
sizin
sorumluluğ@@
soruşturmanın
sınıf
taşıyacak
tehlike@@
teknolojik
teşkilatının
ulaşım
vetevendosje
vurgulayan
yapıldığı
yazdı
yaşadı
yenerek
çetin
ğimizi
00
130
acak@@
aziz
batısındaki
belediyeler
bon@@
cağına
diyalog@@
edebil@@
edebilir
erteleme
fabrika
gösterge@@
halkını
heyet@@
hu@@
hızlandırmaya
ilerinde
ilerlemesi
ilişkilerinin
karıştır@@
kazanma
klarını
koruması
koruyor
kullanıla@@
lenecek
let
lıklara
meydan
milliyet@@
münferit
oranına
oranını
platform@@
projelerine
protokol@@
rasmussen
reaktör@@
reddeden
ro
sergil@@
seyirci
sezer
siyasetçi
sıkıntı@@
tablo
tif@@
tikleri
tiyor
tiğinde
yenilen@@
yun@@
zamanının
çalışmalar@@
özgürlük@@
ük@@
ğim
ahmeti
akaryakıt
balıkçılık
bariz
belirlemek
bulunmuyor
ch
christian
demokrasinin
değişiklik@@
düğ@@
düşünül@@
edece@@
eserleri
eyaleti
gelmesine
grev
havaliman@@
hızlandırmak
iddiana@@
ih@@
iklim
iu
kararlaştır@@
katledil@@
katılımıyla
kaybettiği
köprü@@
kısıt@@
masıdır
muhalif
mühimmat
not
oyunlar
oğ@@
parlamenterler
partili
planında
politikalar
pop
ruhsat@@
sahiptir
sanız
söylemek
ticaret@@
tren
tutuklanan
tüm@@
uların
ularının
uygulanmasında
vermesini
yaban@@
yeraltı
yiz
zarara
çalışanların
çilik
çıkarak
önlem@@
ğ
69
afet@@
aktör
anlamı
anlaşmazlıklar
artırmayı
askerlik
attığı
açığının
başkent@@
bölünme
cesaret@@
diyaloğun
djukanoviç
düşünüyoruz
eksik
emir
endişelen@@
enerj@@
ent
etkin@@
fa
fasıl@@
fatur@@
frank
gök@@
görüşme@@
hazırlanması
hükümetiyle
iflas
işadam@@
japon
kazanarak
klar
lov@@
mahalle@@
medikleri
memekle
minden
nüfus@@
olasılığının
rahatsız
sayfalık
sezon@@
st
sürdürül@@
tele@@
tez@@
turistik
uyoruz
vatandaşın
vekili
yarışı
yok@@
çekilmesi
ör
özerk
özür
ışını
şüphelenilen
2.
akın
babası
başarısı
beklendiğini
bilim@@
bilimler
boskovski
def@@
denetle@@
dos
endişe@@
escu
etmemesi
gaşi
geçirilen
gri@@
görevlileri
herkese
hesap
indi@@
i̇mparatorluğu
kapılarını
kaynaklarının
kin
mediafax
mesajı
mircea
miyorum
model
nica
olun@@
olurdu
operasyonları
partiden
partiye
pazarlama
prag
romanlar
temsilcileriyle
tetik@@
ticaretin
tito
uk@@
yaptı@@
yete
yi@@
ziyaretini
ziyaretçi
â@@
110
59
ali@@
aralarındaki
bay@@
bayrağı
bağlayıcı
başvurusunu
bra@@
bulunmuştu
cenevre
ceo
dalar
darbe@@
destekç@@
faaliyetlerinin
fonlarının
günün
haberinde
hakaret
hastane
hayvan@@
hazırlanmış
herşeyi
ihtilafının
imizin
istif@@
kaynaklardan
komutan
kullanılıyor
kuruluşun
litvanya
lığında
mamak
mamakla
medeki
medyaya
orman@@
pav@@
rompres
savunan
sayg@@
sene
sovyet
sti@@
tarafında
tepkiler
turnuv@@
uyum@@
çağırıyor
çıkış
ölü
ümit
5.
83
altın@@
amaz@@
amıyor
anlatıyor
avukatı
büyüklükteki
cilerin
danış@@
des@@
emil
gelmek
geçmesine
görüşmelerinin
gösterileri
gösterisi
ilerlemesini
imize
ion
isimler
iyoruz
i̇cra
i̇dari
karşılaştır@@
komisyonunun
kuzeyinde
kınadı
likte
masraf@@
memur
müfettiş@@
mültec@@
olimpiyat@@
oliver
reisi
rekor@@
riyor
saklan@@
sonuçlanan
standartlarının
sunum@@
sürdürdüğü
sıraya
taşı
tekstil
temyiz
troy@@
vaz@@
yaklaşmakta
yapmakla
yarışması
yedek
ziyaretinin
çabayı
çıktığını
öldürüldüğü
öğretmen@@
aram@@
atan
atmaya
bahset@@
buldular
büyükelçili@@
condoleezza
davasında
deyimiyle
değ@@
diğinin
duyul@@
döndür@@
dönüşü
düşürdü
ekonomisine
eylemi
fark@@
festivalinin
geleceğine
gösterecek
gücün
haz@@
ifadesinin
ilerliyor
istiyorsa
i̇daresi
i̇zleme
kanıtı
kitle@@
kopenhag
makul
mam@@
manastır@@
merkezleri
mevdu@@
ord@@
rast@@
sağlandı
seçilmesi
suçlardan
söylen@@
söylerken
tamamlamak
topraklarının
tutulan
uyguladığı
vurguladılar
yansıtıyor
yarattı
yurt@@
yönetimini
çözümler
övgü
üçü
şen@@
şiddetin
140
andy
arasından
ateşli
ayrıldı
bağlayacak
başlayacağını
bebek
beklemek
bizler
bomba
boykot@@
büyümesi
cisi
cılara
demek
desteğine
değerlendirdi
değişiyor
değiştirmek
dri@@
durumdalar
edilmişti
far@@
gelenek@@
gre@@
gölge
görüldüğü
hayal@@
hel@@
i-
idam
iddialı
imi@@
ing
i̇sti@@
kapatma
kapsıyor
kart@@
katliamı
katılanlar
kazandılar
kitab@@
kup@@
lerimizin
listede
makedonlar
marat@@
muhalefeti
mw
nokta
notu
olmuştur
projesini
simge@@
sonuca
sürdürmesi
tahliye
telekomünikasyon
temel@@
topluluğu
ulustan
usunun
vatandaşlık
yapılmasına
yarışma
yasalarını
yayınladıkları
yaşadı@@
yaşandığı
zamana
zincir@@
çalışanlarının
çocuğun
çoğunluğunu
çıkarına
ür
üzer@@
ğa
1,6
ayla
ağına
bayramı
bağlantıları
başarısızlıkla
bizzat
cemaati
cokoviç
dernek
desteklediği
emir@@
etkileyici
faz@@
gemil@@
geçiş@@
göçmen@@
hakim@@
hedefler
inc@@
istikrarsız@@
ite
mden
miyorlar
model@@
nov@@
olayla
onlarca
oyna@@
partiyi
planlan@@
prodi
reklam
sanay@@
sayede
semt@@
seçmen@@
sin
sp@@
söylemişti
sınav@@
tesisi
tüzüğü
uygulamasının
uzmanların
yapılarına
yapısı
yatırımcıları
yavaş@@
yönetmeni
yürütüyor
çoğunu
abilecekleri
adayların
adaylığı
alıcı
aren@@
atıyor
ayrımc@@
bamir
başlamış
belirsiz@@
bilecekler
cami@@
cas@@
depre@@
devre@@
dink
döneminden
eder@@
ellerinde
faaliyetlerin
filmleri
gereksiz
görüntü@@
hakimler
icra
ilerletmek
inşasına
iri
kamuoyunda
kapasiteye
kapsa@@
kariyer@@
kentte
kt@@
köy
kısım@@
lazarova
lin
madencilik
muh@@
nedenlerden
oluşturduğunu
partisine
politikalarını
referandumu
rejimini
standartlar
strazburg
sın@@
sınırsız
tahvil@@
tasla@@
temsilcilerin
tık@@
tıklarını
uğ@@
yandaş@@
yardımın
yemek@@
yerleri
yolunun
yöne@@
çiğne@@
üyeliğin
şeyleri
askerî
başvuruda
bilgiye
binasının
brajshori
bta
bulunmasına
cezalar
cilik
ciyi
daianu
dayken
duran
eroğlu
ettiklerini
firmalar
gelişmeleri
görüşünü
holding
ihtiyaçları
istatisti@@
i̇stihbarat
kalp
kamer@@
kapı@@
kayna@@
kimyasal
klerin
komut@@
kullanım
land
milletvekilinin
milyonluk
mutlu
noktasına
ortamda
partilere
puanı
resi
romanların
sds
serbest@@
sistemleri
sürdürece@@
tiğine
tuğ@@
yakıt
yararına
yirmi
yorsunuz
yılmaz
zaferi
çev
öğre@@
ılacağı
ılmasında
61
arz
açıkladılar
bahar
balık
bekliyorum
beth
binanın
chi@@
davalar
diğeri
durumla
dörtte
düzenleniyor
ecekler
euro@@
faaliyetler
fabrik@@
felaket
gelece@@
gerekirse
gerekiyordu
gitmesi
görmüş
gösteriler
hersekli
hiçbiri
izleyic@@
i̇srailli
jur@@
kaliteli
kapasite
karşılama
katılmasını
kaybedil@@
kaçınılmaz
kendileri
kış@@
layacağını
liste
mahkemeler
makamlarını
mizde
oynam@@
partisinden
pe
programlar
radovanoviç
referandumda
san
sarayı
servis
sonuçlarına
st.
statü@@
suçlamada
sınırın
tiriyor
vurgula@@
yangın
yarışmasında
yasama
yüzyıldan
ılmasıyla
ılığına
şok
2,@@
76
alkol
azınlıklar
açılmasını
bakıldığında
birleşmiş
bre@@
bulunma@@
clock
decek
diyarbakır
edilmesinin
eib
endişeler
erdir@@
faktör@@
federasyon
fiyatlarının
for
fotoğraflar
gayrı
ger
geçmek
görünüm
haberleri
hazırladı
hedeflere
hep@@
istikrarını
işgal
kabinenin
kabinesi
kadınlara
kamyon@@
karş@@
karşılaştığı
katılarak
konumda
kred@@
liklere
meselenin
metreküp
mülk
mülteciler
ner@@
nu@@
ortakları
otomobil@@
pazarının
politik
rakamlara
rejimin
saatler
saldırının
sanmıyorum
sembol@@
seselj
sis
sps
sular
sını
taraftar@@
ufak
umuduyla
varsa
wall
yı@@
zanlılar
çak@@
çilerin
çiçek
çocuğu
ölümüne
öğrencileri
ümü
üst@@
üyeler
üyeleriyle
ılığını
şiş@@
82
anları
anoviç
baskı@@
birliğini
brcko
coburg
dolaşım
dr.
duruşma
eleme
engelleri
entegrasyonuna
etmeyeceğini
faaliyetlerine
fazlasının
fiat
gas@@
gazetec@@
gelin@@
geçe@@
gil@@
gru@@
güdümlü
harc@@
iadesi
ihracatı
insanı
istikrarsızlık
ivanov
jüri
kadının
kamuoyunun
kaynaklara
komş@@
lavrov
leşmesi
lise
mahkemelerin
makamlarına
meclisinin
nas@@
nik@@
parçalan@@
plastik
pos@@
potansiyeline
saxe
stat@@
statüsüyle
sürülüyor
sınız
tüketim
yakalanması
yardımc@@
yasağı
yeti@@
yetiştir@@
yiyecek
yum
yunanlı
öneriler
ğın
ısından
ışığına
1974
74
ailenin
airlines
ati
bekiri
bilecekleri
bom@@
bulundukları
bulunuyordu
ciye
dağ
deneyim
devreye
değerlendiril@@
dükkan@@
dürüst
erişimi
eva
evde
eve
eylemler
fonun
fried
gerçeği
gözlem@@
hakk@@
harek@@
hırvatların
inşaatı
ittifak@@
komünizm
konunun
kriter@@
kru@@
lenmesine
meydanı
misyonuna
nevi
nüfuz
orijinal
oybirliğiyle
parlak
rekabetçi
savunmasız
sağlayama@@
sembolik
sendikalar
sorunuyla
sos@@
televizyonuna
tuttu
ulaşması
uygulamasına
varlığının
world
yapmakta
yaptır@@
yü
ziyaretçiler
zorlan@@
ülkesini
ısında
ıştı
2015
2020
84
aran@@
artışa
atam@@
atılması
açması
beklediği
biliyoruz
birbirinden
bütçesini
bütçesinin
bütün@@
caklar
coviç
danışman@@
day@@
destekleyecek
devralacak
değiştirmeye
dönüşüm
eleştiren
enko
enlere
eriyor
etkilerini
etkinlikler
fatos
festivaline
fikirde
filistin
gordana
gölü
gönderilen
görüşmenin
iddialarını
ima@@
izlemek
jat
kaletoviç
kararlarını
kaçakçılıkla
kişiden
koha
komünizmin
landır@@
menfaat@@
meselelerin
mik@@
odak
ortamını
oz@@
posta
programa
sayf@@
sağladılar
simitis
soktu
soruml@@
struga
sutanovac
sırpça
talebini
tasarı
tığında
ulu@@
uzan@@
vermesine
yapacakları
yayla
yetkilinin
yolsuzluk@@
yur@@
yüzyılın
çıkmaya
önerisinde
ülecek
şiddet@@
şirketlere
73
81
abilirler
aileler
ala@@
ardi
ayar@@
ayrılması
başarı@@
başbakanları
başlan@@
bekleye@@
beyan
bölgesinden
cezaevi
cezaları
dam@@
değin@@
dikkat@@
dina@@
diplo@@
duruyor
edileceğini
entegre
etmiyor
eğitime
faal
fas@@
fuar@@
gabriel
grad
habere
icg
iktidar@@
inceleme
istediklerini
i̇k@@
kayde@@
kaydeden
kayg@@
kesin@@
kimliği
kişileri
komutası
konuların
konut@@
krediler
kullanımını
kurduğu
kuvvet
köyü
kültürü
liderlerini
liler
mantıklı
meslektaşı
mışlardı
nikolay
nitelendirerek
opulos
oynayan
petroviç
popoviç
sanayi@@
sanıkların
seviyeye
seçmek
sonrasındaki
standard
tanınıyor
telegraph
toplamda
unuz
viz@@
yapıyorlar
yaygın@@
yaşamı
yenileme
za@@
çev@@
çözmeye
öldürüldü
öldürülen
özelliğini
ürün@@
üss@@
1,3
30@@
adnan
anne@@
arşiv@@
açıklamalarda
başkanlığında
bedrana
birey@@
devriye
değişik@@
diplomat@@
duğ@@
filmler
gözaltında
hatırla@@
hemfikir
içeriyor
işine
kanın
kapasitesinin
kariç
koşulların
kulüp@@
kül@@
kışkırt@@
liberal@@
lüler
med@@
milliyetç@@
milos
miting@@
mle
modernizasyonu
olmalarına
olmanın
petrov
pulaj
radikal@@
raporunun
sayım
stefanoviç
stratejisini
suçluların
taleplerini
türkleri
uyandır@@
uygu@@
uygun@@
vermekle
yapmasına
yapıları
yasalarına
zih@@
ölümü
önlenmesi
üste
üyordu
ğında
ımızda
ısrar@@
180
akademik
aradaki
are
asi@@
atının
bay
bilet
bugün@@
bulunurken
cadde@@
dahil@@
dost
edebileceğini
general@@
görece@@
gösterme
gündemde
güvenliğin
havaalan@@
hin@@
hissesi
ihtiyaçlarını
ilerleyen
ine@@
i̇zmir
kalmasını
kapatılması
karşılıyor
konuk@@
layacağı
mali@@
meclis@@
miktarı
muhafazakâr
novosti
olasılık@@
ondan
pace
paketini
pekiştir@@
perspektif@@
powell
referandumun
sanık@@
sava
seminer@@
sonuçlarının
soykırım@@
takv@@
tanımlan@@
tasarruf@@
tasarıyı
temizleme
ters
uğradı
yaşama
yetkililerine
yoktu
çalışanı
çalışmaların
çarp@@
çıkmasına
öğrencilere
ğına
ılıkla
ısın@@
şube@@
şüphel@@
..
3.
adaletten
ajansına
amak
araştırmaya
başvurusunda
blair
cü@@
direktör
düzelt@@
elen@@
etmesinin
eğilimi
fakül@@
forum
geldiğinde
genişlet@@
gerçekleştiril@@
hol@@
hükümette
ilerlemesine
istekl@@
isyan
işadamları
işbirliğinde
işbirliğinden
kabashi
kaynaklı
kentine
keskin
kişilere
koyuyor
kri@@
kurt@@
lıyorlar
makedon@@
mark
medvedev
mekanizması
mev@@
mü
nakit
olacaklar
olas@@
operasyonlar
orhan
otobüs@@
parça
pl@@
rahibe
ramuş
safhasında
savcılığı
sergiledi
sermaye@@
silahlar
sokak@@
suçlamaların
söylemekle
tasarısı
türklerin
umudunu
uğradığı
verdik
yakalay@@
yöndeki
yıldız@@
çoğunlukta
ömür
önerdiği
önlemleri
şahıs
şan@@
25@@
adaletin
albert
arttığını
aydın@@
barın@@
bayram@@
belirsizlik
bilirsiniz
biç
cileri
cin@@
dendi
des
değerindeki
dinin
endek@@
eyalete
fatih
fırsatlar
gerçekleşiyor
girme
gruba
havacılık
havayolları
hemşire@@
hızlandırılması
imini
istemiyor
isti
iyimser@@
kalite@@
kararlılık
kaçakçılığıyla
kesh
keşf@@
kl@@
kongre
konu@@
kos
kral@@
kullanımına
kurban@@
kutsal
mamasını
maçı
muammer
olmamakla
person@@
peş@@
psik@@
referanduma
reklam@@
ret@@
sandık@@
sasa
seçme
sidir
sim@@
siyaseti
soldan
sundular
sözler
sürdürdüğünü
yakınında
yarar
yazdığı
yükümlülük@@
zorundayız
çabalara
çekmeye
öngörül@@
örgüte
ızın
6.
alanlardaki
alık
ant@@
artarak
baskısı
biden
bilgilendir@@
birbirlerine
budapeşte
caviç
corceviç
dairenin
devret@@
diğerlerinin
ebilecek
egemenlik
elç@@
ettiğine
geleneklerini
gelmiştir
grubuna
gönderildi
görünen
göstericiler
göstermektedir
güvence@@
hac@@
hazırlık@@
hissedar@@
ilebilir
ilki
imkan@@
isyan@@
iyet@@
i̇lişk@@
kampanyanın
karayol@@
konus@@
korgeneral
lanma
las
madrid
mallarının
metal
miller
miroljub
nefret
noktaya
olaydan
parlamentodaki
proj@@
rü@@
salon@@
sektörde
sergilediği
seviyesini
seyre@@
sis@@
sivillere
sürü@@
talimatı
tamamını
tedbirlerini
tül@@
tırma
verip
vic@@
yayınlandı
yazıl@@
yendi
yetkileri
ziyaretin
çat@@
şaşır@@
77
aak
adının
akrab@@
arsa
artışın
atılacak
aylarca
ayının
aç
belirledi
borçlarını
bulunacağını
bulunmaya
bölgeler
bırakıl@@
cesur
cil@@
denli
dere
duyg@@
dünyasının
ellerinden
eser
eşsiz
firmasının
foniqi
foruma
geleceğinin
generali
görüle@@
hayatı
hoca
ilgisini
iyeti
jer@@
kabaşi
kadarki
kentsel
komiser
konsorsiyum
kurbanı
ladılar
lidir
merkezin
meşru@@
miyoruz
nakledil@@
okullar
olağan
pasaport
poor
priştineli
radmanoviç
razvan
rtk
sayıla@@
sağlamanın
sağlayacaktır
serbestleştirme
servisi
suzluk
sözünü
sürerken
sı@@
tarafta
tarak
tatbikat
termik
tif
türban
türklerinin
usta
verildiği
vermedi
yapılacağını
çalışmalara
çatışmaların
çeyreğinde
öncelik@@
ılığının
şartlı
+
160
3.@@
anısına
atıldı
aylardır
ayrılıkçı
açıkladığı
belirleyici
biyolojik
bombal@@
cumhuriyetin
dönüm
düşünülen
dışına
edecekler
em
eğiti@@
feith
getireceğini
getirmeyi
geçirildi
geçtiği
gun
hafifle@@
havalimanı
hayvan
hazar
hen@@
iddianame
ihaleyi
ilgilendiren
iliğin
ilkelerine
imiyle
kaldırmaya
kalitesini
kararından
karşıt@@
kaygılarını
konferansın
konularını
konumu
kuruluşlar
larımıza
ljiljana
melerde
mlacan
monitor
nicolas
partisini
pilot
piyasası
plaj@@
politikasına
reddederek
res
see
sendikası
sevk
slav@@
sporcular
suya
sınırında
sıral@@
talepleri
tamamlama
tavr@@
tavsiyede
tavır@@
tutma
tüken@@
tılı
ulaştır@@
umuyorum
uncu
vin@@
yası
yetersiz@@
yetkilileriyle
yorgos
yöneltilen
yönetimine
yönettiği
yükümlü
yürüyüş@@
zannier
çalışanlar
çıkarmaya
çıkmaz
öncelikler
şansının
1.
7.
98
abiliriz
araçları
arkadaşı
azın@@
başkanlığının
bet@@
bildirilen
bitiki
biyometrik
bugünkü
cus@@
davasının
derviş
değişimi
değiştirilmesi
döneminin
düşüne@@
eki@@
etkileyecek
eu@@
gelirken
gittiğini
gribi
gözler
günde@@
günümüz
hakimlerin
harcanacak
hareketinin
helikopter@@
hük@@
id
ileride
istan
i̇skender
jacques
kalanı
kararla
karolos
katar
kati@@
kokain
konuşlandır@@
ks@@
kur
kuyru@@
köşe
liklerin
martin
mic@@
muhalefet@@
nakli
nicholas
olamaz
one
oylamanın
oylamaya
patlayıcı
piyasaya
prosedürleri
protestocular
saldırıya
satışa
sorguya
subay
subayı
sunması
sürülen
sınav
tecrübe@@
tesisleri
teşhis
toplumuna
tren@@
turne@@
uzmanlara
vasil@@
verileceğini
vermeleri
we@@
yapılandırma
yapıldığını
zirvenin
çıkaran
üyorlar
ımına
şah@@
şartlarından
şiddeti
̇@@
afet
akşam
altı@@
anlaşmalarının
arda
arttığı
askerin
ayrılık@@
basını
belirleyecek
beraberinde
bileceklerini
bo
bütçenin
doların
doğum@@
doğusundaki
durdurmak
duyurdular
ekonomistler
etkiliyor
gelmesinden
geçirmesi
gide@@
gözle
güce
güneydeki
günümüzde
haftada
hane
holbrooke
ilişkisi
indiri@@
ino
işletmelerin
kulak
kuru
kısıtlamalar
lamış
lehinde
liderlere
lüğü
maktı
nesil@@
olanakları
olaylarına
oluşturdu
resi@@
rompuy
röportaj@@
saldırıların
sandalyeli
senaryo
silahların
sr@@
stratejisinin
sürdüler
sürdüren
süs@@
sıkış@@
tanıma
tarafa
tassos
tedarik@@
yalanladı
yargıç@@
yetkilerini
yıkıcı
yılını
zemun
zorlaştır@@
çalışacağını
çalıştır@@
çocuklarının
öfke@@
özgürlüğ@@
üstü
ıysa
şampiyonasında
şartlarının
şeye
-ki
20.
a1
alınıyor
amaca
ano
ari
artırması
avrup@@
ayak
baba
bakanlıkları
bedeli
beğen@@
birisinin
borcunu
buz@@
ck
cumhurbaşkanını
dairesinden
dağlık
dece@@
dediler
dergisi
deydi
değerleri
diplomas@@
düşmesi
ecb
ere@@
etrafındaki
ford
fırsatları
gruplarının
haksız
imkanı
insight
istismar
joviç
kabines@@
kalmadı
kalın@@
kampschror
katkılarıyla
katılımına
kente
koyma
kurallar
kürt@@
kıdemli
lenme
lüğünü
malar@@
masındaki
maç
meselesinin
mitev
miz@@
mol@@
moody
nedenleri
nis@@
oldu@@
olmamasına
organı
ot
oyunların
pahor
parkı
polisine
rit@@
saha
sanal
sorunlarının
soğ@@
sunmaya
suçlandı
söylentiler
sınırlarını
tecavüz
tedarik
tersan@@
tesini
tesisin
time
tutuk@@
tüz@@
uygulamaları
vaatlerini
yapacağız
yargı@@
yönetiminde
zulüm
çıkmış
çıkış@@
ötesine
üldü
ılımlı
ailesine
alılar
alıların
anlaştı
atmak
ayak@@
azaltı@@
açıktır
ağ
bankaları
bertaraf
bey@@
bih
bulgarlar
bulunmuş
bünyesindeki
civar@@
değiştirme
düzenlemeler
eden@@
eleştirilerine
ep@@
ete
geleceğiyle
generalin
gidi@@
gidip
girmeye
gösterilmesi
haklarında
harcamalarını
hazine
ilg@@
itsa
izm
işlerin
işletmeler
kalacağı
kaldırdı
kanıtlar
kararında
karşıladılar
kentinin
konseyin
konseyinin
konsorsiyum@@
kraliyet
kredinin
lak@@
lıların
melerle
mevkidaş@@
milenkoviç
müslüman@@
müttefik
noktaları
ohrid
olmayacağı
papuliyas
pra@@
rak
ruhsat
samimi
sanatçı@@
sandalyelik
sendika
srbija
sözc@@
sürdüreceğini
tasarının
teşvi@@
uçuş@@
vade@@
veli@@
ves@@
vesna
vurularak
yakalamak
yasaklan@@
yatan
yecektir
yenilikçi
yetkililerden
yoğunlaştır@@
yükseli@@
yüzyılda
zal@@
ödülüne
örgütlerinin
ılığ@@
ısıyla
1,4
7,5
88
adaylık
ahlaki
alacak@@
aldık
amadığını
atmosfer@@
ayrıntı@@
açıklıyor
basit@@
bayrak@@
baz@@
başındaki
beldesi
bildirge@@
bira
bulgar@@
cılarının
daireleri
dinamik
dö@@
emrini
endişeyi
esnek
farklılık@@
gecikme
gergin
girdiği
girişiminin
gol
görüşleri
hastane@@
herşey
hesab@@
ilanından
istenen
ister@@
içinde@@
iği
işlevsel
kemer
kitabın
klerinin
korkunç
kuran
kurti
kutluyor
kürtlerin
libyalı
lukoviç
manzar@@
matthew
medikçe
medyası
meyecektir
meyeceğiz
muamele@@
necdet
nes@@
olaya
olympic
operasyonda
paketinin
pekusiç
pir@@
psikolojik
raportörü
reformlarda
saatlerinde
saray
sonr@@
standard@@
sö@@
sözlerinin
sürecinden
tahsil@@
talimat@@
tarihin
tarzı
taşıma
taşıy@@
temizlik
teresa
toplayan
trafiği
tuğu
ulmuş
uyarısında
uyorum
uçuş
veda
voy@@
yalnız
yanda
yanlı@@
yapmıştı
yaratacak
yenil@@
yitir@@
yumuş@@
çevi@@
önerileri
ürünler
üstünlüğünü
üş@@
1.500
12@@
abilir@@
ale
alışverişi
artırarak
azaldı
açlık
açmaya
açılışı
baskıs@@
berg
bölüm
cam
cevap
ciddi@@
cular
darko
deneti@@
ders@@
dili
dille
drazen
dökül@@
düzenlemeyi
düşürül@@
ebileceği
eleştirenler
engellen@@
enklav@@
etkileye@@
evlerini
fat@@
franco
fuhuş
füz@@
gazı
genişlemesi
getirilecek
geçme
geçmişteki
girmiş
grubunda
hat
heyetine
house
ian
ilerlemeler
inanc@@
inizi
işlen@@
karışık@@
konsey@@
konsorsiyumu
konuma
koşul
kâr@@
kü
limanı
maaşlar
maaşlarını
moda
niteliği
novinite
oc@@
oları
olduk@@
onaylandı
orkestrası
petkoviç
proeski
sakinleri
salonu
samarciç
sek@@
serbestçe
sonuçta
sunuz
suçluyor
sürdüre@@
sürül@@
sıklıkla
sınırının
taraftarlar
teröriz@@
thaci
toplantısının
tura
tıktan
ulaşma
uyarıyor
uyruklu
uzlaşmanın
uzu
vurguluyor
yakalama
yeme@@
yetini
yükseltti
yüzme
zastava
zorun@@
çapındaki
çevresel
çıların
ılığından
10,@@
abileceğine
ai@@
alina
almadan
almanın
ardında
arın
atör@@
aşağ@@
bakıyor
başlandı
başlattılar
belediyenin
bildi
ciddiye
cihaz@@
doğrulan@@
engellerin
engelleyen
engelli
enver
erin
erte@@
esk@@
evine
fabrikanın
georgievski
gerile@@
gâ@@
görevler
gösterilecek
gündem@@
hedefe
ing@@
işçiler
i̇ttifak@@
kada
kalite
kanser
kasaba
kasıtlı
kaydederek
kaynaklandığını
kaç
kendisiyle
konular@@
konusuna
kurula@@
lav
letonya
lip@@
lüğ@@
lıklarının
mahrum
merak
metre@@
modeli
nat@@
ner
nü
oluşturmaya
onaylaması
ortalarında
pan
planlar
polisle
popüler@@
radmila
rumları
sahil
sanatçının
sesi
sessiz
sevilen
sevin@@
seçime
sisteme
sonucun
sorunlarına
soruşturmayı
sosyalistler
suudi
suyu
süresini
sınırlar
tanıy@@
tarafları
taze
tekel@@
toplumla
trajkov
tutuklamalar
türünün
uluk
umuyoruz
uygulamasını
uyor@@
vergileri
yapmasını
yerleşim
yetersizliği
yovanoviç
zorluklar
çiftçiler
özgürlüğüne
üncü
şekl@@
şi@@
şimdiyse
abileceklerini
acağımız
acılar
akıl@@
alabil@@
alakbar
amayacağı
anlayış@@
anlaşmazlığına
arnavutlara
art
azınlıklara
baj@@
bakanların
bakımından
barındır@@
belirlendi
belirtilen
birlik@@
buradan
bütçesinden
bütünlüğü
cezasını
dalgası
dağıl@@
demokrasiye
dey@@
değiliz
ditore
dtp
durumuna
dükleri
dığım
engelleme
evinin
gana
gesi
görevl@@
görevlilerinin
görüşmelerden
gündem
gününden
gür@@
haftalar
helsinki
hiseni
ilgil@@
iliğe
ilk@@
insanlığa
isimleri
i̇ddi@@
i̇nşaat
karak@@
karardan
kaybı
kenara
kolu
konferans@@
kullanım@@
kurallarına
kürtçe
kınayan
kırıklığı
lamıştı
lan
lerce
leyic@@
liklerinin
list
lıyoruz
macı
mafya
mayacağına
mesleki
mindeki
miras
modernizasyon
muhafazakar
naz@@
okullarda
olanların
olaylara
opoulos
ortaçağ
oynuyor
pek@@
planlıyorlar
pozitif
rahat
reddetmesi
reformlarının
rolünün
sanığın
savcı@@
seecp
seçeneği
simgesi
stamboliç
sınırına
sıralam@@
toplamak
ulacağını
unsurlar
uygulanmasının
victor
vide@@
vurdu
yaratan
zararlı
çalışmasını
çin@@
çoğ@@
üstünde
şüphelilerin
5.@@
71
alınmasına
amayan
antonela
ayrıcal@@
bat
bağımsızlığa
başkentin
bildiril@@
bileş@@
boy@@
bro@@
bulan
bulunmasını
bulunmayan
bölgelerdeki
bütçesine
cami
ddy
destekçileri
diniz
direktör@@
duktan
düşünülüyor
düşüşe
dışarı
eleştiri
eseri
etmediğini
fabrikasının
fre@@
galip
gergin@@
gerginlikler
gerginliği
girişimini
görevinin
güc@@
halini
harcama
hazırlıkları
ilik@@
isteği
istikrar@@
istler
itibarını
izi
i̇ç
kampanyasının
kaydı
kg
kitle
köyünde
laşması
lehine
lojistik
mamasına
mar
meme
meyeceğine
milit@@
mücadeledeki
müslümanların
nenad
ofis@@
olduğumuzu
pa
pakistan
pazarında
petrescu
rafiner@@
rejimine
saygı@@
sağlayı@@
sem@@
seçmenleri
sistemlerinin
slogan@@
sokul@@
sorumluluk@@
soruşturması
svilanoviç
sürücü@@
sınırlarının
taciz
taj@@
tal
tamamlayan
temsilcilerle
tesinden
tilmesi
tire@@
tutar@@
tutumlarını
tör@@
umarım
verileri
wolfgang
yasalarının
yunan@@
zanlıyı
çalışmada
önlemlerin
örgütlerin
öv@@
özgürlüğünün
ılık
şu@@
şüphesiz
1984
7.@@
acı@@
alek@@
anna
arjantin
arkadaşları
arş@@
avantaj
avro@@
açıklanmayan
bakanının
bilgilerin
biliyorum
bis@@
cemaat@@
cina@@
cumhuriyetinin
davalarını
davalarının
değerlendiriyor
değilim
dis
dosy@@
dro@@
düzenlemek
düşüre@@
ec
egemenliğini
ekonomileri
ermen@@
eta
etmeli
ettik
eu
fik@@
filistinli
garanti@@
gates
geleneğ@@
gereke@@
gerekçe@@
geçirmeye
girişimde
girişimler
grafik
güncel@@
hareketle
ilir
iliğini
ima
işbir@@
i̇şler
jovan
kanlı
kaynakların
kolay@@
korku
kral
kralı
kule@@
kulü@@
kural
kürtler
kızıl
ladin
leakey
lecek
liderinin
lj@@
lıdır
lıklarına
maksızın
mem
meyiz
mezse
mezun
motor@@
muyor
müzakerecisi
nehir
olaylarını
ortalamasının
ortasına
pnl
saldırısı
satı@@
savunarak
saydı
sağlayacağı
sever@@
sorularını
sorum@@
sorunsuz
soruya
sürdürüle@@
tanıtım
tesinde
toplantılar
trakya
uc@@
ulaşan
umudu
unhcr
verildiğini
yaptırımlar
ydu
yükümlülükleri
yürütülecek
zammı
önerisinin
ürünlerinin
üğü
ıların
ıyorlardı
ızda
şaibeli
şeyden
şeylerin
96
ade
alım@@
anlayış
atatürk
azalması
açmış
basının
bağlılığını
bilir@@
biliyorlar
birimleri
bran@@
cektir
ceğine
che
cinayeti
culara
dakikada
devri@@
dolaşımı
duyan
dy
dönüşüm@@
dık@@
ed@@
edebilecek
endişeli
erhard
erini
esas
etiyle
fail@@
farkına
geleceğin
gelmediğini
gençleri
giderken
girişime
google
görüşler
görüşmeye
heyetin
iade@@
ibaret
ide@@
imizde
içinden
içinse
i̇dare
i̇zlanda
janoviç
kadar@@
karargah@@
kararların
kartı
karşılaşmasında
kavg@@
kaçmasına
kağıt
kesimlerinde
kolaylaştırmak
kosov@@
kutup@@
lendirdi
ley@@
liderleriyle
listenin
mac@@
maddesi
mallar
milis
miliç
mirasları
muhtemel
müdahalesi
müyor
niteledi
olmaksızın
olur@@
oper@@
orgeneral
passy
paylaşıyor
popovski
rocen
sabahı
saldırıda
sanıklar
satan
sağlıklı
seniz
serge
sorgula@@
stefan@@
ster@@
stratejis@@
temsilcilik
temsilcinin
tirip
toplumdan
toplumları
tım
ulus
uluslu
vardılar
varlıklarını
vermenin
yaptık@@
yaptırım
yargının
yarışacak
yarışmada
yaşamak
yorlardı
çap@@
çıları
ödüllü
önerisine
özet@@
özgürlükler
ülkesindeki
ımda
ızı
şaşırtıcı
4.@@
akademis@@
amayacak
anu
arananlar
attılar
açmıştı
açıklamalar
barack
baraj@@
barışın
başbuğ
başlangıc@@
başlarına
belediyelerin
bombalama
boğaz@@
büyümeye
cumhurbaşkanlığına
dek@@
denktaş
dernekleri
devletten
değişti
diyorlar
dördün@@
düzenliyor
düşüş@@
ediyordu
eleştiri@@
engellemeye
etse
evinde
firmalarının
free
gazetecinin
geliştirmeye
genelindeki
gerektir@@
gerçekleştirmek
getiriliyor
getirmede
geçer@@
giriyor
gittikçe
gjorge
görmeye
göçmenlerin
güvenliğe
halkla
hane@@
hatları
hedeflenen
hentbol
hizmetlerini
hus@@
hükümetlerinin
ie
ifadesine
imaj@@
iyse
izin@@
işver@@
jen
kaldırılmasını
kesinti
koltu@@
kulis
lanacak
lehne
leştirme
liklerine
luyorlar
luğ@@
luğa
malarıyla
mamaya
mann
meni
mer
muhteşem
nedenlerinden
noktal@@
ordusuna
politikalarının
rahi@@
restoran
rts
safhada
savcılığın
seller
seyret@@
sorgulan@@
sömür@@
sınırdışı
tamamlandı
tartışmaların
tasarım@@
tasarısını
taviz
tehditler
tehditleri
teknolojisi
temsil@@
terek
tutmaya
ulos
uyardılar
verilerine
vi
yazan
yenilik@@
yeteri
yken
zlatko
çektiği
ödemeye
önerge@@
üstlendi
şim@@
170
92
99
adayın
air
alg@@
alternati@@
alış@@
ambar@@
ardındaki
askerlerini
avaz
ayırdı
azınlığın
başlangıcı
belirtmekle
bizans
boşalt@@
boşnaklar
bulması
bırakıp
davayla
deney@@
deniyor
diktatör@@
donald
duyuruldu
edilip
etleri
eyalet@@
fest
fouere
geçmişe
gidece@@
güvenilir@@
h5n1
he
iflas@@
ihtiyaç@@
ilanı
ilanının
ilgilendiğini
iliç
imde
inşa@@
iğ@@
işsiz@@
i̇şleri
kali@@
kalitesi
kalmasına
kanser@@
karakol@@
kardeşi
katılacağı
kayıtdışı
kazandığını
kazanıyor
kele@@
kend@@
komite@@
komşusu
konserler
koşullarının
krizinin
kütüphan@@
kıt@@
lenmesini
lescu
leyici
mamaları
mamalı
mark@@
memurunun
mp@@
muhabir@@
nezaretinde
nüfuzlu
ofis
olacağız
onlarla
online
oto
oyunun
pren@@
ret
rs
sars@@
savaşta
seçimlerle
sonuçlandır@@
sun
suçundan
sıkıntısı
sıralan@@
tecrit
tiklerini
tutuklanmasının
tutuklu
vakit
vize@@
yapılacağı
yarısından
yedinci
yumuşak
yönetil@@
zel@@
zer@@
çeliş@@
çoklu
çöküş@@
çözümüne
şansına
şartıyla
şirketine
6.@@
97
adaylığını
adımdır
alarındaki
american
anlaşmazlığını
atandı
aydı
bahar@@
bakım@@
başlayıp
belgelerin
bildt
birinc@@
blog
bölgelere
catherine
charles
cü
denetimli
devle@@
değişikliğin
dz@@
dönemden
dönmek
dür
düzine
edinme
eide
enflasyonun
eroin
etler
eşitliği
fak@@
fikrine
fin
fiyatlarını
gel
gelebilir
gelme
getirilmesini
gh@@
görüşmelerine
gösterdiler
hr@@
ioc
istemediğini
işte
i̇h@@
kalmayı
kaybetmiş
key@@
komşuları
korunmasına
koz@@
kozloduy
kpc
kun@@
kutlamak
listeye
mel@@
memurlarının
meselesini
muha@@
müziği
nedeninin
obradoviç
olgun@@
ortaklığı
ortamında
oynadı
parasal
patri@@
prestijli
reformcu
ria
ruhu
sahiplerinin
setlerle
siyasilere
sizi
stadyum@@
sunma
süper
sınırındaki
tesinin
ust@@
uygulamayı
uyru@@
vaadinde
yaklaşırken
yakınındaki
yaptık
yapıp
yollar
çağrı@@
çiziyor
çıkıp
ürünü
üzüntü
12,@@
550
86
abilecekler
adığını
ajan@@
albü@@
alman@@
anlaşmasında
antren@@
arın@@
atanması
avrasya
başlatılmasına
belirtirken
benz@@
benze@@
bildirgede
biç@@
coş@@
dabilis
davasını
dedeağaç
delil
dengeli
değil@@
dinar
dnevni
dolayında
doğusunda
düzenlemesi
edebileceği
eder
ekipleri
endişeleri
endüstr@@
esir@@
evleri
fiyatların
fırtına
gayet
gelince
gent
gereksin@@
getireceği
getirmesini
gezi
grupta
görecek
güler
hatt@@
hazırız
hesaba
hibe
hor@@
idis
ilerletilmesi
ilkeleri
irade@@
istifaya
işçilerin
i̇liç
i̇sveçli
jen@@
kanal
kararıyla
katılmasına
kaygı
klere
korunmasını
kosanoviç
kovac
kus@@
köklü
küçült@@
latin
liydi
maliyetleri
marty
mayacaktır
medyasına
meslek
nitele@@
odak@@
okuma
olmazsa
olursak
oluşum@@
onayladığı
oyuncuları
paket
parçal@@
pavkoviç
pira@@
pler
projelerini
restor@@
ris@@
riske
riç
ry
sahipti
sayıları
seslenen
seviyesinin
standby
ste
suçlama
sürdüğünü
taban
tamamında
taşımacılığı
terörist@@
tesislerin
transilvanya
türü
vadisi
ven
vergiler
vil@@
yabancılar
yalan@@
yapılar
yarattığını
yargıla@@
yaşadıkları
yemin
zedele@@
zinciri
ça@@
çalışmayı
çan@@
çağrı
çekim@@
çer@@
ölümünden
ürdün
üretiminin
üsü
şe
87
alabilmek
alana
albay
anlaşmadan
arkeolojik
atarak
ayacak
baharda
baskılar
bedel@@
beklenmedik
belirtmiş
bildirge
bildiğini
borçları
bulunmadığı
cep@@
danışman
deli@@
değiştire@@
dimitri@@
donanım
dor@@
duyuruya
düğünde
düşürülmesi
edeceklerini
ekipman
ekmek
engeli
etmede
gittiği
giç
gordon
gözlemc@@
gününü
güvencesi
gı@@
haftası
hazırlama
hazırlamak
hedefimiz
hediye
hektarlık
hiç@@
hüseyin
iciç
iddialar
ihmal
ij@@
ilerleye@@
iliescu
imzalayan
i̇nsan@@
jel@@
kademe@@
kalfin
kanton@@
kas
katılıma
katılımcılara
kesiminin
kimileri
koyan
kredis@@
kurallara
larca
lil@@
lilik@@
mail
malta
materyal@@
mesidir
milanoviç
nam
nesil
olabilmesi
olaylarda
personelinin
philip
polt
rütbeli
safhas@@
sam
sağlanmasına
sergileniyor
sibenik
sir@@
sla@@
sonsuza
sosyalist@@
tahiri
tepkilere
tiş@@
türkçe
vatandaşlarını
vatandaşının
yang@@
yanın
yatırımcı@@
yavaşlat@@
yenilik
zen@@
çalışmalarında
çoğunluğun
çıkardığı
önemdeki
ıza
240
6,5
8.
9.@@
aktör@@
alam@@
alınarak
anayasada
arayış@@
artı
artırıyor
asyona
atmış
açığa
bahsedil@@
başkent
bilmiyorum
borislav
borsası
bosn@@
bulunmakla
bırakıldı
caf@@
dem
destekleyeceğini
değişikliklere
dikkatle
diyaloğa
düşünü@@
emez
ener@@
esm
ey
eğil@@
faiz@@
fal@@
fitch
galerisi
gelmiyor
gerçekleştirdiler
gezisi
geçmişin
gömül@@
güneyinde
herkesi
heykel
hızlandıra@@
ifadesinde
istedikleri
isterken
jin@@
klerinden
kurulmasının
köpek@@
lilerin
liğimiz
lukoil
makine@@
maçında
mimari
mot@@
müfre@@
mühendis@@
müttefiki
müzakerec@@
müzis@@
nesovski
noktasında
ofisinden
olsaydı
onur@@
oranlarını
plavsiç
projelere
rat
rim
role
rumlarının
saldırgan@@
saraybosnalı
skandal
sns
sonlarına
sözlerle
taahhü@@
tamamlanacak
taz@@
tedbirlere
teknolojileri
terörizm
tirece@@
topluluğ@@
tose
troyka
tıracak
ula
umuzu
ura
usulsüzlük@@
uçağı
vla@@
yapıların
yorumları
yoğunlukta
yukarı
yıp
zek@@
çevirdi
çıkmasını
çısı
ödeye@@
ılıktan
1,7
650
93
adımın
airways
aktris
anayasayı
andı
araçlar
atlar
açacağı
bas
bağımlılığını
biriminin
buz
cenaze
cristian
crvenkovski
davet@@
derek
değişikliğe
değiştirilmiş
dikil@@
dy@@
dönmeye
düşündüğünü
dıracak
edilirken
editörü
egemen@@
endeksinde
ermesi
eti@@
eyleme
fet@@
fikirler
forumda
galibi
gerçekleştirilmesi
gevşek
götü@@
güçlerine
haftadan
hazırlıyor
hillary
hizmetlerinin
hırsız@@
ice
iminin
imzalamak
inanç@@
istiyor@@
içme
kaldılar
kamusal
kariy@@
karşılayacak
karşılayarak
korkul@@
kurallarını
kurdular
kötüleş@@
lehte
lendiği
lilik
madık
mazsa
mekti
melerden
mensubu
misyonunu
mun@@
müf@@
nes
nms
nor@@
ob@@
oluşacak
otobüs
otomatik
oysa
paylaşımı
pel@@
pula
reel
rijeka
sayı
shkullaku
sindir@@
sonbahar@@
sovyetler
soykırımla
spa@@
sunuluyor
sur@@
sürdürecek
sıralamasında
taksi
tis
topluluk@@
uyan@@
uzlaşmacı
uzmanlık
veriyorlar
yaklaşımı
yanıtlayan
yapabil@@
yaptığ@@
yapıyoruz
yaşadığını
yaşın
yoğun@@
yurtdışından
yürüyüş
zorluk@@
çalışarak
çekerek
çete
ödülleri
önerilerini
örgütlü
öğ@@
ülkemizin
üstünlüğünün
ılırken
ımızdan
-ve
0,5
0.
adası
adımların
anlaşmazlığa
arm
avr@@
aydın
azalıyor
açarak
bab@@
balkanlarda
batıdaki
bildirgeyi
ble@@
büyükelçilik@@
bırakan
chev
dak
destekledi
desteklemeyi
durgunluk
düm
düzen
düzenleyerek
edenler
eleştiriyor
eliç
endeksi
enflasyon@@
entegrasyonunun
era
erkek@@
gin
gj@@
görmesi
görmezden
gösterirken
gündeminin
gın@@
hali
hap@@
hile
hukuka
iddianamede
ihtilafından
io
istemiyoruz
işlediği
i̇vana
i̇ç@@
kadınları
kalacaklar
kanadalı
kargaş@@
kasabasındaki
kavuştu
kaygılar
kaynaklarına
kentteki
kolaylaş@@
kolaylaştırma
komitesinin
korkuyor
koymak
kragujevac
kullanımının
kuruluşların
kuvvetlerin
körükle@@
kötü@@
küç@@
kızı
memnuniyeti
müfettişler
naf@@
niş
num@@
onlardan
ori@@
pierre
podgor@@
pop@@
pozisyon@@
protestolar@@
riskli
sadiku
saldırıyı
seviyelerde
stratejinin
sözlü
sıkma
tartışmanın
tartıştılar
tasarlanmış
tebrik
topar@@
trafi@@
trafiğe
traykov
tüketiciler
tığımız
uda
ulmasını
uyarıyorlar
vaka
vermeden
vski
vukceviç
yasa@@
yatıyor
yaşamlarını
yaşandığını
yenlere
yönetilen
çalışmanın
çıktılar
önleyici
üstün
üyeliğinden
şartlarda
ailelerine
alardaki
aleksander
amadan
anal@@
askere
ayrılacak
aşamasında
bağları
bağımsızlıktan
başlatılmasını
beklentileri
belediyede
bildirisinde
birim
bol
borcunun
branislav
budva
bö@@
bölgelerindeki
cos@@
davaya
demokratların
denge
diaspor@@
diş@@
dyukanoviç
düzene
egemenliği
elbette
endeks@@
enflasyonu
etkil@@
express
fabrikas@@
faydalı
fedil@@
filminin
freedom
gelirlerinin
gelişmesi
gerektiriyor
gerileme
getiri@@
gördüğ@@
gündemi
haftanın
hamle
hazırlanmasına
hırvat@@
iba@@
ic
ihtilafın
iken
ilginç
iloviç
ittifak
i̇ddianamede
jones
kalmıştı
karşılamaya
karşılanması
kasının
kazanmıştı
kazı@@
konvansiyon@@
kullanıldığı
kurumlarında
kutlama
lev@@
loviç
lular
mekanizma
menkul
mesafe
mezar
milutinoviç
mo
muştur
müktese@@
müreffeh
müstakbel
müzi@@
nan@@
normal@@
ortalam@@
osman@@
otori@@
oyuncular@@
pazarındaki
projelerinin
raufoğlu
reformun
rehin
ressam
riskini
saldırgan
sanatçıların
sağlam@@
securitate
stan
sunmayı
tavrı
telecom
teme@@
teröristlerin
the@@
tildi
tipi
toplumda
ucu@@
udf
uefa
uygulamanın
uzun@@
uçağ@@
verilmesine
vol@@
yargıçlar
yatırımlarının
yaşanacak
yetkisine
yves
yüzleş@@
zenica
öcalan
ümüz
üreten
üyelerin
şahıs@@
şair@@
şala
şoför@@
19.
9.
alanların
almakta
almasının
anki
anlattı
arayan
atletizm
attığını
ayrıntıları
açılmasına
başlamadan
bileceğinden
biliyor@@
blago@@
bunda
bölücü
bölünmesi
büyükelçileri
büyükelçilik
cinin
dairesine
dal
davranış
değerlendirmesi
ederse
ena
endi@@
etkiledi
etraf@@
ettikten
fifa
galibi@@
genişletme
gerçekleştiği
gerçekte
gerçeğ@@
gösteriliyor
göçmenler
haritası
hastanede
hissedil@@
hu
huzurunda
ikincisi
ilan@@
ilaç@@
ilinde
irades@@
isaf
iste
isterim
kabinesinin
kanıtla@@
karanlık
kasaba@@
katılacağını
kazanmaya
kenar@@
keşif
kiler
kiral@@
koleksiyon@@
koruyacak
koruyan
kovska
kuracak
köprüsü
kısıtlamaları
kıyısı
laştırmak
lendirme
luğunun
maden
madıkları
mandiç
meli@@
meyve
miha@@
milyon@@
mol
mücadelesi
müzakerelerindeki
nam@@
niyeti
nüfuz@@
olmadıklarını
olum@@
ortam@@
oyn@@
parası
park@@
pazarın
planlarına
pol
pon@@
portal@@
protokolü
raf@@
reş@@
saha@@
sarf@@
sağa
seçeneğ@@
sta
steel
sürdürülebilir@@
sıraladı
tahminler
takas
takviye
talebiyle
tamamlay@@
tartışmaları
tati@@
tatlıses
topiç
utanç
uzunluğundaki
vlatko
wi@@
yans@@
yapımına
yayınlanacak
yazarlar
yetin
yoksulluğu
zirvesinin
çabalar@@
çalışmasının
çar@@
çekilen
önlem
üğünü
şarap@@
şüphelen@@
--@@
91
akla@@
akış@@
alanına
alışverişinde
analistlere
anlamıyla
anlardan
ant
antalya
artıracağını
atına
ayrılma
baran
baskın@@
batının
bağlılık
bb
belgesi
bet
bildiği
bnn
bor
borissov
burası
böylesi
bül@@
damg@@
dersler
dicarlo
dokunulmazlık
domuz
durdurma
duyuru
duyuyorum
dönüştürme
döv@@
düzenledikleri
ekolojik
erke@@
faktör
farklılıkları
fikr@@
gelişmelere
gelişmelerin
gençlere
gerekmektedir
geçmeye
göl@@
gösterdikleri
göstermeleri
günden
halihazırda
hepimizin
heye@@
huzuruna
hükümetinde
hır@@
ilmesinde
imiz@@
iyor@@
işletmeleri
jansa
joachim
kaldıra@@
kalı
kampanyasını
karşı@@
karşıladığını
kaygı@@
kaygıları
kaza
kazı
kaçırma
kesimler
keşfedil@@
komün@@
konseri
korsan
koşullarını
kta
kurbanları
köprünün
kı
kırılgan
laboratuvar@@
lağvedil@@
les
limaj
lisans
maaşlarına
maddeleri
media
metin
nehir@@
nel
nova
olimpiyatlar
olmamız
onayına
onunla
orduya
reddettiler
reddettiği
riskler
sarf
sağlayabilir
silahları
siyasetçilerin
sosyalistlerin
sul@@
suçladılar
suçlayan
suçlular
sü
tahminlere
taleski
tanr@@
tekne@@
tenisçi
tina
tol@@
toplantısını
topluluk
toplumlarının
uyrukl@@
uzatma
venizelos
yaklaşıyor
yayımlanan
yaşamın
yecekler
yn
yönetim@@
yürütecek
zan
zorluk
çağırıyorum
çekmeyi
çilere
çıkarmayı
çılık
örgütlere
ürünlerin
üyesini
şehr@@
şirkete
21.
5,5
79
adaya
adığı
alabilir
alışkan@@
anlaşmazlığın
arabulucu
arka
avukatlar
açtılar
bale
bayrak
bağımsızlığın
başarısını
başarıya
başkanlarının
becerilerini
belirleyen
bil
birincilik
blog@@
bugünlerde
cay@@
clark
damgasını
dayız
duğuna
ekonomilerinin
eleştiriler
emekliler
evin
fer
fiyatlarına
gelişen
gelişinden
genişletilmesi
gerçekleri
gerçekleşmesini
gerçekleştiğini
getirilmesine
geçiriyor
girmesini
gisine
görevinde
güçlüklerle
hareketini
havaya
hazırlıklı
hit
hur@@
hızı
ideal
ifşa
ihalesini
ildiğini
ileş@@
imine
irish
işbirlik@@
i̇sa
i̇y@@
jik
kadare
karşılanacak
kimliğini
konaklama
kongre@@
koridoru
krist@@
lerdir
macılar
mahke@@
mallarını
manastırı
masum
may
medyasında
memnuniyet@@
mess
mirasının
mos@@
muhammed
müzakere@@
müzik@@
niyetinde
norm@@
olacağından
oranıyla
patten
projeyle
protestolara
reformunu
resim@@
romano
sahibiz
santralin
set@@
sezon
seçenek@@
sicil@@
sistematik
sivil@@
siyasetin
siyon
slovak
sorular
soruşturmada
suçlarının
sözleşmenin
tanın
tes
tetovo
tip@@
topalli
trend@@
tümgeneral
uzaklaş@@
vaat
vek@@
vermekte
vlasiç
yaklaştır@@
yansı@@
yapmaktan
yaptıklarını
yaptığımız
yarısını
yarışmaya
yağmur@@
yeter@@
çu@@
çıkarken
ödeyecek
ödülün
ülkesiyle
ıl
ığı
şehri
şer@@
şunu
1,1
8.@@
ajans@@
akti@@
amaçlar
anahtarı
anketine
artmasını
asa
asayiş
ayrımcılığa
barajını
bağıml@@
başladığında
başlamaya
başlı@@
başsavc@@
beklenirken
belirlediği
besa
beyin
bilmeleri
borçlu
bulunduğumuz
cak
city
cm
daş@@
dergisinin
derinleş@@
devir@@
değerler
dokun@@
don
duğunda
dönemdeki
dönüştü
dükten
düzenlemeleri
edileceği
esas@@
eur@@
farklılıklar
farkı
fuele
gayrı@@
gelebilecek
geliyorlar
gencin
gracanica
görülmesi
görüşmesinde
haberdar
hil@@
hitap
ico
imzalaması
inisiy@@
istlerin
izol@@
işley@@
i̇li@@
jandrokoviç
jociç
jonilda
jov@@
kadan
kalıntıları
kalırken
kapattı
katılmaları
kayd@@
kayda
kazanırken
kaçağın
kentlerinde
ket
koalisyona
kovuşturma
kredilerin
kural@@
köş@@
kısmi
kısıtlı
kıyısında
laşmış
leştirmek
liğindeki
los
maaşlarının
maddelik
mahkemelerde
mari@@
mediğine
mese
meş@@
miktarlarda
miodrag
misko
muş@@
olanları
olog
ortal@@
pahasına
performansını
ptk
rekabeti
restore
rumsfeld
seks
sektördeki
sponsorluğunda
suikastı
suçlara
söyleşide
sözleşmesi
sürtüş@@
sına
sınırların
sırplarla
tamamlaması
tamamının
tedbiri
tedbirlerine
tey@@
verenler
vermediğini
yalılar
yanındaki
yanıtı
yapmanın
yarış
yenile@@
yerlere
yeş@@
yunanlıların
yuv@@
yönetimiyle
zaf@@
zarko
zorunl@@
çalın@@
çare
çekici
çerçevesi
çoğunluğa
ölen
öngör@@
örgütüne
üretilen
ılmaz
ımının
şüphesiyle
1500
1970
3,3
abilen
aca
adalet@@
ah
akşamı
amiral
anayasasına
anlaşmazlıkların
apart@@
ard@@
ardı
athan@@
atık@@
atılım
ayı@@
açabileceği
ağaç
barbu
başarılar
başkanını
besle@@
bill
binaların
budur
corporation
dans@@
demokrasiyi
devir
devletlerin
değiştirdi
diyoruz
dolar@@
doğrula@@
dönüşleri
dönüştürül@@
dünyas@@
düşük@@
edilerek
eserler
etmediği
etmelerine
gelmektedir
geniş@@
gerektiğinin
gereğinin
gitmeye
görüşlere
görüşmelerini
güne
güçlük
hakar@@
hakkının
hasan
hediye@@
hiçbirinin
ija
ilkokul@@
imzala@@
imzalanacak
imzalayarak
indirim
insanlarla
isimlerinden
ithalatı
i̇şlet@@
kaderini
kapatmak
karac@@
katma
klinik
koci
kullanmayı
kurbanlar
kurumlarıyla
kılav@@
kısıtlama
leşmenin
limay
lüğünün
madılar
maf@@
mam
manız
mediler
memeleri
memesini
mihai
militan
miras@@
mirasını
muaf
mutlak
nen@@
nic@@
oluşturulan
oylamayı
papademos
pazarlarına
pliva
qu@@
rip
sahada
savaşa
sağlamaları
sektörlerinde
serg@@
seyrediyor
sezonu
siber
sokaklara
sorumluluklarını
sözleriyle
sın
taraftarları
taslağını
teftiş
tesine
ticar@@
toprakları
turnuvası
tutuklanıp
tümünü
usunda
uzlaşmayı
varşova
venedik
yah@@
yakınlaş@@
yaşa@@
yelpaz@@
yöneten
zev@@
çavuşesku
çağrılarına
çocuğunun
çöker@@
önyarg@@
öyk@@
üme
üstlendiği
üzüntüyü
ğu
ılmaya
şahin
şef@@
altyapının
altyapısı
altyapısını
aması
andrija
anlay@@
arabistan
arazi
are@@
atanan
açıklamaları
açıklayan
ağında
bac@@
barikat@@
baskının
başlamasının
başlatıla@@
birbiri@@
birleştirilmesi
bulgular
bütçeye
bırakma
canlandırmak
colin
cuk
cumhurbaşkanına
daci
daysa
demokratikleşme
dolandırıcılık
edebilmek
edilmemesi
efsanevi
elere
ender
ens
eyle@@
eylemlerinin
eğilim
filmiyle
gerginliğin
gerçekleştire@@
geçirilmesini
gisinin
graf@@
gördükleri
görüşmelerinde
göstere@@
göze@@
gözlerini
gözüyle
güreş@@
güvenin
hakemlik
halktan
hasara
hıristi@@
iktidarı
ilemez
ileriye
ilerlemesinin
ilişkili
ilkelerini
imizden
imzalanmasının
istan@@
istediler
istismar@@
işçilere
i̇slam@@
kadını
kalkınmayı
kart
kaynaklarından
kendisinden
keti
kiril
kobi̇
koordin@@
kristina
kriterler
kurması
küre@@
laştırılması
liderlerinden
ligi
liliğini
lokomo@@
maddenin
maliyet
medeniyet@@
merkezini
mesle@@
metrekarelik
mitreva
mode@@
moldov@@
muaf@@
nokia
okur@@
okuy@@
organizasyon@@
organizatör@@
oteller
otoyolun
oturumunda
otuz
oynadığını
oğl@@
parçaları
pazarda
per
petro@@
piyasaları
platform
politikas@@
prosedür
rafa
reh@@
rescu
sahil@@
schook
scotsman
sebep@@
sektöre
semin@@
serbestleştir@@
seçmenlere
sigar@@
sigortası
sl@@
soruşturmalar
soruşturmaya
spekülasyon@@
suçluları
tedav@@
tesisler
teye
tica
turunda
tutarlı
tının
varlığına
varna
veles
vizyon
who
yaratılması
yarıya
yarışında
yayı
yeceklerini
yürütülüyor
yüze
yıldönümünde
zbogar
zede@@
çalışmakla
çoğun@@
çıkarıyor
ödemesi
ücreti
ümün
ürünlerini
ılabileceğini
ıtı@@
şüpheliler
3,2
adılar
ailelerin
alışver@@
amadılar
anayas@@
anlatan
anlaşmazlığının
asi
atama
atom
ayrılmaz
azami
aşan
barındıran
başarıs@@
başlı
birbirlerini
birinden
biçimi
bulduğunu
cerra@@
dayandığını
dediği
denetim@@
desteğe
disiplin@@
diyalogu
doğa
doğudaki
durdu
duyurduğu
dönme
döviz@@
düklerini
düzenlemenin
düzeyi
enleri
entegrasyonunu
etkiler
etkinlikleri
evler
eylemlerine
eşitlik
faaliyetlerde
farkın@@
feci
gerektiğinde
geriledi
geçin@@
gönül@@
gördük
haftasonu
hallet@@
hari
hastanesi
hayatlarını
ihtiyaçlarına
ilerletmeye
imleri
imzal@@
indi
iptal@@
ismini
iyiye
işlemleri
jev@@
kalem@@
kandiç
kanı
karas@@
katil@@
katlan@@
kazanmış
kaçakçılığının
kendimizi
kentinden
komitesine
komplek@@
komutanlığı
kouchner
koç
koşu@@
kumanovo
kuvvetlerine
kısım
landırma
larak
lerimize
lisans@@
luğuna
ly
lüsü
lüğüne
lılık
mahal@@
meclisten
meto@@
metrajlı
mile
milletler
mobile
müttefikleri
müş@@
nereye
niteliğinde
olduğun@@
ombuds@@
oradaki
oranın
osetya
oynamaya
parlamentos@@
parlamentoyu
po
politikasında
recek
sayın
shantek
sibiu
siyasetten
soruyor
sponsor@@
stoy@@
sıkça
sınırını
sırb@@
taksi@@
tanja
tanık@@
tanıklık
tanımlanan
tanıtmak
taslağı
tedbirlerinin
telif
temin@@
tis@@
toplay@@
usulsüzlük
usuna
vaatleri
velchev
vlahoviç
www.@@
yaratmaya
yasaklayan
yaşları
yeceğiz
yetenek@@
yin@@
yöntem
yöntemleri
yönün@@
yürüte@@
zamanlı
zanlısının
zayıflat@@
ziç
zukorliç
çağrıları
çekmesi
çoğunda
çözümünde
çıkıyorlar
öf@@
önerinin
önlemeye
ımdan
2,3
3,6
abart@@
adada
alarm
aldıklarını
alet
almasından
andan
anti
araştırmacılar
artarken
ateşkes
aşır@@
batısında
bazı@@
biliniyor
birlikleri
bizlere
canlan@@
ceph@@
col@@
con@@
değerlendiriliyor
değerlendiriyorsunuz
disiplin
düzenleyecek
düştüğünü
ela
ette
eylemlerin
faktörler
fas
ff
fiyatlarında
gazetenin
gazze
genişletil@@
getirmeleri
geçmesini
global
görüşül@@
günter
güz@@
hazırlayan
heykeli
hızlandırması
ilgilenen
imtiyaz@@
indeydi
infaz
ipa
itenin
izlediği
işletmelere
i̇nsani
jana
jankulovska
jimnastik
kalabilir
kalkınması
kararlaştırılan
katkılarından
katılmış
kaydedildiğini
kaynaklan@@
kazanmasına
kaçan
kendi@@
kle@@
kli@@
kod
kopar@@
kredileri
krediyle
kullanmakla
kurulun
kurumunun
kusur@@
kutladılar
laz@@
lili@@
lit@@
lju@@
mas
matiç
mayacaklarını
medik
memesine
menler
merci@@
meyeceklerini
mit
mladenov
niş@@
olacağ@@
olasılıkları
olaylardan
oya
pazara
pd
petroleum
planladıklarını
ps
rej@@
riskine
rolüne
rotası
rt@@
sahiplerine
sahneye
savunu@@
sivillerin
skandalı
sohbet
sonuncusu
sorunlarıyla
soruyu
sürenin
sıradaki
tamamlanmış
tanımaya
tanıyor
tarafça
tarafındaki
tazele@@
tekrarlan@@
telefonla
tiren
tutarındaki
tıkan@@
ulan@@
ulaşmasını
uluslar
usul@@
vatandaşlığı
vis@@
voleybol
yakalandı
yavaşla@@
yaşamış
yenilg@@
yerler
yetkililerinden
yoldaki
yoğ@@
yönetime
zamm@@
zdravko
çalışacağız
ödemeyi
önün@@
öğleden
şahısların
13,@@
2,2
450
acağının
adır
ai̇hm
alacaklar
algıla@@
ansa
arhin
ate
atlet@@
ayaklanmalar
açılışında
ağaç@@
aşkın
balkanların
barışçıl
bayrağını
başbakana
beraber@@
bilinc@@
biridir
birincisi
birliğinden
business
bölgelerine
bürokratik
ciya
cyprus
cılarından
damir
dat
dimitar
diyalogun
dostu
downer
doğr@@
dru@@
durgun@@
duruşmada
dönmesi
düzenleyici
elimizde
etmiştir
ff@@
filarmoni
filmde
fos@@
fırtın@@
gelirler
gelmeye
gemisi
getirip
gönderdiğini
görülmeye
hassasi@@
havaalanının
haysi@@
hazırlandı
hazırlanmıştır
haç
hektar
herman
hissediyor
ihtiyac@@
ileştir@@
isteksiz
isteğiyle
istifası
istihdamı
izlenmesi
izleyecek
işgücü
işlerine
i̇nsanların
jandar@@
joseph
josip
kale@@
kanat@@
kapıları
karşılamada
karşıt
katliamının
kesinleş@@
kti
kullanması
kılıyor
larım
leştirilmesi
lukla
m.ö.
madıklarını
madıkça
makamlara
malzeme
marian
meblağ
milyona
mus@@
nazi
nez@@
ola
olmas@@
olu
oluşturacak
onaylama
organizatörler
organları
perakendec@@
politikanın
prote@@
pur@@
refahı
reformunda
rer
rudoviç
sam@@
sayfa
sayımının
seçenekler
sitesine
sky
sof@@
suikasta
süreceğini
süresince
sıç@@
tanıdı
teklifini
teknolojis@@
temizle@@
tereddüt
tony
toplandılar
turistlere
turizmin
tutuklandığını
tutuklanmasını
tüketicilerin
tüsü
tüğünü
tıyla
umutlar
umutlarına
unsurların
unutul@@
up@@
uzay
uzmanlarının
uğrayan
vat@@
verebilir
verimlilik
verimsiz
yakınlardaki
yanlara
yanısıra
yapıyordu
yesinde
yürütü@@
zadar
zu@@
çalıştıklarını
çatısı
çocuğa
çözümlen@@
özelleştirmenin
ücretler
üretken@@
üssü
ımla
şikayette
şüphelinin
750
acele@@
acente@@
adamın
akın@@
alp
altyapısının
altından
amacımız
amayız
anders
aniden
annesi
arifesinde
askerinin
ateşe
ayıran
açarken
açıklamasını
başlatmayı
belirtmişti
bernard
bizden
borcun
bors@@
busek
bırakarak
bırakılması
canlandırma
cezalarını
danışmanlarından
daviniç
dayanılarak
demokratik@@
denis
depolama
dick
dikkatini
dile@@
donanımı
dönemindeki
dönemini
dönüyor
düşünüyorlar
dıklarına
ef
ekibin
ekoloji
ekonomisinde
eksikliğinin
elena
endişelere
ertelendi
ertelenmesi
etken@@
ettiğimiz
europol
eurostat
evn
eğlen@@
galerisinde
gelişimine
gelişimini
gensoru
gitme
göndermeyi
görünmüyor
görünüm@@
göstermiş
gündemine
güçlükleri
haklara
hazırlıklar
hemşire
hepsinin
hisselerinin
ilişkilerine
imler
imzalanmasından
istatistiklere
işleyişini
i̇sviçreli
i̇van@@
jos@@
kablosuz
kaldırıldı
kalkan@@
kampında
karşıl@@
kaydettiler
keli@@
kesimin
kipriyanu
klin@@
kolaylaştıracak
komple@@
konulardaki
kore@@
kriterlerine
kuruluşundan
kurşun
kutlamalar
lam
leriniz
liderlerine
mallara
malî
marin
melerinden
ment@@
mezun@@
mustaf@@
nok@@
numar@@
okulların
okum@@
olanaklarını
olasılığına
olmadığının
oranlarının
osijek
oş@@
parlamentosunda
planlayan
profesör@@
protest@@
radyo@@
ranko
rezer@@
rolüyle
ron@@
saatten
santralleri
sas
sağlamada
sağlamasını
senar@@
seçimin
seçmenin
sistemde
siyah
so
spe@@
star
suriyeli
süreciyle
sürü
sıralamada
tabanlı
tahsil
tazmin@@
topluluğun
tutulması
tutuluyor
uygulay@@
uygunsuz
verimlili@@
visegrad
yasını
yazın
yetkililerini
yokla@@
yolculuğ@@
yuvarlak
yönlendir@@
çalışmasına
çarptırıldı
çoğul@@
çıkmaz@@
üreticileri
üstlenecek
ıc@@
ıklı
ımlı
şahıslar
şat@@
1,8
acaklarına
acele
adlandır@@
aktiv@@
akıl
akşam@@
alkalay
alkol@@
almıyor
alınacağını
analizi
anlaşmalarını
anlaşmasıyla
avukatları
azınlığı
açıklık
bakanlıklar
bancroft
bazılarını
bağdat
baştan
berab@@
bolu
boşnak@@
btv
bulduğu
bulunuyoruz
bölünmüş@@
büyüyor
bırakıyor
cezbet@@
curoviç
dakik@@
deklar@@
deleg@@
demektir
destekten
devamında
diktatör
diş
dokuzuncu
duyurusunda
duğumuz
dönemlerde
düz@@
düzeydeki
eg@@
ekonomi@@
ekonomide
emr@@
enerjis@@
engellerle
eserlerinin
evlerinden
fan@@
fikrinin
formül@@
fuara
gas
geçirmeyi
gurur@@
görmeyi
güzellik
güçlendirmeye
güçlük@@
harekatı
hatırlat@@
hazine@@
hellenic
hrant
idaresinin
ilerletmenin
imtiyaz
imzalama
imzalanmasını
incelemeye
ischinger
istendi
işçileri
kai
kaydediyor
kazakistan
kentlerde
konulardan
konuyor
korkuyorlar
korumanın
kurumlarından
lendiriyor
liderliğinde
lulzim
lıydı
maaşı
map
mektu@@
memnunum
memurlar
mensupları
mhp
mühendisliği
olmayacaktır
ortamın
oslo
patlayı@@
piyade
plak@@
ple@@
pomp@@
pres@@
radyosuna
romenler
sar
sariç
satışları
scepanoviç
selimi
ser
seri
simgele@@
sinyallerini
siyasetç@@
sos
soğuk@@
srebrenitsa
sreten
sunarak
suçlarında
söylenti@@
söyleyebilirim
tahran
tartışıl@@
taşımac@@
tesli@@
tezah@@
th
tile@@
trablus
tutuklayıp
tuz@@
tören
tük@@
ulu
umutlarının
umuzun
usulsüzlükler
uğraşan
veritaban@@
vermeyeceğini
yapay
yapının
yapısını
yaratacağı
yatı
yerlerini
yetkisini
yüzyıla
yüzücü
zo@@
zorlaş@@
zorunluluğu
çabalarından
çatışmalarda
çetesi
çöze@@
ödemeleri
ölen@@
önlen@@
özkök
üs
üğ@@
ılma
şehrin
şük@@
.net
10.
14,@@
15.
2,9
89
adındaki
aklan@@
alışveriş@@
amamış
amaçları
ameli@@
anketin
anım@@
anıt@@
ayarak
ayları
ayrım@@
bakanlığında
bankas@@
bağlıyor
başkanlığından
başkentinin
becerileri
beklediklerini
beklemeye
beklentiler
bh@@
bilirdi
bulunup
büy@@
bı@@
cad@@
cd
civarındaki
ck@@
com@@
cül@@
dayak
denin
dilinde
diya
doktora
duliç
durumlar
düzenlemeye
düştüğü
ecz@@
edebi@@
efsanesi
eklen@@
engelledi
erkeklerin
eserlerin
etin
etken
etmeden
eylemin
ezya
eşy@@
faaliyetlere
felake@@
fuar
gemis@@
generaller
getirmesine
gide
gittiler
gri
gruplara
gsm
görüldüğünü
güvensizlik
güçlendi@@
harcamalarının
hastaneye
hatırlattı
hava@@
hem@@
hepsinden
hissesinin
hizmetlerin
imzalamayı
imzalamış
imzalanmış
iradeye
isa
ite@@
işgal@@
janez
kabulü
kamyon
kapanış
karargâhı
karşılaması
katıldığını
kaybettiğini
kesimleri
kesintiler
kitapları
konseye
kou@@
koyduğunu
krizini
krstiç
kullandığını
kullanıcı
kullanıldı
kurmuş
kurumlardan
kökünü
kısm@@
kıyı@@
lerek
likidi@@
luksiç
lıklardan
makamlarıyla
maliyetinin
malılar
mamıza
matik
metohija
militan@@
mladjan
modernizasyon@@
nar@@
nişan@@
olasılık
olduktan
olmalarını
onayını
oynayacak
piy@@
pod@@
politikaların
prosedürü
prosper
protestocu
protokol
provokas@@
raz@@
reddedildi
rekabet@@
rekabete
remikoviç
rüzgar@@
sahnesinde
samir
semp@@
senaryo@@
sever
seyahat@@
sik@@
sinyal
sipar@@
sistemindeki
sorumlulukları
suçlarını
söylenen
tablo@@
tahminlerine
tahvil
talebin
tanıması
tapın@@
tarafını
tari@@
temeli
teor@@
toplantıları
uluğ@@
unsurları
uya
vakası
vakıf@@
verilerin
verim@@
verimliliği
viktor
vurgulayarak
yaktı
yakup
yaralandığı
yas
yurt
yönetmen@@
yöntemi
yükse@@
yür@@
ziy@@
zıt
çalıştıkları
çeş@@
çiftç@@
çıkan@@
öldürülmesinin
öldürülmesiyle
ölçü@@
öngörüldüğü
şebe@@
şehit
şemsi@@
10.@@
15,@@
1960
28.
adeta
adis
amac@@
amacını
amada
aradan
aradığı
araştırmada
artacak
ato
aşı
barik@@
barikatların
basınına
baykal
bazılarına
bağışta
başpiskopos
belediyesinin
belçikalı
benzersiz
bilgilendirme
binalar
binde
birbiriyle
birbirleriyle
brifin@@
cannes
cularından
dağları
demiryolları
destekçisi
dimitrij
diğiniz
domin@@
doğdu
düşünen
düşünmeye
edilmesinden
elimizden
engelliyor
est
etmelerini
ettik@@
ever@@
evska
faaliyetlerinde
fes@@
frankfurt
gelişim@@
gelmişti
getirmenin
geçişi
girişi
girmeyi
gönderilecek
gönderiyor
gümrük@@
hafiflet@@
harcamalar
harekâ@@
hariç
hattına
hir
hizmetlerine
hükümeti@@
ici@@
ilerlediğini
inşasının
işaretler
işinin
jener@@
kaldırılmasına
kanseri
kanundan
kanıtlamak
kapital@@
kapısında
kapısını
kararsız
kazançlı
kilisenin
komşularıyla
konuşmasını
kurarak
kurtarmak
kuru@@
kutlamaları
kutlandı
körfe@@
laiklik
lilere
maçın
mec@@
memeli
memelidir
memleketi
meydan@@
meşhur
milen@@
miranda
miye
müzesinde
objek@@
odihr
ofisinin
okulun
olaylarla
olduklarına
olmasıdır
oloj@@
operasyonunu
pekiş@@
piyasasında
piş@@
platformu
sahipken
saldırılara
saldırılarda
savcılarının
sergiler
siyonu
sonuçsuz
sre@@
stadyumu
stratejiyi
suçlamalarla
sıralanıyor
tamamlanmasını
tanıkların
tanımlayan
tasarım
tehlikesi
tesla
teşkilatlarının
than@@
topu
tudjman
tutacak
tutula@@
ulmasına
umuza
uzunluğunda
verdiklerini
verecektir
veselin
vir@@
vulgarakis
vurul@@
yarışan
yatırıma
yayım@@
yükseliş@@
yükünü
zaferini
zil@@
çelenk
çevrimiçi
çeşit@@
çocuğ@@
çıkabilecek
çıkarılmasını
ölümünün
öncülük
öneride
öneriyor
üretimin
üstün@@
ımlar
şarkıs@@
94
adres@@
anahtar@@
anlatılıyor
anlaşmalara
atlet
atölye@@
açabilecek
babasının
barikatları
bayrami
başbakanının
beh@@
bekay
belediyesinde
beli
berisha
brayşori
bulunmayı
bölgelerinin
bürokras@@
büyüt@@
cenaz@@
ceriç
dağıtmak
dde@@
dengele@@
depos@@
destekleniyor
dezavantaj@@
değiştiril@@
dilde
dip
dolardan
dördü
dört@@
düğüne
efsan@@
ekonomisti
eurozone
eşliğinde
farklılık
fikirleri
fogh
gan
genişlemesinin
geçiri@@
girmesine
gran@@
görevin
göstermesine
güreş
güzer@@
hacmi
hacı@@
harri
hayatına
hazırdır
herseğin
hidro@@
hir@@
hisselerini
icc
inanan
istanlı
istasyonu
istediğimiz
iyileştirmeye
işyeri
i̇smail
i̇zetbegoviç
jas@@
kafa
kalarak
kanun
kapısının
karadağ@@
kaydetmek
kazanacak
krivokapiç
kullanırken
kuruluşlarına
kuzeydoğusundaki
küçümse@@
kın
larımız@@
lej@@
lez@@
lov
lüğe
lıklarından
lıklı
lıları
mamalıdır
market
mazken
meden@@
memnun@@
memnuniyet
mensuplarının
mesajlar
metro
mikro@@
miyor@@
momcilo
olabiliyor
olayının
olmadıkları
olmuyor
onurlandır@@
operasyona
operasyonlarına
paral@@
paylaştı
refah@@
rota
sanatçısı
savcının
saç@@
security
sendikaları
set
seçilecek
siyasette
sloganı
sokaklarda
stanis@@
sunulması
suçlamalarıyla
suçsuz
sırasındaki
tabur@@
tanımla@@
tanımlanıyor
taraftar
tarihsel
tazeledi
taşımak
teklifinde
telaffuz
temsilcilerinden
terör@@
tikten
tom@@
traje@@
trajik
trans@@
trend
tuğgeneral
tçe
tör
tüketimi
ufukta
ular
ulaştığını
uluslar@@
uyguluyor
uyu
vermiştir
vet
vurgulandı
yanıl@@
yardımcıları
yollarının
yos@@
youtube
yö@@
yükselerek
yükü
yüzde@@
yıkılan
zararı
zehirli
zem@@
zorluklarla
çalkan@@
çeyrek
çu
çıkardığını
çıkarılacak
î
ücretleri
ünite@@
üstlenen
ılabilecek
ıt
ıyorsunuz
şok@@
0.@@
2,7
4,4
ahşap
alabilecek
alanlara
alanının
alkış@@
almadığını
amariei
anayasasının
anlaşmazlıkları
ardılı
arkeolog
asız
atlat@@
ayacağını
ağları
baraj
başpiskop@@
bel
belirtiyorlar
bilinmiyor
birbir@@
borut
butler
bölgelerinden
bütünlüğünü
c.
cağından
centre
chris
ciliği
cluj
cum@@
cunun
devasa
değerlendirmede
değişikliklerini
durma
duyar@@
dökü@@
ediler
edilmek
edilmesinde
eleştirerek
elle
evrensel
fonlarından
gelecekler
geliri
geçire@@
geçirilmiş
gisinde
grafi
gun@@
gur@@
gönüllü@@
görevlerinden
gündemin
halkları
halklarının
hikayesi
ihtimal@@
ihtimali
ikisini
ilke
inanç
interpol
istem@@
izlemeye
i̇le
i̇lir@@
i̇r@@
jela@@
jko
kade@@
kah@@
kaldırarak
kandır@@
karargâh@@
karşılamakla
karşıy@@
kaydedilmesi
kazanç@@
kimseye
kok@@
konumuna
kotor
koştunitsa
koşulu
kuraklık
kuruluşlarından
kuşat@@
kömür
körük@@
kütüphanesi
lazareviç
liliği
mahkemeleri
mahkemesince
marshall
mektubu
mesi@@
metal@@
miktarın
milliyet
müteah@@
niyetli
olacak@@
orkestr@@
ote
oyuncuların
pack
packett
parasını
pasaportlar
pay
pdl
piyanist
poş@@
profil@@
pul@@
q@@
ros
safhası
saklandığına
samaras
sanatçıları
sayısındaki
sergiliyor
sinyal@@
sistemi@@
sonradan
sop@@
srpske
statük@@
statüs@@
stoj@@
surroi
sutopu
suçlamasıyla
söylenebilir
sınırla@@
sıv@@
tanımayan
tap@@
taraflara
tarihinden
tavrını
tercihli
teröristler
traj@@
tutu@@
tutulacak
tzanis
tüfek
ulusun
uyarı@@
uyg@@
uymak
uğraşıyor
varış
vatikan
vekil@@
verdim
verilirken
vermekten
vodafone
voice
vr@@
wa@@
ya-
yanların
yapmaması
yaratması
yat
yazıyor
ydü
yim
zamları
zla@@
zul@@
zupljanin
çatışmada
çeşit
çoğunluğ@@
çıkarması
ödenmemiş
ödüle
özgürce
öğretmenler
ülkemiz
üretiminde
þ@@
ılmaması
ısındaki
ısıtma
ıyız
şartına
şeffaf@@
şimdiki
1,9
2,6
3,8
acikla@@
adaları
adasında
aldığımız
almalarını
anketlerde
aramaya
araçların
arena
arzı
asay@@
azaltmaya
ağın
bakana
barışa
başkentine
benzer@@
bileceğ@@
binaları
bingazi
biriyle
bonn
boyun
british
butmir
bölgesini
bütünlüğüne
büyükanıt
camii
christie
claude
cüsü
davetlisi
değerinin
değerlendirilmesi
değerlendirmeye
diklerinde
dilek@@
djo@@
dov
durak@@
dziç
dükkan
düşman
dınız
eleştirdiler
eleştiriliyor
enformasyon
etkisiz
evenimentul
eğitimin
eşgüdüm
garan@@
gavr@@
gecikmeler
genişlemenin
gerileyerek
getirmiş
geçi@@
grubundan
görmüyor
görüştüğü
has
hastalığın
hattını
havada
hilmi
hizbullah
hollywood
hrt
ich
iddialarıyla
ilerlemeden
imajı
ins@@
inti@@
istemeyen
istişareler
i̇şletmeleri
jna
kafe
kalaş@@
kampanyaları
karayolları
kardeşler
kaybetme
kazanmayı
keyfini
kimliklerini
koltuğ@@
kontrolündeki
koordinasyon@@
koridor@@
koyu
kpt
ktaki
kucak@@
kurs@@
kurut@@
kısmında
lakaplı
limanına
lon@@
maj@@
markac
marmara
maçta
meh@@
memesinin
mesindeki
mevki@@
mevzuatı
milyarlarca
misyonlarına
moratinos
nedjeljko
nitelikteki
niçin
og
okulda
oli@@
omv
operasyonel
operasyonlarda
oruç
osuna
parlament@@
perisiç
piyasasına
piyasasının
red
renkli
revize
sahasında
sanatları
sanılıyor
sarı
satmak
saygın
sayımına
sekizinci
sektörleri
senato
seviyedeki
sigort@@
sistemli
sljivancanin
sonuçlanması
stein
süper@@
süregelen
tanımayı
taraflardan
tartışılan
teması
tercih@@
teçhizat
teşkilatları
tler
tolere
ulduğu
umun
uğramış
varlıklarına
vergilendir@@
vergisini
vermektedir
vran@@
vukoviç
yansıyan
yaratacağını
yazarlarından
yaşar
yebileceği
yetkilerinin
yolların
yoğunluklu
yönetiliyor
yönlü
yıldönüm@@
yıldızlı
zana
zeri
zey@@
zirve@@
çeşitlendir@@
çeşitlili@@
çeşitlilik
çizgi
ö
öncesindeki
öne@@
öneminin
ümüz@@
üretecek
ürse
ürünlerine
üz
ğiyle
ımları
şiir@@
şubesi
2,1
220
3,4
50@@
aat@@
abildi
acilen
adin@@
adlarını
ait@@
aldıktan
alpha
anastas@@
anton@@
arayışında
ard
arşivi
asıl@@
avljeviç
ayki
aynısını
azalan
aşağıla@@
baba@@
babiç
balkanlardaki
banın
bağımlı
başkalarının
başvurusu
bebek@@
belgelerini
belirsizliğini
besteci
bilinmeyen
bitiminden
borçlarının
br
bulunduğ@@
buluşma
bölünmüşlüğüne
bütçesinde
büyüklüğü
cards
cav@@
cel
ceset@@
com
cıya
daireler
danimarkalı
delta
değerlendirmesini
değindi
döngü@@
dünyaca
düşüncelerini
düşürme
düşüşle
düşüşün
dırıcı
ekibine
elçinin
energy
erdiği
etik
etkileyebilir
evlerin
eylemlerini
felsefe
felç
fikre
gelmedi
gerçekleşeceğini
gerçekleştirme
gerçeğini
girit
gla@@
gora
görevlerine
görüşmeyi
güne@@
hareketleri
hasar@@
herşeyin
hukuku
hücre@@
iddianameyi
ifadede
ihale@@
ihtilaflar
ihtilafları
ilerlemek
imli
inesi
inkar
insana
inşaatın
istemiyorum
istik
itfaiye
iyimserliğini
işletim
jak
janica
jeopolitik
johnson
jor@@
kalkınmanın
kalmayacak
kamp
kapılarının
karadağlılar
karşısına
kaybına
kaçakçılığına
kaçınmaya
kağ@@
kilinin
kilise@@
komitenin
korkut@@
koşullarda
kukes
kültürünün
küçük@@
kızgın
lal@@
lon
lum@@
maddeler
masi
matematik
mav@@
mazer@@
meslek@@
mitiç
motiv@@
müzakerelerdeki
nikos
nüfuslu
oecd
okun@@
okuyan
olabilmek
olo@@
onayladılar
onaylanmış
oni
operasyonunda
oturma
oylaması
parayla
personelin
polonyalı
programlarına
rekabetin
saldırılarına
sat
sayısına
sekiz@@
seviyeleri
seçtiler
sinyaller
sitenin
sk@@
sn@@
snezana
stavrevski
suistimal
sunacağı
tamamlamış
tanımlanmış
tanınma
tarama
tarihçi
teceğini
telafi
televizyonda
terminal@@
thal@@
tireceğini
tiyatros@@
topluyor
topraklarındaki
toptan
ts
turunun
tutukl@@
tüler
tığından
ud@@
ularına
varken
varıldı
veljoviç
wto
yardımda
yarısının
yaşartıcı
yebileceğini
yenleri
yerden
yetenekli
yetkililer@@
yinelediler
yorumcu
yorumlarında
yön
yönetici
yüklü
yükümlülüklerin
zilei
çekiliyor
çevres@@
çocuklarına
çökert@@
çıkaracak
övgüyle
özelliği
ülerek
üniversi@@
üçün@@
ılabileceği
ıldığında
şerid@@
1.200
adanmış
adasının
ala
alıyoruz
alışıl@@
ameliyat
anahtar
andreas
arabulu@@
arkasındaki
ast@@
atmosfer
atp
aylığı
aza
açığın
baconschi
bant
bağladı
başkanına
bekli@@
bia
bilgisi
birleştiren
birn
bloğu
bomb@@
bütçede
bütçeyi
cedomir
cezai
cna
dalgalan@@
dani
dağıtılacak
delege@@
demo@@
demokrat@@
dengesiz@@
devamını
divac
dok@@
düşüyor
dıkça
eceğiz
eci
edilmesiyle
ediğini
ekipman@@
eleştirel
etmedi
evangelos
evlen@@
farkındayız
fiyata
gay@@
gayri@@
gazetecileri
gecede
gecikmeden
geciktir@@
geleneği
gelirlerin
gelmeleri
gerçeğe
getirirken
gheorghe
girdiğini
gon@@
grossman
göndermeye
görüşmesinin
görüşüne
göstermiştir
gözetiminde
güvenliğine
güçlendirecek
güçleriyle
harekat
hastaların
hazırlandığı
iddiası
imal@@
imzaladı@@
inda
indirdi
inş@@
inşasında
istikrarsız
itibar@@
izler
işaretleri
işlemler
i̇statisti@@
i̇ste@@
i̇şsizlik
kafkas@@
kalitesinin
kalmıyor
kapatmaya
karam@@
kararlılığı
kargaşa
karşısındaki
kentleri
kesini
kolaylığı
kosovo
koymaya
kurtulmak
kuruluna
kırıl@@
lah
lazar@@
liyoruz
los@@
ly@@
maddelerin
mahkemelere
mahkemesinden
makine
marin@@
mariç
masıydı
mağaza
mediu
mekte@@
memurların
meselelerde
mimar
murat
my
müşteri
nadiren
nen
nihayetinde
ny
nöbet
okulları
onuruna
organlarının
oscar
osunu
pacolli
panay@@
parlamentodan
pas
patr@@
pazarlara
pit@@
politikalarına
popülist
pot@@
raporlar
rastlan@@
reformlarla
reformuna
restoranlar
rev@@
safet
safhasına
sami
sandalyeye
savunucuları
sağlamakla
sağlayıcısı
schröder
seçenekleri
seçkin
smil@@
sokmak
sonuçlardan
sunmaları
sven
sydney
sıkıntı
tanımak
tanış@@
taşımaktadır
tesislerinin
tipik
toplanması
trak@@
transfer@@
tutması
ulaşacak
ulaştığı
ungureanu
uyuşturucu@@
uzakta
varlıkları
verilmedi
verir
veritabanı
vermesinden
vujanoviç
william
yal
yanına
yapıya
yardımları
yarın
yarışmasını
yasasına
yayınlayarak
yaşlılar
yenildi
yılların
ziyarete
ziyaretçilerin
çağrısını
çevresinde
çiç@@
çokuluslu
çöp
çıkacağını
çıkarlarının
çığ@@
ödüller
özgü
üretken
şartını
şekli
125
2,8
ailelerinin
aka
akla
aliç
amerik@@
antiç
antonescu
aracılığında
arn@@
ayakkabı
azalmaya
azınlığa
açısı
bal
barajı
basın@@
bazında
beklentilerini
benedikt
bert
beyan@@
beşte
bitki
bizimle
bombardı@@
bru@@
burg
caddesi
cermak
cili
daires@@
dama@@
dayandır@@
deneyimli
denildi
deste@@
devralan
değişik
direniş
dizgin@@
dokunulmazlığı
duyuyoruz
dünyayı
düre@@
düzelme
ekonomiler
eleştirildi
eleştirileri
eleştirmenler
etkilediğini
etle
ettim
eşzamanlı
fasıl
fili@@
finansmanına
fischer
fuarına
genişletmek
gerekeceğini
gerektirdiği
geçeceğini
geçirmesini
girişiminde
gönül
görüşülen
günümüz@@
gın
halindeki
hevesli
hukuk@@
ifadesini
ihalesi
ihtiyacının
ikinc@@
ilçe@@
imtiyazlı
incisi
istih@@
istişare@@
itfaiye@@
ithalatına
içerisinde
işlemlerini
i̇htila@@
i̇letişim
i̇nter@@
jolie
kadek
kahra@@
kahraman@@
kaldırılmasının
kalesi
kampı
kapatıldı
karikat@@
karıştığı
karşılaştı
karşıtlar
katlı
katılmıyor
kimlikleri
kinden
kins
konferansının
konuşmak
korkar@@
koyarak
kullanıcıları
kurulduğu
kurumlarla
kuveyt
lendiri@@
lerim
lerin@@
lerince
leva
ljube
macovei
marnhac
mekanizmaları
memleket@@
merkezinden
mihayloviç
mili@@
mitroviç
mli
motor
muci@@
muhafız
muhas@@
müşterek
mışken
nette
nitelendirilen
nitelendiriyor
nitelik@@
nüfuzunu
olimpiyatlarının
om@@
operasyonunun
ortaklar
ortamına
pahalıya
papandreou
paylaşan
planlarının
politikayı
potansiyelinin
recom
rekabetçilik
resmî
rin@@
saatte
sac
safhaya
sahasını
saranda
satma
satmayı
sattı
sebe@@
sebep
seviyelere
seçe@@
sim
sistemlerini
sivilin
sonbahar
star@@
sübvansiyon
süreleri
süreçleri
sınıflandır@@
sırf
takdir@@
tanrı
tay
tedbirin
televizyondan
temasa
thomas
toplulu@@
trandafir
tun@@
tutuklanarak
ulaşarak
ulur
uygulamalar
uygulanıyor
uğray@@
uş
vergilerini
verimliliğini
vukotiç
vurgulan@@
yakalanan
yansıttığını
yapılandırılması
yaratıcı
yargılanmakta
yargılanması
yağmur
yaşıyorlar
yeceğine
yenin
yerlerinde
yetkilisinin
yineleyen
yolsuzluktan
yönü
yükümlülüğü
yürürlükte
yüzü
âr@@
çatışmalara
çesi
çiftçi
öldüğü
öncülü
önder@@
öğrenmek
ünifor@@
üniversiteler
şa
şahsen
şampiyon
şarkısı
şike
,@@
2,4
301
360
abilmeleri
abilmiş
adamlarının
adları
akademisyen
akı@@
alfabe@@
allah
alınıp
anciç
andriç
arabulucusu
araştırma@@
artmaya
artırmanın
atör
ayn@@
azaltması
bakanlığa
bakılıyor
bankalarının
bankasından
baskılara
baskıya
bayla
başarmış
başarıları
başlarken
belgele@@
belgelere
bilanç@@
bilimleri
bilme
binasına
binasında
birleşmesi
bojan
bombası
bulatoviç
bus@@
bırakmak
carl
cez
cn@@
davis
deceğini
derg@@
destekliyoruz
desteğinin
devredilmesi
değerlendirecek
değerlerini
dilen@@
dostane
dow
dul
duvarı
duyuran
düzenini
ea
edemeyiz
elik
eller
emsal
etkisinin
euronun
eşyalar
finalde
gazeteler
genc
gereğine
geçmeden
giderleri
girişimine
girişimiyle
gitmeyi
gordan
grand
göl
gölge@@
göndererek
görünür
gözaltı
göze
hadziç
harekât@@
hasat
hazırlayacak
herşeyden
heyetleri
hima@@
hit@@
hudut
hâ@@
hâlen
hızlandıracak
ifadeleri
ihanet
ikamet
iller
imalat
incelen@@
işlerinden
ja@@
janiç
kalıp
kampanyada
kampanyasına
kanton
kapasiteli
kartları
katılmasından
kaydıyla
kek
kenin
kentini
kere
kesi
kilisesinin
kole@@
kolon@@
kontey@@
konularla
koruyucu
kriterlerin
kullanıldığını
kullanılmasını
kurbanlarının
kusturica
küresel@@
kıtas@@
lek
les@@
luyor
lıklarla
lılara
makamı
mallarına
mamıştır
markos
meclisinde
meksizin
memek
meron
meselelere
meşal@@
misil@@
misyonları
mr@@
muay@@
muhalefetle
mükellef@@
müvek@@
müzisyenler
njak
norveçli
odaklanması
olduk
olimpiyatlara
olmasıyla
oluşturulmasını
onaylanmasını
oranından
organizasyonu
ortaçağ@@
otoyolu
oturumda
oturup
oylamadan
oynan@@
parlamenter
partilerle
personel@@
petkov
projesinde
prosedürler
puanları
puanını
pür@@
radu
raduloviç
raporları
rektör@@
romania
sahasına
sahi@@
salar
saldırılarının
sandalyenin
santralı
saray@@
serbestleştirilmesi
sesli
sit@@
sk
sonucunu
soykırımı
stephen
söndür@@
taleplerine
tanınmasına
tarculovski
tasarıda
tedar@@
teminat
tezgah@@
tokyo
tomiç
trans
turistleri
türkmenistan
uluğu
usame
uyuştur@@
uzmanlardan
uğradığını
vo
yapacaklar
yapacağına
yapısının
yargılanan
yayılmasını
yel@@
yolculuk
yöneticileri
yönetiminden
yüzüne
zaferle
çalışmış
çerçevenin
çöküşünden
çözmesi
çıkarı
ödenecek
üsküplü
üyesinden
ğın@@
şartlara
şunlar
200@@
3g
acaktı
acağımızı
adal@@
adımlara
anayasasını
angel
anketinde
anlaşmalarına
ansı
arabuluculuğ@@
aracılık
arben
argüman@@
artıran
askerlere
ayarla@@
aylıkları
açabileceğini
b.
barış@@
başarısızlığa
belirttiği
besleyen
beste@@
bez@@
birleştirmek
bi̇@@
büro
bırakması
cankov
cemil
cern
cevski
cha@@
chirac
company
corce
cılarına
dalmaçya
davalarında
davasıyla
dağıtımı
defter@@
demeç
devletini
değerlendiren
diklerine
diğimizi
doğrulandı
dönüp
düzenlenmiş
düzeye
elindeki
elit
endiş@@
enerjinin
eri@@
etkenler
etkilerinin
etmesiyle
eupolitix
evlerinde
eğilimler
faydalar
felse@@
fiyatlara
fiyatlarındaki
fizik
frans@@
geldik
gelirin
gelu
genelkur@@
gereksinim
gideceğini
grigor@@
gurbet@@
gölgelen@@
görüyorum
güneydoğusundaki
güneş@@
haftadır
hedefin
hedeflerin
huz@@
iadesini
icin
idaresinde
iddianame@@
ihracatının
iletişim@@
ilkokul
irim
irtibat
isiç
iyetin
işlemi
işleyişi
jso
kademe
kalabalığa
kalıntılarını
kanalizasyon
kanıtları
karşılaşmada
kaybol@@
kayır@@
kendimi
kev@@
klaus
konstantin@@
konusunun
korumayı
krajina
kras@@
kula@@
kullanmaktan
kullanılarak
kurulmasından
kârlı
köstence
kütüphane
kırdı
kıyas@@
lefkoşa
lendire@@
lendiren
lenin
life
limit@@
litre
lus@@
lüğün
madalyası
madığına
manjola
medyayı
megawatt
meksika
mes
mitroviça
mjaft
modern@@
muadil@@
mum@@
mungiu
musliu
mühendislik
müzakereci
mışlar
nefre@@
nehrin
nikol@@
nitelik
niyetini
normalde
olamayacağını
olanlara
onaylandığı
ortamının
otomotiv
oturan
oyları
patlaması
peres
planladıkları
plevneliev
poster@@
programlarının
racak
rakamı
ram
ram@@
raporlarını
receği
restoran@@
restorasyon
romanları
rız@@
sahasının
sahtekar@@
satılan
savaşından
sağlamaktadır
sağlandığını
sağlanmış
sağlanıyor
seler
sistemiyle
sosyolog
srdjan
stad@@
stal@@
suikastın
sus@@
söylendi
takımları
takımını
takın@@
tale@@
talih@@
talimat
tatbikatı
tecrü@@
temsilcilerini
testi
tikte
toplumunu
toprağa
tular
turnuva
turnuvada
tutuldu
tutumuna
tutumunun
tüke@@
tümünün
tıracağını
ukraynalı
ulaşmış
umutlu
vefat
vekiller
verileceği
veterinerlik
yanlış@@
yar
yarışmanın
yayınlanması
yaşından
yaşıyoruz
yetene@@
yetişkin@@
yetkin
yineleyerek
yl@@
yokluğu
yoloji
yorumcusu
yönelt@@
yükseltmek
yürür@@
yürütmekte
yıcı
zaferin
zanlısını
çalışmakta
çatışması
çağdaş@@
çekilme
çocuklarını
çözülmemiş
çıkmıştı
ödemeler
öte@@
şere@@
adadaki
akl@@
akışı
alay
alınmasının
alınmıştı
analist@@
anan
anlama
ansi@@
aralı@@
arasındaydı
artırıcı
athoc
atlama
atörü
au
avrupalılar
avu@@
azaltacak
azılı
açıklamıştı
açılış@@
aş
aştı
baskıyı
başkentte
becerisini
bekleniyordu
bileceğinin
birliklerinin
broz
broş@@
brüt
bs
bulletin
bölgelerin
bürosunun
bütçeden
büyümesinin
cana
cazibe@@
cezbe@@
cirokastra
cum
dana
dayım
destekleyenler
devletlerinin
devri
değerlendiri@@
değinen
digi
dinler
dizel
dosya
dre@@
dun
dürüst@@
dışarıda
ebe
eceğinden
ekler
eksi@@
engelin
erdiren
ereceği
etmemiz
finale
folklor
form@@
gelenek
geçiren
gibi@@
gidilmesi
gl@@
gruplardan
gönderilmesi
göndermesi
göreceğiz
gösteride
güvenliğinin
haf@@
halter@@
harcanan
hastalık
hazırlaması
hedefinde
hev@@
heyecan
heyetler
hikaye
hristos
huku@@
hızlan@@
hızlandırdı
iddiaların
ifa
ifadeler
ihracatını
ihtiyacını
ilikten
iliğinin
ilkesi
ilkesini
imal
imkânsız
imzalamaya
indirmek
int
istis@@
iyileştirmeler
iyimserlik
iyorsa
izniyle
işverenler
i̇bra@@
i̇şlerinden
kadros@@
kaj
kalar
kampanyasında
kanadı
kanıtlan@@
kararlarının
kararlılıkla
karde@@
katılmasının
kesimde
kimse@@
kirlilik
koman@@
kompleksi
konmasını
konsolid@@
konulara
kostiç
koyması
kullanacak
kullanılmak
kuralların
kusari
kılan
kırıklığını
kışkırtıcı
lah@@
larınız
linin
lisansüstü
liye@@
liyordu
lutovska
makamının
maktay@@
mamıştı
mantık@@
marie
medim
medy@@
mektubunda
mid@@
miletiç
miyordu
mizdeki
morina
most
ms
muğ@@
müzisyen
müştür
mısırlı
nad@@
nadir
neft
nel@@
nezaret
novine
ntv
odaları
ok
olar
olaylarından
ombudsman
oraya
oturumu
pakt@@
paskalya
patlamada
payını
pdp
pey@@
pragmatik
propaganda
püs@@
radikaller
rat@@
referans
rehberlik
ressam@@
rica
rolünden
romen@@
röportaj
s.
salih
savunmak
sayan
sebze
seferler
sekizi
sektörlerde
sem
sendi@@
serma@@
seydi
sicil
sivilleri
siyasetinde
siydi
slalom
sna
soruları
sorumsuz
srebren@@
steinberg
steven
stojan@@
stratejide
stur@@
sunacağını
sunduğunu
suçlularının
sözcülerinden
sürük@@
süz@@
tabana
taleplerinin
talepte
tar
tartışması
tartışıyor
tayin
tedarikçisi
tedavis@@
tekeli
teletıp
temelini
tli
todor@@
turnuvanın
turnuvasında
turuna
tüketic@@
ulaşılması
ulemek
vanı
vecernje
veton
yakaladı
yapmamız
yapılmadı
yararı
yaratabilir
yardımcılığı
yardımlar
yargıya
yarıştı
yazma
yetiyle
yorumlan@@
yüklen@@
yürütülmesi
zihin@@
çağırarak
çağırıyoruz
çıl@@
ödemesiz
öneriye
önü
ört@@
öğret@@
üdür
ülebilir
ızca
şahsın
şaş@@
şeydir
̇
abilirsiniz
abı
adaylığına
adi@@
afrikalı
ai
akademi
aksa@@
aktaran
akıllıca
aleyh@@
alo@@
alınacağı
alır
amatör
anagnostopoulos
anayasasında
andre@@
anov
arap@@
arttır@@
asıllı
atacağı
atadı
atölye
aw@@
bahçesi
bağlamında
bağlantılar
başlayacağı
başlık
başlığı
bechtel
bekir
bekleme
beklenenden
beklenmiyor
benziyor
birimin
blokla
brown
bulacak
bulunacağı
bırakacak
cezaevinde
ciden
cilere
cit@@
cooper
dağılmış
dağıtmaya
dağıtı@@
deler
dersleri
değerlere
değişikliklerle
değiştirecek
dilekçe@@
div@@
doğrultuda
durağan
duyurulan
düşündüğü
düşüşü
ebilmesi
edemez
edenlerin
edin
eksiklikleri
ende@@
erwan
etkileş@@
etkiye
eyaletinin
faali@@
fajon
filipoviç
formü@@
forumun
france
fullani
galası
gallup
geldiğine
gelişmenin
gelmeden
geçmeyi
gin@@
girişimci
gov@@
goviç
gregorian
göndermek
görüşecek
görüştük@@
göstereceğini
götürül@@
gözlemev@@
güvende
güvenlikle
halledil@@
hazırlanırken
hedeflerinin
hükümdar@@
iddianamenin
ideoloj@@
ihalenin
ihaleye
ihlalleri
ihtilafında
ihtimal
ihtimalle
ilerlemeleri
ilkesinin
inanmıyorum
isteniyor
istihdam@@
itibar
iyice
i̇l
janjiç
kalacaktır
kaldırmayı
kalkındır@@
kanıtladığını
kanıtlay@@
kararlılıklarını
katkıları
katkıs@@
katkısı
katılmakla
katılımcıları
kavş@@
kaydede@@
kazanmasından
kazasında
kaçakların
keli
kesimine
kit@@
kişilerden
kli
konse@@
konsolosluk
konvansiyonu
korkusu
korkusuyla
kun
kurgu
kurmanın
kökleri
köylü
kültürler
layıcı
lazar
ldp
listesini
lığındaki
maddesinin
makedonca
margar@@
mağdur
mektup@@
melerinde
mem@@
memişti
meniz
merc@@
mese@@
meyve@@
mirjana
mla@@
mrf
muhalefete
mutfa@@
mücadelesinde
mücahit
müfredat@@
mühimmat@@
mıyoruz
namaz@@
neti@@
nitelendirdiler
niteliğindeki
ole
olmaz@@
olog@@
onarım
osunun
ota
oylarını
oynayacağı
pavle
piyasasını
prensipte
presevo
pukaniç
raiffeisen
rar
rec@@
rogge
ruhsatı
sahnede
sağlanmasını
sebebiyle
sempoz@@
seviyesinden
silahsızlanma
silin@@
sistemlerine
sit
sokakta
sorumluluğun
south
ster
sözleşmeyi
sükun@@
sürekl@@
sıkıntılar
taahhüt
taksit@@
tarafsız@@
tası
tedavisi
tehdidinde
tehlikede
temsilcilerine
temsili
tesiste
tikçe
todoroviç
tom
tutuklamak
tutuklamaların
tutuklamaya
tutumları
tüzüğ@@
ulaşıla@@
uyul@@
varmak
verebileceği
verilmemesi
vermiyor
yahyaga
yaklaştı
yalan
yapabilece@@
yapılmasının
yargıçları
yarışıyor
yağış@@
yenilgi
yerinden
yerleşti
yinele@@
yiti@@
yoksullukla
yorumlar
yumdu
yönetmenliğini
yü@@
yükseltme
yüzyıllar
ziyaretç@@
çabası
çalıntı
çalışmalarından
çalışıp
çalışıyordu
çatışmaları
çatışmaya
çekince@@
çekir@@
önceliklerini
özelleştiril@@
öğrencinin
üsünün
üyeden
ılı@@
şantaj
şeridi
şist
şüph@@
şüpheyle
14.
197@@
20,@@
a-
abd@@
adri@@
akları
alanlarının
almaktadır
alogoskufis
alımı
amacına
arıyorlar
asyonuna
atla@@
avan@@
avroyla
avustral@@
azaldığını
azı
açıklamayı
açılmış
aşamada
bakacak
bakanlığını
bakmak
bankalara
basiç
bağlılığı
başlamasıyla
başlatacak
bedel
bedelini
belarus
bildirdiler
bilinci
bilincini
birik@@
bm@@
borsa
böbrek
cağız
cese@@
daralt@@
davalarda
derinden
desteklemesi
devletine
diana
disipl@@
dokuz@@
dondurdu
dramatik
dsb
duk@@
duyguları
dönük
düşerek
edildikten
edildiler
eksiklikler
elektroprivreda
enden
enstitüs@@
epey
ermesinin
esneklik
etmeliyiz
euroyu
evsiz
feth@@
fiilen
fiyatının
fonlarını
gashi
gayri
gelecektir
gelişi
gelişiminin
gelişmede
gerçekleştiren
getirmişti
geçişin
girip
girişimlerine
girmesinden
gişe
grubunu
gunu
gönderecek
görevi@@
görülebilir
görüp
göğüs@@
gündemini
güneydoğusunda
güveniyor
haklarıyla
hard
hastalar
hatalı
hile@@
hocay
hoşnutsuz@@
icalı
ifc
ihracata
ihracatın
ihtiyati
ikli
indirimi
ira@@
ish@@
istedik
isteyeceğini
itham
ivana
izlenecek
işsizliğin
i̇rlandalı
i̇vaniç
i̇yon
i̇şte
jes@@
kanalları
kapılarında
karışan
karşılıklılık
kategoride
katılıp
kayak@@
kaybede@@
kaydır@@
kayı
kefal@@
kel@@
kelmendi
kimya
kocas@@
komşusunun
konseyine
konuşuyor
koydular
kriterlerinin
kronik
kullanıma
kulüp
kurbanlara
kuvvetlerini
kısalt@@
kısıtlamaların
laj@@
lası
lazım
lisansı
liy@@
luktan
lıyorum
macarlar
maddesini
manlık
marş@@
masız
memiştir
meteor@@
mevcut@@
mobtel
naylon
nbs
nelerdir
ns
olasılığıyla
olaysız
olayını
olsalar
oradan
ordu@@
oyunlarının
oğlan
pantiç
paraya
paşa
perspektifi
rafinerisi
rahatsız@@
rastlanan
reforma
rekabetç@@
rov
saklandığı
samuel
sandalyesi
satranç
savunmasını
saygılı
sayının
sergiye
sinag@@
sinyalini
sokma
solomon
sorg@@
sorgu@@
sorulan
sorunlarından
srcan
standardı
straw
sultan
suçlayarak
sırt@@
sığınmacı
tanımlanması
tanığın
tarife@@
teh@@
tescil
teşebbü@@
teşhisi
teşkilatını
tilen
toplayarak
trav@@
trö@@
tutuklandığı
tutukluların
tz@@
university
uzaklıktaki
vasile
vasiç
velimir
vergis@@
versi@@
vrs
yakalam@@
yapmadığını
yaratarak
yarıdan
yarışa
yasaklama
yazarları
yemeği
yetkilerin
yn@@
yoklamaları
yonun
yorumcular
zimmete
zur@@
çekimser
çelişkili
çeva
çözümleri
çıkmazın
ödüllendir@@
ödün
ödüyor
öfkeli
ölçekte
önemine
örgütü@@
özetliyor
üzücü
ılmak
ınızı
ızlık
şahsi
şan
şirketlerini
şö@@
şüpheler
şüpheleri
109
16.
8,5
adlandırılan
agron
akoviç
akredi@@
alacaktır
almadığı
ambo
aramak
arnavutları
asam@@
askerden
asselborn
atacak
ath@@
austria
ava
azalmasına
bahsetti
batıya
bağlıdır
başarılara
başarıyı
başlayarak
başsav@@
bek
belediyelerde
belediyeleri
bilgilerini
bisik@@
boyutu
boşa
bulmanın
bulup
caminin
cezasının
cia
cılarla
demişti
deneme
denetimini
depart@@
det
dig@@
diledi
dilekçe
dj
donanma
dua
durağı
durdurdu
dönüşünü
düşünmüyorum
ebu
ehli@@
engellemekle
engelliler
erteledi
eğilimleri
eşinin
fahri
failleri
faillerin
farklılıkların
favor@@
fazlasına
fil
fonlarına
franjo
futbolcu
galer@@
gayrimenkul
gazeteye
geci@@
gene@@
gereğ@@
getirebilir
getirildiği
geçerken
geçit
girişimlere
girişini
gisini
glo@@
gösterici
gözlemcilerin
güneydoğ@@
güneydoğudaki
güreşçi
güçlere
gıyaben
hek@@
him@@
iddialara
ideolojik
ilikle
ilmesinden
imlerini
inski
itirazları
işlemekle
iştir@@
i̇bar
i̇kincisi
i̇stihdam
jinal@@
jozefina
kadına
kalkış@@
kamu@@
kamuya
karan@@
kararlara
kararlıyız
karısı
katliam
kavur@@
kaybetmişti
kazanılan
kere@@
kilo@@
kirli
kirliliği
klan
klinik@@
koalisyonuna
kongresinde
konularındaki
kovaçeviç
krizde
krizine
kupas@@
kurt
kurucularından
kuruluşlarını
kötüm@@
kümes
küreselleşme
kıyaslan@@
kızdırdı
laboratuvar
laka
lal
lari
layın
leh@@
lig@@
lim@@
liyle
ljubiciç
lılığı
maalesef
mahmud
maja
mamızı
manastır
manev@@
manoviç
manzara
mayacağız
mağdurları
mecbur
menkul@@
merkezde
merkezlerinde
metrekare
meydanında
misiniz
mişler
moldav@@
musev@@
mutluluk
mücev@@
müdürleri
mün@@
nap@@
nazar@@
nezavisne
nj@@
olduğumu
olimpiyatların
olojik
oluşturması
operasyonlarını
ore
ortasından
otoriter
over
parametre@@
paramiliter
partilerden
partizan
parçasıdır
pire
piskop@@
piyasada
pişir@@
portf@@
potansiyelini
pri̇şti̇ne
rade
reformlardan
renault
riskleri
roland
ron
ruhani
rıza
samar@@
sansür
sarsın@@
satışından
savaşının
sağlamış
schwartz
sendikaların
severlik
sevkıy@@
sey
si-
sineması
sitel
sizliğin
sloven@@
sokaklarında
sokaktaki
stat
stojan
stü@@
sularında
söylemesine
sözcük@@
sıfatıyla
tadan
tama@@
tamamlayıp
taraftarı
tartışmayı
temellerini
theodor
ti̇@@
tleri
toplanacak
tot@@
turistin
turk
tümüyle
tüp
türklüğe
u-
voje
walter
win
yabancıların
yakındaki
yansıtan
yapilan
yargılandığı
yatırımlarını
yatıştır@@
yayınevi
yerleşik
yev
yorumda
yüksele@@
zarfında
zelanda
zim@@
zorundalar
çabalıyor
çalıştılar
çevreleri
çevreyi
çiğ@@
çöp@@
çıkabilir
öğle
üri@@
üstüne
üsünde
ğindeki
ındaydı
şartlardan
şarttır
şebekesi
şirketlerine
şkodra
16,@@
18,@@
1800
3,7
50.
abilme
afgan
ailelere
akar@@
akos
akrabaları
aku
akıllı
altyapıyı
amayı
anı@@
aramızda
askerlerine
atif@@
ayrılmasına
azaltmayı
açmasını
bask@@
bayrakları
başlıklar
begoviç
benimsen@@
besimi
birikmiş
birisini
birlikte@@
bisiklet
blogcular
bocevski
bora
bozuk
bütünüyle
cap@@
car
cea
cengiz
culuk
cılardan
daskalaki
dayanış@@
deprem@@
dergisine
desteklenecek
değerini
değişikliklerinin
değişime
diaspora
dilimi
dmitry
doğmasına
dür@@
düz
düşmesine
düşünmek
edileceğine
edilme
elektrik@@
elektrikli
elli
etmeme
eupm
evi@@
eğitil@@
faslının
favori
firmasına
frak@@
gardi@@
gayrımenkul
gelmesinin
gerginliklerin
gerçekler
gerçekleşeceği
gerçekleştirmeye
girece@@
girerek
gizle@@
grevi
görevlerinde
görmediğini
görmesine
görülür
gösterge
göstermekle
götürecek
göçü
gündür
güvenilirlik
güçlüklerin
hakem@@
halter
harcıyor
hareketler
havaalanında
hayatının
helikopter
hissediyorum
hisseleri
hizmetine
hong
ihracatçısı
ikramiye@@
ilebilecek
ilgis@@
ilmişti
imir
imkan
iniz@@
inse
institute
istenmeyen
iyisini
işlemiş
işlendiği
i̇hracat
i̇zzetbegoviç
jelasiç
kabinede
kader@@
kale
kaliniç
kalkınmaya
kampan@@
kaplan@@
katliamında
katliamıyla
katından
kaybetmesi
kaydedile@@
kazanmasını
kaçakçılığını
key
kola@@
komis@@
konsolos@@
konuşması
konuştular
korkan
koşuluyla
kullanılabilecek
kulüb@@
küler
kırg@@
lamberto
larımızla
lila
liğimizi
lukları
lütfi
lıyordu
madeni
marka
masasına
mağduru
memektedir
memeti
memeye
merkezlerinden
mesafede
meyeceğim
meşr@@
miktarının
milletvekillerini
mina
mişlerdir
mobilya
mod@@
muhalif@@
mücadelesini
müjde@@
mür@@
mütevazı
mıyorlar
negatif
nek
nin@@
numarası
odaklı
okullara
olaca@@
olgunluk
olmadığından
oluşturuldu
omuz@@
orban
otor@@
paralarını
parlamentosuna
parmak@@
patrik
pazarlar
petrol@@
pilot@@
plamen
plo@@
popülari@@
propag@@
protestoların
rakamların
ral@@
rest@@
risti@@
riyle
roket
rou@@
rtrs
sabır@@
saddam
sahnele@@
sanığı
satmaya
saviç
savunmaya
sebebi
seferber
sera@@
sertifik@@
seslendi
sir
sondaj
stav@@
suikas@@
sön@@
söylediğini
söylentileri
sürücü
sınırda
sırplardan
takvim
tamamlamayı
tanı
tanınmasını
tarafına
tartışmada
tehditlerle
tekel
temelleri
temerrü@@
temsilen
teodor
tepkisi
tireceği
toler@@
tre
tugayı
tunus
tutarak
ulah
ulardan
umlu
uni@@
unifil
ustu
varlıklarının
vergilendirme
vizyonu
vuran
vurg@@
yaklaşımın
yanaş@@
yapar@@
yardımını
yarısına
yavaşlama
yağ
yaşamına
yaşına
yerleşti@@
yorsa
yt
ziyaretçilere
çadır@@
çarpıcı
çarpış@@
önderliğindeki
örgütlerle
örnekler
ülken@@
ümüzü
üstelik
üstlenmeye
ğlu
ıf@@
ıtı
şarkıcının
şeffaflığı
şube
-arnavutluk
.bg
17,@@
19,@@
1986
1987
4,3
440
akciğ@@
aki@@
aksak@@
akım
alamadı
aleyhte
amacın
anmak
arkeolog@@
ars@@
atların
avlyeviç
ayrılarak
ayrılmak
azınlıkları
açıklamalarına
açılmasının
aşması
bakoyannis
barikatlar
barrot
baskıları
başlattığını
başlatılacak
başsavcının
bekim
beklerken
bela
belirlemiş
berat
berlusconi
bey
bilinç@@
bloğ@@
bologna
borçlan@@
boşnakların
bp
brankoviç
britanya
bulunmaması
büyüğü
bıraktığını
bırakın
caz@@
cema@@
cephe@@
channel
cinayetleri
cinsi@@
cs
culuğu
curiç
da-
daveti@@
delen
deneyimi
depremde
derecesiyle
devamına
devrimci
devriye@@
deyken
değiştirerek
değiştirmesi
diploma@@
diyaloğ@@
dizüstü
doğruluyor
dragisiç
durdurul@@
durumları
durumuyla
duvar
düşündüğ@@
edilmedi
ekonomis@@
elerde
elini
endişelendi@@
enlerden
esin
eskisi
etmeyen
eurobond
evini
evo
ex@@
eğitimine
eğitimini
eşiğinde
fazladan
faş@@
fbi
fine
fırsatını
gane
gelenekleri
generallerin
gereklilik@@
getirmediği
girmeden
gitmekte
gram
gribinin
gruptan
gördüğümüz
göstermekte
göstermesini
göğüs
haberlerin
halkından
hanın
hastalığı
hayatın
hayvanat
haziri
hip
hiu
hoşgörüs@@
hüs@@
hırsızlık
iftira
ihtilafa
ilanını
ilişkinin
ilmez
ilçe
imden
imle
imzalanmasına
inen
iniş
insanlarının
inşaatına
ion@@
isa@@
istatistikler
isteyenler
istihbar@@
ital@@
itirazlarını
iyelik
izole
içecek
jac@@
kabineye
kalabalık@@
kalıntı@@
kampanyalar
kanaat
kariyer
karmaşık@@
karışıklık
kavra@@
kel
kendilerinin
kesine
kestir@@
kilere
kolaylaştırılması
komi@@
komplo
kong
korkuları
kredisinin
krizinden
kültürünü
kılıç@@
kırık@@
kısa@@
lap@@
lem@@
lendiğini
leşmiş
leştirilmiş
lib@@
liderlerden
linde
maaşın
manş@@
matik@@
mebla@@
meclisine
menekşe
mert
mesajları
meselelerle
mevki
mevsim@@
miliband
millet
momentum
mut
mutluyum
müdahalede
mülk@@
mürette@@
nada
national
nce
nef@@
novo
okullarında
olimp@@
oluşturulmasına
ong
otobü@@
oynamak
pankart@@
papulyas
parmağı
pi
potocari
poz
prensi@@
prijedor
radyosunun
raj@@
raki@@
realite@@
reformdan
research
riskiyle
safhalarında
sahibi@@
sahipliğinde
sanılan
satışını
savaşan
saçma
sesine
sesleri
severin
sez@@
simoviç
sitesinin
sorusuna
soruşturulması
srna
steinmeier
stojanovski
ston
strpce
subayları
suy@@
suçladığı
suçlamalara
suçuyla
sy@@
söylem@@
söylü@@
sözleşmesini
sıfır@@
sığınma@@
tahminleri
takımında
tamamlayarak
tanıklar
tanımasını
tanımladı
tatbikatın
tatillerini
taziye@@
teknolojiye
temelinde
termoelektrik
teş@@
toplantıyı
toplumlara
tuttuğu
tüğ@@
unvanını
uydur@@
uygulandı
uzan
vakıf
vekariç
verecekler
verilmesinin
verilmişti
virüs
voda
wel@@
wil@@
yakalamaya
yakalanıp
yakıt@@
yalar
yapılabilir
yarışmayı
yatırımlara
yaşamaya
yaşayanlar
yecekleri
yerinin
yo
yurtiçi
yurtiçinde
yönetecek
yüzünü
yıldırım
zayıfla@@
ziyaretine
zubin
çabanın
çalışanlarına
çevrec@@
çeşitliliği
çıkararak
çıkarlar
çıkmayı
ödediği
ödenen
ömer
önceliklerinden
önümüzde
övgü@@
üniversitelerde
üretimini
üyenin
ıldığına
ılığında
ımızla
ırsak
ıslah
ızdan
ığa
şartlarına
şeklindedir
11.
230
3,9
4,6
4,7
5,8
6,7
7,3
aba@@
acen@@
acıların
adap@@
adi
alabileceğini
alanlarını
aldat@@
algı@@
ambargos@@
anketlere
anlamak
anlayışı
anması
antika
antonis
arkadaşlarının
artistik
arzını
ash@@
astronomi
atıcılık
austin
av
ayaklanma
açıklanması
açıkları
açılışına
açıp
bakanlıklarının
bankaya
baya
bayı
bağım@@
başlatan
bilgisayara
bogdan
bulunduğuna
bük@@
bürokrasi
capital
cephe
cere@@
cil
credit
dairelerin
dani@@
davalarına
deneyimlerini
değerlendi@@
değişikliğinin
değişmesi
değiştirmeyi
dine
diplomatların
diplomatın
diğerinin
diğeriyse
drama
drina
duğum
dönüştü@@
dönüştürmek
dünyadan
düzeyine
düşürüldü
eceklerini
edemeyeceğini
ediliyordu
edilmemiş
ekonomiden
ekonomil@@
elebaş@@
elizabeth
engellerden
enstitü
erz@@
esin@@
est@@
etkilendi
etmektir
evlilik
farket@@
feribot
fikirlerini
filip@@
fiyatını
flor@@
gazi
gelirli
geliştirdi
gelmekte
genişleyen
gerekirken
geçirecek
geçmişten
girerken
greve
grevler
gruplarına
gördüklerini
görsel
görülüyorlar
göründüğünü
görünümünü
görüşe
görüşte
gözlemcileri
gözünü
güçlendirilmesine
hakimleri
hapiste
hareketine
hareketli
haricinde
harry
hastaneler
hatalar
hatırlıyor
hijyen
hrw
ias
ika@@
ilerdeki
ilgilendiklerini
ilgileniyor
ilişkilendir@@
ilişkilerden
ilç@@
ilçesinde
indir
ire
isimlerin
istikrarına
ita@@
itici
ittifakın
ivedi
iyileşmesi
içeriği
i̇.ö.
i̇kö
i̇ranlı
i̇stiyor
i̇vanovski
janin
joe
jür@@
kadarı
kaderi
kaldıran
kalkandere
kanalın
kanununun
kap
kapılar
kararlarına
kararlılığının
kasabanın
katılabilmesi
katılacak@@
kayakçı
kaydediliyor
kazandırma
kesti
kira@@
klaudija
klerdir
kocası
kolo@@
komisyonuna
konj@@
konjanovski
konstantin
konularına
korudu
kriter
kros
kuneva
kurbanın
kuruluşuna
kurumlarda
kâ@@
kılacak
kısmına
kızgın@@
lamayı
lamıştır
lerinizi
liderliğini
ljub@@
lor@@
ludur
luklar
lünün
macer@@
maliyetli
maloviç
market@@
mayarak
meblağın
medeni
memija
mep
merhum
mesafe@@
mesafedeki
meslektaşları
mk
montenegro
muhaf@@
müsteşar
müzenin
nefes
nitelendiri@@
nitelikli
nüfusuna
onaylayarak
onda
one@@
op
ordudan
ordusundan
ote@@
otoritesini
otoyolunun
partilerini
programından
pusul@@
radar
rado@@
rakipleri
riga
rom
ruh
rüşvet@@
rı@@
saate
sabr@@
sabırsız@@
sanatsal
sanatı
sanırım
satıyor
sayılıyor
sağlanmasında
sektörler
selam@@
senatör
sevi@@
sf
sindirme
singapur
sorulara
soruşturmaları
soruşturmaların
sponsor
stip
stolojan
suçunu
söyledim
söylemesi
sürün@@
sıkışırken
sında
tam@@
tanındı
tanıtım@@
tasarısının
taşım@@
tekliflerini
tekni@@
tepe
terfi
terörün
teşek@@
tia
tici
tilecek
tokyay
toplumlarına
trajkoviç
tum
turunu
tutuklamaları
tutuklanmıştı
tüf@@
tırken
uygulandığı
uzatılması
uştur@@
vergilerin
vergisinin
vermemesi
vermesinin
von
voyvo@@
vul@@
vurgulamak
vü@@
war@@
wood
yanaki
yansıması
yardımının
yargıtay
yarımadası
yasayla
yaya
yayınlayacak
yaşadığımız
yaşta
yenilenen
yorumlarda
ys@@
yönleri
yükseltilmesi
yükümlülükler
zamanların
zo
zorlukları
çerçevede
çetesinin
çiftçilerin
çiç
çıkmazı
ölümüyle
önleye@@
önleyecek
örnekleri
örü
özgürlükleri
öğrenme
ücretin
ünüz
üretimine
üstünlüğüne
üzül@@
üçüncüsü
ıdan
ılıklarını
ıştır@@
şafak
şarkıları
şaşırt@@
şehirde
şeref
şevo
112
5,2
850
9,5
adımlardan
adında
aff@@
aklamayla
alanını
alarma
alay@@
aleksandro@@
almada
alsat
alüminyum
ana@@
anlaşıl@@
antlaş@@
artırdığını
arzının
aslan
atifi
ayrıntı
baskınlar
başarılarını
başlanacak
başlanması
başlatıldığını
beceri
belgeye
belirlenecek
benim@@
birarada
birisine
bok@@
brdo
burs
buğday
büro@@
büyüye@@
carlos
cher
cl@@
cö@@
cıyı
dba
decani
denizcilik
desteklemektedir
devam@@
değişimin
dikkati
dilimini
dinlen@@
disiplini
dum@@
durduruldu
durumundaki
duruşması
duygusal
duygusu
duyurusu
düzenlemelerin
düzineden
düşerken
dıklarında
dışarıdan
ed
elek@@
eleştirmen@@
emniyetli
endüstriyel
erişimini
ero@@
erol
ertelemeye
eusr
evlerinin
eşiğine
eşya
fazlasıyla
fik
fres@@
gayret
gayret@@
gemileri
genişletilmiş
gerekip
gerçekleştirecek
gev@@
gevşe@@
gezisinde
gezisinin
gidişatı
girişimle
girişimlerin
gitmesini
giu
gostivar
gov
gsmh
görebilir
göstergeler
gösteriyorlar
gücünde
gürül@@
güçlüklere
hakların
halinde@@
har
hayali
hayredin
hazırlanmasında
hepsini
hk
hon@@
hrist@@
hızda
hızını
iddialarına
ilgiyi
ilkesine
inizde
iom
islav
istemişti
istisna
istişarelerde
ivme
iyileştirilmesine
izleyerek
içeriğini
içki
işkence@@
işliyor
i̇fa@@
i̇lazi
i̇lerle@@
i̇lişkin
i̇vaylo
i̇çinde
juncker
kaba@@
kabil@@
kabineyi
kablolu
kaczynski
kadastro
kalabalığı
kalp@@
kapasitede
kardi@@
karşılanıyor
kaydedildiği
kaydetmesi
kaydettikleri
kazandırdı
kaçtı
kaçırılan
kck
klasman@@
koalisyonunda
kolektif
komşularının
konmasına
konuşlan@@
kraliçesi
kuki
kullanımıyla
kullanıyorlar
kulübünün
kurallarının
kurulmasında
kurup
kurşun@@
kuvvetli
kuzmanoviç
köle@@
köpr@@
kül
lini
liye
ljubomir
lukta
lüyor
mamasının
manipül@@
mağar@@
med
menşeli
merkeziyet@@
meselesine
meseleye
metrelik
mihajloviç
mikereviç
milosavlyeviç
mirror
mitro@@
mobi@@
mrk@@
muamelesi
multi@@
muz@@
müzakerelerden
nedenler
nejat
neyin
olayında
olmasın
onaylayan
operasyonlarının
ordusunu
ores@@
ortalaması
osi
osto@@
oturt@@
oylar
oyuna
pahal@@
pale
partilerinden
patron@@
performansının
pieter
piç
polancec
programlarını
protestoları
protokolün
rakamları
raçan
reddetmişti
rehabilitasyon
rumlar
saatlerce
safh@@
sahibinin
saldırılarını
saygıs@@
sayımında
seemo
selin
selmani
senat@@
sevkedil@@
sevkiyat@@
seyah@@
seçilmesini
shi@@
sko
sonucudur
stream
sunumu
suçlamalarını
suçlaması
söy@@
söyledikleri
süreyi
süreçlerine
süreçlerini
sürtüşme
sından
sınıfı
sınırlama
sıradışı
tahsilat
taki@@
taktik
talebinin
tamamlandığında
tanıdığı
tatbikata
tavsiyelerde
tec@@
tecavüz@@
tef@@
tehditlere
tetik
ticarete
tonluk
topraklarından
tos@@
tra
transit
tru@@
tudor
tug@@
tutuklamanın
tüketicilere
ulaşılabilir
ulduğunda
uluyorlar
uluğunu
uygulayarak
uzmanlarından
vah@@
vakaları
vakf@@
valisi
vuciç
wimbledon
yanıtlar
yapacaklarını
yapmadı
yapılarının
yararlanma
yarinye
yasağın
yataklık
yazarın
yenilenmesi
yetim@@
yolcular
yorgun@@
yumuşat@@
yönete@@
yönetmelikler
yönetmelikleri
yönlerini
yıkıl@@
zagrepli
zanlılardan
zet@@
zeytin
zirvesinden
ziyaretinden
zırhlı
çarş@@
çekin@@
çektiler
çevreci
çevrildi
çeyre@@
çeşitlilik@@
çifti
çizen
çıkarsa
çıkarıldığı
öldürmek
ömür@@
öngördüğü
örler
öğretmeni
üretime
üğe
ıcılık
ımız@@
ısınma
ıyorsa
ışık@@
şam
100.
13.
5,3
60.
abileceğinden
abiliyorlar
adaylarının
adliye
akını
alanlardan
alanın
alarca
albena
aldığ@@
almaktan
almayan
ame@@
angeles
anketi
anketleri
anladığını
arayışı
arkasına
artmasının
atalay
ator
avni
aydınlar
ayrılmasını
ayrımcı
ayrıntılar
ayrıntılarını
açacaktır
açıklamasından
açılacağını
bahis
bahç@@
bala
banknot@@
banliyös@@
barajın
barrett
basket@@
baskında
bastırıyor
bağımlılığı
başarının
başkentindeki
başlamayı
başlamıştı
başlangıç@@
başlatacağını
beklentisi
belediyelere
belgelerinin
beli@@
benin
bereliler
besim
beton
bildi@@
bilimi
birbirini
biçiminde
bk
blanka
blogcu
boşluğu
brezovica
bunlarla
bırakmaya
cab@@
cat@@
cemaat
cemaatinin
cesinde
cher@@
cihaz
cihazları
cinayetin
cpi
cukiç
cul@@
cılarını
dakikalık
danın
dedir
delil@@
demetris
derecesi
desteklendi
desteklenmesine
devrilmesinden
değerlendirmesine
dillerinde
diğerine
diğerleriyse
doktorların
dragoljub
droutsas
durdurulması
durduğu
duruluyor
duygularını
dönmesini
dünyasına
düzeltmek
ebe@@
eca@@
edeceğim
ederiz
edilmediği
ekonomist@@
eminiz
emirleri
enfek@@
eps
ers
etkileyeceğini
etkiyi
etmelidir
etmeyeceği
evden
eyaletinde
ez
eğitimden
faslın
fenerbahçe
finallere
foca
geliştirmesi
genel@@
genin
gerektiğ@@
gerekçesi
gerginlikleri
gezisini
geçilmesi
geçirilmesine
geçirmiş
geçmekte
geçmişine
girebilmesi
girişimlerini
gizlice
göreceğini
görevimiz
görüyorsunuz
gütmeyen
hafifletmek
haftas@@
halklar
hamza
harp
hatay
heyete
heyetiyle
hissi
hler
hotel
hotnews.ro
hsbc
hı
idaresini
ihmal@@
iletişimi
ilirken
imkanları
imp@@
imzaladıkları
inanılmaz
inşasını
ios
istek
isteme@@
istiyorlarsa
ithalata
itiraf@@
iyisi
izlediğini
içeri
işle
işlerinin
i̇f@@
i̇hal@@
i̇ler@@
i̇lir
i̇nşa@@
i̇rtibat
i̇skan@@
i̇tal@@
jeleva
jet@@
jimnastik@@
jon@@
kadarını
kahve
kalbi
kaldıkları
kalkanı
kalmeta
kalpaz@@
karşıladığı
karşılarken
kavga
kaybederken
kaybediyor
kaygılara
kazası
kaçakçı@@
kaçağı
kaçmaya
kilometrekar@@
kiralan@@
kişiyle
koka@@
komisyona
konvo@@
koordinasyonu
korumakla
korunmuş
kosovalılar
koşullara
kredi@@
kriterlere
kullanılabilir
kullanılmasına
kuruyor
kutlayan
kötüsü
köyde
köylü@@
kınadılar
kıymet@@
kızdır@@
laboratuvarı
liklerle
lou@@
lıklarında
lısı
makedonların
makin@@
maksimum
manevra
mani
mayı@@
medyasının
meg@@
mekanizmalar
metin@@
metrekü@@
mevkidaşları
mezken
milletvekillerinden
miro
miro@@
modernizasyonuna
munk
mühendis
nav@@
oh@@
olabil@@
olacaklarını
olayına
olitik
oluşturmayı
oluştururken
omi@@
onuncu
onya
operasyonlara
operatör
ortaklarının
ortaklıklar
ovu
oynaması
paketine
paras@@
parçalanmış
pavel
payının
pendarovski
perspek@@
phare
piskopos@@
planlarından
ponta
prosedürlerini
pun@@
refor@@
rem
resep@@
rezervleri
roganoviç
saldırıdan
sanatlar
sas@@
sayılan
sağlayabilecek
seferleri
sele@@
serginin
seviyelerini
simonoviç
site
siv@@
somali
sonucunun
sonunu
stoykoviç
sular@@
suçlamalardan
suçlamayı
sör@@
sürdürmesini
sınırlandır@@
tabanı
taj
tampon
tanıdığını
tanıtımı
tari
tartıştı
ted@@
teorik
tev
tivat
tiyat@@
tiyatro@@
tiğimiz
toplamaya
toplantılarda
trafiğini
trayko
tutuklanmasına
uka
umuzda
unsurlarından
uranyum
uri
usa
uzmanlarına
uçakları
uğruna
varıla@@
varılması
ver
vergilerinin
virüsün
vuckoviç
wal@@
yakınlaştır@@
yalç@@
yaptığına
yaratılmasına
yasalarla
yaşamakta
yerlerden
yerlerine
yollara
ysa
yuz
yönden
yönerge@@
yöre
yürütüldü
yüzbinlerce
yüzyıllardır
zamlar
ziyar@@
çalışanlara
çağrısına
çerçeveyi
çevreye
çıkarılmasına
ödedi
önceliğin
örgütlerden
örgütlerinden
özelleştirmeden
özü
öğretmenlerin
ümit@@
üyeye
ıntı@@
ırlar
şampiyonluğu
şatosu
şim
şirketlerinden
şüpheci
0,1
12.
260
270
4,2
5,7
6,3
abildiği
acemi
adan@@
agresif
ahme@@
aileye
akro@@
alık@@
amazsa
analistlerinden
anavatan@@
andır@@
ane
animasyon
anska
anında
aranıyor
arkas@@
artırılmasına
arzu
arını
atik
avantajlı
azaldığı
açıklayarak
aşk
aşmak
aşıla@@
baharı
bakılırsa
bakır
batiç
bayrağ@@
bazlı
başlatması
başlatılmasının
bildirgenin
bilinçlendirme
bilme@@
birbirlerinin
biyolo@@
bon
borçlanma
braj@@
btc
bujanovac
bulunmadı
bulunmuştur
bunca
buyar
bölgelerini
büyümesine
bıraktığı
canlandırılması
cihazlar
cot@@
cre
cumhuriyetleri
daima
dansları
daralma
davidoviç
dağıtılması
denetiminde
denetiminin
deniliyor
devamının
devirme
değiştiğini
dinlemek
diyle
diyorum
dolandırıc@@
doğalgazını
doğruladılar
dusko
duyuyorlar
dövül@@
dün
dürüstlük
düşünür@@
dışla@@
edilebileceğini
egemenliğinin
ekme@@
ekonomiyle
emekliye
emin@@
engellenmesi
erdiğinde
erdiğini
ermesini
erse
esiyle
etten
farklılıklarını
faturalarını
fazil@@
fen
finalinde
finci
fiz@@
foundation
fuarda
geldim
gelirlerinde
gelişmelerden
gelişmesini
gerçeklerin
gerçekleşmiş
gerçekleştirdikleri
getiriyorlar
geçirerek
geçtikten
gireceği
gis@@
gisi
gligorov
gurbetçi
gönderen
gözeti@@
gündüz
haklarından
haliyle
hamlesi
hapisteki
havaalanına
hazırlıklarını
hedefi@@
hepten
hükü@@
hükümetlere
hükümler
iadesine
ibm
iddiasını
iliğine
imaj
inceleyen
inceliyor
inci@@
incil
ines@@
inşaat@@
isimlerini
isin
isteme
istemek
isyancı
itibarı
ivaniç
iyileştirmesi
izleyeceğini
içeri@@
işletmec@@
i̇ddianameye
i̇sim
jackson
javno.hr
kac@@
kaldık
kaldıracak
kampanyaya
kavuşacak
kaybetmesine
kayn@@
kaynağa
kayıtları
kimilerine
kimseyi
kirlili@@
kitaplar
konmuş
konsolosluğu
konum
konuşurken
koştunitza
kullandıkları
kulu
kurulacağını
kurulduğunu
kuruluşunu
kuruma
ky@@
kök
kılmak
kılı@@
kısıtlayıcı
lamıyor
larıdır
lav@@
lawrence
ljubisa
lülük
mag@@
mahkemeyi
makedonija
maliki
maliye@@
meglena
mensup@@
mesa@@
mevsimi
meşgul
miktarını
milliyetçiler
milyar@@
mizle
modelinin
mov
muhafazakâr@@
muhalefette
muşlardı
müfettişleri
müsabak@@
müşteriler
nakliye
nere@@
ning
nüfuzu
okulunun
olabileceğine
olacaktı
olaylarında
olimpiyatlarda
olmayabilir
oluyorlar
om
onik
organiz@@
ormancılık
ortaklarından
osman
oynadıkları
oyunlarında
papakon@@
paraf@@
paraları
pasif
patlamanın
patrick
patriği
payına
pazarları
pec@@
pin@@
politikalara
portekiz@@
potansiyele
potok
prilep
priz@@
radyas@@
raporlara
raporlarında
reddettiğini
remi@@
ringas
ruslar
rwe
rüt@@
sad@@
sadak@@
saf
safha
sahas@@
salgını
salonunda
saniye
santralini
satılması
savcılara
seli
sera
serbia
sergileri
severler
seçile@@
siste@@
sonun@@
sonuçlarından
sorguluyor
sponsorluğunu
sualtı
sürdürmesine
süreye
sürme
sürmesine
sıkılaştır@@
sırt
tada
tak
talar
tamamlanmasının
taner
tanoviç
tarl@@
tepkileri
tetkik
tigi
tk
today
toplantıs@@
tsvetanov
tuk
turist@@
turnuvaya
tutulduğu
türklere
tüğü
udan
umuz@@
ursa
uygulanmasından
uzaktan
vag@@
valentina
varması
varılıyor
vasıt@@
vecernji
verebileceğini
verhagen
verir@@
virüsü
vladan
vlastimir
yakalanarak
yakalanmasını
yaklaştıkça
yanları
yapmadan
yapmalı
yardımına
yarışını
yasalarında
yatak
yayıncılık
yaşama@@
yaşanması
yebilecek
yönetiyor
yükümlülük
yükümlülüğ@@
zbaniç
zirveden
çam@@
çare@@
çatı
çağ
çağrılarını
çet@@
çif@@
çıkarılmış
öldürülmüştü
öncülüğ@@
önemsiz
özellikleri
öğrencilerine
ıncaya
ındak@@
ındaysa
ınıza
şarkılar
şayet
şaşırttı
şirke@@
şoförü
şüpheleniliyor
1963
1981
210
ag
agrafiotis
aklı
akre@@
alp@@
anton
armo
atöl@@
bad@@
bağlam@@
blan@@
böyle@@
camp
cerrah@@
cev
cho
cvet@@
depo@@
deyse
disi
dor
dr
drews
dul@@
dun@@
durağ@@
elenovski
epp
etenin
etrol
faruk
fis@@
frang@@
gah@@
georgieva
gerhard
goati
gyurcsany
gü
homen
invest
iyat@@
jasenovac
kara@@
katol@@
kilometre@@
kocijan@@
korku@@
kuy@@
laszlo
latif
layı@@
lyu@@
majko
medo@@
merdare
mermer
mila
millet@@
mk@@
movski
mtv
mum
myk
mümk@@
müzak@@
naim
nikola@@
olov
ovic
pes
pic@@
plassnik
raz
raznat@@
rehber@@
ries
ru
ruli
science
sha@@
sighisoara
siyasetinin
sko@@
skor@@
sonuncu
soruların
sosyo
sponsorluğ@@
strauss
stu@@
sullivan
sunlar
suçlanıyorlar
sözleşmeler
sürelerinin
tabak@@
taja
tanıklara
tanıtma
tarihindeki
taslakta
tatili
tav
tavsiyeleri
taşıyordu
tehlikesiyle
temelde
tesp@@
ticaretini
tifi
tilmiş
toplamı
toplantıların
toronto
treni
tutmayı
twitter
tüc@@
tüketicileri
tığın@@
u2
ularken
ulaşmaya
uli@@
umud@@
usundan
uygulamaların
uygulanmakta
uygulayan
uçakla
uçaklarının
uçuşa
varma
vassil@@
vassilis
verdiğimiz
veriyoruz
vermez
videanu
vurgulanıyor
ya@@
yangınlar
yaralanan
yargılanıyor
yarışta
yatırımcının
yayılması
yayınladılar
yedisi
yetkiler
yetkiliye
yollarla
yolsuzluklar
yukarıda
yükselmesi
yüzbaşı
zehir@@
çalışacağına
çalışmasında
çağırıyorlar
çekişmeler
çektiğini
çevirmen
çeyrekte
çimento
çözülmesini
çıkarlara
çıkartma
çıkmasının
öldürüldüğünü
ömr@@
önceliklerinin
önergesi
örgütlerine
örtüş@@
öteye
özelleştirmeye
ülkelerimiz
ürünlere
ğimize
ısrarla
şiddetten
şirketini
15.@@
alban@@
albania
alim@@
ann@@
ardian
artı@@
atle@@
atomstroyexport
bilirim
bis
bre
brezil@@
brod
buhler
cani
cheney
dacia
dam
danilo
darik
devrim
doha
ds@@
edita
esnek@@
fel@@
ferdi
fl@@
folkl@@
fta
generale
glavas
gular
güdüm@@
hastal@@
hdi
hey@@
hiz@@
hoti
hum@@
inescu
i̇hti@@
i̇la@@
jag@@
jagodina
jani
ji@@
kaplı
kolek@@
konju@@
konsol@@
kost@@
krar@@
krst@@
laos
lendi@@
mate@@
methodius
milica
mimoza
mini@@
mirsad
musa
mv@@
müda@@
müyorum
niko
oil
osmanag@@
pancevo
paravantes
pari@@
parlamento@@
parmak
pc
popov
port
post@@
pur
sandra
santi@@
saran
sent
sesini
show
silvio
slav
slavica
slavko
sorumlulu@@
stanishev
stefanovski
stra@@
strumica
sırp@@
sırrı
tarif@@
telegrafi
tenis@@
tereddü@@
terim
terminali
teçhiz@@
tisa@@
tiz@@
tolimir
tp
vad@@
vb
vucin@@
wo@@
wright
yut
yükümlül@@
yüre@@
zag@@
zani
zira@@
zora
çi@@
önces@@
öncül@@
ülen
ıtma
117
20.@@
aden
agerpres
agos
ahmed
albanian
ale@@
alexand@@
almunia
angelopoulos
asın@@
bach
bit
bode
bondsteel
borisova
bosanski
bou@@
boucher
brasov
but@@
cağ@@
chi
chiarini
corner
coğra@@
danis
denkova
dinal
dinc@@
djur@@
drag@@
drak@@
dvd
ebeve@@
enf@@
eng@@
ert
eurobarometer
famagusta
fay@@
fu
gala
gam@@
giri@@
grabar
haiti
hans
henne@@
heves@@
hy@@
iftar
io@@
jav@@
jek@@
jevo
judo
jutarnji
kabine@@
kastrati
kedev
kitar@@
kol
kostis
lagum@@
lava
lem
lit
lül@@
marc
mary
mele@@
mevsi@@
mobil@@
mole@@
monte
müj@@
nai
nüfu@@
ovica
ox@@
pet
pru@@
prvoslav
rop@@
s.@@
selim@@
sendik@@
sff
soprano
staviski
stockholm
taseva
tenor
terler
tine
ting
toplam@@
tray@@
udmr
vadi@@
vatan
vera
vesnik
vijesti
virgil
vska
ward
weekly
white
yumurta
zvecan
özgür@@
ükle@@
ışı@@
1945
330
abi@@
acta
adria
amam
amer@@
anatolian
anski
ase
aslan@@
associated
atas@@
ayol@@
aziz@@
bakıl@@
bist@@
biyle
borc@@
bruno
bt
burkay
cecilia
cian
cija
ciko@@
club
cop@@
das
dedi@@
demokr@@
dimitri
doda
dubai
economist
edward
egmont
elbasan
fasl@@
fazla@@
fen@@
feti@@
finans@@
fli@@
franz
fron@@
fut@@
geor@@
gm@@
guinness
gy
gön@@
gümr@@
had
hası
hays
hektar@@
hns
ia@@
ides
ira
izley@@
johan@@
kanad@@
kay
kongres@@
lef@@
leg@@
levski
liber@@
liv@@
ljupco
louis
macar@@
mato@@
mel
memn@@
metrekar@@
mihay@@
mobilkom
mos
my@@
mün
müslü@@
nehr@@
norac
nos@@
olo
ons
oprea
osa
ovcara
paj@@
parator@@
pero
popova
potansiyel@@
rada
radi@@
rauf
red@@
rik
rodriguez
salg@@
sami@@
simir
smederevo
spekül@@
stara
sten
stri@@
sıkı@@
taleb@@
tavsi@@
telenor
teşkil@@
tili@@
tini
tos
trp@@
tsunami
utrinski
veliko
vesel@@
vite@@
vuk@@
wilson
zhe@@
ılığıyla
.hr
145
1982
280
aba
ach@@
ae@@
agu@@
akra@@
albtelecom
alex@@
anagnostop@@
arya
azeri
aştır@@
başlangı@@
bc
bien@@
bilgis@@
blaga
brian
char@@
cr
dia
dili@@
diye@@
dobro@@
doris
edmond
emi@@
emil@@
enter@@
feder@@
fela@@
fing
fri@@
galicnik
gar
gaspar@@
geoffrey
gor
guca
hartmann
his
hos@@
hss
ihtiyat@@
iliş@@
imer
indedir
istiş@@
i̇dar@@
jin
jovi@@
kalabalı@@
king
kis@@
kodra
kryeziu
kw
lağ@@
lendirecek
leposav@@
linden
loz@@
luis
lup@@
lupu
lükteki
metrik
mira
mizden
muz
nice
nominal
novin@@
nur@@
ost
otp
ovidiu
pardew
pat
pec
performan@@
potansiye@@
radis@@
rae
rul
rullahu
sab@@
seni
sig@@
sipa
spas@@
srbije
svetlana
süres@@
tika
trajkovski
transfer
tıcı
tıkça
uman
usuz
virüs@@
watch
xavier
yam@@
yarımad@@
yav@@
you
zvornik
ücü
ül
ümse@@
.org
0km
101
115
11@@
126
ache
afrim
ago@@
anin
anth@@
arta
atin@@
banca
bb@@
bbb
bli@@
bot
brnjak
cernavoda
cesar@@
cla@@
cox
cra@@
cres@@
croatia
dat@@
deva
dge
dij@@
dragnea
dro
dt
dumit@@
dük
dışından
eco
fatlum
fur@@
fyrom
gal
gay
gene
gro@@
havel
hev
hire
ho
hoşnut@@
hırv@@
iaea
icj
ilova
inger
ioan
jack
jasna
jet
kadir
kik@@
kini
kneze@@
korca
kovac@@
kum
lehtinen
leka
leriyse
lija
lord
mala
massari
mb@@
mercedes
mevlana
mgk
micun@@
milen
mim
mist@@
mobiltel
momir
muharrem
neo
nuri
od
off
oi@@
oku
olağan@@
ole@@
omir
otis
ous
out
pavlevski
pentagon
ple
plovdiv
pos
poz@@
proble@@
prov@@
pt
rajko
raport@@
ray
reeker
rek
rele@@
ropolis
sana
sd
seg@@
sosyal@@
start
suisti@@
sıfat@@
tank
telekom@@
terminal
tus
tzvetina
unodc
vaclav
vinc@@
wat@@
williamson
yukar@@
yüküm@@
zdrav@@
ziv@@
zog@@
ödü@@
ğımız
102
12.@@
175
1915
1950
1971
1988
340
ades
aer@@
ahmet@@
aida
althea
anav@@
anes
arif@@
ariu
ayet
bogoljub
borrell
boy
bursa
buyu@@
buğ@@
cc
ciro
dali
dez@@
diaconescu
dicle
dop@@
dragu@@
dus@@
dvor
editör@@
ei@@
enstitü@@
ericsson
eucom
evac
export
gazette
gey@@
gh
got@@
gul@@
herceg
hn
hudu@@
icki
icmp
idi@@
ikea
ilham
ilija
ilo
inka
inovski
i̇hrac@@
jar@@
jeffrey
kamuoyun@@
kender@@
kiev
komüniz@@
kro@@
landal@@
lun@@
maxim
mayıp
milosevic
minimum
motive
mrt
mus
mutl@@
naumovski
nea
ober@@
ohio
olmam@@
olos
opol@@
osmani
petrom
pope
prespa
rah@@
ras
rea
refa@@
rel
rem@@
rin
rit
ropoulos
rö@@
seb
setimes.com
sho@@
sia
simat@@
sokol@@
sollaku
süb@@
sıkın@@
taliban
tec
timisoara
tirken
trifun@@
uta
uç
vac
vancouver
vecdi
vlade
waldner
westerwelle
win@@
yarı@@
çli
çözü@@
şir@@
105
111
1967
1985
380
adin
aktar
albin
aliyev
alli@@
alliance
analiti@@
ander@@
andrew
angel@@
anon@@
arifi
asso
asıdır
atanasi@@
ates
ats
atta
barkey
belgrade
berger
besnik
big
bnr
bodrum
boj@@
bozo
bratunac
buc@@
busat@@
by@@
ceca
cele@@
chan@@
chisinau
christopher
cisco
cit
ciu@@
cus
cvi@@
danas
debar
dell
dem@@
dragut@@
ekathimerini
europa
eşi@@
fanati@@
feri@@
financi@@
forbes
golf
grip
groz@@
habi
hafi@@
haj@@
haxhinasto
hoşgör@@
hvar
ian@@
iii
info
ipi
ipko
iri@@
i̇ddiana@@
i̇mparator@@
jaeger
jahorina
jer
jis@@
josef
josep
kahn
kali
kapas@@
katar@@
kongra
kraliç@@
kurş@@
liapis
lieberman
ling
lucas
luklu
lum
macedonia
matei
matsuura
max
mccormack
mcelhaney
metine
milevska
milos@@
mitrov@@
mor
mur
murati
name
nicholl
ori
oslav
pal
panel
papoulias
paravac
peja
ph@@
philip@@
pia
podravka
portal
pova
power
pus@@
radoj@@
radoslav
rahim
rar@@
rehabilit@@
rivi@@
salon
senad
sh
siemens
silahsız@@
simon
skal@@
soy
stam@@
stamboliski
stavros
stro@@
sub@@
tara
terci@@
thal
ther
timo@@
transgaz
tusup
uf@@
unficyp
unvan@@
usu@@
vaad@@
vanın
vey
victoria
vinko
vlad
voj@@
vseki
well
wikipedia
wolfowitz
yev@@
yugo
zogiani
zuzul
ücre@@
şika@@
1.5
135
14.@@
165
190
1973
a.
abanın
alevi
aliu
apos@@
aret@@
ataka
atif
banliyö@@
barac
bari
benjamin
bire@@
bl@@
bran
bratislava
bütç@@
california
cec
cemal
christina
cip@@
citaku
college
coz@@
cumhuri@@
cy
dari
data
dinci
dino
dit
doboj
dou
douglas
dragisa
elver@@
emre
enel
enge@@
engin
ensti@@
enti@@
erbakan
eği
fac@@
first
fizik@@
frckovski
fti
gli@@
gop@@
görüşün@@
hali@@
hall
hare@@
hede@@
heu
hristo
ibar@@
ileti@@
i̇nş@@
jonathan
jung
kampanyas@@
kes
kilowatt
kirin
klas@@
kovo
kremlin
kristi@@
kütü@@
lady
lech
libera
ljubljanska
ljuboten
locher
malmstrom
mara
mario
mates
max@@
mecl@@
medyas@@
meri
mirel
mirli
mont@@
morar
msnbc
nacional
nano@@
ognjen
once
out@@
parla@@
paskal@@
pati@@
polje
prix
pro
psi
puscas
radomir
raffi
rafin@@
ramazan@@
reid
rek@@
rest
riz@@
rom@@
rumyana
rı
s.com
sap
sbih
ske
slogan
sot
stoyanov
süley@@
tc
ternava
theod@@
topolanek
tor
tul@@
tv@@
ule
umu@@
utan@@
valotto
vilnius
vl@@
yannis
yede
yeten@@
yiannis
yolo@@
yolsuz@@
yumu
zko
zvezdan
üle
üzüntü@@
üş
ğra@@
108
121
128
1930
320
aio
aleksandra
andrei
ang@@
angelina
appathurai
arasın@@
ator@@
ayakkab@@
bac
bak
barr
bbb-
borko
botsan
bulgargaz
bulgaria
cevo
chicago
cho@@
citi@@
cli@@
craiova
cre@@
danova
ddi
diri@@
dominique
dp@@
dtt
dublin
electronic
elefther@@
ep
eter@@
etkiley@@
farm
ferenc
ferrero
finlan@@
fol@@
g20
gardetto
gere@@
gg@@
habil@@
hamid
hani
heritage
hikay@@
hikmet
hill
himi
hitler
ikrami@@
insig
iotis
iro@@
istin
itar
itz
itza
ivan@@
j.
jo
kil
kili
kis
kohavision
kokin@@
krajisnik
kris@@
l.
leonard
lia
lice
liyiz
loncar
ltd
luc
lüb@@
lükte
maastricht
malev
mater@@
maurizio
milena
milis@@
monica
mullen
mülte@@
müte@@
mıs@@
mıyorum
nab@@
nba
nbg
nemanja
nezaret@@
nicolae
nn
nul@@
oun@@
over@@
oz
picula
piran
pist@@
pm
prm
rad
ramkovski
real@@
realitatea
reg@@
reski
ril@@
rosemary
rosen
rtcg
saban@@
sco@@
sec
sevil@@
sisak
snp
solyom
ss
stantin@@
stari
sıra@@
takvi@@
tas
tevski
tobacco
tokes
topal@@
trajanov
tril@@
turk@@
ursula
uss
uğr@@
vati@@
ville
vor@@
wit@@
yel
yemen
zaj@@
zvonko
ıdaki
ığın
ıştır
106
192
1944
1948
1978
abani
adevarul
aes
agency
akade@@
akkale
ald
allan
ambul@@
amsterdam
andjel@@
antar@@
ao
ark@@
arthur
ast
avala
badinter
baghdatis
balaj
barcelona
basa
bell
belul
beğ@@
blerim
bregu
bunardzik
büt@@
cameron
catalin
cazi@@
cior@@
ciyle
cle@@
croatian
dalı
davos
dep@@
dina
dja
djordj@@
dokunul@@
doğus@@
dra
dragana
dışar@@
emportal
enka
esa
eurobank
florin
folk
from
gabriela
georgiou
gian@@
goethe
gos
guehenno
halis
hamas
humphreys
hür@@
ier
igman
ije
iku
inli
irex
jaca
jaz@@
jinal
jka
jordan@@
kanoviç
karat@@
kendis@@
kolubara
kp
kuv@@
kça
kör@@
lag@@
landalı
latifi
lja
lop@@
lıyız
mac
makro@@
manchevski
matijas@@
mcv
mensu@@
milj@@
milo@@
milovan
miç
morris
mükemme@@
müs@@
müste@@
mısır@@
nac
nasa
netanyahu
network
new@@
neza
nö@@
olome@@
otto
pac@@
pam@@
panag@@
plat@@
pozis@@
prelec
prin@@
pros@@
pt@@
raf
rap@@
reporter.gr
sabah@@
salihu
salzburg
samast
sars
sec@@
sega
she@@
siderov
sie
singh
ske@@
sofa
soros
soykır@@
spo
srbijagas
suc@@
sudan
sy
sz@@
tass
tehdid@@
tense
teşekkül@@
transitions
transnistria
travnik
turkcell
tz
ub@@
ung
united
usuyla
viet@@
vip
vis
voz@@
wes@@
yım
zaev
ziua
º@@
çok@@
çuk
üp@@
116
152
183
1979
30.@@
367
a.@@
ace@@
acik@@
aklık
akr
alist
ang
ange@@
anja
annis
ansip
anul
arist@@
arkan
arul
ass@@
atlan@@
atlanta
bakir
banatski
bankers
beg@@
bekistan
belgrad@@
bentler
bos
brun@@
bucharest
bus
cei
ceni
cer
chasa
chu@@
coman@@
controls
corneliu
cove
das@@
degert
dei
diam@@
dinamo
diploma
dm
drago
dritan
ean
eger
elec@@
electrica
elghandour
endir@@
energoinvest
eric
erl
esti@@
euros@@
fc
fier
filat
gaj
gallach
gerald
gil
gili
gior@@
gold@@
gregory
grub@@
gur
hakan
harvard
hein@@
hellas
hot@@
ht@@
hırvati@@
ilane
inov
ith@@
jacev
jovanovska
juli@@
jun@@
kabaş@@
kal
kandil
karel
karzai
kenya
kf@@
kok
kond@@
koto@@
kranjcar
lakis
lemierre
lena
leti@@
lie
limani
lisi
liu
ljum@@
ln@@
lora
lot
lugar
lyn@@
mad@@
maili
maj
makar@@
maksim
manip@@
markus
marsicanin
maxime
medve@@
melbourne
menfa@@
mesut
miguel
mihal@@
militar@@
miomir
mladen@@
montana
morgan
müsa@@
nagy
napoca
neretva
nit@@
nostal@@
ob
oi
oid
opti@@
ors
oski
oswald
ovan@@
pante@@
param@@
petros
por
poriki
puhal@@
rai@@
rajevac
rağ@@
rec
rene
richter
rob@@
safha@@
salar@@
sanatç@@
sapard
selo
sev
seven
sios
slobodanka
sls
sm
sm@@
sofianski
stak@@
stano@@
theodoros
tola
topl@@
trab@@
trivan
tsar@@
tson@@
ty
venezuela
vetvendosje
vica
vm
vuke@@
yang
zele@@
zerp
zman
zr@@
zvon@@
üste@@
şaf@@
1946
1975
2016
2017
action
ado
afat
agan
alig@@
america
andon@@
antun@@
apol@@
argü@@
ariz@@
arjan@@
aro@@
atifete
avi@@
avustur@@
ball
becali
beyrle
bliznakov
bog@@
casey
cey@@
ceyhan
chevron
christo
cin
ciornei
cola
cole
coming
costa
cup
dali@@
deha@@
devi@@
dimitrovgrad
dow@@
duka
eh
ei
elizabeta
ence
ese
esma
europe@@
evgen@@
fehmiu
feller
fiba
fla@@
fonet
franko
garde
ges@@
gianna
gir
glis@@
gnj@@
gorazde
gus
hapis@@
haw@@
hayssam
herse@@
hut@@
ihl@@
ihti@@
ikon
ilgilendi@@
isg
ispa
italia
iter@@
itu
i̇ngiliz@@
johan
jub
justin
k.
kak@@
kastriot
kerim
kla@@
koc@@
koh@@
kolinda
kompl@@
ksenija
kt
kukan
lake
lego
leigh
lira
liviu
ljak
lüt@@
lının
make@@
marco
mare
mati@@
mersin
meti
metro@@
mis
mlloja
molyviatis
mon
moral
muhafazak@@
muhalefe@@
nec@@
ney@@
nihat
nun@@
olaf
ome@@
palli
pis@@
planina
ponos
porto
rac@@
rahman
ratings
rid@@
risto
riz
rosatom
ruz@@
rüş@@
savo
schild
scot@@
seb@@
sevke@@
shala
shekulli
slan
slo@@
sokol
sonja
sorin
soti@@
spasov
stamen@@
stevan
strasbourg
stvo
sur
sus
teod@@
ther@@
tiş
todor
toni
tov
tran@@
transconflict
trieste
ulo@@
ulrich
ustur@@
vas
verica
visa
voic@@
vreme
vuko@@
we
web@@
west
yici
zagrebdox
zapatero
zoellick
100m
13.@@
138
144
16.@@
17.@@
1961
6.5
abbas
acılık
agri@@
agrokor
alb@@
alex
all
andrea
andrej
ano@@
anonymous
antoniou
aracinovo
arkada@@
arsen@@
ashi
astron@@
ater@@
ayd@@
aykır@@
basha
beara
bilkent
bje@@
bnt
board
bob
borovcanin
brin@@
buke@@
bulgartabac
carlo
cem
center
christ@@
cir@@
cov@@
cowen
cris@@
culuğ@@
cvjet@@
d.
davi@@
daş
dea
demos
dija
djukanovic
dobri@@
drenica
dri
dubra@@
dumitru
east
ej@@
ella
emer@@
eno@@
erste
europ@@
expo
femin@@
ferguson
fit@@
florence
flori@@
freder@@
gad@@
gaf@@
gali@@
gap
gere
gevgeli@@
gf@@
giotopoulos
gjergji
glen@@
gn@@
grbavica
gymnasium
güt@@
habsburg
hadley
haliti
henri
hin
hiro
hoo@@
hristov
hrvat@@
huruglica
ibar
ihtiy@@
ill
illi
intesa
isarescu
itis
iuli@@
i̇t@@
jali
jazz
jeli@@
joaquin
johannesburg
jti
kanceska
karmaş@@
kemal@@
kovaç@@
kps
kratik
krs@@
kışkır@@
laj
led@@
ledra
limi@@
lul@@
lut@@
lıca
marius
marri
matache
mehmeti
menduh
mete
michalis
mil
milan@@
more
mup
music
mühim@@
nedim
nest@@
news.bg
nichol@@
obren@@
ohr
opar@@
ordus@@
oriz@@
oslobodjenje
owski
oyan
panathinaikos
papadi@@
peace
piebalgs
pn@@
podujevo
pollo
poposki
que
ramadan
reding
resen
robin@@
robot
rossin
santek
sayıs@@
sche@@
sekul@@
serda
siro@@
slam
sliven
societe
sok
sorensen
sot@@
spiegel
suriye@@
swe@@
swoboda
taton
tecr@@
tex
tihomir
tist
titov
toska
trajko
tün
udov@@
ufu@@
und
uris
uruguay
vahit
vedil@@
vela
veljanovski
vena
verdi@@
vinci
vola@@
vos@@
wef
windows
wolf@@
ws
xhe@@
yadis
yız
zef
zerihoun
zlat@@
ümü@@
1957
aaron
acr
aferdita
ahş@@
airbus
akkuyu
alandır@@
albtelekom
alumin@@
amp@@
anay@@
andris
apple
arte@@
astra
atanas@@
atar
ate@@
athanas@@
aviv
banliy@@
benita
beris@@
blues
boeing
bogos@@
boro
boston
branimir
brijuni
bron@@
brothers
brük@@
bugojno
bukov@@
butrint
bünye@@
card
carreras
cbbh
chard
cnsas
coca
cour@@
cut
dah
dai@@
dc
delo@@
democracy
die@@
dimov@@
dragomir
drik
eagle
elektro@@
end@@
ente@@
epcg
ern@@
esra
europe.bg
evren@@
ex
fic@@
fizibil@@
fle@@
fo
g.@@
gac@@
gang@@
gart
gillian
giuseppe
gorenje
green@@
güvenil@@
habi@@
hazırda
hemo@@
hiri
hypo
iana
icev@@
import
inge
islam
ivanis@@
i̇stih@@
jagnjenica
jim
jl@@
jon
kare
karşılık@@
kather
keraterm
king@@
kiro
konya
kosovareport
lay
lica
luan
lıy@@
macılık
madonna
makedonski
manchester
mat
mbmd
medenica
medik@@
ment
metropol@@
metropolitan
mezi
michel
milutin
mladic
morning@@
mures
mutlu@@
mük@@
naser
nedelj@@
nhqsa
nick
nikica
nist@@
nja
old
opoulou
orden
ovci
ovich
ozbolt
pandeli
pes@@
petersburg
petral@@
petrovaradin
piraeus
polan@@
port@@
primorac
rados@@
ral
ramadani
ref@@
rein@@
reinfeldt
reka
relja
retros@@
ris
romtelecom
rotterdam
salvador
sans
schwarzenberg
sebastian
sejdiu
selim
selmo
senin
sergei
seçen@@
shell
shq@@
sid
simon@@
skare
skun@@
solo
sov
spa
spart@@
spaso@@
split@@
spot@@
spy@@
sredoje
sri
stevo
stre@@
studio
sumo
tagma
tarnovo
tebri@@
teli@@
tere
tonino
topcag@@
tsvetan
tuncel
tus@@
uran@@
ust
val
vardar
velika
visoki
vojin
vojvo@@
volks@@
vranje
vukas@@
vurgu@@
west@@
wh@@
withers
yıldır@@
zer
zirv@@
örgü@@
ükü@@
00@@
198@@
2.5
abor@@
aco
age
agence
alak@@
alexandra
amo
arke@@
aster@@
azi
bijel@@
bilgil@@
boja@@
bosnia
boyun@@
bry@@
caglavica
canin
cg
cht
cic
cis@@
constan@@
constantin
cp
cro@@
cy@@
cyril
day
dede@@
deli
deter@@
die
dikt@@
dk
dog@@
dokufest
dolay@@
eanu
eb@@
economics
edu@@
english
enica
eston@@
fab@@
farkl@@
file
fini
fis
flo@@
gram@@
gray
greece
hamad
hareke@@
hatz@@
henry
hevski
hop@@
hospital
hun@@
idc
idol
ij
ikti@@
ilinka
ilişkil@@
industri@@
ins
inter
ishi
ivanko
ivanovski
izasyon
i̇span@@
jat@@
jec@@
jelas@@
john@@
jovica
kaidanow
karadzic
kuci
kıla@@
law
ljaj@@
maritsa
marketing
mega
mentor
minsk
mond
monitoring
mont
mortgage
muame@@
muhamed
naval
negotino
news@@
ney
ore@@
org@@
ortodo@@
our
p.
parav@@
part@@
patras
pil@@
pin
pk@@
point
prof@@
py@@
rcc
reli@@
report
ruse
rüz@@
semi@@
slalo@@
slobodna
stand@@
stone
stratfor
stru@@
subotica
sveti
söyleş@@
tele2
tetk@@
tnews
trop@@
tros@@
trud
tsenkov
tsvet@@
turkey
valya
vanhanen
varazdin
vjetrenica
vlas@@
voley@@
wan@@
wer@@
xhi
zinci@@
é@@
önümüz@@
ümüyle
ğun
20km
4.5
ach
ago
andri@@
aner
ari@@
attica
awlaki
bad
berto
best
bijeljina
birliğiyle
boo@@
boris@@
bourg
brahi@@
bujar
bulgarian
bün@@
cac@@
cacak
cap
chen
council
dimir
dio
dise
diyal@@
diz
dn
dney
dou@@
doğrul@@
duyla
e.
electric
foto@@
fotoğra@@
gaza
gazetes@@
ges
guid@@
heed
icinde
ick
imam
ior
istina
ivaylo
iwpr
jab@@
jal@@
jarinje
jovan@@
klu
konferan@@
korac
ktör@@
kuna
ky
küpl@@
kıbrıs@@
laki
lani
london
mahkemes@@
mans
mote
mou
muhafaz@@
müfet@@
mülki@@
nati@@
nedz@@
nikolai
observer
ohi@@
olympia
otov
ow@@
papadopoulos
paradi@@
parthenon
proxima
reali@@
rul@@
saba@@
santr@@
selimaj
semi
shan@@
skopje
sky@@
snez@@
sov@@
sson
standar@@
stil
stut@@
tabi@@
tanıtı@@
tecri@@
telsim
temer@@
tet@@
tie
tirana
trabzon
trade
trebinje
trn@@
ts@@
ume
umi
union
ure
uyardı@@
vassiliou
ventures
virgin@@
viso@@
wahhabi
wor@@
yaln@@
yolog
yolsuzluğ@@
yükü@@
zagre@@
çavuş@@
öyle@@
ınc@@
ıs
00m
1.4
3.5
aleksan@@
amin
asov
bihac
ble
blue
bn@@
cafe
central
che@@
chel@@
cos
cost
daj
dol
dozer
doğrult@@
dv@@
dör@@
eas@@
emma
etkis@@
even@@
fener@@
field
food
four
fra@@
francois
fren@@
gerdec
gjana
glav@@
goj@@
gross
gözle@@
heli@@
herke@@
hero@@
het@@
hia
hija
hil
him
hn@@
hur
ibra@@
inf@@
iniç
inte@@
iph@@
irina
isiy@@
i̇sra@@
i̇v@@
jad@@
janovski
jordan
js
kabin@@
keri
lane
lars
ld@@
ls
magyar
marathon
miche@@
moscow
mt
mızı
nan
nay@@
nia
oty@@
ovei
ox
pad@@
phil@@
play
poly@@
rady@@
ranka
reality
refer@@
republika
rian
riso@@
rog@@
sanc@@
school
see@@
serv@@
since
snow@@
sonuc@@
span@@
spek@@
sum@@
svet@@
sw@@
syntagma
tai@@
talima@@
tana
tat
tea
tem
tn@@
travel
tres@@
turin
turn@@
use@@
vio@@
wah@@
way
western
youth
çelen@@
üzün@@
şem@@
şüp@@
1.6
19.@@
aban@@
afer@@
aid
akş@@
alexei
alu@@
amenin
anet
aqu@@
asia
avl@@
b-
başkanlığ@@
benedi@@
bray@@
bren@@
bright
bur
cade@@
ceanu
cen
cheva
chil@@
cis
clar@@
combined
concordia
dane
dec@@
dita
dne@@
dolandır@@
doz@@
dubrov@@
ear
editor@@
endeavour
endişel@@
endor@@
enfor@@
england
examin@@
fere
flu
fox
fy@@
geographic
glas
gr
gunter
had@@
hague
hail
haras@@
hent@@
hoxhaj
ies
ihrac@@
ikov
information
ington
inv@@
ireland
ithal@@
its
izn@@
i̇ran@@
i̇sla@@
jesti
kapasi@@
karad@@
khal@@
ksen@@
lana
lat
league
led
legal
leon@@
lian
loj@@
male
manch@@
master@@
masters
mato
matur@@
mci
memnuni@@
milk
mineral
monaco
muamer
nac@@
nezar@@
non
nrc
oly@@
partners
pasap@@
pep@@
pli@@
plu@@
police
prag@@
prensip@@
pus
raufoglu
rexhepi
robo@@
row
ry@@
sand@@
sep@@
serbian
seya@@
slavon@@
sou@@
sti
stjepan
super
sure
svil@@
sıyor
tens
tering
terr@@
them
tic
toprağ@@
trio
tro
trum@@
ty@@
ud
unic@@
uzunluğ@@
vali@@
vandal@@
vat
vej@@
villa
vre@@
wen
wol@@
worth
xi@@
zay@@
zig
zve@@
zy
ıf
şartı@@
*
28@@
5.2
7.5
adır@@
agi̇@@
alexandros
aph@@
ars
asl@@
ayrı@@
başlatı@@
beg
blogs
boat
bridge
bud@@
bug@@
bum@@
canadian
cetinje
chal@@
chap@@
cker
cumhur@@
daf@@
dalma@@
dimitrijevic
diu
djer@@
done
ech@@
ee
embassy
enem@@
ethno@@
fast
feh@@
fic
filist@@
finan@@
fun@@
fund
gallery
get@@
gjirokastra
gjor@@
greco
gs
gus@@
gür
hersek@@
holm
inc
ings
inist
investment
isra@@
iv
jerusalem
jimnas@@
just@@
karargâ@@
konsorsi@@
kovic
krsti@@
ktar
küp
ll
maric
marke@@
mate
mend
mesu@@
mg@@
mous@@
mr
mutabak@@
müyle
news.@@
obser@@
oliti@@
oluk
oulou
packaging
patter@@
penal@@
polar@@
pr
prele@@
presse
prime
pup@@
q
rav@@
real
reper@@
run@@
rup@@
say
sea
serbi@@
short
skat@@
society
soh@@
sonra@@
sonucu@@
special
srpska
ss@@
stones
stor@@
sum
sunday
swis@@
sübvan@@
tech
technology
tex@@
theatre
this
town
tsun@@
ulou
unders
universal
valen@@
vic
vision
w.@@
wan
weeks
will
wing
with
yir@@
young
yovan@@
yumur@@
yurtiç@@
yusu@@
zagreb@@
zap@@
zero
zim
zir@@
özer@@
ürk
ıp@@
şeli
1.1
1.2
1.3
1.7
200m
29@@
400m
abdu@@
aci
acropolis
ae
aegean
aga@@
air@@
alie
alü@@
anno@@
apo@@
astronom@@
atiç
bag@@
ball@@
barak
basan
beach
bele@@
bio
bul
casus
chen@@
chs
chur@@
cid@@
crai@@
crown
dance
danube
days
ddi@@
dec
democra@@
dinejad
div
dni@@
doing
economi@@
els
enk@@
esti
fp
fun
gence
giorgos
gjakova
green
güdü@@
have
heavy
hef@@
helikop@@
hot
hou@@
hâl@@
ich@@
ifa@@
industry
inej
iro
isel
itan
ity
işim
işken@@
işli
i̇ktidar@@
jol@@
jovic
juris@@
kalet@@
kath@@
kid@@
kragu@@
lau@@
liberty
lika
like
line@@
ljubi@@
md
mediapo@@
milli@@
minist@@
minute
museum
mükel@@
n1
nex@@
nicola@@
nü@@
olara
omy
open
orange
oyunda
papadop@@
pce
pedi@@
phe@@
plas@@
pool
priş@@
properties
put@@
reformist
renov@@
rober@@
rodri@@
royal
rug@@
sade@@
said
saint
samp@@
sarajevo
sense
services
silvi@@
skop@@
smo@@
spon@@
spr@@
state
stop@@
strategic
strom
tale
tap
tasarru@@
tech@@
tene@@
them@@
tle@@
tou@@
tour
tte@@
tw@@
tzvet@@
tö@@
umar@@
use
vac@@
vete@@
via
villa@@
war
wn
wr@@
xen@@
xhi@@
yanoviç
yör@@
zen
ırım
36@@
50km
academy
alia
anni@@
anya
athens
australian
auto@@
bedr@@
beer
bes
bond
bour@@
böbre@@
cal
cede
cetin@@
charter
chr@@
colak
cz@@
dare
dedicated
development
dier
diku
distribution
documen@@
dom
drc
dt@@
dzija
düşü@@
eag@@
ece
elef@@
elev@@
ell
ery
estate
evros
fail
fed
fred
georgi@@
ghe@@
ght@@
gjilan
goraz@@
gracan@@
gregor@@
guil@@
hart@@
herzegovina
hum
insi@@
investments
isia
islami
ium
ivancanin
i̇stan@@
jankul@@
kabl@@
kapsay@@
kne@@
konfer@@
kân@@
laku
lence
lick
lie@@
live
lla
luc@@
lur@@
make
maur@@
mehmed
minu@@
mio@@
mov@@
mula
navig@@
ness
nier
noble
north
novos@@
nr@@
office
olympi@@
ony@@
osce
ose
page
palace
phar@@
phy
platfor@@
popü@@
project
prot@@
queen
rac
rain@@
reu@@
rey
ric
rocky
sche
seli@@
sequ@@
service
shak@@
shkodra
shock
shu@@
silence
skender@@
ski@@
solu@@
sources
srp@@
stantinou
stef@@
stem
steph@@
stock
sup@@
systems
tamp@@
tatlı@@
thy
tian
tours
transil@@
ult
vania
various
vasi@@
vatican
vendos@@
voy
wald
week
william@@
woo@@
yanov
yetler
yez@@
çarşam@@
0kg
100km
18.@@
24@@
27.@@
38.@@
46.@@
5.5
5.6
abol@@
about
adaman@@
ads
alija
appe@@
arm@@
ary
association
automobile
aven@@
bako@@
bartholome@@
bilic
bled
bler@@
bogdan@@
braz@@
brit@@
budapest
bulgarta@@
cag@@
cali
camp@@
canada
capital@@
cent
cham@@
christop@@
clos@@
col
colum@@
cri@@
croft
cruise
cut@@
denk@@
det@@
details
deut@@
dic@@
distribu@@
dju@@
dl
dmit@@
doku@@
duc@@
dz
eastern
eh@@
eker
elektron@@
eniz
espe@@
exp@@
fan
fantas@@
feu@@
fro@@
georgia
gers
gert
giz
globe
greek
guenter
gure@@
göğ@@
hac
hadz@@
hang
holdings
how
hua
ihra@@
ill@@
imkân@@
industries
iou
iriz
ith
iyas
jah@@
jankovic
jap@@
joz@@
kic@@
klau@@
ktu
kul
kuyu
kıdem@@
lec@@
leden
ledil@@
lex
llo@@
lob@@
log@@
lıktaki
mana@@
management
meksi@@
memle@@
mental@@
metz
middle
mira@@
monit@@
muhal@@
mul@@
musi@@
müre@@
müstak@@
mütevaz@@
nag@@
nak
nei@@
night
nordic
odi@@
offshore
ones
ony
orchestra
pau@@
paz@@
perak@@
pers
pers@@
pharmaceuticals
pipeline
play@@
poll
popül@@
premi@@
pres
prije@@
privre@@
problem
prom
promo@@
rell
review
rich
romanian
run
side
silay@@
snow
software
soon
space
spar@@
spir@@
sports
spre@@
sten@@
stephan@@
super@@
suza
system
technologies
tela@@
that
toral
tore
turnu@@
underground
univer@@
veterin@@
virtual
visit
vojvodina
wild
wind
without
yard
yıldön@@
zeng@@
zvez@@
â
ë@@
û@@
üt
ıyan
şidde@@
şori
б@@
.gr
1.8
2.7
3.8
50m
8.5
=
aat
agen@@
aks
alem
aley@@
alis@@
ami
any@@
arab
arti@@
ash
ath
aut@@
band
banker
bara
bayra@@
bg
big@@
bilgisay@@
black@@
blood
boys
brez@@
brov@@
café
challenge
christi@@
communications
constanta
core
cra
dave@@
david@@
deb@@
defender
diyar@@
dner
doje
down
doğal@@
drin@@
due
düny@@
ege@@
end
eyal@@
fam@@
fare
fazlas@@
fdi
finance
formula
future
german
geti@@
gheorg@@
gian
gold
hand
happy
hax@@
hearing
herze@@
hic@@
hij@@
icic
iftir@@
ign@@
iljana
inska
inste@@
ioannis
istihda@@
ital
kac
karadz@@
kazak@@
kom
kongr@@
konstan@@
kont@@
kot
ktor
ktör
kuve@@
lack
land@@
leasing
legi@@
lies
liz@@
loc@@
long
lus
m.
malm@@
mani@@
massa@@
maş@@
mbo
mesic
mexico
micha@@
more@@
mou@@
mp
muhteş@@
nico@@
nolo@@
nut@@
nüf@@
oce@@
omi
onic
orphan@@
ouli@@
ovina
parlamen@@
partner@@
people
peter@@
policy
popovic
portugal
presti@@
pride
qi
radul@@
ress
ruecker
rush@@
röpor@@
scal@@
scho@@
shar@@
sinc@@
slobo@@
stir@@
subo@@
sul
sutan@@
syri@@
tane@@
team
teur
they
think
thor@@
tive
tizm
tko
tral@@
tron@@
true
tum@@
ukrayn@@
unit
unla
uring
ush@@
ves
vest@@
victor@@
vie@@
viz
water@@
wh
ww@@
yetinde
yil@@
yugoslav@@
yuvar@@
zvet@@
çeyrek@@
é
ý@@
0.5
1,000
1.9
10m
199@@
2.2
30km
4.7
abri@@
absor@@
acquis
activ@@
ader
airport
alkal@@
anad@@
anke@@
arts
ask
ass
asse@@
associates
asto
astri@@
atis
aug@@
aus@@
auto
azer@@
aşa
balkans
beijing
beqaj
berel@@
best@@
bill@@
bing@@
black
blu@@
book@@
bratis@@
break
bytyci
cay
cee@@
cell
christmas
chry@@
communication
control
crow@@
deal
defa@@
did
dikk@@
dilik
dist@@
drag
earth
econ@@
edik
efa
ember
ems
engineering
ensemble
ergen@@
etbegoviç
fair
faith
far
feren@@
ferry
fish
fizi@@
form
formal@@
four@@
friends
ful@@
gabri@@
galla@@
ghts
girl
giu@@
gji@@
gligor@@
golden
got
gsy@@
hafif@@
haradinaj
hass@@
hemşi@@
hop
house@@
hr
human
illu@@
imen@@
inanın
indian
initiative
inovo
intelligence
into
ish
isin@@
istanbul
istani
ive@@
jim@@
jug
just
kers
konjic
korea
koste@@
kran@@
kuman@@
label@@
libr@@
liter@@
love
lüksem@@
mace@@
macedonian
magaz@@
mall
master
merke@@
mh@@
millennium
minimal
mme@@
moder@@
moham@@
moldovan
money
mour@@
naum@@
neg@@
next
niksic
nuclear
oglu
oic
oline
orke@@
ory
otopoulos
ous@@
parma@@
planet
plant
polon@@
primor@@
production
proto@@
quar@@
rami
rami@@
rap
reaching
rekabe@@
revol@@
revski
rid
roc@@
rokas@@
roll
room
rud@@
samu@@
schwarzen@@
second
seven@@
sevo
shall
shop
sibi@@
sil
sile
siy@@
skan@@
sle@@
slov@@
soc@@
somal@@
soul
sound
sour@@
sparks
sport
stambol@@
sure@@
sürec@@
tali@@
tartı@@
ted
termin@@
termo@@
terz@@
tesa
tho@@
trading
trage@@
trebin@@
tree
under
varn@@
verit@@
vlah@@
vou@@
wells
wer
whe@@
whel@@
wire
zarf@@
zv@@
°
ë
şof@@
š@@
2.4
28.@@
3.6
3.7
3m
4.3
5.8
5.9
5m
6.4
\
abdul@@
ace
act
advis@@
afgan@@
afri@@
aga
agents
agreement
agro@@
ake
alkalaj
alum@@
ance
anima@@
architecture
arnav@@
asy@@
atat@@
atmos@@
atomstro@@
attack
azerbay@@
bag
bail
baltic
basic
bastian
before
benedict
bern@@
besi@@
book
brd
broad@@
brother
brus@@
cau@@
chemical
child
children
chrome
chron@@
cinema
cko
clinical
comp@@
coop@@
coun@@
croati@@
cru@@
danka
davut@@
dean
defence
dela@@
destro@@
dete@@
dian
diesel
djordje
dutch
easy
ech
eld
electricity
electronics
element
emper@@
epide@@
erg@@
erlik
esku
eth@@
ever
facto
family
feld
festiv@@
finland
fortune
fusion
game
gener@@
ging
gjerg@@
glu
good@@
great
gren@@
grew
gula@@
hajredin
handi@@
hemşir@@
hid
holo@@
honey
hope
hyseni
hüküme@@
ice@@
ids
illusion
image
index
insurance
inven@@
investi@@
ior@@
isch@@
italy
iyat
işa
işar@@
i̇zz@@
jud@@
kasıt@@
kett
kno@@
kranj@@
kwh
lab
lahu
lic@@
lier
ligh@@
limited
lion
ljubo@@
lot@@
mad
manu@@
mask
medium
memoran@@
mers
micic
ming
mitic
mitre@@
mro
nakov
nee@@
netherlands
networks
nezavis@@
nic
nor
obradovic
oc
oco@@
oke
operation
operator
orien@@
ort
oth@@
our@@
ovi@@
oğu
papa@@
ped
peti@@
photo
ping
podu@@
popülar@@
posav@@
poster
predi@@
profile
property
public
radio@@
raff@@
ramadan@@
reporter
reporters
resources
rex@@
rif@@
ring
ross
russia
same
saraj@@
scan@@
scar@@
schroeder
sevk@@
shor@@
shori
sian
sic
silaj@@
slovak@@
solar
sonu@@
sor
spirit
spring
srbi@@
staf@@
stars
stop
strike
syn@@
sözcü@@
tadır
tax@@
tekli@@
telecommunications
television
televiz@@
terö@@
tese@@
then@@
theodor@@
ths
tice
tiff
tone
tourism
trade@@
traffic
transport
trig@@
try
two
uf
ultima@@
ultra
valley
verage
vergil@@
vest
veç
vice
village
vse@@
was@@
wash@@
water
wim@@
wis@@
witz
won@@
ys
zanis
zat
çocu@@
çte
ć@@
şamp@@
şehi@@
şova
0mw
1m
2.8
20,000
25m
3.3
3.9
300km
5.3
6.7
@
aca@@
ack
add
adv@@
after
akon@@
aland
amer
americ@@
amin@@
aming
ania
anim@@
ansiye@@
any
anç@@
archi@@
arri@@
artar@@
ation
atlantic
atomic
austrian
avo@@
ayrın@@
bbing
beyon@@
bio@@
blin@@
block
boda
break@@
buff@@
bute
cali@@
carri@@
cas
cement
chenko
ches
chic@@
china
cine@@
cing
ciğ@@
cks
cky
clan
classic
clou@@
cold
condole@@
consul@@
contact
continental
court
cover@@
credi@@
cro
csan@@
ct
cuba
dead
demokra@@
desi@@
dies
digital
direct
distri@@
diyarbak@@
dnevnik@@
doc@@
domir
dral
drum
duygu@@
düzine@@
ear@@
economic
eff@@
egrad
ekono@@
else
ely
emergency
enomen@@
enri@@
equ@@
eric@@
ets
eus@@
evic
evol@@
evre
eşgüdü@@
fashion
fax
fier@@
fif@@
financing
fire
flu@@
fly
force
foreign
forest
frag@@
fru@@
fts
galic@@
ginç
girls
give
goti@@
grant
gy@@
gymn@@
gyp@@
görmez@@
hab@@
haj
hammer
haz
hazi
health
heart
hec@@
helps
hibi@@
holiday
hotels
hoxha
hri
hs@@
hunt
hydro
i.@@
ibrahim
ils
imagine
imti@@
inje
institu@@
ire@@
iron
iski
ism
isn
istian
i̇sviç@@
japan
jele@@
jina
joint
jovanovic
judi@@
justice
kd@@
kea
kings
koci@@
kong@@
kor
korkun@@
kostic
kova@@
krasniqi
kuwait
lagumdzija
lamda
law@@
learning
lene
less
lesser
lic
liko
magazine
manja
mber
megawat@@
mex@@
milanovic
mile@@
milic
millen@@
mirol@@
miros@@
mmer@@
months
morning
movie
muse@@
müca@@
münas@@
natural
nature
ners
nh@@
off@@
oll
onal
only
ops
ordin@@
organisation
ortad@@
panathin@@
parad@@
pel
pip@@
plav@@
poet@@
prede@@
pret@@
pristina
productions
prop@@
race
rafi@@
rain
rama@@
ramp@@
reap
refle@@
reli
rights
road
roads
rose
ruc@@
rw@@
sari
save
savings
sburg
score
sef
seker@@
selan@@
serge@@
seti@@
shap@@
sime@@
simi@@
single
slj@@
sman
sni@@
spi@@
spot
stac@@
state@@
stavro@@
strat@@
strum@@
studies
sub
sue
sıf@@
tag@@
takes
tecav@@
testi@@
there
thes
thew
thro@@
thur@@
tier
til
tion@@
tions
titu@@
tiv
tomis@@
total@@
tour@@
transplant
transylvania
triumph
trol@@
udi
ue
ukray@@
unes@@
urban
ures
vador
vary
venin
viol@@
voices
wasted
wers
what
winter
wireless
woman
won
works
world@@
xin@@
yanı@@
you@@
yürüy@@
yıldı@@
zon
zone
çan
çeli@@
çimen@@
î@@
ó@@
ölçek@@
č@@
ısır@@
şun@@
ž@@
&@@
0.2
1,500
2.3
2m
3.1
3.4
4.1
4.2
4.6
50,000
500m
800m
9.5
^
aar@@
able
acci@@
actions
active
adar
aikos
aire
airports
ai̇h@@
akovic
alive
als
alümin@@
anat@@
anatol@@
anese
artıcı
asgar@@
aspir@@
atu@@
atıf@@
australia
aver@@
aviation
avis
away
back
back@@
bajrami
barri@@
bartholomew
base
bear@@
beat
beat@@
beautiful
belgi@@
bers
better
bias
biome@@
blogger
border
borov@@
boss
brain
brand
brief
broadcasting
bujan@@
but
care
case
cast
cb@@
celsius
ceme@@
cent@@
ces
chy
cker@@
clean@@
click
colle@@
colo@@
come
computer
conne@@
connect
consult
contra@@
cou@@
could
craft
cting
cyril@@
dacic
danimar@@
dark
dau@@
deal@@
death
defense
degrees
dental
depar@@
different
dimit@@
dimitro@@
djor@@
dle
dole@@
domain
down@@
doğrultu@@
dras@@
dub@@
duh
duty
dynamic
dyu@@
dıyla
econo@@
economy
efina
egel
ekonom@@
eks
eleşti@@
emp@@
engen
environmental
erre
ester
every
explo@@
eye@@
facing
facts
fat
fati@@
fec@@
ferit
fight
fire@@
fit
five
forces
forth
found
franco@@
frank@@
frau@@
fuel
fundamental@@
gain
gang
garbage
gau@@
gawat@@
gaş@@
ged
gency
georgian
gest
gies
grap@@
grid
gros@@
guar@@
guard
guin@@
haftal@@
hand@@
harvest
heads
hellen@@
helm
high
hizbul@@
hol
hold
home
home@@
hood
horizon
ifades@@
igh
ign
ikasyon
ike
iki@@
ilazi
ilic
illi@@
illustration
impas@@
india
inet
infor@@
inno@@
intel@@
internation@@
ique
iran
ises
island
ison
italian
itar@@
itor
ive
iyim@@
i̇leti@@
i̇ngil@@
jaf@@
janov
jevic
jic
jus@@
kada@@
kadas@@
karada@@
keys
killed
kinder@@
know
konjikusic
konvan@@
kostelic
kovacevic
kson
kıya
laure@@
lavica
layer
laşa
lers
leu
liap@@
lif@@
light
limit
link
little
lock
log
low@@
lup
mahmoud
maksi@@
mano@@
margin@@
maritime
markets
massive
mcel@@
measures
mendi
meter
methodi@@
miral
miran@@
miss
moil
momc@@
montene@@
motion
mountain
muaz@@
much
muhar@@
muja@@
nal
navigation
neboj@@
ning@@
nothing
number
observatory
oft
oner
ong@@
operative
opoliti@@
opolitik
oral
org
osia
other
ots
oulias
oulos
outlook
ovan
papaconstantinou
paper
paramil@@
party
peraken@@
peri@@
ph
pharmaceutical
phr@@
picture
pictures
pieces
podrav@@
poli
preval@@
produ@@
profesyon@@
profit
progra@@
programme
prol@@
provo@@
qatar
ques
quo
rally
rehabil@@
rela@@
remit@@
remov@@
rene@@
reporting
reserve
resort
response
reti@@
ride
roi
root
rot
rush
sandzak
satellite
schi
sci@@
seas
secret
secure
sej@@
senti@@
serve
served
shake
shut@@
sie@@
sies
simovic
simple
sing
six
skeleton
skin
slam@@
slan@@
slovenia
smeder@@
soccer
sofi@@
sopran@@
soren@@
sorry
spark
speci@@
spo@@
stabil@@
stamp
stay
step
stere@@
stir
stjep@@
store
storm
story
strated
stream@@
struck
sts
sty@@
sula
swi@@
talk
tants
taxi
telecom@@
telecommunication
temperatures
tempor@@
tennis
terdam
than
therine
thes@@
thra@@
tic@@
ties
tish
tling
todo@@
too
translate
transnist@@
transparency
trends
trophy
trust
ua
underworld
ups
urai
ural
usulsüz@@
vanya
varaz@@
vard
vari@@
vec@@
venture
vers
vers@@
victory
viç@@
vjet@@
vot@@
vujanovic
wester@@
wife
wild@@
wind@@
wonderful
work
yardı@@
year
youtu@@
yugos@@
zai
zing
í@@
ğü
şai@@
şampiy@@
şeff@@
şek
şimd@@
г
г@@
#
$
,000
0.1
00km
17th
2.1
2.6
3.2
4.4
4m
5km
7m
9.9
_
above
acti@@
activ
acy
adriatic
against
agenda
agent
ages
aim
akova
aling
alle@@
alogoskoufis
alpine
also
always
ambassador
amount
anah@@
analy@@
analysis
anas@@
anatolia
anch@@
anci@@
ander
angelos
annu@@
annual
antal@@
ants
apartment
appear
arch
ardz@@
arg@@
arini
armenian
around
assigned
ated
ather
atro@@
audio
automotive
awar@@
awards
bai
balan@@
banking
bech@@
become
beledi@@
belgra@@
belief
believe
belç@@
beq@@
berman
bing
bish@@
bishop
boar@@
bogdanovic
boj
bombar@@
books
born
bourgas
box@@
brat@@
brazilian
bread
breaking
brid@@
broadband
broker@@
buil@@
build
bulat@@
bure@@
byty@@
caine
califor@@
calling
castle
cath@@
cell@@
central@@
certain
ceska
cevic
ceza@@
chambers
chance
chiefs
chner
christo@@
christos
cine
circle
civil
cking
classical
clear
clear@@
cler@@
clo@@
closer
commen@@
commer@@
commerce
commun@@
complex
compliance
computers
conference
connection
connects
constru@@
construct
construction
consulting
cont@@
copper
cormack
correspondent
costas
councils
country
country@@
crisis
critical
cross
cross@@
cry
cultural
culture
cumar@@
cypri@@
dalmaç@@
danu@@
dation
dden
decis@@
declared
ded
deep
defi@@
defin@@
democratic
dervis@@
design
desperate
dest@@
deta@@
detec@@
dic
ding
dire
diren
discovery
djan
djankov
dog
dows
drav@@
dream
ees
efe@@
effort
eight
elements
elite
emirates
emo@@
endüstri@@
enje
enna
enterprise
enterprises
eph
ering
ess
eupoliti@@
eurov@@
eus
even
evening
exchange
exchanges
expan@@
exploration
face
face@@
faces
faith@@
fall
feet
fenerbah@@
ffe@@
fias
figh@@
flying
foods
fore@@
forever
former
foster
fou@@
foun@@
frozen
fugitive
fule
funda@@
geo@@
gerçe@@
gest@@
get
gia
giani
giti@@
glas@@
glass
gle
gnite
goe@@
gone
goog@@
government
grave
grey
group@@
groups
grow@@
gue
gue@@
guer@@
gues
guest
guez
guide
gulf
gıcı
happiness
harm@@
hate
head
head@@
heav@@
helsin@@
hepi
herce@@
hes
hey
high@@
hika@@
hist@@
history
hole
holocaust
homes
hub
human@@
humph@@
hurriyet
hyper@@
iae@@
ics
idar
ikat@@
ild
ily
imar@@
immigrants
incorpor@@
indj@@
indu@@
ines
initi@@
inside
institution
integrated
integration
investors
inye
irs
isen
isla@@
islamist
issue
ization
i̇h
i̇kti@@
i̇liş@@
jacqu@@
jaga
janovic
jasen@@
jkovic
journey
june
junior
jutarn@@
juven@@
kablos@@
kalab@@
karg@@
keeper
kic
kick
kill
know@@
knowledge
kolu@@
korid@@
kosovar
kostun@@
krem@@
kullaku
kyr@@
landa
lands
lands@@
last
lasyonu
lemi@@
library
lions
lish@@
lives
long@@
look
lost
lovic
low
lower
lucky
lul
lux@@
mach@@
madri@@
mafia
magic
main
main@@
major
manager
manas@@
manovic
markovic
marovic
mass
masyon
material
medical
meet
meth@@
mic
mihajl@@
milovan@@
minds
minim@@
mining
minister
ministry
minutes
mission
miti@@
mitroviç@@
mix
mold@@
movement
muam@@
mud
muhteme@@
multimedia
müttefi@@
nabuc@@
names
nede@@
never
niha@@
nikolic
nobody
non@@
none
northwestern
november
numbers
nükle@@
obrad@@
ods
olive
ols
omer
onews
oning
opinion
orad
order
oric
osama
osij@@
oslo@@
oslobo@@
oth
oured
ozar
paid
parade
paralle@@
parame@@
paravan@@
parthen@@
partner
pass
pect
pekusic
perceptions
perfect
peris@@
perşem@@
phan@@
phorus
playing
plev@@
pli
poc@@
political
popular
portfol@@
portra@@
posts
poul@@
poulos
pover@@
pping
prayer
prepar@@
prev@@
prince
pris@@
priv@@
professional
proximity
pub@@
public@@
push
put
qui@@
radovan@@
raiffe@@
rail
railways
ramaz@@
ramush
rant
rating
react
read@@
reci@@
record
records
reference
refinery
registry
reiter@@
relief
remember
rena@@
renew
renewable
repor@@
rescu@@
resorts
restitution
return
revolu@@
rich@@
right
rijek@@
ril
ring@@
river
riyet
rub@@
ruins
rules
sale
sali@@
salih@@
saved
saving
scen@@
schwar@@
sciences
scientific
sds@@
securities
segment
separ@@
sex
sex@@
shek@@
shift
shoe
shou@@
should
sion
sion@@
sius
skender
skil@@
sli@@
small
smiljanic
solutions
sorti@@
southeastern
southern
spec@@
speed
squ@@
stadi@@
stadium
stag@@
stage
stik
stojkovic
stran@@
stras@@
strategy
string
style
suspects
sym@@
symbol
sük@@
sürpri@@
tache
tadic
tages
take@@
talks
tatbi@@
techn@@
telekomün@@
telen@@
teşh@@
thi@@
those
thought
threat
three
tigh@@
tile
tilla
tion
together
told
tomic
trafficking
train
transatlantic
travels
truck
trum
tul
ture
türel
ual
udaki
ude
und@@
unity
universi@@
unknown
urk
urs
uru@@
usual
vendosje
vene@@
venezu@@
veter@@
vidu@@
vili@@
villages
visited
viy@@
vuc@@
vukov@@
walk
warn@@
wave
wealth
weather
wedding
weekend
were
when
wiki@@
wikipedi@@
window
wish
with@@
women
word
yed
yers
zburg
zvor@@
zz@@
{
±
º
çevri@@
çıl
ø@@
đ@@
şü@@
р
я
1,0@@
1.5m
10,000
100,000
11th
120,000
12th
14m
150,000
2,000
2,500
2.9
200,000
24th
25,000
3,000
4,000
40,000
400,000
45m
5,000
500,000
60,000
600,000
6m
70m
75m
8,000
80m
8m
9,000
abak@@
abide
abo@@
absur@@
academic
accept
accords
account
achi@@
achim
aching
acon@@
acts
add@@
adriy@@
advantage
advisor
advo@@
aege@@
afax
affair
ager@@
agreed
ahtisa@@
ailing
aims
aircraft
albanians
alert
alexandroupolis
alfa@@
ality
allege@@
alone
along
amateur
ambi@@
amed
ammunition
among
amster@@
ancient
angry
anian
anistan
anlis
anovic
appeal
approaching
arch@@
architec@@
architects
archive
area
argen@@
aries
ario
armed
armen@@
arms
arre@@
artist
asian
assassination
assembly
asset
astase
ataturk
ations
ative
atomstroyex@@
audience
authorities
authority
avier
avlj@@
avoda
baby
bagis
bakoyan@@
bama
barely
barome@@
barometer
barrier
bars
basketball
battle
bbi
beau@@
bed
been
begin
belar@@
bena
bent
beqiri
bette
bic
bid
bid@@
bird
birthday
bitter
blind
bliz@@
blocked
bloody
bogar
bollah
bosni@@
both
bottom
bound
boundaries
boundary
bour
box
brahim
brazil
bridges
briefing
broadcast
bug
bugoj@@
bulatovic
bull@@
bunardz@@
burgas
burning
busines@@
business@@
cable
cade
canadi@@
cannot
cape
cara
career
cargo
carni@@
carriers
carry
cars
cash
catch
catholic
cave
ceausescu
cef
celebr@@
cely
cents
ceric
cern@@
cess@@
chair
challen@@
champ@@
chancellor
charest
chec@@
check
checkpoint
chem@@
chev@@
chief
choice
chos@@
church
cial
cioco@@
circu@@
cite
cities
cked
clash
cle
cles
clinic
closed
coal
coast
coher@@
coin
collection
colon@@
colony
combination
comes
comman@@
commitment
common@@
community
concep@@
conclu@@
condi@@
conferences
conflict
congress
cons@@
consolidation
consortium
constitu@@
consu@@
consultant
consumption
contemporary
contin@@
contr@@
contrast
contributed
copy@@
corporate
corps
count
counter
counting
courtesy
created
crete
cript
cros@@
cruel
ction
ctions
ctor
cts
culovski
customs
cycl@@
cyp@@
cypriot
cül
dabil@@
dair@@
daskal@@
davis@@
debut
dedication
dee@@
defen@@
delay
democrat
demon@@
demonstr@@
deni@@
dent
department
dependency
dering
desig@@
design@@
developing
dialo@@
diary
dictator
died
diff@@
difficult
dikal
dimitrov@@
dinkic
diplomas
diplomatic
diplomats
disappeared
discover
disease
diseases
dish
distributed
djan@@
djel@@
djurovic
dness
dnev@@
documentation
doesn
doff
dollar
dox
dozens
draw@@
dreams
drew
drive
drop
dual
dup
eager
earth@@
ecker
edge
editor
education
effer
electri@@
electrical
elekt@@
eleven
eliza@@
ement
emerging
emigrants
enab@@
enable
enfl@@
engine
ening
enough
ental
enter
entering
environment
eping
equal
equipment
erdogan
ered
esne@@
especially
essen@@
essential
estyle
etbeg@@
ethnic@@
etya
eurob@@
europeans
eval
event
every@@
everyday
everything
exclu@@
exhibition
exhibitions
experience
expert
expor@@
expos@@
expres@@
extra
extre@@
extreme
eyes
facilities
fact
factor
factory
falling
farms
father
fav@@
faz
fbih
fear
features
feed
fem@@
festi@@
fields
fifth
fighter
figures
filar@@
files
filipovic
find
fix
flag
flat
fleet
flour@@
following
foreig@@
formed
formu@@
forward
fourth
frame
frat@@
frc@@
free@@
freezing
fresh
friend@@
ful
function
furt
gaddafi
gate
gayr@@
gement
geno@@
genuine
getting
ggle
giant
gic
gical
gnp
goal
good
govern@@
govic
graduates
grants
graphic
graphy
graves
ground
growth
gsm@@
gui@@
gul
gymnasi@@
gyur@@
gürc@@
gıy@@
hackers
hadzic
hagen
half
halt
hands
hardest
hate@@
health@@
hearts
heating
here
hes@@
heu@@
hide
higher
historian
hita@@
holbro@@
homeland
homeless
honour
horiz@@
hosp@@
how@@
however
huff@@
hungary
ial
ians
ical
icals
icu@@
idea
ideas
iden@@
ideology
ied
iet
ight
ihtila@@
ikalı
iku@@
ilda
iling
illy@@
imag@@
inclusion
incomes
increase
independence
industrial
ineden
inese
iness
infec@@
influence
infrastruc@@
inhabi@@
inher@@
innov@@
innovative
insp@@
inst
intervention
investor
ionian
ious
ipl@@
iranian
isic
ising
ision
istics
itate
itation
ites
itfa@@
itime
itself
iver
ives
ić
jagas
jahjaga
jahor@@
janjic
jar
javno@@
jep@@
jere@@
jewish
jislav
jli
joaqu@@
job
jobs
jocic
jola
josip@@
judge
jum@@
juni@@
jusuf
jut@@
kaid@@
kastr@@
ked
kens
kids
kilome@@
kilowat@@
kind
koalis@@
kobi@@
koc
koha@@
kopen@@
kosanovic
kosovare@@
krali@@
krar
kurdish
kurdistan
kypri@@
kür
kıbr@@
kısı
l-
laboratory
labour
landscape
large
late
lates
launched
layış
leader
leak@@
leban@@
legen@@
legend
legija
lery
lia@@
liam
liberation
licen@@
life@@
lift
lighting
lines
lingu@@
linking
links
literature
lithu@@
living
ljajic
ljup@@
load
loan
lobby
local
logic
longer
looks
luck
luko@@
lutfi
lywood
macedon@@
mack
macro@@
macroeconomic
made
madon@@
magu@@
majority
maker
making
malay@@
manage
manufacturers
many
march
marine
marks
match
matter
matters
mayor
mayors
mean@@
meas@@
medal
medicine
medics
mediterranean
meeting
member
memorandum
mens
ments
merce@@
merchan@@
mere
method
metraj@@
metri@@
micro@@
micros@@
mid
migr@@
mija
mikere@@
military
million
milovanovic
miloş@@
milut@@
mines
mings
minor
missile
missing
miu
mne
models
moderniz@@
mois@@
monas@@
monday
moni
monument
mother
mothers
motorway
move
movies
mr.
multi
municipal
municipalities
musli@@
muslims
mussen
mücade@@
müke@@
napo@@
nations
natur@@
ned
nedjel@@
need
negative
negot@@
nei
neli@@
neliev
newspaper
nexhat
nicho@@
nings
nish
norway
norwegian
oara
obe@@
oblig@@
observe
occup@@
october
ody
offici@@
officially
oin
olig@@
ologists
ology
olymp@@
olympiad
oms
operational
operations
opin@@
opportunity
ordje
ories
orig@@
ority
others
outlined
overcome
owat@@
owners
package
pact
pages
pah@@
paint@@
palest@@
panath@@
papuli@@
parliamen@@
parliament
part
participants
partnership
partnerships
pasha
past
path
pea@@
penet@@
peninsula
pensioners
pensions
perfor@@
person
personal
pey
phone
phot@@
photo@@
photos
pianist
pie@@
piebal@@
pipel@@
places
planes
player
plays
plen@@
plun@@
poet
poets
poin@@
policeman
polish
politic@@
polo
popu@@
portugu@@
pose
positi@@
position
positive
poto@@
pow@@
power@@
poziti@@
practical
prague
predict
premiere
premis@@
pretty
price
print
prise
privatisation
prize
priştin@@
problems
proceedings
process
processes
processing
products
professor
prog@@
progressive
projects
promotion
pron@@
prospect
protest
protocol
proud
provi@@
province
provincial
provoke
prv@@
psy@@
publications
pula@@
pum@@
pump
push@@
puy
pyramid
quality
quarter@@
quest
quic@@
radic
radical
radovanovic
railway
rains
raise
rapid
rate
ration
reach
reached
ready
realita@@
reas@@
reasonable
reconstruction
recy@@
redin
redu@@
ree
referan@@
referendum
regard
regards
regi@@
region
reinf@@
reintegration
religion
remained
remarks
remember@@
remin@@
rent
reporter@@
repub@@
republi@@
requi@@
reserves
residents
resm@@
resolution
restaur@@
revi@@
revolution
reş
rho@@
rhyth@@
rings
rle
road@@
rocket
roganovic
rooms
route
rule
safer
sales
sandal@@
santa
sarkoz@@
satur@@
saudi
scale
scene
schol@@
school@@
schools
scientist
scor@@
screen
scul@@
sday
sear@@
searching
seaside
seat
secu@@
secured
seek@@
seem
sein
selj
sell
senior
september
servan@@
session
sessions
setimes@@
sets
several
shape
share
share@@
sharp
she
shel@@
ship
ship@@
shipping
shorter
show@@
sider@@
sides
sif
sigh@@
silent
silver
simic
simp@@
simul@@
singapore
singer
sings
sive
skilled
slim
slop@@
sme@@
smoke
smoking
sna@@
soci@@
social
soft
sole
solidarity
solution
some
someone
something
song
songs
sors
source
southwest
speaker
spent
spiri@@
spirit@@
sporting
stability
stambolic
states
stati@@
station
stay@@
stein@@
steinme@@
still
sting
stock@@
stolen
stores
stories
streets
stric@@
stron@@
struggle
struggling
stum@@
successor
sud@@
sugar
suggest
summit
suppliers
surely
surge@@
surgery
survey
surviv@@
sustainable
swift
swiss
syrian
sızın
table
tain
tain@@
tainment
talent
talking
tancy
tanovic
tant
tary
tations
td
teac@@
team@@
techni@@
technological
tect
teen
teen@@
tekar@@
teknolo@@
tells
tels
temper@@
temperature
tender
tent
teral
tered@@
terran@@
terrorist
terrorists
text
teç@@
thank
thea
their
theme
theory
thers
these
thessalon@@
thessaloniki
thin@@
thing
thir@@
thous@@
thouse
through
thum@@
thur
tics
tiho@@
time@@
tional
tious
tiv@@
tivar
tives
tomb
tomorrow
tops
total
totally
touch
tough
tourist
tower
training
trajkovic
transa@@
transformation
transition
transmission
transyl@@
trave@@
travel@@
trials
trim
tris
trou@@
truly
try@@
tual
tuesday
tune
turned
twice
twit@@
ulli
uluş
unac
understand
unexpected
unil@@
unveiled
uses
ustos
ute
utin
valid
vals
variety
vehicles
vement
venkovski
version
veteran
veçli
viatis
vienna
view
vil
vince
violence
violent
visions
vital
volun@@
voluntar@@
voulgarakis
vukcevic
vukovic
walls
want
warsaw
was
watch@@
waters
wav@@
waves
ways
wed
welfare
went
wheat
where
which
while
will@@
winner
witnesses
wonder
wonder@@
worked
workshop
worl@@
worldwide
worry
wrestler
write
xvi
yach@@
yanu
yes
yex@@
youn@@
your
your@@
yugoslavia
yır
zealand
zed
zoo
zuz@@
zynski
zır@@
zırh@@
}
©
ª@@
½
¾
á@@
ã
çav@@
çerç@@
çün@@
è@@
ï
ð
ñ@@
şid@@
μ@@
а@@
и@@
л
л@@
р@@
у@@
х
ъ@@
